{
  "version": "1.0",
  "truncation": null,
  "padding": null,
  "added_tokens": [
    {
      "id": 0,
      "content": "<|endoftext|>",
      "single_word": false,
      "lstrip": false,
      "rstrip": false,
      "normalized": false,
      "special": true
    }
  ],
  "normalizer": null,
  "pre_tokenizer": {
    "type": "ByteLevel",
    "add_prefix_space": false,
    "trim_offsets": true,
    "use_regex": true
  },
  "post_processor": {
    "type": "ByteLevel",
    "add_prefix_space": true,
    "trim_offsets": false,
    "use_regex": true
  },
  "decoder": null,
  "model": {
    "type": "BPE",
    "dropout": null,
    "unk_token": null,
    "continuing_subword_prefix": null,
    "end_of_word_suffix": null,
    "fuse_unk": false,
    "byte_fallback": false,
    "ignore_merges": false,
    "vocab": {
      "<|endoftext|>": 0,
      "!": 1,
      "\"": 2,
      "#": 3,
      "$": 4,
      "%": 5,
      "&": 6,
      "'": 7,
      "(": 8,
      ")": 9,
      "*": 10,
      "+": 11,
      ",": 12,
      "-": 13,
      ".": 14,
      "/": 15,
      "0": 16,
      "1": 17,
      "2": 18,
      "3": 19,
      "4": 20,
      "5": 21,
      "6": 22,
      "7": 23,
      "8": 24,
      "9": 25,
      ":": 26,
      ";": 27,
      "<": 28,
      "=": 29,
      ">": 30,
      "?": 31,
      "@": 32,
      "A": 33,
      "B": 34,
      "C": 35,
      "D": 36,
      "E": 37,
      "F": 38,
      "G": 39,
      "H": 40,
      "I": 41,
      "J": 42,
      "K": 43,
      "L": 44,
      "M": 45,
      "N": 46,
      "O": 47,
      "P": 48,
      "Q": 49,
      "R": 50,
      "S": 51,
      "T": 52,
      "U": 53,
      "V": 54,
      "W": 55,
      "X": 56,
      "Y": 57,
      "Z": 58,
      "[": 59,
      "\\": 60,
      "]": 61,
      "^": 62,
      "_": 63,
      "`": 64,
      "a": 65,
      "b": 66,
      "c": 67,
      "d": 68,
      "e": 69,
      "f": 70,
      "g": 71,
      "h": 72,
      "i": 73,
      "j": 74,
      "k": 75,
      "l": 76,
      "m": 77,
      "n": 78,
      "o": 79,
      "p": 80,
      "q": 81,
      "r": 82,
      "s": 83,
      "t": 84,
      "u": 85,
      "v": 86,
      "w": 87,
      "x": 88,
      "y": 89,
      "z": 90,
      "{": 91,
      "|": 92,
      "}": 93,
      "~": 94,
      "¡": 95,
      "¢": 96,
      "£": 97,
      "¤": 98,
      "¥": 99,
      "¦": 100,
      "§": 101,
      "¨": 102,
      "©": 103,
      "ª": 104,
      "«": 105,
      "¬": 106,
      "®": 107,
      "¯": 108,
      "°": 109,
      "±": 110,
      "²": 111,
      "³": 112,
      "´": 113,
      "µ": 114,
      "¶": 115,
      "·": 116,
      "¸": 117,
      "¹": 118,
      "º": 119,
      "»": 120,
      "¼": 121,
      "½": 122,
      "¾": 123,
      "¿": 124,
      "À": 125,
      "Á": 126,
      "Â": 127,
      "Ã": 128,
      "Ä": 129,
      "Å": 130,
      "Æ": 131,
      "Ç": 132,
      "È": 133,
      "É": 134,
      "Ê": 135,
      "Ë": 136,
      "Ì": 137,
      "Í": 138,
      "Î": 139,
      "Ï": 140,
      "Ð": 141,
      "Ñ": 142,
      "Ò": 143,
      "Ó": 144,
      "Ô": 145,
      "Õ": 146,
      "Ö": 147,
      "×": 148,
      "Ø": 149,
      "Ù": 150,
      "Ú": 151,
      "Û": 152,
      "Ü": 153,
      "Ý": 154,
      "Þ": 155,
      "ß": 156,
      "à": 157,
      "á": 158,
      "â": 159,
      "ã": 160,
      "ä": 161,
      "å": 162,
      "æ": 163,
      "ç": 164,
      "è": 165,
      "é": 166,
      "ê": 167,
      "ë": 168,
      "ì": 169,
      "í": 170,
      "î": 171,
      "ï": 172,
      "ð": 173,
      "ñ": 174,
      "ò": 175,
      "ó": 176,
      "ô": 177,
      "õ": 178,
      "ö": 179,
      "÷": 180,
      "ø": 181,
      "ù": 182,
      "ú": 183,
      "û": 184,
      "ü": 185,
      "ý": 186,
      "þ": 187,
      "ÿ": 188,
      "Ā": 189,
      "ā": 190,
      "Ă": 191,
      "ă": 192,
      "Ą": 193,
      "ą": 194,
      "Ć": 195,
      "ć": 196,
      "Ĉ": 197,
      "ĉ": 198,
      "Ċ": 199,
      "ċ": 200,
      "Č": 201,
      "č": 202,
      "Ď": 203,
      "ď": 204,
      "Đ": 205,
      "đ": 206,
      "Ē": 207,
      "ē": 208,
      "Ĕ": 209,
      "ĕ": 210,
      "Ė": 211,
      "ė": 212,
      "Ę": 213,
      "ę": 214,
      "Ě": 215,
      "ě": 216,
      "Ĝ": 217,
      "ĝ": 218,
      "Ğ": 219,
      "ğ": 220,
      "Ġ": 221,
      "ġ": 222,
      "Ģ": 223,
      "ģ": 224,
      "Ĥ": 225,
      "ĥ": 226,
      "Ħ": 227,
      "ħ": 228,
      "Ĩ": 229,
      "ĩ": 230,
      "Ī": 231,
      "ī": 232,
      "Ĭ": 233,
      "ĭ": 234,
      "Į": 235,
      "į": 236,
      "İ": 237,
      "ı": 238,
      "Ĳ": 239,
      "ĳ": 240,
      "Ĵ": 241,
      "ĵ": 242,
      "Ķ": 243,
      "ķ": 244,
      "ĸ": 245,
      "Ĺ": 246,
      "ĺ": 247,
      "Ļ": 248,
      "ļ": 249,
      "Ľ": 250,
      "ľ": 251,
      "Ŀ": 252,
      "ŀ": 253,
      "Ł": 254,
      "ł": 255,
      "Ń": 256,
      "§Ø": 257,
      "Ø§Ø": 258,
      "Ø±": 259,
      "Ø©": 260,
      "ĠØ": 261,
      "ÙĦ": 262,
      "ÙĦÙ": 263,
      "Ø¯": 264,
      "§ÙĦÙ": 265,
      "Ùģ": 266,
      "ħÙ": 267,
      "Ø¹": 268,
      "ĠØ§ÙĦÙ": 269,
      "Ø¨": 270,
      "ÙħÙ": 271,
      "Ùĥ": 272,
      "Ùĩ": 273,
      "ÙĤ": 274,
      "ħØ": 275,
      "ĪØ": 276,
      "ĬØ": 277,
      "ªØ": 278,
      "ÙĬØ": 279,
      "ĠØ£": 280,
      "ÙĪØ": 281,
      "ĠÙģ": 282,
      "ĠÙħÙ": 283,
      "ĬØ©": 284,
      "ÙħØ": 285,
      "ĨØ": 286,
      "Ø§Øª": 287,
      "ĬÙ": 288,
      "ĪÙ": 289,
      "ĠØ¹": 290,
      "ĠÙģÙ": 291,
      "ªÙ": 292,
      "Ø³": 293,
      "ĠÙģÙĬ": 294,
      "ĠØ¨": 295,
      "ÙĬØ©": 296,
      "ØĮ": 297,
      "ĠÙħÙĨ": 298,
      "ĠÙĪØ": 299,
      "ÙĬÙ": 300,
      "ĠÙĦ": 301,
      "ØŃ": 302,
      "Ø£": 303,
      "ÙĦÙī": 304,
      "ÙĪÙ": 305,
      "ĠØ£Ù": 306,
      "Ø·": 307,
      "ĠÙħØ": 308,
      "ÙĨØ": 309,
      "Ø§Ø±": 310,
      "ĠØ¥": 311,
      "ØªÙ": 312,
      "ÙĩØ": 313,
      "ĠÙĥ": 314,
      "Ø¬": 315,
      "ÙĦØ£": 316,
      "Ø¯Ù": 317,
      "ØªØ": 318,
      "Ø±Ù": 319,
      "§ÙĦØ£": 320,
      "ĠØªØ": 321,
      "ĠØ§ÙĦÙħØ": 322,
      "ĬØ±": 323,
      "Øµ": 324,
      "ĠØ§ÙĦØ£": 325,
      "ĠØª": 326,
      "ħØ¹": 327,
      "Ø§Ø³": 328,
      "ĠÙĬØ": 329,
      "ÙĩÙ": 330,
      "Ø®": 331,
      "Ø´": 332,
      "ĠØ¹ÙĦÙī": 333,
      "ÙĬÙĨ": 334,
      "ÙĦØ¹": 335,
      "Ø±Ø": 336,
      "ĠØĮ": 337,
      "ÙĬØ±": 338,
      "ÙĦØ¨": 339,
      "ĠØ£ÙĨ": 340,
      "§ÙĦØ¹": 341,
      "ÙĦØŃ": 342,
      "ĠÙĤ": 343,
      "Ø«": 344,
      "ÙĪÙĨ": 345,
      "Ùĭ": 346,
      "Ø§Ø¡": 347,
      "ĠØŃ": 348,
      "ĠØ§ÙĦÙħÙ": 349,
      "Ø°": 350,
      "Ø§Ø¯": 351,
      "ĠØ§ÙĦØ¹": 352,
      "ĬØ¯": 353,
      "Ø§Ø¨": 354,
      "ĪÙĦ": 355,
      "ĠØ³": 356,
      "§ÙĦØŃ": 357,
      "ÙĩØ§": 358,
      "§ÙĦØ¨": 359,
      "ÙĦØ³": 360,
      "ÙĦÙĥ": 361,
      "Ø¶": 362,
      "ĠØ¬": 363,
      "ÙħØ¹": 364,
      "ĨÙ": 365,
      "ĪØ±": 366,
      "ĠØ§ÙĦØŃ": 367,
      "Ø§Ø¹": 368,
      "ÙħØ§": 369,
      "Ø§Ø¦": 370,
      "ĠØ¥ÙĦÙī": 371,
      "Ø±ÙĬ": 372,
      "Ø¥": 373,
      "ĠÙĪØ§": 374,
      "ÙĦØªÙ": 375,
      "ĠÙĦÙ": 376,
      "ĠØ§ÙĦØ¨": 377,
      "ĠØ§ÙĦÙħ": 378,
      "ÙĦØ©": 379,
      "ĠÙħØ¹": 380,
      "§ÙĦØ³": 381,
      "ĠÙĩÙ": 382,
      "ÙĪÙĦ": 383,
      "ĠØ§ÙĦØ³": 384,
      "Øº": 385,
      "Ø²": 386,
      "ĬÙħÙ": 387,
      "ÙĩØ°": 388,
      "ÙĦØ¬": 389,
      "ĠØ¹Ù": 390,
      "§ÙĦØªÙ": 391,
      "ĥÙ": 392,
      "ÙĦØªØ": 393,
      "ÙĨÙ": 394,
      "ĠØ§ÙĦØªÙ": 395,
      "ÙĬØ§": 396,
      "ħØ©": 397,
      "ĠÙĩØ°": 398,
      "Ø§ÙĦÙ": 399,
      "ĬØ¹": 400,
      "ĠØ®": 401,
      "ĬÙĦ": 402,
      "ĠØ¯": 403,
      "ĠØ£ÙĪ": 404,
      "§Ùģ": 405,
      "ĠÙĥØ": 406,
      "Ø§ØŃ": 407,
      "ĠØ§ÙĦÙĤ": 408,
      "Ġ(": 409,
      "§ÙĦØ¬": 410,
      "Ø¯Ø": 411,
      "ĥÙĨ": 412,
      "ħÙĦ": 413,
      "ĬÙĥ": 414,
      "§ÙĦØªØ": 415,
      "ÙĦØ¥": 416,
      "ÙĪØ±": 417,
      "ÙĦØ·": 418,
      "ªÙħ": 419,
      "ÙĬÙħÙ": 420,
      "ĪÙĤ": 421,
      "§ÙĤ": 422,
      "ĠØ¹ÙĨ": 423,
      "ÙĨØ§": 424,
      "Ø§Ø¬": 425,
      "ĠØ§ÙĦØ¬": 426,
      "Ġ1": 427,
      "ĠØ´": 428,
      "ªØ±": 429,
      "Ø¯Ø©": 430,
      "ĪØ¹": 431,
      "Ø¨Ù": 432,
      "ÙĦØµ": 433,
      "ĬÙĤ": 434,
      "ĠØ§ÙĦØªØ": 435,
      "ħØ±": 436,
      "ĠØ§ÙĦØªÙĬ": 437,
      "ĠÙĬÙħÙ": 438,
      "ĠØ§ÙĦÙĥ": 439,
      "ÙĦØ®": 440,
      "ÙĦØ´": 441,
      "§ÙĦØ¥": 442,
      "ĠÙĥØ§": 443,
      "ÙħÙĦ": 444,
      "ĬÙģ": 445,
      "ĠÙĬÙħÙĥÙĨ": 446,
      "§ÙĦØ·": 447,
      "Ø¯Ø§": 448,
      "ÙĬØ¯": 449,
      "ĬÙĨ": 450,
      "ĠØ§ÙĦØ·": 451,
      "ªØ¹": 452,
      "ĠÙĦØ": 453,
      "§ÙĦØµ": 454,
      "ĠØ§ÙĦØ¥": 455,
      "ĪÙģ": 456,
      "ĠØ§ÙĦÙģ": 457,
      "ÙĦØ°": 458,
      "ĠÙĨØ": 459,
      "ĠØ§ÙĦØµ": 460,
      "§ÙĦØ´": 461,
      "Ġ-": 462,
      "§ÙĦØ®": 463,
      "ØªØ®": 464,
      "ĠÙĪØ§ÙĦÙ": 465,
      "ĠØ§ÙĦØ®": 466,
      "ĠØ§ÙĦÙĨ": 467,
      "Ø§Ùģ": 468,
      "ĠØ§ÙĦØ´": 469,
      "§ÙĦØ°": 470,
      "ĠØ°": 471,
      "ÙĦØ¯": 472,
      "ªØ¨": 473,
      "ĠØ§ÙĦØ°": 474,
      "ĪØ¨": 475,
      "Ġ2": 476,
      "ÙĩÙħ": 477,
      "ĠØ§Ø³": 478,
      "ĠÙĩÙĪ": 479,
      "ÙĬÙģ": 480,
      "ĠØ·": 481,
      "ĠØº": 482,
      "ĬØ§Øª": 483,
      "Ø±Ø©": 484,
      "ÙħØ©": 485,
      "Ø¯Ùħ": 486,
      "ĠÙħØ§": 487,
      "ªÙĤ": 488,
      "ÙĦØº": 489,
      "ĠØ±": 490,
      "ĪÙĦÙ": 491,
      "ÙĬÙĤ": 492,
      "ØªØ±": 493,
      "ÙĬÙĥ": 494,
      "ĠØªØŃ": 495,
      "ÙĪØ§": 496,
      "ĠÙĦØ§": 497,
      "ĠØµ": 498,
      "Ø¯ÙĬØ¯": 499,
      "Ø§Øµ": 500,
      "ÙĥÙĦ": 501,
      "ĠÙĩ": 502,
      "ÙĦØ±": 503,
      "ĠÙĥØ§Ù": 504,
      "ĠÙĩØ°Ø": 505,
      "ĠÙĩØ°Ø§": 506,
      "ÙĨØª": 507,
      "ÙĬØ¹": 508,
      "ÙħØ±": 509,
      "Ø§ÙĤ": 510,
      "Ø§Ø·": 511,
      "ĠÙĥØ§ÙĨ": 512,
      "ÙĬØ³": 513,
      "Ø±Ø¨": 514,
      "ĠØ¨Ø¹": 515,
      "ĠØ§ÙĦÙħØ¹": 516,
      "Ø±Ø§": 517,
      "ĨÙĬØ©": 518,
      "§ÙĦØ¯": 519,
      "ĠØ¨Ø": 520,
      "Ø±Ø¶": 521,
      "ÙĦÙģ": 522,
      "ĠÙĩØ°Ùĩ": 523,
      "Ø§Ø¶": 524,
      "ĠØ§ÙĦÙĨØ": 525,
      "ĠÙĪÙ": 526,
      "ĠØªØ¹": 527,
      "ĠØ§ÙĦØ¯": 528,
      "Ø§Ø¯Ø©": 529,
      "³Ø": 530,
      "§ÙĦØ±": 531,
      "ĪØ¯": 532,
      "ĪÙĨ": 533,
      "ÙĦÙĬ": 534,
      "ĠØ°ÙĦÙĥ": 535,
      "ÙĤØ©": 536,
      "ĠØªÙ": 537,
      "ÙĥÙ": 538,
      "Ø¸": 539,
      "ĠØ§ÙĦØ±": 540,
      "ØªØ¨": 541,
      "Ø«Ø±": 542,
      "âĢ": 543,
      "Ø¯ÙĬ": 544,
      "ÙĬØ¶": 545,
      "ĠÙĩÙĬ": 546,
      "ÙĦÙħ": 547,
      "«ÙĦ": 548,
      "ĠØªÙĤ": 549,
      "Ø±Ùĥ": 550,
      "ĪÙħ": 551,
      "ĠØªÙħ": 552,
      "ÙĪØ³": 553,
      "Ø§Ø®": 554,
      "ĨØ§": 555,
      "Ø¹Ø©": 556,
      "ÙĨÙĬ": 557,
      "ĠØ£Ùĥ": 558,
      "00": 559,
      "Ø¨ÙĦ": 560,
      "ÙĪÙĤ": 561,
      "ĠÙĤØ¯": 562,
      "Ø¯Ø§Ù": 563,
      "ªÙĥ": 564,
      "ĨÙģ": 565,
      "ÙĦÙĬØ©": 566,
      "ĠÙĬØªÙħ": 567,
      "Ø¨Ø©": 568,
      "ĪÙĥ": 569,
      "ÙĦÙĤ": 570,
      "ÙĨÙĬØ©": 571,
      "ĠÙĪØ§ÙĦ": 572,
      "..": 573,
      "ªÙģ": 574,
      "ĩØ": 575,
      "Ø§Ø±Ø©": 576,
      "ĬØ¨": 577,
      "ØŁ": 578,
      "ªØŃ": 579,
      "ØªØ¹": 580,
      "ĩØ§": 581,
      "Ø°Ø": 582,
      "ÙĦØ§Øª": 583,
      "ÙĬØ§Ù": 584,
      "Ø§Ø²": 585,
      "ĠÙĬÙĥ": 586,
      "ĩÙ": 587,
      "ÙĬÙĦ": 588,
      "Ø°Ø§": 589,
      "ÙĪÙģ": 590,
      "§ÙĦØº": 591,
      "ĠØ¹Ø": 592,
      "ĠØ¹Ø§": 593,
      "Ø±Ùģ": 594,
      "ÙĬØ§Øª": 595,
      "âĢ¬": 596,
      "ĠØ®ÙĦ": 597,
      "ĠÙĬØ¹": 598,
      "Ø¨Ø±": 599,
      "Ġ\"": 600,
      "ĠØ§ÙĦÙĪØ": 601,
      "ĠÙħØ¬": 602,
      "ÙĦØ«": 603,
      "ĠØ®ÙĦØ": 604,
      "ĠØ®ÙĦØ§": 605,
      "ÙĦÙĥÙ": 606,
      "ĠÙħÙĤ": 607,
      "§ÙĦØ«": 608,
      "ÙĬØ±Ø©": 609,
      "ĠØ¨Ø´": 610,
      "ĠØ£Ø³": 611,
      "ĠÙĬØ¬": 612,
      "ĠØªØ³": 613,
      "ÙģØ": 614,
      "Ùı": 615,
      "Ø¯Ø§Ùħ": 616,
      "ĠØ®ÙĦØ§ÙĦ": 617,
      "ÙĦÙĥÙĨ": 618,
      "ĠÙħÙĨØ": 619,
      "ĠÙĬØ³": 620,
      "§Ùĩ": 621,
      "ØªÙĤ": 622,
      "ĠØ§ÙĦØº": 623,
      "ĠÙĩÙĨØ§": 624,
      "ĠØ§ÙĦØ°Ù": 625,
      "âĢ¬âĢ¬": 626,
      "ĠØ§ÙĦØ°ÙĬ": 627,
      "Ø§Ø«": 628,
      "ÙĪÙĦÙ": 629,
      "ĠØ§ÙĦÙħØŃ": 630,
      "ĠÙĤØ¨ÙĦ": 631,
      "Ø¯Ø±": 632,
      "ØªØ®Ø¯Ø§Ùħ": 633,
      "Ùī": 634,
      "ĠØ§ÙĦØ£Ø³": 635,
      "ĠÙĬÙ": 636,
      "Ø±Ùī": 637,
      "ĠÙĦÙĦÙ": 638,
      "ĨØ§Øª": 639,
      "ÙħÙĬØ©": 640,
      "ĠØ§ÙĦØ«": 641,
      "ĠØ¨Ø´ÙĥÙĦ": 642,
      "§ÙĦØ©": 643,
      "ĠØ¥Ø°Ø§": 644,
      "Ø§ÙĦØ©": 645,
      "ĠØ¹ÙĨØ¯": 646,
      "§ÙĨØ": 647,
      "ĪÙĦÙĥÙĨ": 648,
      "ÙĪÙĦÙĥÙĨ": 649,
      "ØªÙģ": 650,
      "ĠÙħØ³": 651,
      "ĠØ§ÙĦÙħØ³": 652,
      "ÙĪØ¨": 653,
      "ĠÙĪÙĦÙĥÙĨ": 654,
      "ĠÙħØ±": 655,
      "ĠÙĥÙĦ": 656,
      "ÙĬÙħ": 657,
      "ĠØ¹Ø§Ù": 658,
      "ÙħÙĨ": 659,
      "ĠØ¹Ø§Ùħ": 660,
      "Ø¢": 661,
      "ÙĦØªØ¹": 662,
      "Ø±ÙĬØ©": 663,
      "ÙĪÙħ": 664,
      "Ø£Ù": 665,
      "Ø±ÙĤ": 666,
      "ĠØªÙĥ": 667,
      "ÙĬØ«": 668,
      "ĠÙĬÙĥÙĪÙĨ": 669,
      "ĠÙħØ«ÙĦ": 670,
      "Ø¦": 671,
      "ĨØ¨": 672,
      "ĠØ£ÙĬØ¶": 673,
      "ĠØºÙĬØ±": 674,
      "ÙħÙĬØ¹": 675,
      "ĠÙĦÙħ": 676,
      "ĬÙħ": 677,
      "ØªÙħ": 678,
      "ĠØªØ´": 679,
      "ĠØ¨ÙĬÙĨ": 680,
      "ĠØ£ÙĥØ«Ø±": 681,
      "®Ø": 682,
      "Ø§Ø©": 683,
      "ÙĨÙģ": 684,
      "Ø³Ù": 685,
      "ªÙĩ": 686,
      "ĠÙĪÙĤ": 687,
      "ĠÙħØŃ": 688,
      "ĠØ§ÙĦÙħÙĨØ": 689,
      "ÙĬØ·": 690,
      "ÙĦØ§Ø³": 691,
      "ÙĪØ¯": 692,
      "Ø§Ø±Ø§Øª": 693,
      "Ø¹ÙĦ": 694,
      "ĠÙĩÙĨØ§Ùĥ": 695,
      "ÙĬØ²": 696,
      "®Øª": 697,
      "ĠØ¶": 698,
      "§Ùĥ": 699,
      "Ø±Ø§Ø¡": 700,
      "ÙĦØ¢": 701,
      "§ÙĦØªØ¹": 702,
      "ĨÙĤ": 703,
      "ĠØ§ÙĦØ£Ù": 704,
      "ĠÙĬØ¬Ø¨": 705,
      "ØªÙĥ": 706,
      "ÙĩØ±": 707,
      "Ø¯Ø¯": 708,
      "§ÙĦØ¢": 709,
      "ÙĦØ±Ø": 710,
      "ĠØ¨Ø¹Ø¶": 711,
      "ÙģØ¶": 712,
      "§ÙĦØ±Ø": 713,
      "ĠØ¨Ø§ÙĦÙ": 714,
      "ªØ¬": 715,
      "ĠØ§ÙĦÙħØ´": 716,
      "ĠØ§ÙĦØ¢": 717,
      "ĠØ§ÙĦØªØ¹": 718,
      "ÙĬØ¬": 719,
      "Ø«ÙĬØ±": 720,
      "ĠØ§ÙĦØ±Ø": 721,
      "ÙħØ§Ù": 722,
      "Ġ20": 723,
      "ØªÙĪÙ": 724,
      "ĠØ²": 725,
      "ÙĪØ¬": 726,
      "ĪØ§ØŃ": 727,
      "Ø·Ø©": 728,
      "ĠØ£ÙĬ": 729,
      "ÙĨØ¨": 730,
      "Ø±Ø¬": 731,
      "Ġ3": 732,
      "ĪØ¬": 733,
      "ªØ§Ø¨": 734,
      "ĪØ¹Ø©": 735,
      "®ØªÙĦÙģ": 736,
      "Ø¨Ø¨": 737,
      "ÙĤÙĬÙĤ": 738,
      ").": 739,
      "Ø®Øµ": 740,
      "Ø±ÙĪ": 741,
      "ÙĦÙĬÙĦ": 742,
      "ÙĪÙĬØ©": 743,
      "ĠØ§ÙĦÙħÙĤ": 744,
      "ĠØ«": 745,
      "Ø¨ÙĬ": 746,
      "ĠÙĬÙĤ": 747,
      "ħØ§Ø±": 748,
      "Ø¹Ø": 749,
      "Ø®Ø±Ùī": 750,
      "ÙĬØª": 751,
      "ĠØ¹ÙĨØ¯ÙħØ§": 752,
      "ĠÙģÙĤ": 753,
      "ĨØ¯": 754,
      "ĠØ¨Ù": 755,
      "Ø§Ø¦Ù": 756,
      "Ø¥Ù": 757,
      "ĨØ©": 758,
      "§ÙĦÙĬ": 759,
      "ĠÙĬØŃ": 760,
      "ÙĥØ": 761,
      "ĠØ¨Ø¹Ø¯": 762,
      "ÙĬØ¨": 763,
      "ÙĪØ§ØŃ": 764,
      "Ø§Ø¦ÙĬØ©": 765,
      "Ø§ÙģØ©": 766,
      "ØŃØ©": 767,
      "ØªØŃ": 768,
      "ÙĪØ¹": 769,
      "ÙĬØŃ": 770,
      "ÙĦÙĬØ": 771,
      "ĠØ¬ÙħÙĬØ¹": 772,
      "Ø£ÙĨ": 773,
      "Ø±Ø§Ø³": 774,
      "Ø¯ÙĪ": 775,
      "ĠØ¢": 776,
      "ĠÙĪØ£": 777,
      "ÙĬØ¦": 778,
      "Ø¥ÙĨ": 779,
      "Ø±ÙĬÙĤ": 780,
      "Ùĳ": 781,
      "ÙĦÙĪÙħ": 782,
      "ĠÙĪØ§ØŃ": 783,
      "ÙĦØ§ÙĤ": 784,
      "ħØ§": 785,
      "ĠØ³Ù": 786,
      "ĠÙħØ´": 787,
      "Ø¨Ø": 788,
      "ÙĦØ²": 789,
      "ªØ¯": 790,
      "ÙĪÙĬ": 791,
      "Ġ19": 792,
      "ÙģØ§": 793,
      "ÙħÙĬ": 794,
      "ÙĦØ§Ø¬": 795,
      "ĠÙĥÙĬÙģ": 796,
      "ÙħØ¬": 797,
      "ĠÙģØ¥ÙĨ": 798,
      "ĠÙĥØ§ÙĨØª": 799,
      "ĠØ§ÙĦØ¹Ø§ÙĦÙ": 800,
      "ĠØ§ÙĦÙħØ¬": 801,
      "ÙĬÙĬÙĨ": 802,
      "ÙĪÙĥ": 803,
      "ĠÙĪØªØ": 804,
      "ĠÙĥØ¨": 805,
      "ØªØ®Ø¯Ùħ": 806,
      "ÙĨÙĤ": 807,
      "ÙħØ³": 808,
      "ÙĦØ¶": 809,
      "ĠØ£Ø¹": 810,
      "Ø§Ø´": 811,
      "ĠÙĪØ¬": 812,
      "ĠC": 813,
      "Ø®Ø±": 814,
      "§ÙĦØ§Øª": 815,
      "¸Ø": 816,
      "Ø°ÙĦÙĥ": 817,
      "er": 818,
      "ÙĦØ§Ø¨": 819,
      "ĠØªÙĥÙĪÙĨ": 820,
      "ĨØ§Ø¡": 821,
      "Ø§Ø¹Ø©": 822,
      "Ø¹Ø§": 823,
      "§ÙĦØ§Ø³": 824,
      "ĪÙĤØ¹": 825,
      "ÙĥØ§": 826,
      "ØµÙĦ": 827,
      "§ÙĦØ¶": 828,
      "ĠØ§ÙĦØ³Ù": 829,
      "ĠS": 830,
      "ĠØ§ÙĦØŃÙ": 831,
      "Ø§Ø°": 832,
      "ĠØªØ¬": 833,
      "ĠØ§Ø³ØªØ®Ø¯Ø§Ùħ": 834,
      "Ø³Ø©": 835,
      "ĠØ§ÙĦØ§Ø³": 836,
      "ĠØ¨Ø³": 837,
      "Ø§ÙĦØ§Øª": 838,
      "ĠØ§ÙĦØ¹Ø¯ÙĬØ¯": 839,
      "ĠØ§ÙĦÙħÙĪØ": 840,
      "ĠA": 841,
      "²Ø": 842,
      "Ø§Ø¹Ø¯": 843,
      "Ø¹Ù": 844,
      "¦ÙĬØ³": 845,
      "ĠÙĨÙģ": 846,
      "¸Ø§": 847,
      "Ø¯Ø«": 848,
      "ĠØ§ÙĦØ°ÙĬÙĨ": 849,
      "ÙħÙĪØ": 850,
      "ÙĨØ³": 851,
      "ĠØ§ÙĦØ¹ÙħÙĦ": 852,
      "Ø§Ùĥ": 853,
      "§ÙĦØ²": 854,
      "ĠØ§ÙĦÙħÙĪ": 855,
      "Ø¨ØŃ": 856,
      "ĠØªØµ": 857,
      "ÙĥØ±": 858,
      "ĠØ§ÙĦÙĩ": 859,
      "²Ø§": 860,
      "Ø¨ÙĬØ¹": 861,
      "ĩÙħ": 862,
      "ĠÙĤØ": 863,
      "Ø±Øª": 864,
      "ĪØ©": 865,
      "ĠÙĦØ¯ÙĬ": 866,
      "ºÙĬØ±": 867,
      "ĠØ§ÙĦØ²": 868,
      "ÙĬØ®": 869,
      "ÙĪØ§Ù": 870,
      "ØªÙī": 871,
      "ĠØ§ÙĦÙĪÙĤ": 872,
      "ØªÙĬ": 873,
      "ĠØ®Ø·": 874,
      "ĠÙĨÙ": 875,
      "ĠØ§ÙĦÙħØ²": 876,
      "ĠØ§ÙĦÙħØªØŃ": 877,
      "ĠØ§ÙĦÙħÙĨ": 878,
      "ØªÙĩ": 879,
      "ĠØ¨Ø§Ø³": 880,
      "Ø³Ùħ": 881,
      "ÙħÙĪØ¹Ø©": 882,
      "ºÙ": 883,
      "ĬØ§Ø³": 884,
      "ĠØŃÙĪÙĦ": 885,
      "Ø¨ÙĬØ©": 886,
      "¸Ø§Ù": 887,
      "¸Ø§Ùħ": 888,
      "¸Ø±": 889,
      "ĠØ§ÙĦØ¶": 890,
      "ÙĤÙĦ": 891,
      "ĠØªØ£": 892,
      "Ø´Ø±": 893,
      "Ø±ÙĬØ¯": 894,
      "ĪØ§Øª": 895,
      "ĠØ§ÙĦØªØŃ": 896,
      "ªÙĪØ": 897,
      "§ÙĨÙĬØ©": 898,
      "âĢ¬âĢ¬âĢ¬âĢ¬": 899,
      "Ġ4": 900,
      "ĠÙĪØ§ÙĦØªÙ": 901,
      "ĠØŃÙĬØ«": 902,
      "ÙĦØ¯Ù": 903,
      "ĨÙĪÙĨ": 904,
      "ĠÙģÙĤØ·": 905,
      "ħÙĦÙ": 906,
      "ÙģØ±": 907,
      "ÙģØ§ÙĦ": 908,
      "ÙĪØ±Ø©": 909,
      "ÙĦÙĪÙħØ§Øª": 910,
      "ĠÙĤØ§": 911,
      "Ġ201": 912,
      "ØªØ´": 913,
      "ĠØ§ÙĦØ£Ø·": 914,
      "ĠØ§ÙĦØŃÙĬ": 915,
      "in": 916,
      "ĠÙĪÙĥ": 917,
      "ħØ±ÙĬ": 918,
      "ÙĬÙĪ": 919,
      "ĠP": 920,
      "ĠÙĪÙħØ¹": 921,
      "Ø§ØµØ©": 922,
      "ĠØ§ÙĦØ¥ÙĨØ": 923,
      "Ø¨Ø§Øª": 924,
      "ĠÙĪÙģ": 925,
      "ÙĨÙĪÙĨ": 926,
      "ĬØ³": 927,
      "ĠØ¥Ù": 928,
      "®ØªÙĦÙģØ©": 929,
      "ĠØ£Ø¬": 930,
      "Ġ5": 931,
      "ĠÙĪØ¨": 932,
      "ĠÙĪØ±": 933,
      "ĠÙħÙĥ": 934,
      "Ø±ÙĥØ©": 935,
      "ĠØ§ÙĦØ¨ØŃ": 936,
      "Ø§Ùĩ": 937,
      "ÙħØ§ÙĦ": 938,
      "ĠÙĨÙĤ": 939,
      "ĠØŃØªÙī": 940,
      "Ø§Ø±Ùĥ": 941,
      "ĠÙĪÙĤØ": 942,
      "§ÙĦØ¯Ù": 943,
      "ÙĬØ§ÙĨØ§Øª": 944,
      "ĠØ§Ø®": 945,
      "ÙĦØªÙĤ": 946,
      "ÙĬØ´": 947,
      "Ø§ØªØ": 948,
      "ØĽ": 949,
      "ĠÙĨÙģØ³": 950,
      "ĠØ£Ø®Ø±Ùī": 951,
      "ĠÙĪØ§ÙĦØŃ": 952,
      "µÙģ": 953,
      "ĠØ§ÙĦØ¯Ù": 954,
      "ĠØªØ·": 955,
      "ĨØ³": 956,
      "ÙĤØ": 957,
      "³Ø§": 958,
      "ĠØ§ÙĦÙĥØ": 959,
      "Ø§Ø±ÙĬØ®": 960,
      "Ø§ÙĤØ©": 961,
      "Ø¬Ù": 962,
      "ĠÙĥÙħØ§": 963,
      "ØµÙĪÙĦ": 964,
      "Ø§ÙĦØ¨": 965,
      "Ø§Ø¦ÙĬ": 966,
      "ĠØ§ÙĦÙĪÙĤØ": 967,
      "ÙħØª": 968,
      "ØªØ¯": 969,
      "§ÙĨÙĬ": 970,
      "ÙģØ¶ÙĦ": 971,
      "ĠØ§ÙĦÙĩÙ": 972,
      "ĠØ¨ØŃ": 973,
      "ĪÙĦØ": 974,
      "ÙĬØ¡": 975,
      "ĠÙĤÙ": 976,
      "Ø§Ø±Ù": 977,
      "ÙĦÙħÙ": 978,
      "Ø§ÙĨØ": 979,
      "ĠÙĦØ£ÙĨ": 980,
      "§ÙĦØªÙĤ": 981,
      "ÙĪØªÙ": 982,
      "ĠÙĪØ§ÙĦØ¹": 983,
      "ÙħÙĬÙĨ": 984,
      "Ø§ÙĨÙĬØ©": 985,
      "ĠÙĦÙĦ": 986,
      "ÙĨØ´": 987,
      "ĠÙħØµ": 988,
      "Ø²Ø": 989,
      "ĪÙĦØ§": 990,
      "ĠØ§ÙĦÙĪÙĤØª": 991,
      "ĠØ£ÙĨÙĩ": 992,
      "ĠØ£ÙĨØ": 993,
      "ĠM": 994,
      "ĠØ§ÙĦØªÙĤ": 995,
      "ÙĦÙĪØ": 996,
      "Ø·Ù": 997,
      "ÙģÙ": 998,
      "an": 999,
      "ÙĪÙĬØ±": 1000,
      "ĠØ£ØŃ": 1001,
      "Ø§ÙĦÙĬØ©": 1002,
      "ħØ¯": 1003,
      "§ÙħØ©": 1004,
      "ĠØ¨Ø¯": 1005,
      "Ø§ØŃØ©": 1006,
      "Ø±ÙĪÙģ": 1007,
      "ĠØ§ÙĦÙĥÙ": 1008,
      "ĠØ§ÙĦÙħØ«": 1009,
      "ÙħØ§ÙĨ": 1010,
      "ÙħÙĥ": 1011,
      "ĠØ¥Ø¹": 1012,
      "ĨØ¹": 1013,
      "on": 1014,
      "ĠÙĥÙ": 1015,
      "ĠØ§ÙĦÙħÙĬØ": 1016,
      "Ø§Ø¨Ø§Øª": 1017,
      "¶Ø¹": 1018,
      "ħØ¨": 1019,
      "ÙĪØª": 1020,
      "ĠØ§ÙĦØ¨Ø±": 1021,
      "ÙĬÙĬØ±": 1022,
      "Ø¯ÙĬØ¯Ø©": 1023,
      "ÙħÙĪ": 1024,
      "ÙĬØ¯Ø©": 1025,
      "¸ÙĩØ±": 1026,
      "ĠÙħÙħØ§": 1027,
      "ĠØ¨Ø±": 1028,
      "ĠÙħÙĪØ": 1029,
      "Ø§Ø¹Ø¯Ø©": 1030,
      "Ø§Ø¦ÙĦ": 1031,
      "ĠØ§ÙĨØ": 1032,
      "Ø§Ø¨Ø©": 1033,
      "ĠÙĪØ§ÙĦØªÙĬ": 1034,
      "ĠØ§ÙĦÙĬÙ": 1035,
      "Ø¯ÙħØ©": 1036,
      "ªØ§Ø¬": 1037,
      "ĠÙĪÙĤØª": 1038,
      "ĠØ§ÙĦØ£Ø´": 1039,
      "ĪØ§Ø³": 1040,
      "ØªØµ": 1041,
      "ĠØªØ¯": 1042,
      "ÙħØ§Ø±": 1043,
      "ÙĬÙĨØ©": 1044,
      "§ÙĦÙĬØ©": 1045,
      "Ø±Ø§Ù": 1046,
      "ÙħØŃ": 1047,
      "Ø±ÙĬÙĤØ©": 1048,
      "Ø±ÙģØ©": 1049,
      "ĠÙĬØ´": 1050,
      "ĬØ§Ø¯Ø©": 1051,
      "ĠØ£ÙĬØ¶Ø": 1052,
      "ĠØ£ÙĬØ¶Ø§": 1053,
      "ÙĦÙĬÙħ": 1054,
      "ĠÙĪØ§ÙĦØ£": 1055,
      "ħØ§Øª": 1056,
      "ĠØ§ÙĦØ¹Ø": 1057,
      "ÙĬÙħØ©": 1058,
      "ĠÙħØ¬ÙħÙĪØ¹Ø©": 1059,
      "ĠØ§ÙĦØªØ¬": 1060,
      "ĨÙĬÙĨ": 1061,
      "Ø§ÙĨÙĬ": 1062,
      "Ø¯Ùī": 1063,
      "ÙĦØªØ±": 1064,
      "en": 1065,
      "ĠØ§ÙĦÙħØ±": 1066,
      "ĠØªÙĨØ": 1067,
      "ĠØ¨Ùĥ": 1068,
      "ĠÙĬØ¨": 1069,
      "ĪÙĩÙ": 1070,
      "ĠØ±Ø": 1071,
      "Ø§Ø¹ÙĬØ©": 1072,
      "ĠØªØŃØ": 1073,
      "ĠÙĦÙĦØ£": 1074,
      "ĪÙĦÙĪØ¬": 1075,
      "§ÙħÙĦ": 1076,
      "Ø¹Ø±": 1077,
      "§ÙĦØªØ±": 1078,
      "ÙĥØ³": 1079,
      "ħÙĦØ©": 1080,
      "ÙĦØªÙģ": 1081,
      "ĠÙĪØ³": 1082,
      "Ø§Ø¯Ù": 1083,
      "ÙĤØ§": 1084,
      "or": 1085,
      "__": 1086,
      "ĠØ§ÙĦØ£ØŃ": 1087,
      "ÙĬØ¦Ø©": 1088,
      "Ø±Ø¯": 1089,
      "§ÙĦØªÙģ": 1090,
      "ĠØ§ÙĦÙħÙĥ": 1091,
      "ĠÙĦÙĦØŃ": 1092,
      "Ø·Ø±": 1093,
      "ĠØ£Øµ": 1094,
      "ar": 1095,
      "ĠØ¬Ø": 1096,
      "Ġ200": 1097,
      "ĠØ§ÙĦØªØ±": 1098,
      "ĬØ§Ø¡": 1099,
      "ÙĦØ§ØŃ": 1100,
      "ħÙĦÙĬØ©": 1101,
      "ĠÙĦØ¥": 1102,
      "ĠÙĥØªØ§Ø¨": 1103,
      "ĠØ¬Ø§": 1104,
      "ĠÙĥØ¨ÙĬØ±": 1105,
      "ØªÙħØ¹": 1106,
      "Ø±Ø§Ø³Ø©": 1107,
      "ĠØ§ÙĦÙħØ¹ÙĦÙĪÙħØ§Øª": 1108,
      "ĠØ§ÙĦÙħØ®": 1109,
      "ĠØ´Ø®Øµ": 1110,
      "ĠØ§ÙĦØ±Ø¦ÙĬØ³": 1111,
      "ĠÙħÙĩ": 1112,
      "Ø§Ø¹Ù": 1113,
      "ÙħÙĩØ§": 1114,
      "ĨÙĬ": 1115,
      "ÙĤÙ": 1116,
      "ĠØ§ÙĦØ£Ø·ÙģØ§ÙĦ": 1117,
      "ĠÙĪØ§ÙĦØ¥": 1118,
      "ĠØ§ÙĦÙħØ³Ø": 1119,
      "ĠÙĬÙħÙĥÙĨÙĥ": 1120,
      "ØªÙħØ±": 1121,
      "ÙĪØ²": 1122,
      "Ø¨Ø¹": 1123,
      "Ø±ÙĪØ¨": 1124,
      "ÙĦÙĩ": 1125,
      "20": 1126,
      "ĠØ§ÙĦÙħØªØŃØ¯Ø©": 1127,
      "ĠØ¥Ø¯": 1128,
      "ĠÙĦÙĥ": 1129,
      "ªÙĦ": 1130,
      "Ø¶Ø§ÙģØ©": 1131,
      "ĠØ§ÙĦØªÙģ": 1132,
      "ĪØ§Ø¹": 1133,
      "ĠØ§ÙĦØ£ÙĪ": 1134,
      "Ġ6": 1135,
      "ĠÙĦØªØŃ": 1136,
      "Ø±ÙĨ": 1137,
      "ÙĬØ§ÙĨ": 1138,
      "ÙĪÙĩÙ": 1139,
      "ÙĬØ§Ùħ": 1140,
      "ĠÙĦÙĩ": 1141,
      "ĠØ¬Ù": 1142,
      "ĠÙħØªØ": 1143,
      "ÙħØ¨": 1144,
      "ŃÙ": 1145,
      "ĠÙĪØ§ÙĦÙħÙ": 1146,
      "ĠØ§ÙĦØµØŃ": 1147,
      "ĠØ§ÙĦÙĨØ§Ø³": 1148,
      "ĠØ§ÙĦØ¹Ø§ÙĦÙħ": 1149,
      "ĠÙĪÙĩÙ": 1150,
      "ÙħØ§Ùħ": 1151,
      "ÙĦØªÙĥ": 1152,
      "ÙĬÙĪÙ": 1153,
      "ĠØ£ÙģØ¶ÙĦ": 1154,
      "...": 1155,
      "ĠÙĪØ§ÙĦÙħØ": 1156,
      "Ø±Ø§ÙĤ": 1157,
      "ÙĬØ§Ø¯Ø©": 1158,
      "ĠÙĦÙĦÙħØ": 1159,
      "Ø±Ø³": 1160,
      "Ø§Ø¹ÙĬ": 1161,
      "ÙĥÙħ": 1162,
      "al": 1163,
      "ĠÙĪØ§ÙĦØ¨": 1164,
      "Ø§Ø³ÙĬØ©": 1165,
      "ØªÙĪÙī": 1166,
      "ĠÙĪØ§ØŃØ¯": 1167,
      "Ø²Ø¡": 1168,
      "ĠÙĪØ§ØŃØ¯Ø©": 1169,
      "ĠÙĦÙħØ": 1170,
      "ĠÙĬØ±": 1171,
      "ØªØ¨Ø§Ø±": 1172,
      "ºÙħ": 1173,
      "ĠØ§ÙĦÙħØµ": 1174,
      "§ÙĦØªÙĥ": 1175,
      "ĠØ·Ø±ÙĬÙĤ": 1176,
      "ÙħØ¯": 1177,
      "ĠØ¹Ø¯Ø¯": 1178,
      "Ø¹Ùħ": 1179,
      "§ÙĤØ¹": 1180,
      "Ø§Ø¸": 1181,
      "ĠØ§ÙĦÙħÙĪØ§Ø¯": 1182,
      "Ø§Ø±ÙĬØ©": 1183,
      "es": 1184,
      "ĠØªÙģ": 1185,
      "ĠÙĦØ°ÙĦÙĥ": 1186,
      "Ø§Øº": 1187,
      "ĠÙĥÙĨØª": 1188,
      "ÙĥÙĬ": 1189,
      "ĠÙĥÙĬÙģÙĬØ©": 1190,
      "ĠØ§ÙĦØ£Ùĥ": 1191,
      "ĪØ§Ø±": 1192,
      "Ġ/": 1193,
      "ĨÙĩØ§": 1194,
      "ĠÙĪÙĦ": 1195,
      "Ø±Ø¬Ø©": 1196,
      "ĠI": 1197,
      "ĠØªØ®": 1198,
      "ĪÙħØ": 1199,
      "ĠØ§ÙĦØ£ÙħØ±ÙĬ": 1200,
      "ĠØ§ÙĦÙħØ¯": 1201,
      "ĠØ¹ÙĦÙĬ": 1202,
      "ÙĦØ¯Ùħ": 1203,
      "§ÙĦØ¯Ùħ": 1204,
      "ĠÙĩÙĦ": 1205,
      "ØµØ©": 1206,
      "ÙĬØªØ": 1207,
      "ĠØ£Ø´": 1208,
      "ĠØ§ÙĦØ¹Ù": 1209,
      "ĠØ§ÙĦØ±ØºÙħ": 1210,
      "ĬÙĩ": 1211,
      "ĠÙĪØ§ÙĦØ³": 1212,
      "ÙĬØ§Ø¡": 1213,
      "ĠÙĪØŃ": 1214,
      "ĠB": 1215,
      "Ø¨Ø§": 1216,
      "ĠØ¨ÙħØ§": 1217,
      "Ø±Ø§Ùģ": 1218,
      "ÙĨØ¹": 1219,
      "ĠØ§ÙĦØªÙĥ": 1220,
      "ĠÙħØ¤": 1221,
      "ĠØ§ÙĦØ¯Ùħ": 1222,
      "at": 1223,
      "ĠØ³ÙĪÙģ": 1224,
      "Ø¯Ø¯Ø©": 1225,
      "ĪÙħÙ": 1226,
      "ĠÙħØ¨": 1227,
      "ĠT": 1228,
      "·ÙĤØ©": 1229,
      "ĠØ§ÙĦÙħÙĩ": 1230,
      "ĠD": 1231,
      "Ø±ÙĬØ¨": 1232,
      "§ÙĬØ©": 1233,
      "ĠØµØŃ": 1234,
      "ĠØ´ÙĬØ¡": 1235,
      "Ø¨ÙĬÙĤ": 1236,
      "ÙĪØ§Ø³": 1237,
      "Ø§ÙħÙĦ": 1238,
      "Ùİ": 1239,
      "ØªØ¨Ø±": 1240,
      "ĠÙĨØ³": 1241,
      "ĠØ§ÙĦÙĨÙ": 1242,
      "ĪØ¯Ø©": 1243,
      "ÙģÙĦ": 1244,
      "ĪØ§Ø¬": 1245,
      "ĠÙĨÙĪØ¹": 1246,
      "§ÙĬØ§": 1247,
      "Ø¯Ø§Ø¯": 1248,
      "ÙĨØ§Ø¡": 1249,
      "ĠÙĦÙĬØ³": 1250,
      "Ø±ÙĬØ±": 1251,
      "ÙĥØ©": 1252,
      "ÙĬÙģØ©": 1253,
      "ĠØ£Ø¯": 1254,
      "Ø§ÙĬØ§": 1255,
      "ĠØ³Ø": 1256,
      "²Ø©": 1257,
      "ÙĦØªØ¯": 1258,
      "ÙĪØ¶": 1259,
      "§ÙĦØªØ¯": 1260,
      "ĠE": 1261,
      "Ø³ÙĬÙĨ": 1262,
      "ĪØ§Ø¡": 1263,
      "ĠØ§ÙĦÙĤØ¯": 1264,
      "ĠØ§ÙĦØ¢Ù": 1265,
      "ĠØ§ÙĦØ¢ÙĨ": 1266,
      "ĠØ§ÙĦÙĪÙĦØ§": 1267,
      "ĠÙĪØ§Ø³": 1268,
      "ĠØ§ÙĦØ·Ø¨ÙĬØ¹": 1269,
      "ĠR": 1270,
      "ĠÙĪØ¥": 1271,
      "ĠØ§ÙĦÙħÙĬØ§Ùĩ": 1272,
      "Ġ10": 1273,
      "ÙĩØ¯": 1274,
      "ĠÙħØ®ØªÙĦÙģØ©": 1275,
      "ÙĬÙĨØ§": 1276,
      "ĠÙĪØ¹": 1277,
      "ÙĦÙĦ": 1278,
      "Ġ18": 1279,
      "ĠØ§ÙĦØ£Ø®": 1280,
      "ÙĬÙĪÙĨ": 1281,
      "ÙħØ¹Ø©": 1282,
      "ĠØ§ÙĦØºØ°": 1283,
      "ĠØ«Ù": 1284,
      "ĠÙħØ³Ø": 1285,
      "ĠØ§ÙĦØªØ¯": 1286,
      "ĠØ§ÙĦØ·Ø§ÙĤØ©": 1287,
      "ÙĦØ±ÙĬ": 1288,
      "§ÙĦØ±ÙĬ": 1289,
      "ĠÙĬØ¤": 1290,
      "ÙĪÙħØ": 1291,
      "ÙĪÙĦØ©": 1292,
      "ħØ±Ø¶": 1293,
      "Ø§ÙĬØ©": 1294,
      "ĠØŃØ¯": 1295,
      "ÙĪØŃ": 1296,
      "ĠÙĨØ´": 1297,
      "ĠØ§ÙĦÙĨØ³": 1298,
      "ĠØ¢Ø®Ø±": 1299,
      "ĠØ¹Ø§Ø¯Ø©": 1300,
      "§ÙĨÙĪÙĨ": 1301,
      "ÙħØ§Øª": 1302,
      "Ø¬Ø±Ø§Ø¡": 1303,
      "ĠØ§ÙĦÙħØ¶": 1304,
      "ĠØ§ÙĦØ±ÙĬ": 1305,
      "ĠØ§ÙĦÙĤÙ": 1306,
      "ħÙģ": 1307,
      "ĬÙĦÙ": 1308,
      "ĠÙĪÙħØ": 1309,
      "ÙĪÙħØ©": 1310,
      "ĠØ¬Ø¯Ø§": 1311,
      "ĠÙħÙĦ": 1312,
      "ÙĨØªØ§Ø¬": 1313,
      "Ġ7": 1314,
      "ĠØ§ÙĦØ·ÙĦØ§Ø¨": 1315,
      "ĠØªØ¨": 1316,
      "ĠØ¨Ø³Ø¨Ø¨": 1317,
      "ºÙĬÙĬØ±": 1318,
      "ĠÙĦØ£": 1319,
      "ĠØ§ÙĦØ¨ÙĬØ§ÙĨØ§Øª": 1320,
      "ÙĥØ²": 1321,
      "ÙĨØ¬": 1322,
      "ĠÙħØ¯": 1323,
      "ĠØ§ÙĦØŃØ±": 1324,
      "Ø§ÙĨÙĪÙĨ": 1325,
      "ĠØ§ÙĦØªØ´": 1326,
      "ÙĥÙĬØ©": 1327,
      "ØªÙĤØ¯": 1328,
      "ĠØ§ÙĦÙħØ¨": 1329,
      "ĨØº": 1330,
      "ĠÙħÙĤØ": 1331,
      "ĠØ§ÙĦÙħØ±Ø¶": 1332,
      "ªÙĩØ§": 1333,
      "ĠØ§ÙĦØ£Ø±Ø¶": 1334,
      "ĠÙĪØ§ÙĦÙģ": 1335,
      "ĬØ§": 1336,
      "ĠÙĦÙĦØ¹": 1337,
      "ĠØ§ÙĦØµÙģ": 1338,
      "ÙģØ§Ø¸": 1339,
      "Ø·Ø": 1340,
      "ªÙĪØ³": 1341,
      "ĠØ§ÙĦØ¬Ù": 1342,
      "ĠÙģØ±": 1343,
      "ĠÙĬØªØ": 1344,
      "ĠØªÙĪÙģ": 1345,
      "ĠØ§ÙĦÙħØ·": 1346,
      "ĠØ§ÙĦØŃÙĬØ§Ø©": 1347,
      "ÙĦÙĦØº": 1348,
      "Ø¸Ù": 1349,
      "ÙħÙĦÙ": 1350,
      "ØªØ¬": 1351,
      "ÙĥØ§Ù": 1352,
      "ÙĩØ§Ø²": 1353,
      "Ø±Ø§Øª": 1354,
      "¸ÙħØ©": 1355,
      "ĠØ¨ÙĩØ§": 1356,
      "ĠØ§ÙĦÙĥØ¨": 1357,
      "§ÙĦÙĦØº": 1358,
      "Ø¶Ø§Ø¡": 1359,
      "ĠØ°Ø§Øª": 1360,
      "ÙģØ¹": 1361,
      "ÙĪØ·": 1362,
      "ĠØ§ÙĦÙĪÙĦØ§ÙĬØ§Øª": 1363,
      "ĠG": 1364,
      "ĠØªØªØ": 1365,
      "Ø¨Ø§Ø¨": 1366,
      "·ÙĦØ¨": 1367,
      "ÙĪØµ": 1368,
      "ĠØ§ÙĦØ®Ø§ØµØ©": 1369,
      "ĠØ§ÙĦÙħÙĪÙĤØ¹": 1370,
      "ĠØ§ÙĦØ£Ø®Ø±Ùī": 1371,
      "ĠH": 1372,
      "ÙĨØ´Ø§Ø¡": 1373,
      "ÙħÙĩ": 1374,
      "ÙģÙĬ": 1375,
      "Ø¸Ùħ": 1376,
      "ĠÙħÙĤØ§": 1377,
      "ĠâĢ": 1378,
      "§ÙĦØ§Ø¬": 1379,
      "Ø±Ø¹Ø©": 1380,
      "ØªØ±Ø©": 1381,
      "ĠØ§ÙĦÙĥØªØ§Ø¨": 1382,
      "ĠØ§ÙĦØ´Ø®Øµ": 1383,
      "ĠØ§ÙĦÙĨØ¨Ø§Øª": 1384,
      "Ø§Ø¯Ø§Øª": 1385,
      "ĠØ£ÙĥØ¨Ø±": 1386,
      "Ø¨ÙĬÙĦ": 1387,
      "ÙĪÙī": 1388,
      "Ġ8": 1389,
      "ĠØ¨Ø§Ø³ØªØ®Ø¯Ø§Ùħ": 1390,
      "Ø¯Ø£": 1391,
      "ĠØ£Ø®": 1392,
      "ĠÙĪØ§ÙĦÙĤ": 1393,
      "ÙĨØ§Ù": 1394,
      "ĠØ§ÙĦØ§Ø¬": 1395,
      "ĠØªØŃØ¯ÙĬØ¯": 1396,
      "ĠL": 1397,
      "ĠN": 1398,
      "ÙĪÙĬÙĦ": 1399,
      "ÙĪØ§ÙĦÙĬ": 1400,
      "ØªÙĪÙĬ": 1401,
      "ĠØ«Ùħ": 1402,
      "ĠØ§ÙĦØ§Ø¬ØªÙħ": 1403,
      "ĠØ§ÙĦÙĥØ«ÙĬØ±": 1404,
      "ĠÙħØªÙ": 1405,
      "âĢ¬âĢ¬âĢ¬âĢ¬âĢ¬âĢ¬âĢ¬âĢ¬": 1406,
      "ĠØ¯Ù": 1407,
      "ÙĨÙĪØ§Øª": 1408,
      "ĠØ§ÙĦÙħØªØ": 1409,
      "ÙĤÙĬÙĤØ©": 1410,
      "ĠÙĪØ§ÙĦØ¬": 1411,
      "ĠÙħØ«": 1412,
      "ÙĬØªÙ": 1413,
      "ÙĬØµ": 1414,
      "ĠÙħØ®": 1415,
      "ĠØ£ÙĤÙĦ": 1416,
      "Ø§ÙĦØ¬": 1417,
      "Ø¯ÙĬØ±": 1418,
      "ĠØ§ÙĦÙĬÙĪÙħ": 1419,
      "ÙħÙģ": 1420,
      "19": 1421,
      "ĠâĢ¢": 1422,
      "Ø§Ø¶Ù": 1423,
      "ÙĪØ¡": 1424,
      "ĠØ£ÙĪÙĦ": 1425,
      "ØªÙĪØ": 1426,
      "ĠØ§ÙĦÙħÙģ": 1427,
      "ÙĬØ°": 1428,
      "ÙĦØ§ÙĨØ": 1429,
      "ic": 1430,
      "Ø±ØªØ¨": 1431,
      "Ø§ÙĦÙĬ": 1432,
      "Ø§Ø±Ø¬": 1433,
      "Ø§Ø¶ÙĬ": 1434,
      "ØŃÙĦØ©": 1435,
      "Ø§Ø±Ø¯": 1436,
      "ĠØ§ÙĦÙħØ«Ø": 1437,
      "ĠØ§ÙĦÙħØ«Ø§": 1438,
      "ĠØ¯ÙĪÙĨ": 1439,
      "ĠØ§ÙĦØ£Ø¯": 1440,
      "ÙĦÙĪÙĨ": 1441,
      "Ġ9": 1442,
      "ĠÙĨØ¸Ø§Ùħ": 1443,
      "ØºÙĬØ±Ø©": 1444,
      "ĠØ£Ø«": 1445,
      "ĠÙħÙģ": 1446,
      "Ø§ØªØµ": 1447,
      "ØªØ³": 1448,
      "ĠØ£ØŃØ¯": 1449,
      "ĠÙĦÙĦØªØ": 1450,
      "ĪØ§Øµ": 1451,
      "ĠØ§Ø±": 1452,
      "ªØ§Ø±ÙĬØ®": 1453,
      "ĠÙĪØªØŃ": 1454,
      "§ÙĦØ§ÙĨØ": 1455,
      "ĠÙĥØ¨ÙĬØ±Ø©": 1456,
      "ÙĩØ¬": 1457,
      "ØªÙĦ": 1458,
      "ĠØ¨Ø·": 1459,
      "ØºØ·": 1460,
      "ĠØ£ÙĨÙ": 1461,
      "Ø§ÙĦØªØ": 1462,
      "ĠØ§ÙĦÙĨÙĤ": 1463,
      "ĪÙĦØ©": 1464,
      "ÙħÙĬÙħ": 1465,
      "ªØ§Ø¦": 1466,
      "ÙħÙĪÙ": 1467,
      "ØªØ±ÙĪÙĨ": 1468,
      "Ø±ÙĥØ§Øª": 1469,
      "ĠØ§ÙĦÙħØ«Ø§ÙĦ": 1470,
      "Ø¯Øª": 1471,
      "ĠØŃÙĪØ§ÙĦÙĬ": 1472,
      "Ø§Ø°Ø": 1473,
      "Ø§Ø°Ø§": 1474,
      "ÙĦÙĩØ§": 1475,
      "ĠØ§Ø³ØªØ®": 1476,
      "Ġ0": 1477,
      "ĠØ§ÙĦÙĦØº": 1478,
      "ĠØ£Ø³Ø§Ø³": 1479,
      "ÙĩØª": 1480,
      "Ø¯ÙĨÙĬØ©": 1481,
      "ÙħÙĪØ°": 1482,
      "Ø±Ø§Ø±": 1483,
      "ĠØ«ÙĦ": 1484,
      "ĠÙĪØ§ÙĦØªØ": 1485,
      "Ø§Ø¹Ø§Øª": 1486,
      "ĠØ¨Ø£": 1487,
      "om": 1488,
      "Ø¹Ø¨": 1489,
      "ĠØ¯Ø±Ø¬Ø©": 1490,
      "Ø¬ÙĦ": 1491,
      "Ø§Ø®ÙĦ": 1492,
      "et": 1493,
      "ĠÙħØ²": 1494,
      "ĠÙĬÙģ": 1495,
      "ĠÙĬØµ": 1496,
      "ĠØ§ÙĦØ£Ø¹": 1497,
      "ÙĦØªÙĩ": 1498,
      "ªØ§Ø¦Ø¬": 1499,
      "ĠØŃØ§ÙĦØ©": 1500,
      "ĠØŃÙĬÙĨ": 1501,
      "Ø§Ø¦ÙĤ": 1502,
      "ĠØªØ£Ø«ÙĬØ±": 1503,
      "ØªØ·": 1504,
      "ĠØ§ÙĦÙħØ²ÙĬØ¯": 1505,
      "ĠØ£ÙĤ": 1506,
      "ÙĨØ©": 1507,
      "ĠØ£ÙĨÙĩØ§": 1508,
      "ÙĪØ§ÙĨØ§Øª": 1509,
      "ªØ±ÙĨØª": 1510,
      "ĠÙĬÙĨØ": 1511,
      "ªØ¹ÙĦÙĤ": 1512,
      "ÙĬÙĬÙħ": 1513,
      "ÙĩØ±Ø¨": 1514,
      "ĠØ¹ÙħÙĦ": 1515,
      "....": 1516,
      "ÙĦÙĬØ²": 1517,
      "§ÙĥÙĦ": 1518,
      "ĠØ§ÙĦØ£Øµ": 1519,
      "is": 1520,
      "µÙĪÙĦ": 1521,
      "ĠÙĪØºÙĬØ±": 1522,
      "Ø§ÙĥÙĦ": 1523,
      "\".": 1524,
      "ĠØŃÙ": 1525,
      "ĠØ¹Ø¨Ø±": 1526,
      "ĪÙĦÙĪØ¬ÙĬØ§": 1527,
      "ĠÙĬØ¯": 1528,
      "Ø¹Ø§ÙĬØ©": 1529,
      "ÙĥØ§ÙĨ": 1530,
      "ĠØ§ÙĦØ¨ØŃØ«": 1531,
      "ÙħÙī": 1532,
      "ĠØ§ØŃ": 1533,
      "Ø±Ø¹": 1534,
      "ÙĨÙĬÙĨ": 1535,
      "ÙģÙĤ": 1536,
      "ĠØ§ÙĦØ§ÙĨØ": 1537,
      "Ø±ÙĬÙģ": 1538,
      "ÙĩØ©": 1539,
      "ĠÙħØ±Ø©": 1540,
      "Ø§Ø¦ÙħØ©": 1541,
      "ÙĨØ§ÙĨ": 1542,
      "ĠÙĪØ§ÙĦØ®": 1543,
      "¶ÙĪØ¹": 1544,
      "ĠÙĪØ¶Ø¹": 1545,
      "ÙħÙĪØ°Ø¬": 1546,
      "ĠØ³Ø¨ÙĬÙĦ": 1547,
      "ÙĨÙĩØ§": 1548,
      "ĠØ¥Ø¹Ø§Ø¯Ø©": 1549,
      "ĠØ¹ÙĦ": 1550,
      "ĠØ¹ÙħÙĦÙĬØ©": 1551,
      "ÙĪÙħÙ": 1552,
      "ÙĥØªÙ": 1553,
      "ØªØ§Ø±ÙĬØ®": 1554,
      "Ø¬Ùħ": 1555,
      "ĠØ«ÙĦØ§Ø«": 1556,
      "ĠØ¨Ø§": 1557,
      "ĠØ¹ÙĦØ": 1558,
      "ĠØ§ÙĦÙħØ¤": 1559,
      "ĠÙĨØ¸": 1560,
      "Ø±Ø§Ø¡Ø©": 1561,
      "ÙĦÙĥØªØ±ÙĪÙĨ": 1562,
      "ĠØ¥ÙĨ": 1563,
      "ĠØ§ÙĦØŃØ¯": 1564,
      "ÙĦÙħØ©": 1565,
      "ĠØ§ÙĦØ£ÙĥØ«Ø±": 1566,
      "ĠØ¹ÙĦÙħ": 1567,
      "ĠØ¹Ø¯Ùħ": 1568,
      "ĠØºØ§ÙĦØ¨": 1569,
      "it": 1570,
      "Ø¯Ø§ÙĨ": 1571,
      "ÙĦÙĬÙ": 1572,
      "Ø§Ø·ÙĤ": 1573,
      "10": 1574,
      "Ø³Ø": 1575,
      "ĠF": 1576,
      "ÙĪØ¬Ø¯": 1577,
      "Ø±ÙĪØ¹": 1578,
      "ĠØªØ±": 1579,
      "Ø§Ø¯ÙĬØ©": 1580,
      "ĠÙĤØµ": 1581,
      "ÙħÙĬØ": 1582,
      "Ø¹ÙĦØ": 1583,
      "ĠØŃØ³": 1584,
      "Ùĭ.": 1585,
      "ĠÙĦÙĤ": 1586,
      "Ø±Ø¨Ø©": 1587,
      "ÙĦØªÙĪØ": 1588,
      "ÙĬØªÙħ": 1589,
      "ÙĨØ§ÙħØ¬": 1590,
      "ĠÙĪÙĦÙ": 1591,
      "ÙĦÙĪÙĥ": 1592,
      "ĠØ§ÙĦØ¹Ø§ÙĦÙħÙ": 1593,
      "Ø§Ø¯ÙĬ": 1594,
      "ÙĪØ«": 1595,
      "ĠÙĨØŃÙ": 1596,
      "ĠØ¨ÙĨØ§Ø¡": 1597,
      "Ġ[": 1598,
      "Ø¯Ùģ": 1599,
      "®ÙģØ¶": 1600,
      "Ø§Ø¦Ø¯": 1601,
      "ÙĦØ§Ø®": 1602,
      "ĠÙĦÙĦÙħÙ": 1603,
      "ĠÙħØ¹Ø¸Ùħ": 1604,
      "ĠØ§ÙĦØªØ®": 1605,
      "ĠÙħØ§Ø±": 1606,
      "Ø¦Ø©": 1607,
      "³Øª": 1608,
      "ĠØ§ÙĦØ¹Ø§": 1609,
      "ĠØ§ÙĦÙĩÙĨØ¯": 1610,
      "ĪØ§Ø¶": 1611,
      "000": 1612,
      "ĠØ¨Ø§ÙĦØ¥": 1613,
      "ĠØ£Ø¨": 1614,
      "Ø¯Ø±Ø³Ø©": 1615,
      "ÙĪØ§ÙĨ": 1616,
      "§ÙĦØªÙĩ": 1617,
      "ØªØ§": 1618,
      "ĠØ§Ø¹": 1619,
      "ÙĦÙħØ§": 1620,
      "§ÙĦØ§Ø®": 1621,
      "ĠØ¨Ùĩ": 1622,
      "ÙĨØ¯": 1623,
      "ĠØ§ÙĦÙħÙĨØ²": 1624,
      "ĠÙĦÙĦØ¨": 1625,
      "ĠÙĦØ¯": 1626,
      "ĠÙĦÙĩØ§": 1627,
      "§ÙĦØªÙĪØ": 1628,
      "ĠØ§ÙĦÙĪØ§ÙĤØ¹": 1629,
      "ĠØ£ÙĨÙĪØ§Ø¹": 1630,
      "ĠØªØ§Ø±ÙĬØ®": 1631,
      "ĠØ§ÙĦØ§Ø®": 1632,
      "§ÙĦØ§ØŃ": 1633,
      "ĠØ§ÙĦÙĨØ¸Ø§Ùħ": 1634,
      "Ø·Ø§": 1635,
      "ÙħÙĪØ¹": 1636,
      "Ø§Ø±ÙĬ": 1637,
      "ÙĬÙĨØ§Øª": 1638,
      "Ø§Ø¯Ø±": 1639,
      "ĠØ§ÙĦØªÙĪØ": 1640,
      "ĠØ§ÙĦØŃØµÙĪÙĦ": 1641,
      "ĠØ§ÙĦØ¯Ø±Ø§Ø³": 1642,
      "ĠÙĦØ¯ÙĬÙĩØ§": 1643,
      "ħØ¨Ø±": 1644,
      "ĠØ§ÙĦØ¹Øµ": 1645,
      "Ø±ÙĪØ³": 1646,
      "ĠØ§ÙĦØªØµ": 1647,
      "Ø±Ø±": 1648,
      "Ø®ÙĦ": 1649,
      "ĠØ§ÙĦØ§ØŃ": 1650,
      "ĠÙĦÙĦØº": 1651,
      "ÙĦØ§Ùĥ": 1652,
      "ĠØ§Ùĥ": 1653,
      "ÙĭØĮ": 1654,
      "ĨÙģÙĬØ°": 1655,
      "Ø§ØŃØ¸": 1656,
      "ch": 1657,
      "Ø¹Ø§Ù": 1658,
      "ĠÙħØ¶": 1659,
      "ÙĬØ±Ø": 1660,
      "ĠØ§ÙĦØ¨Ø´": 1661,
      "Ø¯ÙĬÙħ": 1662,
      "ĠÙĬÙĪÙħ": 1663,
      "ĠØªØŃØª": 1664,
      "ĠØĽ": 1665,
      "ĠØ§ÙĦÙħØ®ØªÙĦÙģØ©": 1666,
      "le": 1667,
      "ÙĦÙĬÙĥ": 1668,
      "ÙĥÙĨ": 1669,
      "Ø¯ÙĦ": 1670,
      "ĠÙħÙĤØ§ÙĦ": 1671,
      "ĠÙĬØ¹ÙĨÙĬ": 1672,
      "ĠØ§ÙĦØªØ£": 1673,
      "ĠÙĦÙħÙ": 1674,
      "ĠÙĥØªØ§Ø¨Ø©": 1675,
      "ĠÙĪØ®": 1676,
      "ÙħØ«": 1677,
      "ĠØ£Ùĩ": 1678,
      "ĠØ¬ÙĬØ¯": 1679,
      "ĠØ±Ø¦ÙĬØ³": 1680,
      "ĠØ§ÙĦØ£ÙĪÙĦ": 1681,
      "ÙĤÙĤ": 1682,
      "Ø±ØŃ": 1683,
      "ĠØ§ÙĦØ£ÙħØ±": 1684,
      "ÙħØ«ÙĦ": 1685,
      "ĠØ§ÙĦØ®Ø§Øµ": 1686,
      "ĠÙĤØ·": 1687,
      "²Ù": 1688,
      "ĠØ§ÙĦØ±Ø¦ÙĬØ³ÙĬØ©": 1689,
      "ĠÙĪØ§ÙĦØ´": 1690,
      "ÙħÙĦØ©": 1691,
      "ĠØ¥Ø¯Ø§Ø±Ø©": 1692,
      "ÙĩÙĪØ±": 1693,
      "Ø®Ø§Øµ": 1694,
      "ÙĩØ²Ø©": 1695,
      "ĠØ§ÙĦÙĪØ·": 1696,
      "Ø§ÙģÙĬØ©": 1697,
      "ĠØ§ÙĦØ¹ÙĤ": 1698,
      "ĠÙĪÙĩÙĪ": 1699,
      "²Ø§ÙĦ": 1700,
      "ĠØ´ÙĥÙĦ": 1701,
      "Ø¯Ø§Øª": 1702,
      "Ø¹Ø§Ùħ": 1703,
      "ĠØ§ÙĦØªØ·": 1704,
      "ĠØ§ÙĦÙģÙ": 1705,
      "ÙĩÙĦ": 1706,
      "Ø²Ù": 1707,
      "ĠW": 1708,
      "ĠØ£Ø·": 1709,
      "ĠØ§ÙĦØ·Ø¨": 1710,
      "ÙħÙĥÙĨ": 1711,
      "ÙĦÙĪ": 1712,
      "ÙĬØ±Ø§": 1713,
      "ÙħÙĪÙĨ": 1714,
      "ÙĨÙĪØ¨": 1715,
      "ĨØ¸": 1716,
      "§ÙĩØª": 1717,
      "ÙĩØ°Ø": 1718,
      "ÙĩØ°Ø§": 1719,
      "ĠØ¬Ø¯ÙĬØ¯Ø©": 1720,
      "ĠÙħÙĥØ": 1721,
      "ĠØ§ÙĦÙħØ¬ØªÙħØ¹": 1722,
      "ĠØ¹Ø±Ø¶": 1723,
      "ØªØ«": 1724,
      "ÙħØ¶": 1725,
      "Ø²ÙĬØ²": 1726,
      "ÙĦØªØ§Ø±ÙĬØ®": 1727,
      "ĠØªØ³ØªØ®Ø¯Ùħ": 1728,
      "ĠØ¯Ø§Ø®ÙĦ": 1729,
      "ĠÙħÙĥØ§": 1730,
      "ĠØ§ÙĦÙĨÙģ": 1731,
      "ĠØ§ÙĦØµÙ": 1732,
      "·Ø§ÙĤ": 1733,
      "ĠÙĪØ§ÙĦÙĥ": 1734,
      "Ø«ÙĪØ±": 1735,
      "as": 1736,
      "ĠØ§ÙĦØ«Ø": 1737,
      "ŃØ©": 1738,
      "ĠØ§ÙĦØ±Ø³": 1739,
      "§ÙĦØªØ§Ø±ÙĬØ®": 1740,
      "ĠØ¬Ø²Ø¡": 1741,
      "ÙĨÙī": 1742,
      "ol": 1743,
      "ØªØ±Ø§Øª": 1744,
      "ĠÙĪÙħÙ": 1745,
      "ĬØ§Ø±": 1746,
      "ÙĦØ§Ùģ": 1747,
      "ĠØ£Ø¬ÙĦ": 1748,
      "Ø·ØŃ": 1749,
      "ĠØ§ÙĦÙĥÙĩØ±Ø¨": 1750,
      "Ø³ÙĬ": 1751,
      "ĠØ§ÙĦØ¬Ø": 1752,
      "ĨØ³Ø¨Ø©": 1753,
      "ĠÙĪØ§ÙĦØµ": 1754,
      "ĠÙĦÙĦØ·": 1755,
      "Ø§Ø¬Ø©": 1756,
      "ĠØ§ÙĦØªØ§Ø±ÙĬØ®": 1757,
      "Ø¯ÙĨ": 1758,
      "ĠÙĪØ¬ÙĪØ¯": 1759,
      "Ø¹ÙĦØ§": 1760,
      "ĠÙĬØ³ØªØ®Ø¯Ùħ": 1761,
      "ĠØ§ÙĦØ´ÙħØ³": 1762,
      "ĠØ¸": 1763,
      "ĠØ§ÙĦØ¢Ø®Ø±": 1764,
      "ÙĬØº": 1765,
      "ĠØ§ÙĦØ¥ÙĨØªØ±ÙĨØª": 1766,
      "Ø±Ø§ÙĨ": 1767,
      "ĠØ§ÙĤ": 1768,
      "ĠØ§ÙĦØ®Ø·": 1769,
      "ĠØ²ÙĬØ§Ø¯Ø©": 1770,
      "ĠØ§ÙĦØ¬Ø§": 1771,
      "el": 1772,
      "ĠØ¬Ø§ÙħØ¹Ø©": 1773,
      "ĠØªØ¤": 1774,
      "ÙĦÙħØ§Øª": 1775,
      "ĬØ§Ø±Ø§Øª": 1776,
      "ÙĥØ±Ø©": 1777,
      "ÙħØ§ÙĬØ©": 1778,
      "ÙĦØ§Ø¹": 1779,
      "ÙĥÙĦØ©": 1780,
      "ĠÙħØ¬Ø": 1781,
      "ĪØ±ÙĬ": 1782,
      "Ø¯ÙĪØ¯": 1783,
      "ĠØ¯Ø±Ø§Ø³Ø©": 1784,
      "Ø¬Ø©": 1785,
      "ÙħØ¨Ø±": 1786,
      "ÙĨØ§Øª": 1787,
      "Ø¯ÙĬÙĥ": 1788,
      "ĠÙħÙĬØ": 1789,
      "ĠÙħØ¬Ø§": 1790,
      "ĠØ¨Ø§Ø³Ù": 1791,
      "ĪØ§Ø¯": 1792,
      "ÙĥØ¯": 1793,
      "ĠØ§ÙĦØ¨ÙĦ": 1794,
      "³Ø§Ù": 1795,
      "ĠØ§ÙĦØ£ÙĪÙĦÙī": 1796,
      "Ø±ÙĪØ±": 1797,
      "ĠØ§ÙĦØ¥ÙĨØ¬": 1798,
      "ØªØ§Ø¬": 1799,
      "Ø¨ÙĬØ±": 1800,
      "§ÙĨØª": 1801,
      "ĠÙĦÙĦÙĤ": 1802,
      "ĠÙĦØ¯ÙĬÙĩÙħ": 1803,
      "ĠØ¨Ø§Ø³Ùħ": 1804,
      "ªØ±Ø§": 1805,
      "ĠØ·Ø±ÙĬÙĤØ©": 1806,
      "ÙĬÙĨÙĬØ©": 1807,
      "Ø¤": 1808,
      "ÙģØ©": 1809,
      "ĠØ£Ø«ÙĨØ§Ø¡": 1810,
      "Ø§Ø³Ø¨": 1811,
      "ÙĥÙĬØ±": 1812,
      "ĠØ¨Ø§ÙĦØ¥Ø¶Ø§ÙģØ©": 1813,
      "Ø±Øº": 1814,
      "ØªÙģØ§Ø¹": 1815,
      "ÙĩØ¨": 1816,
      "ÙĦÙĬÙĨ": 1817,
      "ħÙĦÙĥ": 1818,
      "ĠØ§ÙĦØªØ³": 1819,
      "ĠØ§ÙĦØ¹ÙĦØ§Ø¬": 1820,
      "ĠØ§ÙĦØªØ¹ÙĦÙĬÙħ": 1821,
      "Ø£Ø©": 1822,
      "ØªÙĪÙĬØ§Øª": 1823,
      "§ÙĦØ§ÙĤ": 1824,
      "ht": 1825,
      "ĠÙĤØ§ÙĦ": 1826,
      "ĠÙĦØ¬": 1827,
      "ÙĬÙĩ": 1828,
      "ÙĦÙĬÙħÙ": 1829,
      "ĠØ§ÙĦØ±ÙĬØ§Ø¶": 1830,
      "Ø£Ø³": 1831,
      "ĠØ¹Ø´Ø±": 1832,
      "ĠØ§ÙĦØ§ÙĤ": 1833,
      "ĠÙģÙĩÙħ": 1834,
      "Ø·Ø§Ø¡": 1835,
      "ÙĥÙĪ": 1836,
      "ĠØ£ÙĨØŃ": 1837,
      "ÙĨÙĪÙĦÙĪØ¬ÙĬØ§": 1838,
      "ØªÙĬØ§Ø±": 1839,
      "ĠÙĪÙĥØ°ÙĦÙĥ": 1840,
      "ĠÙĦÙĦØºØ§ÙĬØ©": 1841,
      "ĠØ£Ùģ": 1842,
      "Ø§Ø³Ù": 1843,
      "ĠÙĬØ¤Ø¯ÙĬ": 1844,
      "ĠØ§ÙĦÙĦØºØ©": 1845,
      "ĠÙĪØ§ÙĦØ±": 1846,
      "Ġ15": 1847,
      "ĠÙĦØŃ": 1848,
      "ĠØªØ·ÙĪÙĬØ±": 1849,
      "ĠØ£ÙĨØŃØ§Ø¡": 1850,
      "ĬØ§Ø©": 1851,
      "ĠØ§ÙĦØŃØ±Ø¨": 1852,
      "Ø¨Øª": 1853,
      "ĠØ±Ø³": 1854,
      "Ø¯ÙĬÙĤ": 1855,
      "ĠÙĦÙĨ": 1856,
      "ĪÙĤÙģ": 1857,
      "ØªØ®Ø¯": 1858,
      "ĠØ¨Ø§ÙĦÙĨØ³Ø¨Ø©": 1859,
      "ĠØ£ÙħØ±": 1860,
      "ĠÙĪÙĤØ¯": 1861,
      "ĠØ£ØµØ¨ØŃ": 1862,
      "ĠØ§ÙĦØ£ÙħØ±ÙĬÙĥÙĬØ©": 1863,
      "ĠØµÙ": 1864,
      "ªÙĬØ¬": 1865,
      "Ġ12": 1866,
      "ĠÙģÙĬÙĩØ§": 1867,
      "ÙħØ±Ø¶": 1868,
      "ĠØ¨Ø£ÙĨ": 1869,
      "ĠØ§ÙĦÙħÙĪØ³": 1870,
      "ÙħÙĬØ±": 1871,
      "ĠÙħÙĥØ§Ù": 1872,
      "Ø¨Ø·": 1873,
      "ĠÙħÙĥØ§ÙĨ": 1874,
      "ÙģØª": 1875,
      "¶ÙħÙĨ": 1876,
      "us": 1877,
      "Ø§Ø±ÙĥØ©": 1878,
      "ĨÙĬØ§": 1879,
      "ĠÙĦÙĬØ": 1880,
      "re": 1881,
      "ĠÙĨÙĩØ§": 1882,
      "Ø§Ø±ÙĨØ©": 1883,
      "ĠØ§ÙĦÙħÙĤØ": 1884,
      "ĠØ§ÙĦØ¹Ø§Ù": 1885,
      "ĠØ§ÙĦØ¹Ø§Ùħ": 1886,
      "ªØ´": 1887,
      "ĠØ¥Ø·": 1888,
      "ÙħØ·": 1889,
      "Ø§Ø±Ø³": 1890,
      "ĠØ¨Ø¯ÙĦ": 1891,
      "ĠØ§ÙĦØ¥ÙĦÙĥØªØ±ÙĪÙĨ": 1892,
      "ĠØ¨Ø¯ÙĦØ": 1893,
      "ĠØ¨Ø¯ÙĦØ§": 1894,
      "ØªÙĩØ§": 1895,
      "ĠÙĬØ³Ø§Ø¹Ø¯": 1896,
      "ĠÙħØ±Ø¶": 1897,
      "ĠØ§ÙĦÙĤØ±ÙĨ": 1898,
      "ªÙĬØ¬Ø©": 1899,
      "ÙħØ²": 1900,
      "ĠÙĪØªÙĤ": 1901,
      "ĠØ§ÙĦØ£Ø¬": 1902,
      "Ø§Ø¦Ùħ": 1903,
      "ĠØ§ÙĦØ¹Ø§ÙħØ©": 1904,
      "ĠÙĪØ¨Ø§ÙĦØªØ": 1905,
      "ĠÙĪØªØ¹": 1906,
      "ĠÙĨÙĩØ§ÙĬØ©": 1907,
      "ĠÙĦÙĪØ": 1908,
      "ĠØ¥ÙĨØ´Ø§Ø¡": 1909,
      "ww": 1910,
      "§ÙĩØªÙħØ§Ùħ": 1911,
      "Ø·Ø§Ù": 1912,
      "ĠÙĪÙģÙĤØ§": 1913,
      "ĠØ§ÙĦÙħÙĤØ§": 1914,
      "ÙĪØ©": 1915,
      "ªØ¬Ø§Øª": 1916,
      "ĠØ§ÙĦÙħØ§Ø¡": 1917,
      "ÙĬØ·Ø©": 1918,
      "ĠØ§ÙĦÙĤÙĬØ§Ùħ": 1919,
      "ĠÙĬØ¸ÙĩØ±": 1920,
      "____": 1921,
      "ĠØ¥Ø¬Ø±Ø§Ø¡": 1922,
      "ĪØ§ØµÙĦ": 1923,
      "ĠØ§ÙĦÙĪØ±": 1924,
      "ĠÙĪØ¨Ø§ÙĦØªØ§ÙĦÙĬ": 1925,
      "ĠÙĬØ®": 1926,
      "ÙĬÙĥÙĪÙĨ": 1927,
      "ĠÙĦÙģ": 1928,
      "Ø§Ø±Ø¨": 1929,
      "ĨØ§ÙĪÙĦ": 1930,
      "Ø±Ùħ": 1931,
      "ÙĪØªØ±": 1932,
      "Ø§Ø¶Ø·Ø±": 1933,
      "Ø¯ÙĬÙĦ": 1934,
      "Ø§Ø¨Ø": 1935,
      "ĠÙĪÙĬÙħÙ": 1936,
      "ÙĦÙĪÙ": 1937,
      "ĠØ§ÙĦÙĨØµ": 1938,
      "ĠÙħØ³ØªÙĪÙī": 1939,
      "ÙĦØ§ÙĬØ§": 1940,
      "ĠØªØ¸ÙĩØ±": 1941,
      "Ø´Ùģ": 1942,
      "ÙĦÙĬØ¯": 1943,
      "ĠØ§ÙĦØ¯Ø±Ø§Ø³Ø©": 1944,
      "Ø«Ø§Ø±": 1945,
      "Ø§Ø¨ÙĤ": 1946,
      "ĠØ§ÙĦØ£Ø³Ø§Ø³ÙĬØ©": 1947,
      "Ġ=": 1948,
      "ÙĪØªÙĬÙĨ": 1949,
      "ĠÙĪØ§ÙĦØ·": 1950,
      "§ÙĤØ´": 1951,
      "ĠÙħÙĨØ°": 1952,
      "ĠÙĬØ²": 1953,
      "ĠÙĬØ¨Ø¯ÙĪ": 1954,
      "ĠÙħØ®ØªÙĦÙģ": 1955,
      "ĠØªØ´ÙħÙĦ": 1956,
      "Ø¬Ø": 1957,
      "Ø¯ÙħØ§Øª": 1958,
      "ÙĪØ§Ø±": 1959,
      "ÙĥØ±ÙĬ": 1960,
      "Ġp": 1961,
      "ØŃØµ": 1962,
      "ĠØ§ÙĦÙĨÙĪØ¹": 1963,
      "am": 1964,
      "ĠØ§ÙĦØŃÙĬÙĪØ§ÙĨØ§Øª": 1965,
      "ĠÙħÙĨØ·ÙĤØ©": 1966,
      "Ø°ÙĬØ©": 1967,
      "Ø§ØªØµØ": 1968,
      "ØµØµ": 1969,
      "Ø§ØªØµØ§": 1970,
      "Ø§ØªØµØ§ÙĦ": 1971,
      "ĠØ§ÙĦØªÙĩ": 1972,
      "ÙĦÙĬØ²ÙĬØ©": 1973,
      "ÙģØ§Ø¡": 1974,
      "ĠØ§ÙĦØŃÙģØ§Ø¸": 1975,
      "Ø§Ø¦Ø¹Ø©": 1976,
      "ĠØ§ÙĦÙĨØ¨Ø§ØªØ§Øª": 1977,
      "ĠØªØŃØªØ§Ø¬": 1978,
      "Ø¬Ø§": 1979,
      "Ø¯Ø§Ø±": 1980,
      "ĠÙĪØ¸": 1981,
      "ĠØ¹Ø§ÙĦÙ": 1982,
      "ro": 1983,
      "ÙĨÙĬØ§": 1984,
      "Ø¨ÙĥØ©": 1985,
      "ĠO": 1986,
      "ÙĤÙĪÙĤ": 1987,
      "ĠØ¨ÙĬØ§ÙĨØ§Øª": 1988,
      "ĠØªÙĦÙĥ": 1989,
      "ĠØ§ÙĦÙħØ¹Ø¯ÙĨÙĬØ©": 1990,
      "ĠØ§ÙĦØ¬Ø³Ùħ": 1991,
      "ĨÙħÙĪ": 1992,
      "ĠØ§ÙĦØµØŃÙĬØ©": 1993,
      "ÙĪÙĨØ§Øª": 1994,
      "ĠØ§ÙĦØµØŃØ©": 1995,
      "ĠØ£Ø¹ÙĦÙī": 1996,
      "Ø³Ø±": 1997,
      "ĠØ³ÙĬ": 1998,
      "ĠØ¥ÙĨØªØ§Ø¬": 1999,
      "ĠÙĪØªÙ": 2000,
      "ĠÙĦÙĦØ¬": 2001,
      "ĠØ§ÙĦÙħØ±Ùĥ": 2002,
      "ĠØ§ÙĦÙĤØ·": 2003,
      "ĠØ§ÙĦØ¹Ø«ÙĪØ±": 2004,
      "ĠÙĦØ¯ÙĬÙĥ": 2005,
      "ØºÙĬÙĦ": 2006,
      "Ø¯ÙĪØ§Øª": 2007,
      "ÙĬÙĨÙ": 2008,
      "ĠÙħØ¬Ø§ÙĦ": 2009,
      "ÙħÙĬÙĦ": 2010,
      "ĠÙģÙĬÙĩ": 2011,
      "Ġd": 2012,
      "ĠÙģØªØ±Ø©": 2013,
      "ĨØ²": 2014,
      "ĠØµÙģ": 2015,
      "ÙĪØ§ÙħÙĦ": 2016,
      "ØªØº": 2017,
      "ÙĬØªØ§": 2018,
      "ĠÙĦÙĢ": 2019,
      "Ø§ÙģØ§Øª": 2020,
      "Ø§ØªØ¬": 2021,
      "Ø§Ø²Ù": 2022,
      "ĠÙĦÙħØ§Ø°Ø§": 2023,
      "ÙĥÙĪÙħØ©": 2024,
      "ĠØªØ·Ø¨ÙĬÙĤ": 2025,
      "ÙĪÙĬÙĦØ©": 2026,
      "Ø²Ø§ÙĦØ©": 2027,
      "Ø¯Ø§Ùģ": 2028,
      "ĠÙĪÙĬÙħÙĥÙĨ": 2029,
      "ÙĪÙĬÙĨ": 2030,
      "ØªÙħØ¯": 2031,
      "ĠØ¥ÙĦÙĬ": 2032,
      "ĠØªØºÙĬÙĬØ±": 2033,
      "ÙĩÙĬ": 2034,
      "ÙĨÙĬØ§Øª": 2035,
      "ĠØ§ÙĦØ¥Ø¬": 2036,
      "ĠÙħÙĪÙĤØ¹": 2037,
      "ĠØ§ÙĦÙģØ±": 2038,
      "ed": 2039,
      "§ÙħÙĦØ©": 2040,
      "Ø³Ø§Øª": 2041,
      "ĠØ¹ÙĦÙĬÙĩØ§": 2042,
      "ĠØ§ÙĦØ¬Ø¯ÙĬØ¯Ø©": 2043,
      "ĠØ§Ø³ØªØ®Ø¯Ø§": 2044,
      "Ø·Ø§ÙĨ": 2045,
      "ĠØ¨Ø¯Ø£": 2046,
      "ĠØ§ÙĦÙĪØµÙĪÙĦ": 2047,
      "ÙĦÙĨ": 2048,
      "ĬÙĦØ©": 2049,
      "ÙĦØ§Ø«": 2050,
      "ĠØ§ÙĦØµÙĨ": 2051,
      "Ø¨ÙĤ": 2052,
      "Ø§Ø¨ÙĦ": 2053,
      "ħØ§Ø±Ø³Ø©": 2054,
      "ĠÙĦÙĦØ³": 2055,
      "ªØ©": 2056,
      "Ø§ÙĦØ¬Ø©": 2057,
      "ĠÙĦÙĥÙĦ": 2058,
      "ÙĦØ¸": 2059,
      "ĠØªØ±Ùĥ": 2060,
      "ĠØ¨Ø¥": 2061,
      "ĠØ¶Ø¯": 2062,
      "Ġ199": 2063,
      "ÙĬÙĪÙħ": 2064,
      "ĠV": 2065,
      "th": 2066,
      "ĠØ³ÙĬÙĥÙĪÙĨ": 2067,
      "§ÙĪÙĦ": 2068,
      "ÙħÙĪØ¹Ø§Øª": 2069,
      "ĠØªØ¹ÙħÙĦ": 2070,
      "ĠÙĬØŃØ¯Ø«": 2071,
      "ÙĦÙĪØ¨": 2072,
      "Ø§Ø³Ø¨Ø©": 2073,
      "Ø¨ÙĪ": 2074,
      "ÙĥØ§Ø±": 2075,
      "Ø±Ø§Ø¶": 2076,
      "ÙĦØ³ÙĦØ©": 2077,
      "ĠØ§ÙĦØ£Ø´ÙĬØ§Ø¡": 2078,
      "ĠØ£ÙħØ±ÙĬ": 2079,
      "Ø±Ø§Ùħ": 2080,
      "ĠØ§ÙĦØ§ÙĤØªØµ": 2081,
      "ĠØ¹ÙĤ": 2082,
      "ĠØ§ÙĦÙĬ": 2083,
      "§ÙĦØ¸": 2084,
      "ĠØ§ÙĦØºØ°Ø§Ø¦ÙĬØ©": 2085,
      "ĠÙĦØ¯ÙĬÙĩ": 2086,
      "Ø§Ø¦Ø¹": 2087,
      "Ø¯ÙĬØ©": 2088,
      "ĠØªØŃÙĦÙĬÙĦ": 2089,
      "ÙĦØ¨ÙĬØ©": 2090,
      "ĠØ¹ÙĦØ§Ø¬": 2091,
      "ĠØ§ÙĦÙĤØ§ÙĨÙĪÙĨ": 2092,
      "ÙĦØ¹Ø¨": 2093,
      "ĠØ§ÙĦØ³ÙĬØ§Ø³": 2094,
      "Ø§Ø¦ÙĦØ©": 2095,
      "°ÙĥØ±": 2096,
      "ĠØ§ÙĦØ«Ø§ÙĨÙĬØ©": 2097,
      "ĠÙĪØ±ÙĤ": 2098,
      "Ø·ÙĨ": 2099,
      "ĠÙĬÙĥÙ": 2100,
      "ĠØªØ³Ø§Ø¹Ø¯": 2101,
      "Ø¨ÙħØ§": 2102,
      "Ùª": 2103,
      "ĠØ§ÙĦÙħØ¯Ø±Ø³Ø©": 2104,
      "ĠØ§ÙĦØ®ÙĦØ§ÙĬØ§": 2105,
      "ĠØ§ÙĦØ¸": 2106,
      "ĠÙĦØªÙ": 2107,
      "ĨÙģØ³": 2108,
      "ĠÙĥÙħ": 2109,
      "ÙħÙĨØ©": 2110,
      "Ø§Ø¦Øµ": 2111,
      "ªÙĥÙĪÙĨ": 2112,
      "Ø¸Ùĩ": 2113,
      "ĠÙĬÙĥÙĨ": 2114,
      "ĠØŃØ±": 2115,
      "ĠØ§ÙĦØ¯ÙĪÙĦÙ": 2116,
      "ĠØ§ÙĦØ«ÙĤ": 2117,
      "ĠÙĤØ§ÙĨÙĪÙĨ": 2118,
      "ĠÙĪÙĩÙĬ": 2119,
      "ĠÙħØ±ÙĥØ²": 2120,
      "ĠÙĦØ¯ÙĬÙĨØ§": 2121,
      "ĠØ¨Ø±ÙĨØ§ÙħØ¬": 2122,
      "ĠØµØŃÙĬØŃ": 2123,
      "ĠØ¹ÙĦØ§": 2124,
      "ĠÙħÙĦÙ": 2125,
      "ĠÙħØªØ¹": 2126,
      "ĠØºØ§ÙĦØ¨Ø": 2127,
      "Ø±Ø§Ø¹Ø©": 2128,
      "ĠØºØ§ÙĦØ¨Ø§": 2129,
      "ĠÙĪØ±ÙĤØ©": 2130,
      "Ø£ÙĬ": 2131,
      "ÙĪØ±ÙĬØ©": 2132,
      "ĬÙĪÙĨ": 2133,
      "ĠØ¬ÙĬ": 2134,
      "ĠÙĬØ³ÙħØŃ": 2135,
      "ĠØ§ÙĦØ±ÙĤ": 2136,
      "ĠÙĪØ§ÙĦØ°": 2137,
      "ĠØµÙĨ": 2138,
      "ÙģØ±Ø§Ø¯": 2139,
      "ĠØ§ÙĦÙĪØŃ": 2140,
      "Ø±Ø·Ø§ÙĨ": 2141,
      "ÙĥÙĬÙĦ": 2142,
      "ĠØ¨ÙĬ": 2143,
      "ĠØ§ÙĦØŃØ±Ø§Ø±Ø©": 2144,
      "ĠÙħÙĤØ§ÙĦØ§Øª": 2145,
      "Ø¹Ø¶": 2146,
      "Ø¬Ø±": 2147,
      "ĨÙĥ": 2148,
      "ªÙĪØ³Ø·": 2149,
      "ĠØ¥Ø´": 2150,
      "ĠØ³ÙĨÙĪØ§Øª": 2151,
      "ĠØ¬ÙħØ¹": 2152,
      "ĠØ¨Ø§ÙĦÙģ": 2153,
      "ĠØ§ÙĦÙħØ±Ø¶Ùī": 2154,
      "ØŃÙ": 2155,
      "ÙĦÙħÙĬÙĨ": 2156,
      "Ø®ÙĬØµ": 2157,
      "Ø¨ÙĪØ¹": 2158,
      "ÙĬÙĪÙĬØ©": 2159,
      "ĠØ§ÙĦÙĨØ¸Ø±": 2160,
      "ĠÙĪØµÙģ": 2161,
      "ĠØ¬Ø²": 2162,
      "ĠÙĩØ§": 2163,
      "ĠØ§ÙĦÙħØ³ØªÙĤ": 2164,
      "ĠÙĦØ¹": 2165,
      "ØµØ§Ø¦Øµ": 2166,
      "ĠÙĬÙĨ": 2167,
      "ĠØ¥Ø¶Ø§ÙģØ©": 2168,
      "ĠØ§ÙĦØ¹Ø¸": 2169,
      "ĠÙĤØ§Ù": 2170,
      "ÙĦÙĪÙĦ": 2171,
      "Ġ17": 2172,
      "ØªÙĬÙĨ": 2173,
      "ĠØªÙħØª": 2174,
      "§ÙĦØ§Ø¹": 2175,
      "Ø¯Ø¡": 2176,
      "ac": 2177,
      "ĠØ§ÙĦØ·Ø¹Ø§Ùħ": 2178,
      "ĠÙĪØºÙĬØ±ÙĩØ§": 2179,
      "ĠØ§ÙĦØ·Ø¨ÙĬØ¹ÙĬØ©": 2180,
      "ĠÙģØ¹": 2181,
      "ÙĦÙģØ©": 2182,
      "ÙĪØ¯Ø©": 2183,
      "ĪÙĩØ°Ø§": 2184,
      "ÙĪÙĩØ°Ø§": 2185,
      "ĠÙĤØ§Ùħ": 2186,
      "ĠØ§ÙĦÙĨØ´": 2187,
      "ĠØ§ÙĦØ¹Ø§ÙĦÙħÙĬØ©": 2188,
      "ĠØ¯ÙĪØ±": 2189,
      "Ø§Ø´Ø±Ø©": 2190,
      "ĠØ§ÙĦÙĩÙĪØ§Ø¡": 2191,
      "ĠØ§ÙĦØ§Ø¹": 2192,
      "ĪÙĩ": 2193,
      "ÙĦÙĬØ§": 2194,
      "Ø¨ÙĬÙĪØªØ±": 2195,
      "Ø¨ÙĬØ¨": 2196,
      "ĠØŃØ": 2197,
      "ĠØ§Ø®ØªÙĬØ§Ø±": 2198,
      "ĠJ": 2199,
      "Ø±ÙĬØ¹": 2200,
      "Ø§Ø¬Ø§Øª": 2201,
      "Ø±ØªØ¨Ø·Ø©": 2202,
      "ĠØ§ÙĥØªØ´": 2203,
      "ĨÙħÙĪØ°Ø¬": 2204,
      "Ø§ÙħØ©": 2205,
      "ĠØ£Ø±Ø¨": 2206,
      "ĠØ®Ø§Ø±Ø¬": 2207,
      "ĠÙĪÙĩØ°Ø§": 2208,
      "tp": 2209,
      "Ø·ÙĬ": 2210,
      "ĠÙħØ¹Ø±ÙģØ©": 2211,
      "ØªØ±Ø§ØªÙĬØ¬": 2212,
      "11": 2213,
      "ĠØ¹Ø§ÙĦÙĬØ©": 2214,
      "ĠÙĦÙĦÙħ": 2215,
      "ÙĪØ¨Ø©": 2216,
      "ÙĬØ§Ø±": 2217,
      "ĠØ§ÙĦØ±Ø¹Ø§ÙĬØ©": 2218,
      "ĠØ³ÙĨ": 2219,
      "ĠÙĨÙģØ³Ùĩ": 2220,
      "Ø§Ø¯Ø": 2221,
      "il": 2222,
      "ĠØ§ÙĦÙħÙĩÙħ": 2223,
      "ĠØ®Ø§ØµØ©": 2224,
      "ĠØ§ÙĦØ£Ø´Ø®Ø§Øµ": 2225,
      "ÙĦÙĦÙĩ": 2226,
      "Ġ16": 2227,
      "Ø±Ø¨ÙĪÙĨ": 2228,
      "ĠÙĨØ·Ø§ÙĤ": 2229,
      "ĠØ¯ÙĪÙĦ": 2230,
      "ĠØ§ÙĦØ´Ø¹": 2231,
      "ĠØ¬ÙĩØ§Ø²": 2232,
      "ÙĦÙĪØ§": 2233,
      "ĠØ§ÙĦØªØ¹ÙĦÙħ": 2234,
      "ĠØ¹ÙĦÙĬÙĩ": 2235,
      "ĠØ·Ø¨ÙĬØ¹": 2236,
      "ĠØ¥Øµ": 2237,
      "²ÙĨ": 2238,
      "Ø§ØµØ±": 2239,
      "ĠØ§ÙĦØ¹Ø¶": 2240,
      "ĠØ§Ø®ØªØ¨Ø§Ø±": 2241,
      "Ø§ÙĩØªÙħØ§Ùħ": 2242,
      "ĠÙħÙĩÙħØ©": 2243,
      "¤ÙĬØ©": 2244,
      "ĠØ§ÙĦÙħÙĪØ¬": 2245,
      "ÙĬÙĪØ±": 2246,
      "ĠâĢ¬": 2247,
      "ĠØ§ÙĦØ§Ø¬ØªÙħØ§Ø¹ÙĬØ©": 2248,
      "ÙĬØ§Ø³": 2249,
      "ĠÙĬØ³Ø¨Ø¨": 2250,
      "ĠØªÙĤØ¯ÙĬÙħ": 2251,
      "ħØ§Ø¡": 2252,
      "ĠØ¨ÙĦ": 2253,
      "ĠØ§ÙĦÙħØªÙ": 2254,
      "ĠØ§ÙĦØ¥Ø³": 2255,
      "ĠÙĦÙħØ¹": 2256,
      "ĠØ«ÙĦØ§Ø«Ø©": 2257,
      "Ġs": 2258,
      "//": 2259,
      "ĠK": 2260,
      "ĠÙĬÙĤØ¯Ùħ": 2261,
      "ĠÙħØ³ØªÙĪÙĬØ§Øª": 2262,
      "ĠÙĦÙħØ¯Ø©": 2263,
      "Ø±Ø§ÙĤØ¨Ø©": 2264,
      "http": 2265,
      "ĠÙĪØ²": 2266,
      "ĠÙĪØ§ÙĦØ¯": 2267,
      "ĠÙĦÙĦØ´": 2268,
      "ĠØ§ÙĦÙĥÙĬÙħÙ": 2269,
      "ĠÙħØ¹Ø": 2270,
      "ĪÙģØ±": 2271,
      "ĠÙģÙĪÙĤ": 2272,
      "ÙĨÙĪØ§Ø¹": 2273,
      "ÙģÙĬÙģ": 2274,
      "Ø±Ø§Ùĩ": 2275,
      "Ø¹ÙĦØ§Ù": 2276,
      "Ġ11": 2277,
      "Ø¦ÙĦØ©": 2278,
      "ĠÙħÙĤØ§Ø±ÙĨØ©": 2279,
      "ĠØ¨ØŃØ«": 2280,
      "ĠØ§ÙĦØ£ØŃÙĬØ§ÙĨ": 2281,
      "ÙĩÙĪØ¯": 2282,
      "ĠÙĥØªØ¨": 2283,
      "ĠÙĪØµ": 2284,
      "ĠÙĬØ£": 2285,
      "Ø¨Ø§Ø¡": 2286,
      "§ÙĦÙĦÙĩ": 2287,
      "ÙĥØ§ÙĦ": 2288,
      "ĠØªÙĪÙģØ±": 2289,
      "ĠØ§ÙĦÙĨØ¸": 2290,
      "://": 2291,
      "ĨØª": 2292,
      "ĠU": 2293,
      "ĠØ§Ø³Ù": 2294,
      "ĠØ§ÙĦØ¥ÙĨØ¬ÙĦÙĬØ²ÙĬØ©": 2295,
      "ÙħÙĤ": 2296,
      "ĠÙĨØŃÙĨ": 2297,
      "ÙĨÙħÙĪØ°Ø¬": 2298,
      "Ø¬ÙĬÙĦ": 2299,
      "ĠÙĦÙĪ": 2300,
      "ĠØ§Ø³Ùħ": 2301,
      "ĠØ§ÙĦØ¯ÙĪØ±": 2302,
      "ĠØŃÙĬØ§Øª": 2303,
      "ĬÙĪØ¬Ø¯": 2304,
      "ÙĬÙĪØ¬Ø¯": 2305,
      "ĠÙĬÙĪØ¬Ø¯": 2306,
      "ĠØ§ÙĦØ¥Ø´": 2307,
      "ĠØ§ÙĦÙĦÙĩ": 2308,
      "ĠØµØºÙĬØ±Ø©": 2309,
      "ĠÙĦØªÙĤ": 2310,
      "ĠÙĪÙĨØ": 2311,
      "Ø§Ø¬Ø¹Ø©": 2312,
      "ĠÙĬØŃØªÙĪÙĬ": 2313,
      "ĠØ¨Ø§ÙĦÙĤ": 2314,
      "ĠØ§ÙĦØ£Ùģ": 2315,
      "ĠØ§Ø±ØªÙģØ§Ø¹": 2316,
      "Ø¨Ø¯": 2317,
      "ĪÙħØ§": 2318,
      "ÙĤØ§Ø¡": 2319,
      "Ø®Ø©": 2320,
      "ĠØ§Ø³ØªÙ": 2321,
      "ĠÙĪÙĨ": 2322,
      "Ø§Ø¦Ø±": 2323,
      "ĠØ§ÙĦØ¬ÙĨØ³": 2324,
      "ĠØ§ÙĦØ£Ø³ÙĨØ§ÙĨ": 2325,
      "ĠÙħÙĪØ¬": 2326,
      "ħÙĦÙĬØ§Øª": 2327,
      "ĠÙĨÙħÙĪØ°Ø¬": 2328,
      "ĠØ³Ø¨": 2329,
      "Ø§ØŃØ«": 2330,
      "Ø§ØªØŃ": 2331,
      "ĠØ§ÙĦÙħÙĨØ·ÙĤØ©": 2332,
      "ĠØ§Ø«": 2333,
      "ĠØªØ³Ø¨Ø¨": 2334,
      "ĠØ§ÙĦØ³ÙĥØ§ÙĨ": 2335,
      "Ø§Ø¨ÙĬØ©": 2336,
      "ĠØªØ¹Ø±ÙĬÙģ": 2337,
      "12": 2338,
      "ĠØ§ÙĦÙħÙĪØ³ÙĬÙĤ": 2339,
      "âĢ¬âĢ¬âĢ¬âĢ¬âĢ¬âĢ¬âĢ¬âĢ¬âĢ¬âĢ¬âĢ¬âĢ¬âĢ¬âĢ¬âĢ¬âĢ¬": 2340,
      "ion": 2341,
      "Ø§ÙĦÙĬÙģ": 2342,
      "ĠØ§ÙĦÙħÙĨØ§Ø·ÙĤ": 2343,
      "ĠØªØµÙħÙĬÙħ": 2344,
      "ĠØ§ÙĦÙĨØ³Ø§Ø¡": 2345,
      "ĠØ§ÙĦØ°Ø§Øª": 2346,
      "Ø®Ø°": 2347,
      "ĠØ§ÙĦØ¨Ø´Ø±ÙĬØ©": 2348,
      "ĠØ§ÙĦØ¯ÙħØ§Øº": 2349,
      "Ø§Ø·Ø±": 2350,
      "ĠÙĦÙĦØŃØµÙĪÙĦ": 2351,
      "ĠÙĪØ§ÙĦÙħØ¹": 2352,
      "ur": 2353,
      "ĠØ·ÙĪÙĬÙĦØ©": 2354,
      "id": 2355,
      "ÙĤÙħ": 2356,
      "ÙģØ§Ùĩ": 2357,
      "ing": 2358,
      "§ÙĦÙĦ": 2359,
      "ĠØ£ÙĩÙħÙĬØ©": 2360,
      "Ø§Ø¨Ù": 2361,
      "ĠÙĪÙĦØ": 2362,
      "ÙħØ§ÙĦÙĬØ©": 2363,
      "Ø¬Ø±Ø©": 2364,
      "ĠØ§ÙĦØŃØ³": 2365,
      "ØŃØ«": 2366,
      "ĠØ§ÙĦÙħØ§Ø¯Ø©": 2367,
      "ĠØªÙĤØ¯Ùħ": 2368,
      "Ø®Ø": 2369,
      "com": 2370,
      "Ø³ØªÙ": 2371,
      "ĠØªØ¶": 2372,
      "ĠØ§ÙĦÙĦ": 2373,
      "ÙĪÙĦÙĬØ©": 2374,
      "ĠØ§ÙĦØ·Ø±ÙĬÙĤØ©": 2375,
      "ĠØ¬Ø¯": 2376,
      "ĠÙĪÙĦØ§": 2377,
      "18": 2378,
      "ĠÙĦÙĩØ°Ø§": 2379,
      "ĠØ§ÙĦØµØºÙĬØ±Ø©": 2380,
      "Ø¨Ø§Ø±": 2381,
      "Ø³Ø§": 2382,
      "Ø·ÙģØ§ÙĦ": 2383,
      "ĠØ§ÙĦÙħÙĨØ§Ø®": 2384,
      "ĠØ´Ø¹": 2385,
      "ĠØªØ¹ÙĦÙħ": 2386,
      "ĨÙħÙĬØ©": 2387,
      "ĠÙĬÙĤÙĪÙĦ": 2388,
      "ĠÙĦØ¯Ùī": 2389,
      "Ø¬Ø§Ø±": 2390,
      "Ø§ØµÙĬÙĦ": 2391,
      "ÙĬÙĨÙĬ": 2392,
      "Ø§ÙģÙ": 2393,
      "ĠØªØºÙĬØ±": 2394,
      "ÙĪÙĨØ§": 2395,
      "ĠØ§ÙĦÙħØª": 2396,
      "ĠØªØº": 2397,
      "Ø§Ø¨ÙĤØ©": 2398,
      "Ø·Ø·": 2399,
      "ÙĲ": 2400,
      "Ø°ÙĪØ±": 2401,
      "Ø¹Ø§Ø¯Ø©": 2402,
      "ĠØ®Ø·Ø±": 2403,
      "Ġ14": 2404,
      "ĠÙĬØ¶": 2405,
      "ĠÙĦØº": 2406,
      "Ø¬Ø§ÙĦ": 2407,
      "ÙĪÙĪÙ": 2408,
      "ĠØ§ÙĦØ¨Ø·": 2409,
      "ÙĦØ§ÙĤØ©": 2410,
      "ĠÙĥÙĦÙħØ©": 2411,
      "Ġm": 2412,
      "Ø§Ø¯ÙĦ": 2413,
      "Ø§Ø¦Ùģ": 2414,
      "Ø¯Ø§Ø±Ø©": 2415,
      "ĠÙħØ³ØªÙĤ": 2416,
      "ĠØ§ÙĦÙĪØ³": 2417,
      "ĠÙĬØ¹ØªÙĤØ¯": 2418,
      "ĠØ§ÙĦØ°Ùĥ": 2419,
      "ÙĥÙĬØ¯": 2420,
      "Ø²Ø§Ø¡": 2421,
      "ĠÙĬØ¹ÙħÙĦ": 2422,
      "ÙĪÙħØ§Øª": 2423,
      "Ø§Ø¯Ø±Ø©": 2424,
      "ĠØªÙĤÙĬÙĬÙħ": 2425,
      "ĠØ§ÙĦØ¨ÙĬØ¶": 2426,
      "Ø§ÙģÙĬ": 2427,
      "ĠÙħÙĤØ§ÙĦØ©": 2428,
      "Ø¯Ø§ÙĬØ©": 2429,
      "ÙĩØ§Øª": 2430,
      "ĠØµØ¹": 2431,
      "ĠØªÙĨØ§ÙĪÙĦ": 2432,
      "ĠØ§ÙĦØªÙģÙĥÙĬØ±": 2433,
      "ÙĦØªØ¨": 2434,
      "ĠØªÙĪÙģÙĬØ±": 2435,
      "ÙĥÙĬØ²": 2436,
      "ÙĨÙĬÙģ": 2437,
      "ĠØªØŃØ³ÙĬÙĨ": 2438,
      "ĠØ§ÙĦØ¨ÙĬØ¦": 2439,
      "ªØ§": 2440,
      "Ø±Ø´": 2441,
      "ĠÙħØ·": 2442,
      "ĠÙĦØ§Ø³": 2443,
      "Ø·Ùī": 2444,
      "ĠØ¥ÙĦ": 2445,
      "ĠØ¨Ø§ÙĦØªØ": 2446,
      "Ø®Ø§": 2447,
      "ÙĨØµ": 2448,
      "ĠÙĬØ²Ø§ÙĦ": 2449,
      "ĠØ¬Ø¯ÙĬØ¯": 2450,
      "ĠØ¬ÙĨØ¨": 2451,
      "ĠÙĦØªØ¹": 2452,
      "ĠØ§ÙĦÙħÙħÙ": 2453,
      "ĠÙĦÙĦÙĥ": 2454,
      "ÙģÙĬØ©": 2455,
      "ad": 2456,
      "ĠÙħØ¹Ø§": 2457,
      "Ø§Ø±Ø¹": 2458,
      "Ø¯ÙĬÙĤØ©": 2459,
      "ĪÙħÙĨ": 2460,
      "Ġ13": 2461,
      "ĠØ³ÙĬØªÙħ": 2462,
      "ĠØ§ÙĦØŃØ¯ÙĬØ«": 2463,
      "ÙĩÙĪÙĦØ©": 2464,
      "ØªÙĪØ¨": 2465,
      "ĬØ§Ø¦ÙĬØ©": 2466,
      "Ø§ØªØ®": 2467,
      "Ø§Ø¦ØŃ": 2468,
      "ĠÙĬØªØ¹ÙĦÙĤ": 2469,
      "§ÙĦØªØ¨": 2470,
      "ĠØ¯ÙĦÙĬÙĦ": 2471,
      "Ø±Ø²": 2472,
      "Ø³ÙĨ": 2473,
      "ĠØ§ÙĦÙħØ´ØªØ±": 2474,
      "ĠØ§ÙĦØ¢Ø®Ø±ÙĬÙĨ": 2475,
      "ĠÙĪØ´": 2476,
      "ØªÙħÙĦ": 2477,
      "Ġhttp": 2478,
      "ĠÙĦØ§ØŃ": 2479,
      "ÙĨÙĪ": 2480,
      "Ø²ÙĬÙĨ": 2481,
      "Ø§Ø¨Ø¹": 2482,
      "ĠØ§ÙĦØªØ¨": 2483,
      "ĠØ§ÙĦØ¶ÙĪØ¡": 2484,
      "Ø¯ÙĪÙĦ": 2485,
      "ĠØŃÙĬØ§Ø©": 2486,
      "ÙĬØ·Ø±Ø©": 2487,
      "ĠØ§ÙĦØ«Ø§ÙĨÙĬ": 2488,
      "ĠØŃØ¬Ùħ": 2489,
      "ÙĪÙħÙĨ": 2490,
      "Ġ30": 2491,
      "ĠØ¥Ø¶": 2492,
      "ħØ¨ÙĬÙĪØªØ±": 2493,
      "ĠØ§ÙĦÙħÙĨØ²ÙĦ": 2494,
      "Ø³ÙĬØ©": 2495,
      "ĠØ¯ÙĪÙĦØ§Ø±": 2496,
      "¦Ø©": 2497,
      "ĠØ§ÙĦØ¹ÙĦÙħ": 2498,
      "ĠØ®Ø§Øµ": 2499,
      "ªØ¨Ø¹": 2500,
      "ĠØ§ÙĦÙĥÙĦÙħØ§Øª": 2501,
      "ĠØ§ÙĦÙĨØªØ§Ø¦Ø¬": 2502,
      "ĠØ§ÙĦÙģÙĤ": 2503,
      "ĠØ´Ø±ÙĥØ©": 2504,
      "ÙĪØ§Ø¬": 2505,
      "ĠÙĤÙĦÙĬÙĦ": 2506,
      "§ÙħØ": 2507,
      "50": 2508,
      "³Ø§ÙĨ": 2509,
      "ĠØ¨Ø³Ø±Ø¹Ø©": 2510,
      "ĠÙĦÙħØ³": 2511,
      "ÙĬØ±ÙĪØ³": 2512,
      "ÙħØ§ÙĦÙĬ": 2513,
      "ÙĬØ§Ø±Ø§Øª": 2514,
      "ĠØªØŃØªÙĪÙĬ": 2515,
      "ØªØ±Ø§": 2516,
      "Ø´Ø¨": 2517,
      "ĠÙĪÙħÙĨ": 2518,
      "ĠØ£Øº": 2519,
      "ĠØ§ÙĦØ·Ø±ÙĤ": 2520,
      "ĠØ·Ùģ": 2521,
      "os": 2522,
      "ĠØ§Ø³ØªØ®Ø¯Ø§ÙħÙĩØ§": 2523,
      "Ø¯ÙĪØ±": 2524,
      "ĠØ§ÙĦÙģØµÙĦ": 2525,
      "ĠØ¯Ø§Ø¦": 2526,
      "ĠØ§ÙĦØŃØ§ÙĦØ§Øª": 2527,
      "ĠØ¯Ø¹": 2528,
      "ĠÙĨØ¸Ø±": 2529,
      "ĠÙħØ´Ø§ÙĥÙĦ": 2530,
      "Ġ*": 2531,
      "Ø³ÙĬØ±": 2532,
      "ĠÙĪØ§ÙĦØº": 2533,
      "ĠØ³ÙĦØ³ÙĦØ©": 2534,
      "ĠØ·ÙĪÙĦ": 2535,
      "ĠØ§ÙĦÙĤØµ": 2536,
      "ĠØ§Øª": 2537,
      "ĠØ¥Ø²Ø§ÙĦØ©": 2538,
      "ÙĪØ§Ø¶": 2539,
      "un": 2540,
      "ĠØ¨ÙĤ": 2541,
      "ĠÙĨØªØ§Ø¦Ø¬": 2542,
      "ÙĦØ·Ø©": 2543,
      "ĠØ§ÙĦØ¨ÙĬØ¦Ø©": 2544,
      "ÙģØ§Ø¶": 2545,
      "ĠÙħÙĪØ¶ÙĪØ¹": 2546,
      "ĠÙĦÙĦÙģ": 2547,
      "Ø¹Øª": 2548,
      "Ø±Ø¨ÙĬØ©": 2549,
      "ĠØ§ÙĦØ±Ø¦ÙĬØ³Ù": 2550,
      "ĠØ§ÙĦØ±Ø¦ÙĬØ³ÙĬ": 2551,
      "ĠÙĦØ£ÙĨÙĩ": 2552,
      "ÙĦØ¯ÙĪ": 2553,
      "ĠÙĪÙĥØ": 2554,
      "ĠØ§ÙĦÙĥØ±Ø¨ÙĪÙĨ": 2555,
      "Ø±ÙĬÙĨ": 2556,
      "Ø´Ø±Ø§Øª": 2557,
      "ĠÙĬØ¹Ø§ÙĨÙĪÙĨ": 2558,
      "ÙĬÙĨØº": 2559,
      "ÙĨØ²": 2560,
      "Ø¦Ùĥ": 2561,
      "ĠØ§ÙĦØŃÙĥÙĪÙħØ©": 2562,
      "ĠØªØ²": 2563,
      "ĠØ¬ÙĬØ¯Ø©": 2564,
      "ĠÙħÙħØ": 2565,
      "ÙĬÙĪÙĦÙĪØ¬": 2566,
      "ĠØ§ÙĦÙĤÙĦØ¨": 2567,
      "®ÙģØ¶Ø©": 2568,
      "ÙĦØ§ÙħØ©": 2569,
      "ĠÙĪØ§Ø¶": 2570,
      "ĠØ§ÙĦÙħÙĦÙĥ": 2571,
      "ĠØ§ÙĦØªØ§ÙĦÙĬØ©": 2572,
      "Ø§Ø¨ÙĦØ©": 2573,
      "ĠØ¯ÙĬ": 2574,
      "ĠØ§ÙĦÙĤØ¯ÙĬÙħØ©": 2575,
      "ØºÙĬØ±": 2576,
      "ĠÙĪÙģÙ": 2577,
      "ĠÙħØ¹ÙĦÙĪÙħØ§Øª": 2578,
      "ĠÙĥØ§ÙĨÙĪØ§": 2579,
      "§ÙĪÙĨ": 2580,
      "Ø¹Ø§Ø±": 2581,
      "ØŃØ§Øª": 2582,
      "Ø¶Ù": 2583,
      "ĠÙĨØ¹": 2584,
      "Ø¹Ø§ÙĦ": 2585,
      "Ø¸Ø©": 2586,
      "Ø§ØŃÙĬØ©": 2587,
      "ĠØªÙĨØ¸": 2588,
      "ĠØ§ÙĦØ´Ø±": 2589,
      "ĠÙĦÙĦØªØ¹": 2590,
      "ĠØ§ÙĦØ«ÙĦØ§Ø«": 2591,
      "ĠØ¬Ø§ÙĨØ¨": 2592,
      "ĠØ¥ÙĨØ¬": 2593,
      "ĠÙĦÙĥÙĨ": 2594,
      "ĠØ§ÙĦØªÙĩØ§Ø¨": 2595,
      "Ø±ÙĬÙĥ": 2596,
      "ĠØ§ÙĦØªØ±Ø¨Ø©": 2597,
      "ĠÙĪØ§ÙĦØªØŃ": 2598,
      "ĠÙħØ¨Ø§Ø´Ø±Ø©": 2599,
      "ĠÙħÙĦØ§ØŃØ¸": 2600,
      "ĠÙĦÙĬØ³Øª": 2601,
      "ĠØ§ÙĦØ¥Øµ": 2602,
      "ĠÙĪØ§ÙĦØ«": 2603,
      "ĠÙĪÙģÙĬ": 2604,
      "ÙĪØ§Ùģ": 2605,
      "§ÙĦØ¯ÙĪ": 2606,
      "ĠÙĨØªÙĬØ¬Ø©": 2607,
      "ĠØ§ÙĦØ¹ÙħÙĦÙĬØ©": 2608,
      "ĠÙĦÙĦÙħØ³": 2609,
      "ĠÙĨØµ": 2610,
      "ĠÙĬØª": 2611,
      "ĠØ§ÙĦØ³Ø¨Ø¨": 2612,
      "ÙĦØ±ÙĪ": 2613,
      "ĠØ±ÙĪ": 2614,
      "Ø¹ÙĬ": 2615,
      "ĠØ§ÙĦØ£ÙĨÙĪØ§Ø¹": 2616,
      "ĠØ§ÙĦÙĥÙħØ¨ÙĬÙĪØªØ±": 2617,
      "ĠØ§ÙĦØ£Ø¹ÙħØ§ÙĦ": 2618,
      "ĠÙĪÙĬØ¹": 2619,
      "ĠØ§ÙĦÙħØ¹Ø±ÙĪÙģ": 2620,
      "ÙħÙĪØ§": 2621,
      "ħØ¯Ùī": 2622,
      "ÙħÙĨØ§": 2623,
      "ĠØ§ÙĦØ¯ÙĪ": 2624,
      "ĠØ¥ÙĦØ": 2625,
      "ĠØ¥ÙĦØ§": 2626,
      "ĠÙĦØªØŃØ¯ÙĬØ¯": 2627,
      "16": 2628,
      "ĠÙĬÙħÙĥÙĨÙĨØ§": 2629,
      "ÙĪØ§Øª": 2630,
      "ÙĥØªÙĪØ±": 2631,
      "ĪÙħÙĬØ©": 2632,
      "ÙħÙħ": 2633,
      "§ÙĦØ±ÙĪ": 2634,
      "Ø±ÙĪØ±ÙĬ": 2635,
      "ĬÙĥØ": 2636,
      "ĠØ§ÙĦÙħØ§": 2637,
      "ĠØ§Ø¶Ø·Ø±": 2638,
      "ĠØ§ÙĦØŃÙĤÙĬÙĤ": 2639,
      "ÙĥØ«Ø±": 2640,
      "ĠÙħØŃØ": 2641,
      "ÙĪÙĨØ©": 2642,
      "Ø³ÙĬÙħ": 2643,
      "Ø¨Ùĩ": 2644,
      "ĠØ§ÙĦØ¬Ø²Ø¡": 2645,
      "ĠÙĤÙĬÙħØ©": 2646,
      "ĠØ¶ØºØ·": 2647,
      "ĠÙĬØ¹Ø±Ùģ": 2648,
      "ĪØ§Ø¦Ø¯": 2649,
      "Ø±Ø§ÙħØ¬": 2650,
      "ĠØ¨Ø§Ø±": 2651,
      "Ø§Ø¦Ø¯Ø©": 2652,
      "ĠØ§ÙĦØ±ÙĪ": 2653,
      "ĠÙĤÙĬØ§Ø³": 2654,
      "ĠØªØŃÙĤÙĬÙĤ": 2655,
      "ĠÙħØ´Ø±ÙĪØ¹": 2656,
      "ÙĦØ§ÙĤØ§Øª": 2657,
      "ÙĦØ§ØªØµØ§ÙĦ": 2658,
      "ĠØ§ÙĦØ£ÙĤÙĦ": 2659,
      "ĠØ§ÙĦÙģÙĬØ¯": 2660,
      "ĠÙĬØ·": 2661,
      "ĠØ§ÙĦÙĪØ·ÙĨÙĬØ©": 2662,
      "Ø±Ø³Ø": 2663,
      "Ø±ÙĤØ": 2664,
      "ĠØ£ÙĨØ§": 2665,
      "ĠØ§ÙĦÙĤØ¶": 2666,
      "ĠØ§ÙĦØ§Ø¬ØªÙħØ§Ø¹ÙĬ": 2667,
      "Ø§Ø¨Ø·": 2668,
      "ĠØ§ÙĦØ¬ÙĩØ§Ø²": 2669,
      "ĠØ§ÙĦÙĥØªØ§Ø¨Ø©": 2670,
      "ÙħÙĪÙĬØ©": 2671,
      "§ÙĨØ¯": 2672,
      "ĨØ´": 2673,
      "ØµØ": 2674,
      "ĠÙģØ¥ÙĨÙĩ": 2675,
      "ĠØªØ¹Ø±Ùģ": 2676,
      "Ø§ÙĪÙĨ": 2677,
      "Ø¨ÙĪØ¨": 2678,
      "ĠØŃØ±Ø§Ø±Ø©": 2679,
      "§ÙĨÙĤ": 2680,
      "ĠØªØŃØ¯Ø«": 2681,
      "Ø±Ø£": 2682,
      "§ÙĪÙĦØ©": 2683,
      "ĠØ¥Ø¬": 2684,
      "ĠÙĦÙĦØµ": 2685,
      "ĠÙħØ¯ÙĬÙĨØ©": 2686,
      "ĠØ§ÙĦÙĨÙĩ": 2687,
      "Ø§Ø³ÙĬ": 2688,
      "ĠØ§ÙĦÙħÙĪØ¶ÙĪØ¹": 2689,
      "15": 2690,
      "ĠÙĤÙĪØ©": 2691,
      "ĠÙħÙĦÙĬÙĪÙĨ": 2692,
      "ĨÙĪØ¹": 2693,
      "ÙĦÙĪØ«": 2694,
      "ĠÙĬØªØŃ": 2695,
      "ĠÙĦØªØŃÙĤÙĬÙĤ": 2696,
      "ĠØ¨Ø§ÙĦÙģØ¹ÙĦ": 2697,
      "Ġc": 2698,
      "Ø§Ø¬Ø¹": 2699,
      "Ø§ØªØ¬Ø§Ùĩ": 2700,
      "Ø´Ø±Ø©": 2701,
      "ĬÙĪ": 2702,
      "ĠØ£Ø¬ÙĩØ²Ø©": 2703,
      "Ø§Ø¯Ø¦": 2704,
      "ĠØ§ÙĦØ«Ø§": 2705,
      "ÙĪØ´": 2706,
      "ĠØ¹ÙĦÙĬÙĥ": 2707,
      "ØªØ´Ùģ": 2708,
      "17": 2709,
      "ĠÙĦÙĦØ§Ø³": 2710,
      "ÙĦÙĬØ¨": 2711,
      "Ø±Ø§Ø¶ÙĬ": 2712,
      "ĠØ§ÙĦÙħÙĤØ§ÙĦØ©": 2713,
      "ĠÙĪØªØ³": 2714,
      "ĠØ§ÙĦØ¯Ø§Ø®": 2715,
      "um": 2716,
      "Ø¹Ø¯": 2717,
      "ÙģØ§Øª": 2718,
      "ĠÙĨØ¬": 2719,
      "ĠÙĤØ§Ø¦ÙħØ©": 2720,
      "ĠÙĦÙĦØ¥": 2721,
      "§ÙĦØ§ØªØµØ§ÙĦ": 2722,
      "ĠÙĥØ±": 2723,
      "ĠØ§ÙĦÙħØ´Ø§ÙĥÙĦ": 2724,
      "ĠÙħÙĩÙħ": 2725,
      "ĠÙĪØª": 2726,
      "ÙĤØ§Øª": 2727,
      "ĠØ§ÙĦØ§ØªØµØ§ÙĦ": 2728,
      "ĠØ§ÙĦÙĤØ¯Ø±Ø©": 2729,
      "ÙĦÙĬÙģ": 2730,
      "ĠÙĤØµØ©": 2731,
      "ĠØ§ÙĦÙħØªØ¹": 2732,
      "ĠØ§ÙĦØŃÙĬÙĪÙĬØ©": 2733,
      "ĠØ§ÙĦÙħÙĪØ§Ø±Ø¯": 2734,
      "¸Ùģ": 2735,
      "ĠÙĬØªÙ": 2736,
      "ĠØ§ÙĦÙĨÙĪÙĪÙ": 2737,
      "ÙĨÙĥ": 2738,
      "ĠØ§ÙĦØ¨Ø¹Ø¶": 2739,
      "ĪØ§Ø¹Ø¯": 2740,
      "ĠØªØ´ÙĬØ±": 2741,
      "Ø±Ø³Ø§": 2742,
      "ĠØ§Ø«ÙĨÙĬÙĨ": 2743,
      "Ø¯ÙĪÙī": 2744,
      "ĠÙĩØ": 2745,
      "ĠØ§ÙĦØ¬Ø§ÙĨØ¨": 2746,
      "ØºÙ": 2747,
      "ĨØ¬": 2748,
      "ĠÙħÙĨÙĩØ§": 2749,
      "ĠÙĨØ¨": 2750,
      "Ø§Ø¹ÙĦ": 2751,
      "ÙħØ³Ø©": 2752,
      "®ÙģØ§Ø¶": 2753,
      "ĠÙĨÙĤØ·Ø©": 2754,
      "ĠĠ": 2755,
      "ØªÙħÙĦØ©": 2756,
      "ĠÙĨÙĤÙĦ": 2757,
      "ĠØ±Ø¨ÙħØ§": 2758,
      "ÙĦÙĬÙħÙĬØ©": 2759,
      "ĠÙħØ´ÙĥÙĦØ©": 2760,
      "Ġ100": 2761,
      "ĠØªÙĤÙĦÙĬÙĦ": 2762,
      "ĨÙĩ": 2763,
      "ÙĬØŃØ©": 2764,
      "ĬÙĥØ§": 2765,
      "Ø±ÙĬØ§Øª": 2766,
      "ĠÙĪØ¯": 2767,
      "Ø§ØŃÙĦ": 2768,
      "ĠØ¨Ø§ÙĦÙĥ": 2769,
      "ĬÙĥÙĬØ©": 2770,
      "ÙĪÙħØ§": 2771,
      "ĠØªØª": 2772,
      "ĨÙĪÙĬØ©": 2773,
      "ĠØ§ÙĦØ´Ø®ØµÙĬØ©": 2774,
      "ĠØ§ÙĦÙħØ¹Ø": 2775,
      "ĠÙĦÙĦØ£Ø·ÙģØ§ÙĦ": 2776,
      "ÙģØªÙĪØ": 2777,
      "Ø§ØªØ®Ø§Ø°": 2778,
      "ħÙĦÙĥØ©": 2779,
      "ĠØ§ÙĦÙĤØ±": 2780,
      "Ø±ÙĤØ§": 2781,
      "ÙĦÙħÙĬØ©": 2782,
      "ĠØ¨ÙĬÙĨÙħØ§": 2783,
      "ĠØ¥Ø³": 2784,
      "ºÙĨ": 2785,
      "Ø³ÙĪÙĨ": 2786,
      "ĠØ¬ÙĨÙĪØ¨": 2787,
      "ĠØ§ÙĦØªÙĥÙĨÙĪÙĦÙĪØ¬ÙĬØ§": 2788,
      "ĠØ§ÙĦÙħØ¯Ø§Ø±Ø³": 2789,
      "ĠØªØ¹ÙĦÙĬÙħ": 2790,
      "ĠØªØ¤Ø«Ø±": 2791,
      "ĠØ¨ÙĥØ«ÙĬØ±": 2792,
      "ĠÙĤØ¶": 2793,
      "ĠØ§ÙĦÙħØ±Ø¬": 2794,
      "ĠØ³ÙĪØ§Ø¡": 2795,
      "Ø§ØŃØ§Øª": 2796,
      "21": 2797,
      "ent": 2798,
      "ĠØ§ÙĦØŃØ§ÙĦÙĬ": 2799,
      "ÙĥÙħØ©": 2800,
      "Ø¶Ø¹": 2801,
      "ĠÙĬØªØ¹": 2802,
      "ĠÙĥÙħÙĬØ©": 2803,
      "200": 2804,
      "ĠÙħØµØ¯Ø±": 2805,
      "Ø§ÙĦØº": 2806,
      "ĠÙĤØ±Ø§Ø¡Ø©": 2807,
      "ĬÙĦÙĬ": 2808,
      "ÙĨØ´Ø·Ø©": 2809,
      "ĠÙħÙĨØ²": 2810,
      "§ÙĨØ§Øª": 2811,
      "ÙĩÙĪÙĨ": 2812,
      "ĠØ§ÙĦÙħØ¬ÙħÙĪØ¹Ø©": 2813,
      "ħØ±Ø§ÙĤØ¨Ø©": 2814,
      "Ø¯ÙĨÙĬ": 2815,
      "ĠØ£ÙħØ±ÙĬÙĥØ§": 2816,
      "ÙħØ¯Ùī": 2817,
      "ĠÙĪØ¶": 2818,
      "Ø·ÙĦØŃ": 2819,
      "Ø±ÙĬØ¨Ø§": 2820,
      "ĠØ§ÙĦØ£Ø®ÙĬØ±Ø©": 2821,
      "ĠÙħØ¯Ùī": 2822,
      "ÙĤÙĬ": 2823,
      "ĠØ§ÙĦØªØ¬Ø§Ø±ÙĬØ©": 2824,
      "ĠØªÙĨÙģÙĬØ°": 2825,
      "ĠØ·Ø±ÙĤ": 2826,
      "ĠØŃØ¯ÙĪØ«": 2827,
      "ØªÙĥØ´": 2828,
      "ØªØ®Ø¯ÙħØ©": 2829,
      "ĠØŃÙĦ": 2830,
      "ĠØ§ÙĦØ«Ø§ÙĦØ«": 2831,
      "ĠØ§ÙĦÙħØ§ÙĦ": 2832,
      "ĠØ³Ø§": 2833,
      "Ø§Ø²ÙĨ": 2834,
      "ĠØ§ÙĦØ·ÙģÙĦ": 2835,
      "ĠØ§ÙĦÙĥØ¨ÙĬØ±Ø©": 2836,
      "ĠÙĥÙĨ": 2837,
      "ÙĬÙĦØ©": 2838,
      "ĠØ§ÙĦØ®Ø§Ø±Ø¬": 2839,
      "ØµØ±": 2840,
      "Ø¬Ø¹": 2841,
      "Ø§Ø¤": 2842,
      "ÙģØ§Ø¡Ø©": 2843,
      "ĠÙĪÙħØ§": 2844,
      "Ø§Ø·Ø©": 2845,
      "ĠØ§ÙĦØŃØ§ÙĦØ©": 2846,
      "ÙĦØ§Øµ": 2847,
      "ÙĦØ§ØªØŃ": 2848,
      "ĠÙĪØ£Ù": 2849,
      "ĠÙħÙĬÙĦ": 2850,
      "ĠØ§ÙĦÙħØ§Ø¶ÙĬ": 2851,
      "ªØ¯Ø§": 2852,
      "og": 2853,
      "ĠÂ": 2854,
      "ĠØ§ÙĦØµÙĪØ±Ø©": 2855,
      "ĠÙĪÙĦØ§ÙĬØ©": 2856,
      "ĠØªØ¹Ø²ÙĬØ²": 2857,
      "ĠØ¨ØŃÙĬØ«": 2858,
      "ĠØ§ÙĦØ¯Ø±Ø§Ø³Ø§Øª": 2859,
      "ĠØ´Ø±": 2860,
      "§ÙĦØ§ØªØŃ": 2861,
      "ĠØ¨Ø¨": 2862,
      "ĠÙĥØ§Ø±": 2863,
      "ÙĬØ±Ø§Ù": 2864,
      "ĠØ§ÙĦØªØ·Ø¨ÙĬÙĤ": 2865,
      "ĠØ§ÙĦØ·Ø¨ÙĬØ©": 2866,
      "ĠÙĨÙģØ³ÙĩØ§": 2867,
      "ĠØ§ÙĦØªÙĪØ§ØµÙĦ": 2868,
      "ĠØŃØ¯Ø«": 2869,
      "ÙĬØ³Ù": 2870,
      "ÙĬØ³Ø©": 2871,
      "ĪØ±Ùĥ": 2872,
      "ĠØ§ÙĦØ¬Ø±": 2873,
      "ĠØ§ÙĦØ¬ÙĦØ¯": 2874,
      "ĠÙĪØªØ´": 2875,
      "ÙĪÙĩ": 2876,
      "ħÙĦÙĬ": 2877,
      "Ø¸ÙĩØ±Øª": 2878,
      "ĠØ£ÙĪÙĦØ§": 2879,
      "13": 2880,
      "ĠØ§ÙĦÙħØ±ØŃÙĦØ©": 2881,
      "ÙĪØ¬ÙĬÙĩ": 2882,
      "ĠØ³Ø·ØŃ": 2883,
      "ĠÙĬØŃØªØ§Ø¬": 2884,
      "Ø±ØªÙģ": 2885,
      "ĠØ§ÙĦØ§ØªØŃ": 2886,
      "ĠØ·ÙĦØ¨": 2887,
      "ĠØ§ÙĦØ£Øº": 2888,
      "Ø§Ø¬ØªÙħ": 2889,
      "ĠØ§ÙĦØ£ÙħØ±ÙĬÙĥÙĬ": 2890,
      "Ùł": 2891,
      "ĠØ§ÙĦØ¬Ø²": 2892,
      "ĠÙĪØ§ÙĦØ°Ù": 2893,
      "ĠÙħÙĩØ§Ø±Ø§Øª": 2894,
      "Ø§ÙĦÙħØ": 2895,
      "ĠØ¹Ø§ÙĦÙħ": 2896,
      "14": 2897,
      "ĠÙĪØ§ÙĦØ°ÙĬ": 2898,
      "ØªÙħØ±Ø§Ø±": 2899,
      "ĠÙĦÙĬ": 2900,
      "ĠØ§ÙĦØµÙģØŃØ©": 2901,
      "ĪØ¹Ù": 2902,
      "ØªÙĬØ¨": 2903,
      "ĬØ§Ø±Ø©": 2904,
      "ĨÙĤÙĦ": 2905,
      "ĪØ¹ÙĬ": 2906,
      "ÙĤØ§Ø¦ÙĤ": 2907,
      "ĠØ§ÙĦØ¨ØŃØ±": 2908,
      "ĠÙĨØŃÙĪ": 2909,
      "ÙĦØ¹Ø§Ø¨": 2910,
      "ĠØ¶Ø¹": 2911,
      "ĠØ¨Ø§ÙĦØ¹": 2912,
      "Ġ25": 2913,
      "ĠÙħØ¬ØªÙħØ¹": 2914,
      "ĠØ§ÙĦØ¨Ø§ØŃØ«": 2915,
      "ĠØ§ÙĦÙħØŃÙĬØ·": 2916,
      "Ø§Ø¯ÙĬÙħÙ": 2917,
      "ªÙħÙĬ": 2918,
      "ÙģØ²": 2919,
      "ĠÙĬØ´ÙĬØ±": 2920,
      "ÙĦÙĦÙĪÙĨ": 2921,
      "ÙĬØ±Ø§ÙĨ": 2922,
      "Ø±ÙĤØ§Ù": 2923,
      "ĠÙĦÙĦØ®": 2924,
      "ĠØ§ÙĦÙħØ³ØªØ®Ø¯ÙħØ©": 2925,
      "ĠØ§ÙĦØºØ§Ø²": 2926,
      "ĠØ§ÙĦÙĥÙĨ": 2927,
      "ĠØ§ÙĦÙħØ°": 2928,
      "ÙĦØŃØ©": 2929,
      "ĠØ§ÙĦØ¬Ø¯ÙĬØ¯": 2930,
      "ĠÙħØ¹Ø¯ÙĦ": 2931,
      "Ø±ÙĪÙĥ": 2932,
      "ĠØ§ÙĦÙĨÙĪÙħ": 2933,
      "Ø±ÙĤØ§Ùħ": 2934,
      "Ø¯Ø§Ø«": 2935,
      "ĠÙĤØ¯Ùħ": 2936,
      "ĠØ´Ùĩ": 2937,
      "ĠÙĥØ«ÙĬØ±": 2938,
      "ter": 2939,
      "ÙĬÙģÙĬØ©": 2940,
      "ĠØ§ÙĦØªØ±ÙĥÙĬØ²": 2941,
      "ĨÙĪØ¹Ø©": 2942,
      "Ø§Ø¯Ø§": 2943,
      "ÙĨØº": 2944,
      "ĠÙħÙħÙ": 2945,
      "ĠØ§ÙĦØ¥ÙĨØ³Ø§ÙĨ": 2946,
      "ĠÙħØ¹ÙĬÙĨØ©": 2947,
      "ĠØ§ÙĦØºØ°Ø§Ø¦ÙĬ": 2948,
      "ÙĬØªØ±": 2949,
      "Ø®Ø§ÙĦ": 2950,
      "ĠÙħÙĨØªØ": 2951,
      "em": 2952,
      "ĠØ§ÙĦØ´Ø": 2953,
      "ØªÙĪÙĨ": 2954,
      "22": 2955,
      "ĬÙĥÙ": 2956,
      "ĠØ«ÙĤ": 2957,
      "ĠØ§ÙĦØ£Ø¨": 2958,
      "ĠØ¯Ø±Ø§Ø³": 2959,
      "ĠØ´Ø¨ÙĥØ©": 2960,
      "ĠÙħØ¬ÙħÙĪØ¹Ø§Øª": 2961,
      "ØªØ¦": 2962,
      "ĠØ£Ø´ÙĥØ§ÙĦ": 2963,
      "ĠØ§ÙĦØ£ÙħØ±Ø§Ø¶": 2964,
      "Ø§Ø³Ø©": 2965,
      "ĠÙģØ¶": 2966,
      "ĠØ¥ÙħÙĥ": 2967,
      "ĠÙħØª": 2968,
      "ĠÙħØ«Ø": 2969,
      "ĬÙĬÙĨ": 2970,
      "ĠØ§ÙĦØ®Ø·Ù": 2971,
      "ĠØ§ÙĦÙĪØ·ÙĨÙĬ": 2972,
      "ra": 2973,
      "ĠÙħØ«Ø§": 2974,
      "ĠØ§ÙĦÙħØ´Ø§Ø±Ùĥ": 2975,
      "ĠØ§ÙĦØµÙĪØ±": 2976,
      "ĠØŃÙħØ§ÙĬØ©": 2977,
      "ÙħÙĬÙĤ": 2978,
      "ÙĦÙĤØ©": 2979,
      "ĠØ§ÙĦØ®Ø¶": 2980,
      "ÙĦØ¨Ù": 2981,
      "ĠØ§ÙĦØ·Ø¨ÙĬØ¹Ù": 2982,
      "ĠØ§ÙĦØ·Ø¨ÙĬØ¹ÙĬ": 2983,
      "ĠØ¬ÙĪÙĨ": 2984,
      "ØªÙĬØ§Ø¬Ø§Øª": 2985,
      "ĠØ¥Ø¹Ø¯Ø§Ø¯": 2986,
      "Ġa": 2987,
      "ĠØ§ÙĦØŃØ": 2988,
      "ĠØ§ÙĦØŃÙħØ¶": 2989,
      "ĠØªØ´ÙĥÙĬÙĦ": 2990,
      "ÙĥØ§Øª": 2991,
      "ĠØ§ÙĥØªØ´Ø§Ùģ": 2992,
      "ĠÙħØ«Ø§ÙĦ": 2993,
      "Ø±ÙĬØ¨Ø©": 2994,
      "Ø±ÙĬÙĦ": 2995,
      "ĠØ§ÙĦØ¨Ø´Ø±": 2996,
      "ĠÙĥØ§Ùģ": 2997,
      "ÙħØ«ÙĦØ©": 2998,
      "ĠØ§ÙĦØ´Ø±ÙĥØ§Øª": 2999,
      "ĪÙĬØ³": 3000,
      "ÙĦØ§Ø¡": 3001,
      "ĠØ£ÙĨÙĥ": 3002,
      "30": 3003,
      "ĠØ£Ø¸ÙĩØ±Øª": 3004,
      "ia": 3005,
      "§ÙĦØ§Øµ": 3006,
      "ÙĦÙĬØ¯ÙĬØ©": 3007,
      "ĠØ±ÙĤÙħ": 3008,
      "ĠØ¬Ø³": 3009,
      "Ø§Ø±Ø": 3010,
      "Ø§ÙĦÙĬØ¨": 3011,
      "ĠØ§ÙĦÙĥÙĩØ±Ø¨Ø§Ø¦ÙĬØ©": 3012,
      "ĠÙĪØ§ÙĦØ": 3013,
      "Ø±ÙĪØ¨Ø": 3014,
      "ØµØ§": 3015,
      "ĠÙģÙĤØ¯Ø§ÙĨ": 3016,
      "ĠÙħØ±ØŃÙĦØ©": 3017,
      "Ø±ÙĪØ¨Ø§": 3018,
      "ĠØ£Ø¯Ùī": 3019,
      "Ø§Ø¯ÙĨ": 3020,
      "ªÙĤØ": 3021,
      "ĠÙĬØµÙĦ": 3022,
      "ĠØ§ÙĦÙĨØ¬": 3023,
      "ĠØ§ÙĦØ£ÙģØ±Ø§Ø¯": 3024,
      "):": 3025,
      "ªÙĤØ§": 3026,
      "ĠØ§ÙĦØ§Øµ": 3027,
      "Ø¨Ø±Ø©": 3028,
      "and": 3029,
      "ĠÙĬØ¬Ø¹ÙĦ": 3030,
      "ĠØ§ÙĦØŃØ§ÙĦÙĬØ©": 3031,
      "ĠØªØ±ÙĬØ¯": 3032,
      "ĠØªØ¬Ø±Ø¨Ø©": 3033,
      "ĠØ§ÙĦØ¨ÙĦØ§Ø¯": 3034,
      "ĠÙĪØ§Ø³Ø¹": 3035,
      "Ø¯ÙĬÙĨ": 3036,
      "ĠØ£Ø±Ø¨Ø¹Ø©": 3037,
      "°ÙĩØ¨": 3038,
      "ØªÙĥØ´Ø§Ùģ": 3039,
      "ªÙĩÙħ": 3040,
      "ĨÙħØ·": 3041,
      "ĠØŃÙĤÙĪÙĤ": 3042,
      "ÙħØ§ÙħØ§": 3043,
      "ĠØ§ÙĦÙħØ´Ø§Ø±ÙĥØ©": 3044,
      "ig": 3045,
      "Ø§ÙĨØ§Øª": 3046,
      "Ø§Ø±ÙĬØ¹": 3047,
      "ÙĨÙħÙĪ": 3048,
      "ĠØ¥ÙĨÙĩ": 3049,
      "ĪÙĬØªÙħ": 3050,
      "ÙĪÙĬØªÙħ": 3051,
      "ÙĩÙĪÙħ": 3052,
      "ĠØ§ÙĦÙĪØ²ÙĨ": 3053,
      "Ø§ÙĦØŃ": 3054,
      "ĠØ§Ø¨": 3055,
      "ĠÙĪÙĬØªÙħ": 3056,
      "Ø±ÙĪØ¬": 3057,
      "Ø·ÙĬØ·": 3058,
      "ĠØ§ÙĦÙĨÙħÙĪØ°Ø¬": 3059,
      "Ø±ÙĤÙĬØ©": 3060,
      "Ø§Ø¨Ø§": 3061,
      "ĠØ§ÙĦØ¨ØŃØ±ÙĬØ©": 3062,
      "ºÙĬØ±Ø§Øª": 3063,
      "ĠÙĤØ·Ø¹": 3064,
      "ĠØ§ÙĦÙĤØ±Ø§Ø¡Ø©": 3065,
      "ĠØ§ÙĦØ¥ÙĦÙĥØªØ±ÙĪÙĨÙ": 3066,
      "ĠØ§ÙĦØ¥ÙĦÙĥØªØ±ÙĪÙĨÙĬ": 3067,
      "Ġ+": 3068,
      "ĠØ§ÙĦÙħØŃÙĦÙĬØ©": 3069,
      "Ġ198": 3070,
      "Ø§Ø·Ø¹Ø©": 3071,
      "ĩÙĨØ¯": 3072,
      "ĠØ§ÙĦØ¯Ø±Ø§Ø³ÙĬØ©": 3073,
      "www": 3074,
      "ĠÙħÙħØ§Ø±Ø³Ø©": 3075,
      "ĠØ£Ø¯ÙĪØ§Øª": 3076,
      "ĠÙħØªØ¹Ø¯Ø¯Ø©": 3077,
      "ĠØ§ÙĦÙħÙģØ±": 3078,
      "ĠØ§ÙĦÙħÙĨØªØ¬Ø§Øª": 3079,
      "op": 3080,
      "ĠØ§ÙĨØ¸Ø±": 3081,
      "ĠÙĨÙħÙĪ": 3082,
      "ĠØ¹ÙĦØ§ÙħØ©": 3083,
      "Ø¯Ø±Ø§Øª": 3084,
      "ĠÙĪØ§Ø³Ø¹Ø©": 3085,
      "st": 3086,
      "ÙĪÙĦØ§Øª": 3087,
      "Ġ50": 3088,
      "ĬØ±ÙĬØ§": 3089,
      "ĠØ§Ø³ØªØ®Ø¯Ùħ": 3090,
      "ĠØ¹Ø¯Ø©": 3091,
      "Ø±ØªØ¨Ø·": 3092,
      "ĠØ§ÙĦÙĨÙħÙĪ": 3093,
      "ĠÙĦØ§ØŃÙĤ": 3094,
      "§ÙĨÙģ": 3095,
      "Ø¨ÙĬØ¯": 3096,
      "ĪØ³": 3097,
      "ut": 3098,
      "ĠØ¨Ø§ÙĦ": 3099,
      "ªÙĦØ©": 3100,
      "ĪØ§Ø·": 3101,
      "ÙĬÙĦÙ": 3102,
      "ĠØªÙĤØ±ÙĬØ±": 3103,
      "Ø§Ø²ÙħØ©": 3104,
      "ØªÙĩÙĦØ§Ùĥ": 3105,
      "ĪØ§Ø²ÙĨ": 3106,
      "ĨÙĬÙĪÙ": 3107,
      "ØºØ±": 3108,
      "ÙĦØ¨Ø©": 3109,
      "Ø§Ø¶ÙĬØ©": 3110,
      "ĠÙĪØªØ·": 3111,
      "ĨÙī": 3112,
      "ĠØ¯Ø¹Ùħ": 3113,
      "ĠÙĪØ®Ø§ØµØ©": 3114,
      "ĠØ§ÙĦÙĤØ§Ø¦ÙħØ©": 3115,
      "Ø§ÙĨØ¯": 3116,
      "ªØ®": 3117,
      "ÙĩØ°Ùĩ": 3118,
      "ĠÙĨØµÙģ": 3119,
      "ĠÙħØ±Ø§Ø¬Ø¹Ø©": 3120,
      "ĠÙĤØ§Ø¹Ø¯Ø©": 3121,
      "im": 3122,
      "Ø±Ø¬Ø§Øª": 3123,
      "ĠØ§ÙĦØªØ§ÙĦÙĬ": 3124,
      "ÙĬØ§ÙĦ": 3125,
      "ØŃØ¨": 3126,
      "ĠØ§ÙĦÙħØªØ¹ÙĦÙĤ": 3127,
      "ØªØ¨Ø§Ø±Ø§Øª": 3128,
      "ÙĨÙħØ·": 3129,
      "ĠØ¨Ø³ÙĩÙĪÙĦØ©": 3130,
      "ĠÙĦÙĦØªÙ": 3131,
      "ĠØ¥ÙĬØ¬": 3132,
      "ĠØ£Ø®Ø°": 3133,
      "ĠÙĦÙĩÙħ": 3134,
      "ĠØ¹ÙĦØ§ÙħØ§Øª": 3135,
      "ÙģØ§ÙĤ": 3136,
      "ĠØŃØ±ÙĥØ©": 3137,
      "ĠØ§ÙĦÙħØ³ÙĬØŃ": 3138,
      "ĠØ§ÙĦÙħØ¹Ø±ÙģØ©": 3139,
      "ĠØ§Ø³ØªØ±Ø§ØªÙĬØ¬": 3140,
      "ĠØ§ÙĦÙħØ±ØªØ¨Ø·Ø©": 3141,
      "Ø¹ÙħØ©": 3142,
      "ĪØ§Ø©": 3143,
      "ĠØ¯Ø§Ø¦Ùħ": 3144,
      "ĠÙĨÙħØ·": 3145,
      "ÙĨÙĬÙĪÙ": 3146,
      "ĠØ·Ø¨": 3147,
      "ĠØ§ÙĦÙħØŃØ¯Ø¯Ø©": 3148,
      "ĠÙħÙħ": 3149,
      "ĠØ¯ÙĤÙĬÙĤØ©": 3150,
      "ĠØ£Ø³Ø": 3151,
      "ÙĩÙĦØ©": 3152,
      "ĠØªÙĤÙĪÙħ": 3153,
      "ĠØ¨ÙħØ¬": 3154,
      "ĠØµÙĪØ±Ø©": 3155,
      "ĠÙĬØªØ·ÙĦØ¨": 3156,
      "ĠØ®Ø·Ø©": 3157,
      "ĠØ§Ø³ØªØ¨": 3158,
      "ĠØ§ÙĦÙħØ³Ø§Ø¹Ø¯Ø©": 3159,
      "ĠØŃÙĤØ§": 3160,
      "ĠØªØ²Ø§ÙĦ": 3161,
      "ĪØ±ÙĨ": 3162,
      "ĠÙĬØ¤Ø«Ø±": 3163,
      "Ø³Ø·": 3164,
      "ĠÙĥØ«": 3165,
      "ħØ§Ø°Ø§": 3166,
      "ĠØ§ÙĦÙģØ±Ø¯": 3167,
      "ĠØ¥Ø·ÙĦØ§ÙĤ": 3168,
      "ÙĬØªØ§ÙħÙĬÙĨ": 3169,
      "ÙĪÙĦÙĬ": 3170,
      "Ø§Ø¹Ø¨": 3171,
      "ĠÙĨØ³Ø¨Ø©": 3172,
      "ÙĬÙĪØ¹": 3173,
      "ÙĪØ®": 3174,
      "ĠØ¯Ø§Ø¦ÙħØ§": 3175,
      "ÙĤØ¯": 3176,
      "ĠÙĨÙĤØµ": 3177,
      "ĠØ§ÙĦÙħÙĨØªØ¬": 3178,
      "ÙħÙĬØ²": 3179,
      "ĠÙħØ³Ø¤": 3180,
      "ĨØŃ": 3181,
      "ĠØªØµØ¨ØŃ": 3182,
      "Ġ24": 3183,
      "ÙĪØº": 3184,
      "Ø£ÙĪ": 3185,
      "ĠØ§ÙĦØ¹ÙĪØ§ÙħÙĦ": 3186,
      "Ø²Ø²": 3187,
      "ĬÙĪØ±Ùĥ": 3188,
      "ĠØ£Ø³Øª": 3189,
      "ĠØ§ÙĦØ·ÙĬÙĪØ±": 3190,
      "ĠÙĦØ¶": 3191,
      "ĠÙĪÙĤØ§": 3192,
      "Ø´ÙĦ": 3193,
      "ĠØ§ØŃØ": 3194,
      "ĠØ§ØŃØª": 3195,
      "ĠØ§ÙĦØªØ£Ø«ÙĬØ±": 3196,
      "Ø²ÙħØ©": 3197,
      "ĠØ§ÙĦØ±ÙĬØ§Ø¶ÙĬØ§Øª": 3198,
      "ĠØ§ÙĦØ¹ÙĨ": 3199,
      "ĠØµØŃØ©": 3200,
      "ul": 3201,
      "ÙħØ§ÙĨÙĬØ©": 3202,
      "ĠÙĪÙĦÙĬØ³": 3203,
      "ot": 3204,
      "org": 3205,
      "Ø¯ÙĬØ§Øª": 3206,
      "§ÙĦÙĦÙĪÙĨ": 3207,
      "ĠÙĦØª": 3208,
      "ĠØ§Ø³ØªØ¹": 3209,
      "ħØ§Ø°": 3210,
      "Ø¨ÙĨØ§Ø¡": 3211,
      "ĠÙħÙĨØ¹": 3212,
      "ĠØ³ÙĬØ§Ø³": 3213,
      "ĠØ§ÙĦÙħÙĬÙĦ": 3214,
      "ĠØ§ÙĦØ¶ØºØ·": 3215,
      "ĪØ±Ø§": 3216,
      "ÙħØ§Ùĥ": 3217,
      "ĠØ§ÙĦØ¢Ø«Ø§Ø±": 3218,
      "ĪÙģÙĬØ±": 3219,
      "ĠÙĪÙĬÙĤ": 3220,
      "ĠØ§ÙĦÙħÙĤØ¯": 3221,
      "ĠØ£ØµØ¨ØŃØ": 3222,
      "Ø§Ø·Ø¹": 3223,
      "ĠØ§ÙĦÙħØ¬Ø": 3224,
      "ĠÙħØ¬Ø±Ø¯": 3225,
      "ĠØ£ØµØ¨ØŃØª": 3226,
      "ĠØ§ÙĦØ¨Ø±ÙĬØ·": 3227,
      "ĠØ§ÙĦØ³ÙĨÙĪØ§Øª": 3228,
      "ĠØ£ÙĨØ¸ÙħØ©": 3229,
      "ĠØªØªØŃ": 3230,
      "iv": 3231,
      "ĨØ§Ø³": 3232,
      "ĠØ§ÙĦÙĦÙĪÙĨ": 3233,
      "ÙĦÙĬÙĤ": 3234,
      "ĠÙĪØ¸ÙĬÙģØ©": 3235,
      "ĠØ§ÙĦØ·Ø±ÙĬÙĤ": 3236,
      "Ø±Ø§Ø¦": 3237,
      "ĠÙĬØ¹ØªÙħØ¯": 3238,
      "ĠÙĦÙĤØ¯": 3239,
      "ĬÙĥÙĬ": 3240,
      "ĠØ§ÙĦØ±Ø¬Ø§ÙĦ": 3241,
      "ÙĪØ±Ø§Øª": 3242,
      "ow": 3243,
      "ĠØ§ÙĦÙħØ¬Ø§": 3244,
      "ĠÙĨØ´Ø±": 3245,
      "ÙĪÙĨØº": 3246,
      "Ø§ÙĩØ¯Ø©": 3247,
      "ĪÙĨØ§": 3248,
      "ĠÙĦØ®": 3249,
      "ĠØ§ÙĦØªØºÙĬÙĬØ±": 3250,
      "ÙĨÙĬÙĪÙĬÙĪØ±Ùĥ": 3251,
      "Ø±Ø§Ø·": 3252,
      "ĨÙĬÙĬÙĨ": 3253,
      "ĠØ§ÙĦØ§ØµØ·ÙĨ": 3254,
      "ĪØ§Ø¬Ùĩ": 3255,
      "ÙħØ±Ø§Ø¡": 3256,
      "Ø²Ø§": 3257,
      "ĠØ§ÙĦØ¯ÙĪÙĦÙĬØ©": 3258,
      "ĠÙģÙĤØ¯": 3259,
      "ØªØ¬Ø§Ø¨Ø©": 3260,
      "ĠØ§ÙĦØ³Ø·ØŃ": 3261,
      "ĠØ®ØµØ§Ø¦Øµ": 3262,
      "Ø§ÙĦÙĩØ§": 3263,
      "ĠÙĬØ¨Ø¯Ø£": 3264,
      "ĠØ§ÙĦÙħØ¯ÙĬÙĨØ©": 3265,
      "ħØ§Ø°Ø¬": 3266,
      "ĠØ§ÙĦØŃØ§": 3267,
      "ĠØ¬Ø¹ÙĦ": 3268,
      "ĠØ§ÙĦØ³ÙĪØ¯": 3269,
      "ĠÙĩÙħ": 3270,
      "Ø±ÙĬØ¹Ø©": 3271,
      "ĠØ§ÙĦØ¹ÙĦÙĪÙħ": 3272,
      "ĠÙĬØµØ¨ØŃ": 3273,
      "ĠØ±ÙĬ": 3274,
      "ĠØ·Ø¨ÙĬØ¨": 3275,
      "ĠØ§ÙĦØµÙĬÙĨ": 3276,
      "ĠÙħØªØ±": 3277,
      "ĠÙħØ³Ø§ØŃØ©": 3278,
      "ĩØ§Ù": 3279,
      "ĠØ¬Ø±": 3280,
      "ÙĦÙĬÙĬÙĨ": 3281,
      "ĠÙĬÙĪÙģØ±": 3282,
      "ĠÙĦØªØ": 3283,
      "ĠÙĪØ³Ø§Ø¦ÙĦ": 3284,
      "ĠØ§ÙĦØ¥Ø·": 3285,
      "ĠØ±Ø¤ÙĬØ©": 3286,
      "ĠÙĪØ«": 3287,
      "ĠØ§ÙĦØ´Ø¨Ø§Ø¨": 3288,
      "ĠØ§ÙĦØ¹Ø§ÙĦÙħÙĬ": 3289,
      "ĠØ§Ø¹ØªÙħ": 3290,
      "ĠØ§ÙĦØ³ÙĥØ±ÙĬ": 3291,
      "ÙĪÙĬØ¯": 3292,
      "ÙĦÙģØ§Øª": 3293,
      "ĠÙħØ¬ÙĦØ³": 3294,
      "ÙĨÙĪÙĬØ©": 3295,
      "ÙĬØ¯Ø": 3296,
      "ĪÙħÙĬ": 3297,
      "ÙĪÙĦÙĬÙĨ": 3298,
      "ĠÙĦÙĦØŃÙģØ§Ø¸": 3299,
      "²Ø§Ù": 3300,
      "Ø³ÙĦ": 3301,
      "ĠÙĤÙħ": 3302,
      "ĠØ§ÙĦØ¨Ø±ÙĬØ©": 3303,
      "§ÙĤØ´Ø©": 3304,
      "Ġt": 3305,
      "ĠÙħØªÙĪØ³Ø·": 3306,
      "ĠØ¨ØªØŃ": 3307,
      "ĠØŃØ³Ø§Ø¨": 3308,
      "ĠØªÙħØ§ÙħØ§": 3309,
      "ĠÙĤØ±": 3310,
      "ĠØŃØ§": 3311,
      "Ø®Ù": 3312,
      "ĠÙħÙĥØªØ¨": 3313,
      "ĠØ§ÙĦØ¹ÙħØ±": 3314,
      "ĠÙħØº": 3315,
      "Ø¶Ø±": 3316,
      "ĠØ§ÙĦÙĤÙĪØ©": 3317,
      "ĠØ¹Ø§ÙħØ§": 3318,
      "ĠÙĪÙĬ": 3319,
      "ĠØ¥ÙĦÙĬÙĩØ§": 3320,
      "Ø§Ø´Ø±": 3321,
      "ĠØ§ØªØ®Ø§Ø°": 3322,
      "ªÙĤØ§ÙĦ": 3323,
      "Ø³Øª": 3324,
      "ĩØ§Ùħ": 3325,
      "ĠÙħØŃØ¯Ø¯Ø©": 3326,
      "ÙģØ±Ø©": 3327,
      "ÙĬØ¯Ø§": 3328,
      "ĠØ§ÙĦÙħØªØ§ØŃØ©": 3329,
      "ĠØ§ÙĦØŃØ¯ÙĬØ¯": 3330,
      "ĠÙģÙĥØ±Ø©": 3331,
      "ØªØ§Ù": 3332,
      "ĠØ¨Ø·Ø±ÙĬÙĤØ©": 3333,
      "ĠØ³ØªØ": 3334,
      "ĠØ¨ÙĢ": 3335,
      "Ø§ÙģØ¸": 3336,
      "ØªÙĨ": 3337,
      "ĠØ§ÙĦØ®Ø": 3338,
      "ĠØªØªÙ": 3339,
      "ĠØ§ÙĦØ£Ø¯ÙĪÙĬØ©": 3340,
      "Ġf": 3341,
      "Ġn": 3342,
      "ÙĪÙĦÙĪÙĨ": 3343,
      "ÙĨØ§Ùĩ": 3344,
      "ħØ§Ø·": 3345,
      "ĠØ§ÙĦÙħØªØ¹ÙĦÙĤØ©": 3346,
      "ªÙĩÙĦÙĥ": 3347,
      "Ġâ": 3348,
      "ĠØ£ÙĬØ§Ùħ": 3349,
      "ĪÙħØ³": 3350,
      "Ø¹Ø±Ø§Ø¶": 3351,
      "ĠØ£ÙĨÙĩÙħ": 3352,
      "ĠÙĪØ§ÙĦØ¢": 3353,
      "ÙĬØ³ÙĬ": 3354,
      "ĠÙħØ¹Ø§ÙĦØ¬Ø©": 3355,
      "ĠÙĨÙĬÙĪÙĬÙĪØ±Ùĥ": 3356,
      "ir": 3357,
      "ħØ§Ø±Ø³Ø§Øª": 3358,
      "Ø±ÙĬÙĤÙĬØ§": 3359,
      "ĠØ£Ø±": 3360,
      "ĠÙħØ¹Ø±ÙĪÙģ": 3361,
      "ÙĦÙĦØŃ": 3362,
      "od": 3363,
      "ĠÙĤØ³Ùħ": 3364,
      "ØµÙĦØ§ØŃ": 3365,
      "ĠØ§ÙĦÙħÙĪØ³ÙĬÙĤÙī": 3366,
      "ĠØ§ÙĦÙĥØªØ¨": 3367,
      "ĠØ§ÙĦÙħØŃØªÙħÙĦ": 3368,
      "ĠØ³ØªÙ": 3369,
      "ĠÙĪØ·": 3370,
      "ID": 3371,
      "ÙħØ±Ø§ÙĤØ¨Ø©": 3372,
      "ØªØ§Ø¨": 3373,
      "ĠØ§ÙĦØªØŃÙĥÙħ": 3374,
      "ĠØ§ÙĦØ£ÙĤ": 3375,
      "ĠØ£ÙĪÙĦØ¦Ùĥ": 3376,
      "Ø¯Ø±ÙĬØ³": 3377,
      "ĠØ§ÙĦØ®Ø§": 3378,
      "§ÙĨÙĬØ§": 3379,
      "Ø§Ø¯Ø«": 3380,
      "ĠØ§ÙĦÙĥÙĬÙħÙĬØ§Ø¦ÙĬØ©": 3381,
      "ĠØ§ÙĦØ·Ø¨ÙĬØ¹Ø©": 3382,
      "ĠØ·ÙģÙĦÙĥ": 3383,
      "ÙħÙĩÙĪØ±": 3384,
      "ĠØ£Ø¬Ø²Ø§Ø¡": 3385,
      "§ÙĦÙĦØŃ": 3386,
      "ĠØ§ÙĦØ¯ÙħÙĪÙĬØ©": 3387,
      "ĠØ§ÙĦØªØº": 3388,
      "ÙĦÙģÙĬØ©": 3389,
      "ĠØŃØ§ÙĦØ§Øª": 3390,
      "ĠØ§ÙĦÙĨØŃ": 3391,
      "ĠØªØ¯ÙģÙĤ": 3392,
      "£ÙĥÙĬØ¯": 3393,
      "Ġb": 3394,
      "ÙĩÙĬØ±": 3395,
      "ec": 3396,
      "ĠÙħØ±Ø§ÙĤØ¨Ø©": 3397,
      "ĠØ§ÙĦÙĦØŃ": 3398,
      "ÙħØ¹ÙĬØ©": 3399,
      "ĠÙĪÙħ": 3400,
      "ĠØºØ°": 3401,
      "ĠØªØ¨Ø¯Ø£": 3402,
      "Ø¬Ø§Ø¬": 3403,
      "Ø¹Ùī": 3404,
      "ĠØ§ÙĦØ¹ÙĦÙħØ§Ø¡": 3405,
      "ĠÙģÙħÙĨ": 3406,
      "Ø®ÙĪÙĦ": 3407,
      "ĠØ§ÙĦØ¯ÙĪØ±Ø©": 3408,
      "ÙĪØ§Ùĥ": 3409,
      "ag": 3410,
      "ĠØ³Ø¨Ø¨": 3411,
      "ĠÙģÙĬØ±ÙĪØ³": 3412,
      "Ø§ÙĨÙĬØ§": 3413,
      "ĠÙħØªÙĨÙĪØ¹Ø©": 3414,
      "ĠÙĪØ§ÙĦØªØ¹": 3415,
      "Ø§Ø¦Ø±Ø©": 3416,
      "ĠØ§ÙĦØ£Ùĩ": 3417,
      "ÙĦØ¨ÙĬ": 3418,
      "ĠØ£ÙĪØ±ÙĪØ¨Ø§": 3419,
      "ØºÙĬ": 3420,
      "ĠØ§ÙĦÙħØ§ÙĦÙĬØ©": 3421,
      "ĠØ§ÙĦØ£Ø³Ø¨ÙĪØ¹": 3422,
      "ÙĤÙĬØ©": 3423,
      "Ø¬ÙĬ": 3424,
      "ØªÙĨØ§": 3425,
      "ÙħØªØ¹": 3426,
      "ÙĬØ¦Ø§Øª": 3427,
      "ĠØ§ÙĦØ³ÙĥØ±": 3428,
      "Ø§ÙĦÙħÙ": 3429,
      "ĠÙħÙĪØ³": 3430,
      "ÙħÙĬØ§Øª": 3431,
      "Ø°Ø¨": 3432,
      "ĠØªÙĤÙĨÙĬØ©": 3433,
      "ĠÙĦÙĦØ¯": 3434,
      "ĠÙĪÙĤØ§ÙĦ": 3435,
      "ĠØ±Ø£Ø³": 3436,
      "ĠÙĥØ§ÙħÙĦ": 3437,
      "Ø§Ø¦Ø©": 3438,
      "ªØ´Ø§Ø±": 3439,
      "ĨÙĩØ¬": 3440,
      "ĠØ§ÙĦÙħØ´ÙĥÙĦØ©": 3441,
      "ĠØ§ÙĦØ¯ÙĥØªÙĪØ±": 3442,
      "ĠØ§ÙĦØ³ÙĦÙĪÙĥ": 3443,
      "ĠØ§ÙĦØ¨Ù": 3444,
      "ÙħÙĩÙħ": 3445,
      ".,": 3446,
      "ĠØ§ÙĦÙħÙĤØ§ÙĦ": 3447,
      "ĠØ¨Øµ": 3448,
      "ĠØ§ÙĦÙĪØ¸": 3449,
      "ĠÙĦÙĦØ·ÙĦØ§Ø¨": 3450,
      "ĠØ§ÙĨØ®ÙģØ§Ø¶": 3451,
      "ĠÙĦÙĦØªØŃ": 3452,
      "ØªØ¨Ø§Ø³": 3453,
      "ĠØ£Ø¹Ø±Ø§Ø¶": 3454,
      "ĠØ£ÙĥØ³": 3455,
      "ÙħÙĪØ³": 3456,
      "ĠÙĨØŃ": 3457,
      "ĠÙħÙĪØ§Ø¯": 3458,
      "ĠØ§ÙĦØ³Ø§Ø¨ÙĤØ©": 3459,
      "ÙĨÙĬØ¹": 3460,
      "ĠØ§ÙĦØ£ØµÙĦÙĬØ©": 3461,
      "ĬÙĪØ§ÙĨØ§Øª": 3462,
      "ĪØ±Øª": 3463,
      "ØªØ·ÙĬØ¹": 3464,
      "ĠØ§ÙĦØ¨ÙĦØ¯Ø§ÙĨ": 3465,
      "ĠØ§ÙĦØ¨ÙĬØ¦ÙĬØ©": 3466,
      "ĠÙģØ±ÙĬÙĤ": 3467,
      "ĠØªØŃÙĪÙĬÙĦ": 3468,
      "ĠÙĬØ¹ØªØ¨Ø±": 3469,
      "ĠØ¹ÙħÙĦÙĬØ§Øª": 3470,
      "ĠØ§ÙĦÙħØ®Ø§Ø·Ø±": 3471,
      "ĠØªÙĤØ±ÙĬØ¨Ø§": 3472,
      "ĠÙĬÙĤÙĪÙħ": 3473,
      "ĠÙħÙĨØŃ": 3474,
      "ĠØ¨ÙĨØ³": 3475,
      "ĠÙĦØ´": 3476,
      "ĠÙĦØ£ÙĪÙĦ": 3477,
      "ÙĬÙĪÙĬ": 3478,
      "ĠÙĬØ²ÙĬØ¯": 3479,
      "ĠÙħØ¤Ø³": 3480,
      "ÙĩØ§Ø¨": 3481,
      "ĪÙĬØª": 3482,
      "ÙĤØ¯Ø©": 3483,
      "Ø¯ÙĬØ«": 3484,
      "ĠØªØ³ÙħÙī": 3485,
      "ÙħÙĪØ¯": 3486,
      "Ø¨ØŃØ§Ø«": 3487,
      "oc": 3488,
      "ĠØªÙĪØ¬Ø¯": 3489,
      "ÙĪØ§ÙĦ": 3490,
      "ĠØ§ÙĦØ¯ÙĪÙĦ": 3491,
      "Ø·Ø¹": 3492,
      "ĠØ§ÙĦØªØ¹Ø§ÙħÙĦ": 3493,
      "23": 3494,
      "ÙħØ§ÙĥÙĨ": 3495,
      "Ø·ÙĬØ©": 3496,
      "Ø§ÙĦÙĥ": 3497,
      "Ø±ÙĬØ¯Ø©": 3498,
      "ÙĥØªÙĬØ±ÙĬØ§": 3499,
      "ĠØ§ÙĦØ¨Ø´Ø±ÙĬ": 3500,
      "ĠØªØ¬ÙĨØ¨": 3501,
      "ĠÙĦØ³": 3502,
      "ĠØªØ³ÙħØŃ": 3503,
      "ĠØ§ÙĦØµÙĪØª": 3504,
      "ĠÙĦÙĦÙĪØ": 3505,
      "ĠØ§ÙĦØŃÙħÙĦ": 3506,
      "Ø§Ø¨ÙĬ": 3507,
      "ĠØ§ÙĦØ£Ø³Ø§Ø³ÙĬ": 3508,
      "ĠØ¥ÙĨÙĩØ§": 3509,
      "Ø±Ø³Ø§ÙĦ": 3510,
      "ÙĦÙĬØ§Øª": 3511,
      "ĠÙĪØ°": 3512,
      "ĠØ§ÙĦÙĪ": 3513,
      "ĠÙĨÙĬ": 3514,
      "ĠØ£ÙĨÙģ": 3515,
      "ĠØ³Ø§Ø¹Ø©": 3516,
      "ÙĪÙħØ³": 3517,
      "Ø³Ø§Ù": 3518,
      "ĠØ§ÙĦØ£ÙĨØ´Ø·Ø©": 3519,
      "ĠÙĤÙĪÙĬØ©": 3520,
      "ĠØ§ÙĦØ¨Ø§ÙĦØº": 3521,
      "ĠÙĬØ¹ÙĬØ´": 3522,
      "ÙĨÙģØ³": 3523,
      "ĠØ§ÙĦÙħØ±ÙĥØ²": 3524,
      "ĠØ§ÙĦØ£ÙĨØ³": 3525,
      "Ø¨Ø§ØŃ": 3526,
      "ĠØ§ÙĦØ¨Ø±ÙĪØªÙĬÙĨ": 3527,
      "ĠØ¨Ø§ÙĦØ¶": 3528,
      "ĠØ¯ÙĪØ±Ø©": 3529,
      "Ø§ÙģØŃØ©": 3530,
      "ÙĨØ³ÙĬØ©": 3531,
      "ĠØ¨Ø§ÙĦØ·": 3532,
      "ĠØ¥Ø·Ø§Ø±": 3533,
      "ĠØ§ÙĦØªÙĨØ¸": 3534,
      "ĠØ§ÙĦØªØ¯Ø±ÙĬØ¨": 3535,
      "ĠØ¥Ø¹Ø·Ø§Ø¡": 3536,
      "ĠØ§ÙĦØŃØ¯ÙĬØ«Ø©": 3537,
      "Ø§ØªØ¨": 3538,
      "ĠØ§ÙĦØ¬ÙĨÙĪØ¨": 3539,
      "Ø§ÙĪÙĦ": 3540,
      "ĠØ§ÙĦÙĥØ±": 3541,
      "ĠØ¨ÙħØ¬Ø±Ø¯": 3542,
      "ĠÙĬØ³ÙħÙī": 3543,
      "ĠØ£Ø¯ÙĨØ§Ùĩ": 3544,
      "ÙĪÙĨØ": 3545,
      "ØµÙĬØµ": 3546,
      "Ø¨Ø±Ø§": 3547,
      "ĠØ§ÙĦÙħØ³ØªÙĤØ¨ÙĦ": 3548,
      "ĠØ§ÙĦÙħÙħÙĦÙĥØ©": 3549,
      "ĠØµÙĨØ¹": 3550,
      "ĠØ¨Ø§ÙĦØ£": 3551,
      "ÙħÙĦÙĬ": 3552,
      "ĠÙħØ³Ø§Ø¹Ø¯Ø©": 3553,
      "ĠØ¨Ø¯Ø£Ø": 3554,
      "Ø´Ù": 3555,
      "ĠØ¨Ø¯Ø£Øª": 3556,
      "ĠÙĪÙħØ³": 3557,
      "ĠØ§ÙĦØ³ÙĪÙĤ": 3558,
      "Ø§Ø²ÙĦ": 3559,
      "ĠØ§ÙĦÙħØ¤ÙĦÙģ": 3560,
      "ĠØ¥Ø¯Ø®Ø§ÙĦ": 3561,
      "ĠØ§ÙĦÙģÙĬØ¯ÙĬÙĪ": 3562,
      "Ġ&": 3563,
      "ĠØ§ÙĦØ´ÙĥÙĦ": 3564,
      "ĠØ§ÙĦØ³Ùģ": 3565,
      "ĠØ§ÙĦÙħÙħØ": 3566,
      "ªØ¯Ø§ÙħØ©": 3567,
      "ĠØ§ÙĦØ³ÙĬØ·Ø±Ø©": 3568,
      "ĠØ§ÙĦÙħØŃØªÙħÙĦØ©": 3569,
      "²Ø§ÙĬØ¯": 3570,
      "Ġ#": 3571,
      "ĠÙĪØ§Ø¬": 3572,
      "ĠÙĤØµÙĬØ±Ø©": 3573,
      "Ø³Ø¨": 3574,
      "ĠØ§ÙĦØŃØ¶": 3575,
      "ĠØ§ÙĦØ¥Ø¹": 3576,
      "ĠÙħÙĦØ§ØŃØ¸Ø©": 3577,
      "ĠØ§ÙĦØ³ÙĨØ©": 3578,
      "ĠØ§ÙĦÙħØ´ØªØ±ÙĥØ©": 3579,
      "ĠØµÙģØŃØ©": 3580,
      "ĠÙģØ¹ÙĦ": 3581,
      "ĠØ§ÙĦØ¥Ø¹ÙĦØ§Ù": 3582,
      "ĠØ¨ÙĬØ¦Ø©": 3583,
      "ĠØ§ÙĦØ±ÙĤÙħÙĬØ©": 3584,
      "Ø±Ø§Ùĥ": 3585,
      "ĠØ¨Ø°ÙĦÙĥ": 3586,
      "ĠØ§ÙĦÙĨØ´Ø§Ø·": 3587,
      "ĠØ§ÙĦØ£Ø³Ø¦ÙĦØ©": 3588,
      "¸ÙģÙĬÙĨ": 3589,
      "ĠØ§ÙĦÙģØ¶Ø§Ø¡": 3590,
      "ĪØ§Ø±Ø¯": 3591,
      "ĠØµØŃÙĬØ©": 3592,
      "ĠØ´Ùĥ": 3593,
      "ĠØ§ÙĦÙĪØ¹ÙĬ": 3594,
      "ĠØ´ÙĬÙĪØ¹": 3595,
      "ĠØªØ§": 3596,
      "ĠØ§ÙĦØ´ÙħØ³ÙĬØ©": 3597,
      "§ÙĬÙĬØ±": 3598,
      "§ÙģÙĤ": 3599,
      "ĠÙĪØ¢": 3600,
      "ĠÙĦØ·": 3601,
      "ÙĪØ§ÙĨÙĬÙĨ": 3602,
      "ØµÙĦØ©": 3603,
      "§ÙĨØ¨": 3604,
      "ĠØ§ÙĦØªÙĤÙĦÙĬØ¯ÙĬØ©": 3605,
      "ĠCO": 3606,
      "ÙĥÙĬÙĬÙĨ": 3607,
      "ÙģØ§Ùģ": 3608,
      "§ÙĦØ§Ùĥ": 3609,
      "ĠØ§ÙĦØ°ÙĥØ§Ø¡": 3610,
      "Ø¹ÙĬØ©": 3611,
      "Ø§Ø²Ø§Øª": 3612,
      "ĠØ£Ø³Ø§Ø³ÙĬØ©": 3613,
      "ÙĴ": 3614,
      "ÙĤÙī": 3615,
      "ub": 3616,
      "ĠØªØ¤Ø¯ÙĬ": 3617,
      "ĠÙĦØºØ©": 3618,
      "ĠÙĦÙĦØ§ÙĩØªÙħØ§Ùħ": 3619,
      "ØŃÙħ": 3620,
      "ĠÙĬÙĨØ§": 3621,
      "Ġ197": 3622,
      "Ġal": 3623,
      "ĠÙħØªØŃ": 3624,
      "ÙĦØªØ±Ø§": 3625,
      "§ÙħØ±": 3626,
      "Ø§Ø±Ø¶": 3627,
      "25": 3628,
      "ÙĩØ§Ø¯": 3629,
      "ĠØ§ÙĦÙĥÙĩØ±Ø¨Ø§Ø¡": 3630,
      "ĠÙħÙĨØ®ÙģØ¶Ø©": 3631,
      "ĠØ¯ÙģØ¹": 3632,
      "ĠÙĦÙĦØ¹ÙħÙĦ": 3633,
      "ĠÙĬÙĤØ¹": 3634,
      "Ø±ÙĪØ¨ÙĬ": 3635,
      "ĠØ¨Ø¯Ø¡": 3636,
      "ĪÙħØŃ": 3637,
      "ĠØ¨Ø§ÙĦÙĤØ±Ø¨": 3638,
      "ÙĪÙħØŃ": 3639,
      "ĠØªÙĤÙĨÙĬØ§Øª": 3640,
      "ĠÙĩÙĬÙĥ": 3641,
      "ĠØ§ÙĦÙħØº": 3642,
      "ĠØ§ÙĦØ¨Ø±ÙħØ¬": 3643,
      "ĠÙĪÙħØŃ": 3644,
      "Ø§ÙĦÙĬØ§": 3645,
      "ĠÙĤÙĦÙĬÙĦØ": 3646,
      "ĠÙĤÙĦÙĬÙĦØ§": 3647,
      "ĠØªØ¹Ø±Ø¶": 3648,
      "ĠÙħØ§ÙĬÙĪ": 3649,
      "ĠÙħØ§Ø±Ø³": 3650,
      "ĠØ§ÙĦØ¥ÙĦÙĥØªØ±ÙĪÙĨÙĬØ©": 3651,
      "ĠÙĬÙĪÙĨ": 3652,
      "ĠØ§ÙĦØµØ¹Ø¨": 3653,
      "ĠØ§Ùģ": 3654,
      "ÙĦÙħÙĬ": 3655,
      "ĠØ§ÙĦØªÙĨÙģØ³": 3656,
      "ĠÙĦØ¥ÙĨØ´Ø§Ø¡": 3657,
      "Ùį": 3658,
      "ĠØ§ÙĦØ£Ø·Ø¹ÙħØ©": 3659,
      "ĠØ¢Ø«Ø§Ø±": 3660,
      "ĠØ§ÙĦÙħÙĨØ²ÙĦÙĬØ©": 3661,
      "ĪÙĬØŃ": 3662,
      "Ø¨Ø§ÙĦ": 3663,
      "ĠØµÙĨØ§Ø¹Ø©": 3664,
      "Ø³Ø§Ø·Ø©": 3665,
      "ÙħØ´": 3666,
      "ĠÙģØ": 3667,
      "Ø§Ø¹Ø±": 3668,
      "ĠØ§ÙĦÙģØ¹": 3669,
      "ĠØ§ÙĦØªØŃÙĤÙĤ": 3670,
      "Ø²Ø©": 3671,
      "ĠÙĨØ´Ø§Ø·": 3672,
      "ÙĪÙĬØŃ": 3673,
      "ĠØ§ÙĦØ´ÙħØ§ÙĦÙĬØ©": 3674,
      "Ø§Ø³Ùħ": 3675,
      "ÙĥÙĬØ¨": 3676,
      "ĠÙħÙĨØ§Ø·ÙĤ": 3677,
      "ĠØ§Ø¬ØªÙħ": 3678,
      "........": 3679,
      "ĠÙĪÙĬØŃ": 3680,
      "ĠØ¯Ø±Ø¬Ø§Øª": 3681,
      "ÙĦÙĦÙĪØ": 3682,
      "ØªØºØ±ÙĤ": 3683,
      "Ø±Ø§Ø¹": 3684,
      "ÙĪØ§ÙĨØ¨": 3685,
      "ÙĦÙĩÙħ": 3686,
      "ĠØ£ÙħØ±Ø§Ø¶": 3687,
      "ĠØ§Ø³ØªÙĤ": 3688,
      "ØµÙ": 3689,
      "ĠØ§ÙĦØ±Ø³Ùħ": 3690,
      "ĠØ§ÙĦÙħÙĬÙĥ": 3691,
      "ÙĦØ§Ø³ØªÙ": 3692,
      "ĠØ§ÙĦØ¹ÙĦÙĬØ§": 3693,
      "ØªÙĦØ§ÙģØ§Øª": 3694,
      "ĠØ§ÙĦØµØ®": 3695,
      "ĠØ§ÙĦØ¥ØµØ§Ø¨Ø©": 3696,
      "ĠØ£Ø´ÙĩØ±": 3697,
      "ÙĨØ·": 3698,
      "§ÙĦÙĦÙĪØ": 3699,
      "ĠØ§ÙĦØºØ§Ø¨Ø§Øª": 3700,
      "ĠØ§ÙĦÙħØ¶Ø§Ø¯Ø©": 3701,
      "ĠÙĬØªØ¶ÙħÙĨ": 3702,
      "ĠØ§ÙĦÙĥØ¨ÙĬØ±": 3703,
      "ÙĬØªÙĩØ§": 3704,
      "Ġ194": 3705,
      "ĨØ¯ÙĬ": 3706,
      "ĠØ¥Ø¶Ø§ÙģÙĬØ©": 3707,
      "ÙĬÙĥÙĦ": 3708,
      "ĠØ§ÙĦÙħÙĩÙĨÙĬØ©": 3709,
      "ĠØ³Ùħ": 3710,
      "ĠØªÙĦÙĤ": 3711,
      "ÙĨÙĩØ¬": 3712,
      "ĠØ´ÙħØ§ÙĦ": 3713,
      "ĠØ§ÙĦÙĤÙĬØ§Ø³": 3714,
      "Ø±Ø«": 3715,
      "ÙĬØªØ´": 3716,
      "ĠØ±Ø¬ÙĦ": 3717,
      "ĠØªØ´ØºÙĬÙĦ": 3718,
      "ĠØ§ÙĦØ³ÙĬØ§Ø±Ø§Øª": 3719,
      "ÙĥØ±ÙĬØ©": 3720,
      "ĠØ§ÙĦÙĦÙĪØ": 3721,
      "Ġv": 3722,
      "ĠÙħÙĤØ¯ÙħØ©": 3723,
      "ÙģÙĨ": 3724,
      "ĠØ§ÙĦÙħØ¹ÙĦÙħÙĬÙĨ": 3725,
      "ĠØ§ÙĦØ§Ùĥ": 3726,
      "ĠØ§ÙĦÙģÙĨ": 3727,
      "ĠØ²ÙĪØ¬": 3728,
      "Ġhttps": 3729,
      "ĠØ§ÙĦÙģØ±ÙĤ": 3730,
      "Ø§Ø«ÙĦØ©": 3731,
      "Ø±Ø§ÙĦÙ": 3732,
      "ĠØ¯ÙħØ¬": 3733,
      "ÙĬØ±Ø§Øª": 3734,
      "ĠØªØ´ÙĥÙĦ": 3735,
      "ĠÙħØ²ÙĬØ¬": 3736,
      "ĠØ§ÙĦÙĤØµØ©": 3737,
      "ĠØ£Ø³Ø§Ø³Ù": 3738,
      "ĠØ£Ø³Ø§Ø³ÙĬ": 3739,
      "ĠÙĨÙĩØ¬": 3740,
      "ĠØ¥ÙĦÙĬÙĩ": 3741,
      "ÙħØ§Ø¡": 3742,
      "ĠØ£ÙĨØª": 3743,
      "ÙĬÙĤØ©": 3744,
      "ĠÙħÙĤØ§Ø¨ÙĦ": 3745,
      "Ø¤Ø": 3746,
      "ĠØ±Ø£": 3747,
      "Ġ40": 3748,
      "Ø¤Ø§": 3749,
      "ĠÙĦØªØ·": 3750,
      "Ø§ÙĦÙģ": 3751,
      "§ÙĪØ²": 3752,
      "Ø¬Ø±Ø§Ø¡Ø§Øª": 3753,
      "ĠØ§ÙĦÙĩØ¯Ùģ": 3754,
      "ĠØ§ÙĦØ´Ø±ÙĥØ©": 3755,
      "ĠØªØµÙĨÙĬÙģ": 3756,
      "Ø§ÙĪØ²": 3757,
      "Ø§ØªØµØ§ÙĦØ§Øª": 3758,
      "Ø¤Ø§ÙĦ": 3759,
      "ĠÙĦÙĨØ§": 3760,
      "ĠØ§ÙĤØªØ±": 3761,
      "ĠØ§ÙĦØ§Ø³ØªØ®Ø¯Ø§Ùħ": 3762,
      "ĠÙħÙĨØ¸ÙħØ©": 3763,
      "ĠØ§ÙĦØ§ØŃØªÙģ": 3764,
      "ĠØ¨Ø¹Ø¶ÙĩØ§": 3765,
      "ĠÙĪØ§ÙĦÙħØ³": 3766,
      "ÙĪÙĬØª": 3767,
      "he": 3768,
      "ĠÙģÙĬÙħØ§": 3769,
      "ÙĨØªÙ": 3770,
      "60": 3771,
      "ĠÙħØ¹ÙĬÙĨ": 3772,
      "ĠØ§ÙĦÙħÙģØª": 3773,
      "ĠØ§ÙĦÙģÙĬØ²": 3774,
      "ĠØ§ÙĦØ£Ø±Ø§Ø¶ÙĬ": 3775,
      "Ġet": 3776,
      "Ø§Ø¨ÙĬÙĨ": 3777,
      "ĠØ§ÙĦØ¯ÙĪÙĦÙĬ": 3778,
      "of": 3779,
      "Ø®ÙĬÙĨ": 3780,
      "Ø§ÙĥØ±Ø©": 3781,
      "ĠØ¯ÙĬØ³": 3782,
      "ÙĨØµØ±": 3783,
      "ØªÙĩÙħ": 3784,
      "ÙĦØ§Ø±": 3785,
      "ĠÙĥÙĪÙĨ": 3786,
      "ĠØªØªØ·ÙĦØ¨": 3787,
      "ĠØµØºÙĬØ±": 3788,
      "Ġ2020": 3789,
      "ĠØ§ÙĦÙĨÙĪÙĪÙĬ": 3790,
      "ĠØ¨Ø§ÙĦØŃ": 3791,
      "ĠØ§ÙĦØ§Ø®ØªØ¨Ø§Ø±": 3792,
      "ĠÙģØµÙĦ": 3793,
      "ĠÙĤØ§Ø¯Ø±": 3794,
      "Ø¨ÙĪÙĦ": 3795,
      "ĠØ§ÙĦØ¹ØµØ¨ÙĬØ©": 3796,
      "ĠÙĥØ§ÙħÙĦØ©": 3797,
      "ĠØ®Ø¯ÙħØ©": 3798,
      "ĠÙĦÙĦÙħØ¹": 3799,
      "ĨØ¨Ø¤": 3800,
      "ĠÙħÙĦÙĬ": 3801,
      "ĠØ§ÙĦÙĪØ³Ø·Ùī": 3802,
      "ĠÙĪÙĥØ§": 3803,
      "ĠØ§ÙĦØ±Ø£Ø³": 3804,
      "ÙĬÙĪØ¯": 3805,
      "ÙĥØª": 3806,
      "ĠØ§ÙĦÙĤØ³Ùħ": 3807,
      "Ø¨Ø±Ø§Ø¡": 3808,
      "ĠØ¥ØµØ¯Ø§Ø±": 3809,
      "ĠØ¹ÙĥØ³": 3810,
      "«ÙĪÙĤ": 3811,
      "ĠØ£ÙģØ±ÙĬÙĤÙĬØ§": 3812,
      "ĠÙħÙĨÙĩ": 3813,
      "ĠØ§ÙĦØµØŃÙ": 3814,
      "ÙĩØ§Ù": 3815,
      "________": 3816,
      "ĠØ§ÙĦØ¨ÙĬØ§": 3817,
      "ĠØ§ÙĦØ²Ø±Ø§Ø¹Ø©": 3818,
      "ªØµ": 3819,
      "ÙħØ§Ø°Ø§": 3820,
      "ĠØªØ·ÙĪØ±": 3821,
      "ĠIn": 3822,
      "ĠØ§ÙĦÙħØªÙĤ": 3823,
      "ºÙĨØ§Ø·": 3824,
      "ÙĪÙĬØ³": 3825,
      "ĠØ§ÙĦÙģÙĬØ±ÙĪØ³": 3826,
      "ĠØ§ÙĦÙħØ±Ø£Ø©": 3827,
      "ÙģØ§ÙĩÙĬÙħ": 3828,
      "Ø¬ÙĦØ§Øª": 3829,
      "ÙħØ«ÙĬÙĦ": 3830,
      "ĠØ§ÙĦØ´Ø¹Ø±": 3831,
      "ĠÙĦØªØ´": 3832,
      "ĨØ§Ø©": 3833,
      "ĠØ¨Ø§ÙĦÙĥØ§ÙħÙĦ": 3834,
      "ĠØ§ÙĦØ£ÙĦÙħ": 3835,
      "ap": 3836,
      "ĠÙĬÙĤÙĦÙĦ": 3837,
      "Ø¨Ø¹Ø¶": 3838,
      "ĠØ¹Ø±Ø¶Ø©": 3839,
      "ĠØ§ÙĦØ³Ø§Ø¨ÙĤ": 3840,
      "ĠØ£ÙĩØ¯Ø§Ùģ": 3841,
      "ĠÙĨØ¸Ø±ÙĬØ©": 3842,
      "ªÙħÙĬÙĬØ²": 3843,
      "§ÙĦØ§Ø¨": 3844,
      "ay": 3845,
      "ĠØ§ÙĦÙħØ´Ø±ÙĪØ¹": 3846,
      "ĠØ£ÙĨØ´": 3847,
      "ØªØ¦Ø§Ø¨": 3848,
      "ÙħÙĪÙĬÙĦ": 3849,
      "Ø±ÙĪØ§Øª": 3850,
      "ÙĦÙħÙĪÙĨ": 3851,
      "¤ÙĦØ§Ø¡": 3852,
      "ĠØ§ÙĦÙħØ³ØªØ®Ø¯Ùħ": 3853,
      "ĠØ³Øª": 3854,
      "ĠØŃÙĤÙĬÙĤØ©": 3855,
      "ÙĪØªÙĬØ©": 3856,
      "ĠØ¨Ø¨Ø³Ø§Ø·Ø©": 3857,
      "ØªØ§ÙĨ": 3858,
      "ĠÙĩØ¯Ùģ": 3859,
      "ĠØ§ÙĦØµØŃÙĬ": 3860,
      "ĠØ§ÙĦØªØ´ØºÙĬÙĦ": 3861,
      "ĠØ§ÙĦÙħØ³Ø¤": 3862,
      "ĠÙĪØ¬Ø¯": 3863,
      "ÙģØªÙĪØŃØ©": 3864,
      "ĠØ§ÙĦØ§Ø³ØªÙ": 3865,
      "ĠØ§ÙĦÙĥØ§ÙħÙĦØ©": 3866,
      "ĠØ§ÙĦØŃÙħØ±Ø§Ø¡": 3867,
      "ÙĪØ±Ø¯": 3868,
      "ĠØ§ÙĦØ£ØŃØ¯Ø§Ø«": 3869,
      "ĠÙħÙĨØªØ¬Ø§Øª": 3870,
      "ĠØ§ÙĦÙħØ§Ø¦Ø©": 3871,
      "ĠØ§ÙĨÙĤ": 3872,
      "ĪÙĬØ´": 3873,
      "ĠØ¨ÙĨ": 3874,
      "ÙĪØ±ÙĨ": 3875,
      "ĠÙĪØªØ¬": 3876,
      "ĠØ§ÙĦØ¹ÙĨØ§ØµØ±": 3877,
      "ĠØµÙĪØ±": 3878,
      "ĠÙĦÙħØ¹Ø±ÙģØ©": 3879,
      "ºÙĪ": 3880,
      "ØªÙħØ¨Ø±": 3881,
      "ĪÙĬØ¶": 3882,
      "ĠØ§ÙĦØ£Ø²": 3883,
      "ĠØ§ÙĦÙħØ¹ÙĦÙĪÙħØ§ØªÙĬØ©": 3884,
      "ĨÙĩØ±": 3885,
      "ÙĪØ°": 3886,
      "ĠØ´Ø±Ø§Ø¡": 3887,
      "ĠÙĨÙĪÙģ": 3888,
      "ÙĬØ§Ø©": 3889,
      "ĠØ§ÙĦÙħÙĥØªØ¨": 3890,
      "ĠØ¨Ø§ÙĦØ³": 3891,
      "ÙĪÙĦÙĩØ§": 3892,
      "ĠØªÙħØ«ÙĦ": 3893,
      "ĠÙĬÙĪÙĦÙ": 3894,
      "ĠØ§ÙĦØ¯Ø§Ø®ÙĦÙĬØ©": 3895,
      "Ø´Ø±ÙĬÙĨ": 3896,
      "ĠØ§ÙĦØ¹ÙĬÙĨ": 3897,
      "ĠÙħØ§Ø°Ø§": 3898,
      "ĠØ§ÙĦØ³ÙĦ": 3899,
      "ĠØ§ÙĦØ£Ø¬ÙĩØ²Ø©": 3900,
      "ĠÙĪØ¬Ø¯Øª": 3901,
      "Ø°Ùĩ": 3902,
      "ĠØ£Ø¯Ø§Ø©": 3903,
      "ÙĪØ¸": 3904,
      "ĠÙĬÙĪÙĨÙĬÙĪ": 3905,
      "ĠØ¹ÙĦØ§ÙĪØ©": 3906,
      "ĠÙĨØ¨Ø§Øª": 3907,
      "ĠÙĦØ¶ÙħØ§ÙĨ": 3908,
      "ÙĦÙĪØ§Ù": 3909,
      "ĠØ¹ÙħØ±": 3910,
      "ÙĬÙĥÙ": 3911,
      "ĠØ§ÙĦØ§ØªØŃØ§Ø¯": 3912,
      "ĠØ§ÙĦØ§ØµØ·ÙĨØ§Ø¹ÙĬ": 3913,
      "ĠØªØµÙĦ": 3914,
      "ĠØ£ÙĨÙģØ³": 3915,
      "ĠØ®ÙĦØ§ÙĬØ§": 3916,
      "ĠÙħØ¦": 3917,
      "ĠØ§ÙĦÙħÙĨØ§Ø³Ø¨": 3918,
      "ĠÙħØµØ§Ø¯Ø±": 3919,
      "ĠØ§Ø³ØªØ®Ø¯": 3920,
      "ĠÙĪØ§ÙĦÙĩ": 3921,
      "ĠÙħÙģÙĬØ¯Ø©": 3922,
      "ÙĦÙĪØ±": 3923,
      "ĠÙĪÙĥØ§Ù": 3924,
      "ĠØ§ÙĦÙĪÙ": 3925,
      "ĠØ§ÙĦØ¹Ø¸Ø": 3926,
      "ĠØ§ÙĦØ¹Ø¸Ø§": 3927,
      "Ø¯ÙĨÙī": 3928,
      "ĠØ§ÙĦÙħØªÙĪØ³Ø·": 3929,
      "ØŃØ§Ø¨": 3930,
      "ĠØ§ÙĦÙĬÙĪÙĨØ§": 3931,
      "ĠØ´Ø®ØµÙĬØ©": 3932,
      "ØµØµØ©": 3933,
      "ĠÙħØŃØ§ÙĪÙĦØ©": 3934,
      "Ø§Ø´Ø©": 3935,
      "ĠØ§ÙĦØ³Ø±Ø·Ø§ÙĨ": 3936,
      "ĠØªØªØ¹": 3937,
      "ÙħÙĦÙĪÙĨ": 3938,
      "ÙĪØ§ÙĤ": 3939,
      "ĠØ¯Ø¹ÙĪÙĨØ§": 3940,
      "ĠÙħÙĨØ§Ø³Ø¨Ø©": 3941,
      "ĠÙĪØªØ®": 3942,
      "Ø°Ù": 3943,
      "ĠØ£Ø³ÙģÙĦ": 3944,
      "·ÙĦØ¨Ø§Øª": 3945,
      "Ø³Ø§Ùħ": 3946,
      "ĠØ¨Ø§ÙĦØªØ£ÙĥÙĬØ¯": 3947,
      "ÙĦØ§ÙĩØªÙħØ§Ùħ": 3948,
      "ĠØ£Ø¨Ø±ÙĬÙĦ": 3949,
      "ĠÙĪÙĬØ³": 3950,
      "ĠØ§ÙĦÙĥØ§Ø¦Ù": 3951,
      "ĠØ§ÙĦØ¯Ùģ": 3952,
      "§ÙĦØ§ÙĩØªÙħØ§Ùħ": 3953,
      "ĠÙĬÙĨØ§ÙĬØ±": 3954,
      "ĠØ§ÙĦØ¨ÙĬÙĪÙĦÙĪØ¬": 3955,
      "ĠÙħØ¬ÙĦØ©": 3956,
      "ÙĦÙĪØ§ÙĨ": 3957,
      "ĠØ§ÙĦØ£ÙĪØ±Ø§ÙĤ": 3958,
      "ĠÙĬØ³ØªØ®Ø¯": 3959,
      "ĠØŃØ¯ÙĬØ«": 3960,
      "ĠØ§ÙĦØ¨Ø¯Ø§ÙĬØ©": 3961,
      "ĠØ§ÙĦØ¥ÙĨØªØ§Ø¬": 3962,
      "ĠÙĪÙĥØ§ÙĨ": 3963,
      "Ø³ØªØ®Ø¯Ùħ": 3964,
      "ĠØ¨Ø§ÙĦØ¨": 3965,
      "ĠØ§ÙĦÙĬØ¯": 3966,
      "ĠØ§ÙĦØºØ°Ø§Ø¡": 3967,
      "ĠÙĤØ¯Ø±Ø©": 3968,
      "ØªÙĪØ¨Ø±": 3969,
      "ĠØ§ÙĦÙĪÙĤÙĪØ¯": 3970,
      "ĠØ§ÙĦØ¯ÙĩÙĪÙĨ": 3971,
      "ÙĦÙĬØ§Ùģ": 3972,
      "ĠØ§ÙĦØªÙĨÙħÙĬØ©": 3973,
      "ÙģØ§ÙĬØ§Øª": 3974,
      "ĠØ§ÙĦØŃÙĤÙĬÙĤÙ": 3975,
      "ĠØ§ÙĦØŃÙĤÙĬÙĤÙĬ": 3976,
      "ÙĥÙĪØ¨": 3977,
      "ĠØ§ÙĦØ¹ÙĤÙĦÙĬØ©": 3978,
      "ĠØ¥ÙĬÙĩ": 3979,
      "ĠØ§ÙĦØ§ÙĩØªÙħØ§Ùħ": 3980,
      "ĠØªÙĥÙĨ": 3981,
      "ħØ±ÙĪØ±": 3982,
      "Ø±ØºØ¨": 3983,
      "ĠØ£ÙĥØªÙĪØ¨Ø±": 3984,
      "ĠØ§ÙĦÙĢ": 3985,
      "ĠØ§ÙĦØ£Ø³Ø§Ø³": 3986,
      "Ø§Ø¯ÙĦØ©": 3987,
      "ĠØ§ÙĦØ£Ø®ÙĦØ§ÙĤ": 3988,
      "ĠØ§ÙĦÙħÙĥÙĪÙĨØ§Øª": 3989,
      "ÙĪØ§ÙĬØ©": 3990,
      "ĠØ¹Ø§ÙħØ©": 3991,
      "ĠØ§ÙĦØ³Ø¤Ø§ÙĦ": 3992,
      "Ø¬ÙĬÙĨ": 3993,
      "ĠØ§ÙĦÙħØ¹Ø§Ø¯ÙĨ": 3994,
      "ĠØ§ÙĦÙģØ¶": 3995,
      "ĠØ§ÙĦÙĪØ¬": 3996,
      "ĠØ±Ø§Ø¦Ø¹Ø©": 3997,
      "ĠØ§ÙĦØ§Ø¨": 3998,
      "ĠØ§ÙĦÙĨÙģØ§ÙĬØ§Øª": 3999,
      "ĠØ£Ø¹ÙĦ": 4000,
      "ĠØ¨Ø±Ø§ÙħØ¬": 4001,
      "Ġ2000": 4002,
      "ÙĩØ§ÙĬØ©": 4003,
      "ÙĪØ±Ø¬": 4004,
      "ÙĦÙĬÙĦØ©": 4005,
      "ÙĦØ§ØŃØ¸": 4006,
      "ĠØ£Ø¹ÙĦØ§Ùĩ": 4007,
      "ab": 4008,
      "ĠØªÙĨØªØ¬": 4009,
      "ĠØ§ÙĦÙħØªØŃØ±ÙĥØ©": 4010,
      "ĠØ§ÙĦÙĤÙĦÙĤ": 4011,
      "ÙģÙĬØ²": 4012,
      "ĠØ§ÙĦØŃØ±ÙĥØ©": 4013,
      "Ø°Ø±": 4014,
      "ĠÙĦØ¬ÙħÙĬØ¹": 4015,
      "Ġl": 4016,
      "Ø¨ÙĪÙĨ": 4017,
      "ĠØ£ØµÙĦ": 4018,
      "ÙĪÙĬØ´": 4019,
      "ĠØ§ÙĦØ£Ø´Ø¬Ø§Ø±": 4020,
      "ÙĬØªÙĬ": 4021,
      "ĠØ§ÙĦØ¹ÙĦØ§ÙĤØ§Øª": 4022,
      "ØªØ«ÙħØ§Ø±": 4023,
      "ĠX": 4024,
      "ĠØªÙĩ": 4025,
      "âĢ¬âĢ¬âĢ¬âĢ¬âĢ¬âĢ¬âĢ¬âĢ¬âĢ¬âĢ¬âĢ¬âĢ¬âĢ¬âĢ¬âĢ¬âĢ¬âĢ¬âĢ¬âĢ¬âĢ¬âĢ¬âĢ¬âĢ¬âĢ¬âĢ¬âĢ¬âĢ¬âĢ¬âĢ¬âĢ¬âĢ¬âĢ¬": 4026,
      "ĠØ§ÙĦÙħÙĬÙĦØ§Ø¯": 4027,
      "ĠÙĨÙĤØ§Ø·": 4028,
      "ĠØ³Ø¨ØªÙħØ¨Ø±": 4029,
      "ĠØªØ±ÙĥÙĬØ²": 4030,
      "ĠØ±ÙĪØ¨": 4031,
      "ĠØ±Ø³Ùħ": 4032,
      "ĠØ§ÙĦÙħØ·Ø§Ùģ": 4033,
      "ÙĨÙĩØ±": 4034,
      "ĠØ±ÙħØ²": 4035,
      "ØŃÙĨ": 4036,
      "ĠØ§ÙĦØ¶Ø±ÙĪØ±ÙĬ": 4037,
      "ÙĦÙĨØ¯Ø§": 4038,
      "ħØ¯Ø±Ø³Ø©": 4039,
      "ØªØ®Ø¯ÙħÙĬÙĨ": 4040,
      "ĠØ§ÙĦÙĨØ§Ø¬": 4041,
      "ĠØ§Ø³ØªÙĩÙĦØ§Ùĥ": 4042,
      "ĠÙĪØ¸Ø§Ø¦Ùģ": 4043,
      "ĠØ²Ù": 4044,
      "ĠØ¬ÙĨØ¨Ø": 4045,
      "ĠØ§ÙĦÙĪÙĦ": 4046,
      "ĠØ¬ÙĨØ¨Ø§": 4047,
      "ĠÙĦÙĦØ±": 4048,
      "ĠØ§ÙĦÙħÙĨØ§Ø¹Ø©": 4049,
      "ĠØ§ÙĦØŃÙĬØ©": 4050,
      "ĠØªØ£ØªÙĬ": 4051,
      "ĠØ§ÙĦÙħØ±Ø": 4052,
      "ĠØ§ÙĦÙĨÙģØ³": 4053,
      "ØµÙī": 4054,
      "ĠØ±Ø¦ÙĬØ³Ù": 4055,
      "ĠØªØ¹ØªØ¨Ø±": 4056,
      "ĠØ±Ø¦ÙĬØ³ÙĬ": 4057,
      "ĠØ§ÙĦØµÙĦØ©": 4058,
      "Ø¨ÙĬØ§": 4059,
      "ÙĦÙħØ": 4060,
      "ĠØ§ÙĦÙħÙħÙĥÙĨ": 4061,
      "ĠÙĦÙĩØ°Ùĩ": 4062,
      "ÙĬØ§ÙĨØ§": 4063,
      "ĠÙĨÙĩØ±": 4064,
      "Ġ23": 4065,
      "ĠØ§ÙĦÙħÙĩØ§Ø±Ø§Øª": 4066,
      "ĠØ§ÙĦØŃØ§Ø¬Ø©": 4067,
      "ĠØ£Ø³Ø¦ÙĦØ©": 4068,
      "ĠØ·Ù": 4069,
      "ĠØ§ÙĦØ¹Ø¸Ø§Ù": 4070,
      "ĠØ§ÙĦØ¹Ø¸Ø§Ùħ": 4071,
      "ÙĦÙĬØ³": 4072,
      "ĠØ¹Ø¨": 4073,
      "ĠØ±Ø¤": 4074,
      "ĠØ§ÙĦÙĬÙĪÙħÙĬØ©": 4075,
      "Ġ2011": 4076,
      "ĠÙģØ±ØµØ©": 4077,
      "ĠØ¥Ø´Ø§Ø±Ø©": 4078,
      "ĠØªØ¨Ø¯ÙĪ": 4079,
      "Ø¨Ø§ÙĨÙĬ": 4080,
      "ĠØ§ÙĦØ¯Ø±ÙĪØ³": 4081,
      "ĠØ¹Ø§ÙĦÙħÙ": 4082,
      "ħØ§Ø³": 4083,
      "Ø§Ø¯ÙĬÙħÙĬØ©": 4084,
      "ĠÙĪÙħØ±": 4085,
      "ĠØ§ÙĦØ®Ø§Ø±Ø¬ÙĬØ©": 4086,
      "³Ø§ÙĩÙħ": 4087,
      "ĠØ®Ø¯ÙħØ§Øª": 4088,
      "ĠÙĪØ§Ø¶ØŃ": 4089,
      "ĠØ§ÙĦØ¯ÙĬÙĨ": 4090,
      "ĠØ§ÙĦÙĥØ¨Ø±Ùī": 4091,
      "ĠØ¨ÙĪØ§Ø³": 4092,
      "ĠØ¹ÙĦÙħØ§Ø¡": 4093,
      "ĠØ§ÙĦØ£Ø¹Ø±Ø§Ø¶": 4094,
      "ĠØ³ÙĬØ³": 4095,
      "Ø®Ùħ": 4096,
      "ĠØ·ÙĦØ§Ø¨": 4097,
      "Ø¯Ùĩ": 4098,
      "ĠÙĪØ§ÙĦØªØ±": 4099,
      "ĠØ¨Ø¯Ø§ÙĬØ©": 4100,
      "Ø¯ÙĦØ§Øª": 4101,
      "ĠÙĬÙĪÙĦÙĬÙĪ": 4102,
      "Ø§ÙĤØ§Øª": 4103,
      "40": 4104,
      "ÙĨØ¸ÙħØ©": 4105,
      "ĠÙĦÙĦØ": 4106,
      "ĠØ¸Ø±ÙĪÙģ": 4107,
      "ĠØ§ÙĦÙĨÙĩØ§ÙĬØ©": 4108,
      "ĠÙģØŃØµ": 4109,
      "ĠØ¬ÙĪØ¯Ø©": 4110,
      "ĠØ§ÙħØ": 4111,
      "ĠØ§ÙĦØ¬Ùħ": 4112,
      "ĠÙĪÙħÙĤ": 4113,
      "Ø¯ÙĪØ¬": 4114,
      "ĠØ¨ÙĪØ§Ø³Ø·Ø©": 4115,
      "ĠØ§ÙĦØ¨ÙĬØ¶Ø§Ø¡": 4116,
      "ÙĪØ¶ØŃ": 4117,
      "ĠØ§ÙĦØ¹ÙĦÙħÙĬØ©": 4118,
      "ĠÙĨØ¸Ø±Ø©": 4119,
      "ħØ±ØªØ¨Ø·Ø©": 4120,
      "ĨØ§Ø¹": 4121,
      "ĠØªØ³Ø¬ÙĬÙĦ": 4122,
      "Ø³Ø·Ø³": 4123,
      "Ø¨Ø¶": 4124,
      "ĪØ§Ø¨": 4125,
      "ĠÙĪÙĩ": 4126,
      "ĠØ§ÙĦØªÙĨÙģÙĬØ°": 4127,
      "ĠØ§ÙĦÙĥØ§ÙħÙĦ": 4128,
      "ĠØ§ÙĦÙħØ·ÙĦÙĪØ¨": 4129,
      "ĠØ§ÙĦØ¨Ø±ÙĨØ§ÙħØ¬": 4130,
      "ĠØªÙģØ³ÙĬØ±": 4131,
      "ĠØªØªÙĥÙĪÙĨ": 4132,
      "Ø±ÙĬØ¨ÙĬØ©": 4133,
      "ÙħØ±ØªØ¨Ø·Ø©": 4134,
      "ĠÙĬØ£ØªÙĬ": 4135,
      "§ÙģÙĤØ©": 4136,
      "ĠØ§ÙĦØ¨ÙĥØªÙĬØ±ÙĬØ§": 4137,
      "ĠØ¥ÙĦØ®": 4138,
      "ĠÙħÙĨÙģ": 4139,
      "ÙĩÙĬÙĦ": 4140,
      "ĠØ§ÙĦØ¨ÙĤ": 4141,
      "ÙĬØªÙĩ": 4142,
      "³Ø§ÙĪØ§Ø©": 4143,
      "ĠØ³Ø±Ø·Ø§ÙĨ": 4144,
      "ĠØ¹ÙĦØ§ÙĤØ©": 4145,
      "ÙħÙĨÙĬØ©": 4146,
      "ĠÙģÙĪØ§Ø¦Ø¯": 4147,
      "ĠÙħØ±ØªØ¨Ø·Ø©": 4148,
      "ĠØ±Ø¹Ø§ÙĬØ©": 4149,
      "ĠØªØ±ØºØ¨": 4150,
      "ĠØ³ÙĦÙĪÙĥ": 4151,
      "ĠØ£ÙĬÙĨ": 4152,
      "ªØ±Ø¶": 4153,
      "ĠØ§ÙĦØ¨Ø§ØŃØ«ÙĪÙĨ": 4154,
      "NA": 4155,
      "ĠØ§ÙĦÙħØ´Ø§Ø±ÙĥÙĬÙĨ": 4156,
      "ĠÙĪØ£ÙĥØ«Ø±": 4157,
      "ĠØ£ÙĪØ±": 4158,
      "ĠØ¨Ø§ÙĦØ´": 4159,
      "ĠØ§ÙĦÙĤÙĬØ§Ø¯Ø©": 4160,
      "ĠØ¥Ø«": 4161,
      "ĠØ§ÙĦÙĪÙĬØ¨": 4162,
      "ĠØ§ÙĦÙħÙĪØ§ÙĤØ¹": 4163,
      "ĠØ§ÙĦÙħÙĨØ§Ø³Ø¨Ø©": 4164,
      "ĠØ¥ÙħÙĥØ§ÙĨÙĬØ©": 4165,
      "Ø§Ø¯Ùħ": 4166,
      "ĠÙĩØ¤ÙĦØ§Ø¡": 4167,
      "ĠØ§ÙĦØ¬Ø³": 4168,
      "ĪØ§Ø¦ÙĬØ©": 4169,
      "ĠÙħØ§Ùĥ": 4170,
      "ĠÙģØªØŃ": 4171,
      "ĠØ§ÙĦÙħØ±Ø¬ØŃ": 4172,
      "ĠÙĥÙĪØ±": 4173,
      "ĬÙĥÙĪÙĨ": 4174,
      "ĠØ§ÙĦØ£ÙģÙĥØ§Ø±": 4175,
      "Ġ2015": 4176,
      "--": 4177,
      "ĠÙĥÙĪÙĦÙ": 4178,
      "Ø¸ÙĩØ±": 4179,
      "ew": 4180,
      "ĠØ¨ÙĨØ³Ø¨Ø©": 4181,
      "ĠØ¹ÙĨÙĪØ§ÙĨ": 4182,
      "ĠØ£ÙĨÙĨØ§": 4183,
      "ĠØ§Ø¶Ø·Ø±Ø§Ø¨Ø§Øª": 4184,
      "ĠØ§ÙĦÙħØ³ØªÙĪÙī": 4185,
      "ĠØ§ÙĦØªØ¹Ø±Ùģ": 4186,
      "ĠØ«Ø§Ø¨Ø": 4187,
      "Ø§Ø¡Ø§Øª": 4188,
      "ĤØ±Ø§Ø·": 4189,
      "ĠØ¯Ø": 4190,
      "ĠØ§ÙĦÙĥÙĨÙĬØ³Ø©": 4191,
      "Ø¨ÙĥØ§Øª": 4192,
      "ĠÙĬÙĦ": 4193,
      "ĠØ§ÙĦØ¥ÙĬØ¬": 4194,
      "²Ø§Ùħ": 4195,
      "ĠØ¨ÙĦØ¯": 4196,
      "ÙĪØ±ÙĨÙĬØ§": 4197,
      "Ġ22": 4198,
      "Ø§ÙĦÙħ": 4199,
      "ĠÙĪØ§ÙĦØ²": 4200,
      "ĠØ§ÙĦØ¬ÙĪØ¯Ø©": 4201,
      "ĠØ¹ÙĪØ§ÙħÙĦ": 4202,
      "ĠØ¨ØªÙĤ": 4203,
      "Ø§Ø·Ø¦": 4204,
      "ĠØªØ£ÙĥØ¯": 4205,
      "ĠØ§ÙĦØ£Ø±Ø¨": 4206,
      "ĠØ§ÙĦØ´Ø¨ÙĥØ©": 4207,
      "ĠØªØ¬Ø¹ÙĦ": 4208,
      "\"ØĮ": 4209,
      "ĠØ·Ø¨ÙĬØ¹Ù": 4210,
      "ĠØ·Ø¨ÙĬØ¹ÙĬ": 4211,
      "ĠØªØŃÙħÙĦ": 4212,
      "Ø§ÙĩØ¯": 4213,
      "ĠÙĬØ¬Ø¹": 4214,
      "ÙħØ¨Ø±Ø§Ø·": 4215,
      "ĠØªÙĨØ¸ÙĬÙħ": 4216,
      "ĬØ±ÙĬØ¯": 4217,
      "Ø³Ø§Ø³": 4218,
      "ov": 4219,
      "ØŃÙĪÙĦ": 4220,
      "ĠØªØ¯Ø±ÙĬØ¨": 4221,
      "ĠØ£Ø¹Ø¶Ø§Ø¡": 4222,
      "ĪÙĦÙĬØ¯": 4223,
      "ĠÙĦØ§ØŃØ¸": 4224,
      "ĠØ¨Ø¯ÙĪÙĨ": 4225,
      "Ø¬Ùī": 4226,
      "Ġ2013": 4227,
      "ĠØ§ÙĦØ³ÙĦØ·Ø©": 4228,
      "ØªØ±Ùģ": 4229,
      "ĨØ§Ø¦ÙĬØ©": 4230,
      "Ø±ÙĬØ·Ø©": 4231,
      "Ġ21": 4232,
      "ĠØ§ÙĦÙĤÙĬÙħØ©": 4233,
      "ĠØ§ÙĦØ¨ÙĤØ§Ø¡": 4234,
      "ers": 4235,
      "ĠÙĪÙĥÙĬÙģ": 4236,
      "Ø§ÙĦÙĬÙģÙĪØ±ÙĨÙĬØ§": 4237,
      "ĠØ¯ÙĬØ³ÙħØ¨Ø±": 4238,
      "ĠÙħÙĬØ§Ùĩ": 4239,
      "ĠØ§ÙĦØ¯ÙĪÙĦØ©": 4240,
      "ĠÙĥÙĦÙħØ§": 4241,
      "ħØ¯ÙĬØ±": 4242,
      "ØºØ±Ø§Ùģ": 4243,
      "Ø±ÙĪØ¹Ø©": 4244,
      "ĠØ§ÙĦØ³Ø±ÙĬØ±": 4245,
      "ÙĬØ§ÙĤ": 4246,
      "ÙħØ¯Ø±Ø³Ø©": 4247,
      "ĠØ§ÙĦØ§ÙĤØªØµØ§Ø¯": 4248,
      "ĠØ§ÙĦØ¨Øµ": 4249,
      "ĠØ£Ø¯Ø§Ø¡": 4250,
      "Ø±ÙĬØŃ": 4251,
      "ªØ³": 4252,
      "ĠØ§ÙĦÙħØ¤Ø³": 4253,
      "ĠØ§ÙĨØª": 4254,
      "ĠÙĪØ§ÙĦØªÙĥ": 4255,
      "ĠØ±Ø¦ÙĬØ³ÙĬØ©": 4256,
      "ĠÙħÙģÙĩÙĪÙħ": 4257,
      "ĠØ¨ÙĩØ°Ùĩ": 4258,
      "tr": 4259,
      "ĠÙĦØ£ÙĬ": 4260,
      "ĠØ§ÙĦÙħØ²Ø§Ø±Ø¹": 4261,
      "ĠÙĬØ±Ø¬Ùī": 4262,
      "ĠÙĦÙĪÙĨ": 4263,
      "ĠØ§ÙĦÙħÙĥØ³": 4264,
      "ĠØ§ÙĦØªØµÙħÙĬÙħ": 4265,
      "Ø¯ÙĤ": 4266,
      "ĠØ¨ØŃÙĦÙĪÙĦ": 4267,
      "Ġ2016": 4268,
      "ĠÙĪØªÙĥ": 4269,
      "ĠØŃÙĤÙĬÙĤ": 4270,
      "ĠØªÙĥÙĦÙģØ©": 4271,
      "ÙħÙĪØ±": 4272,
      "ÙĬÙĨØ": 4273,
      "ĠØ·ÙĪÙĬÙĦ": 4274,
      "ĠØºØ": 4275,
      "ĠØ³ÙĨØ©": 4276,
      "ÙĪØŃØ©": 4277,
      "ĠØ§ÙĦØŃØ¯ÙĪØ¯": 4278,
      "ÙĪÙĦØ": 4279,
      "80": 4280,
      "ĠØ§ÙĦØ¸Ø±ÙĪÙģ": 4281,
      "Ġ2017": 4282,
      "ĠØ§ÙĦÙĨØ·Ø§ÙĤ": 4283,
      "ĠØ§ÙĦØ£ÙĦÙħØ§": 4284,
      "ĠÙĨÙĪÙģÙħØ¨Ø±": 4285,
      "ĠØ§ÙĨØªØ´Ø§Ø±": 4286,
      "ĠÙĦÙĦÙħØ´": 4287,
      "ĠÙģØ¥ÙĨÙĩØ§": 4288,
      "ĠÙĪØ¬Ùĩ": 4289,
      "ĠØ§ÙĦÙĥÙĦØ§Ø¨": 4290,
      "ĠÙĤØ·Ø¹Ø©": 4291,
      "ĠÙĪØ§ÙĦÙĪØ": 4292,
      "ĠØ§ÙĦÙĩÙĬØ¯": 4293,
      "ĠØ§ÙĦØ¹Ø§ÙĦÙĬØ©": 4294,
      "ĠØ¨Ø§ÙĦÙħÙ": 4295,
      "Ġ2014": 4296,
      "ĠØŃØµÙĦ": 4297,
      "ĠØ¥ÙĦÙĬÙĥ": 4298,
      "ĠØ£ØºØ³Ø·Ø³": 4299,
      "ĠÙĦØªØŃØ³ÙĬÙĨ": 4300,
      "Ø¨ÙĦÙĬØ©": 4301,
      "ĠÙħØ¯Ø±Ø³Ø©": 4302,
      "ĠÙħØ¹ÙĨÙī": 4303,
      "ĠØ§ÙĦÙħÙĤØ§ÙĦØ§Øª": 4304,
      "ÙħØ§ÙĦÙ": 4305,
      "ĠÙĨØ´Ø±Øª": 4306,
      "ĠØ§ÙĦÙħØ¹Ø±ÙĪÙģØ©": 4307,
      "ĠÙĪØ§ÙĦÙĨØ": 4308,
      "ĨØ³ÙĬÙĤ": 4309,
      "Ø±ÙĤØ©": 4310,
      "ĠÙħØŃØªÙĪÙī": 4311,
      "ĠØ§ÙĦØªØ¹Ø¨ÙĬØ±": 4312,
      "ĠØ´ÙĬÙĪØ¹Ø": 4313,
      "ĠØ´ÙĬÙĪØ¹Ø§": 4314,
      "ĠÙģØ¹Ø§ÙĦØ©": 4315,
      "ĠØ£Ø³Ø¨ÙĪØ¹": 4316,
      "ĠØ§ÙĦØ®Ø·ÙĪØ©": 4317,
      "ÙĦÙĨØ§": 4318,
      "ÙĬØ±ÙĬØ¯": 4319,
      "ĠØ§ÙĦÙħÙĤØ¯Ø³": 4320,
      "ĠØ£Ø±Ø¶": 4321,
      "ĠØ¨ÙĬØ±": 4322,
      "ation": 4323,
      "ĠØªØ³Ø": 4324,
      "ĠÙģÙĩ": 4325,
      "ĠØ³Ø§Ø¹Ø§Øª": 4326,
      "ĠØ°ÙĪÙĬ": 4327,
      "ØªØ±Ø¶": 4328,
      "Ø¨Ø§Ù": 4329,
      "Ø¯ÙĪÙĤ": 4330,
      "ĠÙģÙĬØ¯": 4331,
      "ÙĦÙĪØ³": 4332,
      "ĠØ£ÙĪØ±Ø§ÙĤ": 4333,
      "ĠÙħÙĨØµ": 4334,
      "ĠØ¸ÙĦ": 4335,
      "ĠÙĬØ´Ø¹Ø±": 4336,
      "ĠÙĪØªØµ": 4337,
      "ĠØ§ÙĦØ¹Ø¯ÙĪÙī": 4338,
      "ĠØ§ÙĦØ«Ø§ÙĨÙĪÙĬØ©": 4339,
      "ĠÙĤØ§Ø¨ÙĦØ©": 4340,
      "ĠÙĬØ³ÙĪØ¹": 4341,
      "ĠØ¥ÙħØ§": 4342,
      "ĠØ¥ØŃ": 4343,
      "ĠØ§ÙĦÙĤØ¶Ø§ÙĬØ§": 4344,
      "ĠØ§ÙĦÙĪØ§Ø¶": 4345,
      "ĠØªÙĤØ±ÙĬØ¨": 4346,
      "Ø¹Ø§Ø«": 4347,
      "ĠØ§ÙĦØŃØ±Ø§Ø±ÙĬØ©": 4348,
      "ĠÙħÙħÙĥÙĨ": 4349,
      "Ø¸ÙĩØ§Ø±": 4350,
      "Ø¨Ø¹Ø§Ø¯": 4351,
      "Ġ2018": 4352,
      "ĠØ§ÙĦØ£ÙĨØ³Ø¬Ø©": 4353,
      "ex": 4354,
      "ªØ§Ø¡": 4355,
      "Ø¨Ø±Ø§ÙĬØ±": 4356,
      "¦ÙĬØ©": 4357,
      "ĠØªØ¹Ø¯ÙĬÙĦ": 4358,
      "ĠÙĥØªÙĦØ©": 4359,
      "ĠØ¨ÙĨÙģØ³": 4360,
      "ĠØ§ÙĦØ£ÙħØ±ÙĬÙĥÙĬÙĬÙĨ": 4361,
      "ÙĬÙĦÙĬ": 4362,
      "ĠØªÙĤØ¹": 4363,
      "Ø§ÙħÙĦØ©": 4364,
      "ĠØ¬ÙĪ": 4365,
      "ĠØ§ÙĦØªØ¯ÙģÙĤ": 4366,
      "Ġ196": 4367,
      "ĠÙĥÙĪØ¨": 4368,
      "ĠØ§ÙĦØ·ÙĦØ¨": 4369,
      "ĠÙĦÙħÙĨØ¹": 4370,
      "ĠØ§ÙĦØ´Ø±ÙĤ": 4371,
      "ĪØ§": 4372,
      "ĠØ±Ø¨Ø·": 4373,
      "24": 4374,
      "ĠØªØ°ÙĥØ±": 4375,
      "ħØ¯Ø©": 4376,
      "ĠØ®ÙħØ³Ø©": 4377,
      "ip": 4378,
      "ĠØ§ÙĦØ£Ø¯Ø¨": 4379,
      "ĠØ®Ø·ÙĪØ©": 4380,
      "ĠÙģØ¹Ø§ÙĦ": 4381,
      "ĠØ£Ø¹ÙħØ§ÙĦ": 4382,
      "ÙĦØ³ÙĦ": 4383,
      "ĠØ£Ø³Ø¨Ø§Ø¨": 4384,
      "ĠØ§Ø³ØªØ±": 4385,
      "ĠØ§ÙĦØ£Ø³Ø¨Ø§Ø¨": 4386,
      "Ø§Ø¨Ø³": 4387,
      "¬ØªÙħØ¹": 4388,
      "ªØ±Ø§Ùģ": 4389,
      "ĠÙħØªØ£": 4390,
      "ĠÙĬØ±ÙĬØ¯": 4391,
      "ĠØ§ÙĦØ±ÙĬØ§Ø¶ÙĬØ©": 4392,
      "·ÙĪØ±": 4393,
      "ĠÙħØ³ØŃ": 4394,
      "ĠÙĪØªØ±": 4395,
      "ĠÙĪØŃØªÙī": 4396,
      "ÙģÙĬÙģØ©": 4397,
      "ĠØ§ÙĦØ®Ø´Ø¨": 4398,
      "Ø¯Ø§ÙĦ": 4399,
      "Ø¨ØºÙĬ": 4400,
      "ĪÙĬØ": 4401,
      "ĠÙĪØ°ÙĦÙĥ": 4402,
      "ĠÙĥØ§ÙĦÙĬÙģÙĪØ±ÙĨÙĬØ§": 4403,
      "ØªÙĨØ¯": 4404,
      "ØªØ±Ø§Ùģ": 4405,
      "ĠÙĬØªÙĥÙĪÙĨ": 4406,
      "ĠØ´ÙĩØ±": 4407,
      "ĠÙħØ´Ø§Ø±ÙĥØ©": 4408,
      "ĠØ¨ØªÙ": 4409,
      "ĠØªÙĪØ³": 4410,
      "ĠÙĤØ§Ø¯Ø±Ø©": 4411,
      "ĠØ§ÙĦÙħØ±ÙĬØ¶": 4412,
      "ĠØ§ÙĦØ¹ÙħÙĦÙĬØ§Øª": 4413,
      "ÙĪØ§ÙĨÙĬØ©": 4414,
      "ĠÙĬØ¨ÙĦØº": 4415,
      "ĠØ²Ø±Ø§Ø¹Ø©": 4416,
      "ĠØ§ÙĦØ¯ÙĤÙĬÙĤØ©": 4417,
      "ĠÙĦØ²": 4418,
      "ĠØ´Ø±ÙĤ": 4419,
      "Ġ2019": 4420,
      "Ø§Ø±ÙĬØ±": 4421,
      "ĠØªØ®ØªÙĦÙģ": 4422,
      "ĠØ³Ø£": 4423,
      "ĬÙħÙĩØ§": 4424,
      "ĠØªÙĪØµ": 4425,
      "ĠØ¨ÙĩÙħ": 4426,
      "ĠØ§ÙĦÙħØŃØªÙĪÙī": 4427,
      "ÙĪÙĬØ": 4428,
      "ĠÙħÙħØª": 4429,
      "ĠØ¥Ø±Ø³Ø§ÙĦ": 4430,
      "ĠØªØ´Ø®ÙĬØµ": 4431,
      "Ø§ØªÙģ": 4432,
      "ĠØ¬Ø§Ø¡": 4433,
      "Ġx": 4434,
      "²Ø§Øª": 4435,
      "ĪÙĦØ¯": 4436,
      "ĠØ§ÙĦØªØŃÙĦÙĬÙĦ": 4437,
      "ÙĪÙĬØ¶": 4438,
      "ĠÙĪØ§Ø¶ØŃØ©": 4439,
      "ĠØ§ÙĦØªÙĪØªØ±": 4440,
      "ĬÙĨØ§": 4441,
      "ÙĳÙİ": 4442,
      "ĠØ¨Ø³ÙĬØ·Ø©": 4443,
      "ĠØ§ÙĦØ£ÙĥØ³": 4444,
      "ĠØ¹Ø§Ø¦ÙĦØ©": 4445,
      "ĠØ£ÙĦÙħØ§": 4446,
      "ĠØ§ÙĦÙħÙĪØ¬ÙĪØ¯Ø©": 4447,
      "ĠØªØ®Ø²ÙĬÙĨ": 4448,
      "ÙĩÙĪ": 4449,
      "²ÙĬØ¯": 4450,
      "ĠÙĥÙĦØ": 4451,
      "ĠØ§ÙĦÙħØªÙĥ": 4452,
      "ĠØ§ÙĦÙĤØ¯ÙĬÙħ": 4453,
      "ĠØ§ÙĦØ£Ø¯ÙĪØ§Øª": 4454,
      "ĠØ¨ÙĨÙĬØ©": 4455,
      "ĠÙħØ±Ø¨Ø¹": 4456,
      "ĠÙĬØ¶Ø¹": 4457,
      "ĬÙĪØ³": 4458,
      "ĠØ§ÙĦØ£Ø±ÙĤØ§Ùħ": 4459,
      "ĠØ§ÙĦÙĬÙĩÙĪØ¯": 4460,
      "ĠØ§ÙĦØ§ÙĤØªØµØ§Ø¯ÙĬØ©": 4461,
      "ĠØ§ÙĦØ¹Ø¶ÙĦØ§Øª": 4462,
      "ĠÙĪÙĬØ": 4463,
      "ĠÙĥÙĦØ§": 4464,
      "ĠØ¹Ø¶": 4465,
      "ĠØ§ÙĦØ¢Ø¨Ø§Ø¡": 4466,
      "ĠØ§ÙĦØ³ÙĪØ¯Ø§Ø¡": 4467,
      "ĬØ§Ø¦ÙĬ": 4468,
      "ÙħØ±ÙĪØ±": 4469,
      "ĠØ§ÙĦØ£Ø¨ÙĬØ¶": 4470,
      "ĠØ§ÙĦØ¹ÙĦØ§ÙĤØ©": 4471,
      "ªÙĦÙģ": 4472,
      "Ø§Ø¨ÙĬØ¨": 4473,
      "ĠÙħÙĦØ": 4474,
      "ĠÙħØ±ÙĪØ±": 4475,
      "ĠÙł": 4476,
      "ĠØ³ØªÙĥ": 4477,
      "ĠÙħÙĪØ§ÙĤØ¹": 4478,
      "Ø¯ÙĪØ¯Ø©": 4479,
      "ĠØ§ÙĦÙħØ¬Ø§ÙĦ": 4480,
      "ĠÙħØµØ·ÙĦØŃ": 4481,
      "ĠÙĥÙĦÙĬØ©": 4482,
      "ĠÙģØ¨Ø±Ø§ÙĬØ±": 4483,
      "ĠØ§ÙĦØ·ÙĪÙĬÙĦ": 4484,
      "·ÙĤ": 4485,
      "ĠØ£ÙĩÙħ": 4486,
      "ĠØ§ÙĦØ¥Ø´Ø¹": 4487,
      "ĠØ§ÙĦØ¥Ù": 4488,
      "ÙģÙĬØ±": 4489,
      "ĠØ§Ø³ØªÙĥØ´Ø§Ùģ": 4490,
      "ĠØ§ÙĦØ£ÙħÙĨ": 4491,
      "Ġ2012": 4492,
      "ĠÙĪØŃØ¯Ø©": 4493,
      "ÙħØ¯ÙĬØ±": 4494,
      "ĠØ§ÙĦÙħÙĤØ§Ù": 4495,
      "Ø±ÙĪØ©": 4496,
      "ĠØ¨ÙĬØ§ÙĨ": 4497,
      "ĠÙĪØ¬ÙĩØ©": 4498,
      "§ÙĨØ¨Ø¹Ø§Ø«": 4499,
      "ĠØŃÙĤ": 4500,
      "ĠÙĪØªÙģ": 4501,
      "ĠØ§ÙĦØ£Ùħ": 4502,
      "ĠØ¨ÙħÙ": 4503,
      "ĠØ¯ÙĬÙģ": 4504,
      "ĠØºØ§": 4505,
      "Ø±Ø§ÙĩÙĤ": 4506,
      "ĠØ¥ÙĨØ¬ÙĦØªØ±Ø§": 4507,
      "ĠÙĩØ§Ø±": 4508,
      "ĠÙģØ¹Ø§ÙĦÙĬØ©": 4509,
      "ĠØ§ÙĦÙģØªØ±Ø©": 4510,
      "ĠØ²Ø": 4511,
      "Ġ2010": 4512,
      "§ÙĦØ§Ø±": 4513,
      "Ø¨ÙĬØª": 4514,
      "ĠØ³ÙĥØ§ÙĨ": 4515,
      "ĠÙĦØµ": 4516,
      "Ġ27": 4517,
      "ĠÙħØªØ¬": 4518,
      "ÙĨØ³Ø§": 4519,
      "ĠØ§ÙĦÙģÙĪØ±": 4520,
      "ess": 4521,
      "§ÙĪÙĬØ©": 4522,
      "ĠØ·ÙģÙĦ": 4523,
      "Ø´Ø§Ø¡": 4524,
      "ĠØ¶ÙĪØ¡": 4525,
      "ĠØ§ÙĦÙĪÙĦØ§Ø¯Ø©": 4526,
      "ĠÙħÙĨØ¸": 4527,
      "ĠØ³ÙĤ": 4528,
      "ĠÙħØ¯ÙĬØ±": 4529,
      "ĠÙħÙĤØ§ÙĪÙħØ©": 4530,
      "ĠØ§ÙĦÙħØŃÙħÙ": 4531,
      "ĠØªÙĤÙĪÙĦ": 4532,
      "ĠØ§ÙĦØ³ÙĪ": 4533,
      "ĠÙĪØ§ÙĦØ¹ÙħÙĦ": 4534,
      "ĠØªØ±ØªÙĬØ¨": 4535,
      "ĠÙĪØ£ÙĨ": 4536,
      "ĠØ¯Ø§": 4537,
      "²Ø§ÙĬØ§": 4538,
      "ĠØ§ÙĦØ³ÙĨ": 4539,
      "ĠØ§ÙĦØµÙĨØ§Ø¹ÙĬØ©": 4540,
      "ÙĥÙħÙĦÙ": 4541,
      "ÙĬÙĪØ¨": 4542,
      "Ø±Ø§ÙĦÙĬØ§": 4543,
      "ĠÙĦÙħØ´": 4544,
      "ĠØ§ÙĦÙĥÙĦÙĬØ©": 4545,
      "Ø§ØµÙĦ": 4546,
      "ĠØŃØ§ÙĪÙĦ": 4547,
      "ĠØ¬ÙĪØ±Ø¬": 4548,
      "ĠØ§ÙĦÙħÙĨØ¸": 4549,
      "ĠØ§ÙĦÙħØ³ØªÙħØ±": 4550,
      "ĠØ§ÙĦØ³Ø§Ø¹Ø©": 4551,
      "ĠØ§ÙĦÙģØ±Ø¯ÙĬØ©": 4552,
      "ĠÙĨØ³Ø®Ø©": 4553,
      "ŃØ§Øª": 4554,
      "ĠØ£ÙģÙĥØ§Ø±": 4555,
      "ĠØªØ¬Ø§Ùĩ": 4556,
      "ÙĥÙĥ": 4557,
      "ĠØ´Ø±ØŃ": 4558,
      "ĠØªØ¹ÙĨÙĬ": 4559,
      "ĠØºØ±Ø¨": 4560,
      "Ø±Ø§ÙģÙĤ": 4561,
      "Ġ28": 4562,
      "ĠÙĬØ¹Ø¯": 4563,
      "¶ØŃ": 4564,
      "ĠØ§Ø³ØªÙħØ±": 4565,
      "Ø§Ø¨Ø§Ù": 4566,
      "ØªØ«ÙĨØ§Ø¡": 4567,
      "ĠÙĥÙģØ§Ø¡Ø©": 4568,
      "ĠØ§ÙĦØªØ·Ø¨ÙĬÙĤØ§Øª": 4569,
      "ĠØ£Ùħ": 4570,
      "ĠÙĪØªÙħ": 4571,
      "ÙĪØªØ§": 4572,
      "Ø§ÙħØ": 4573,
      "ĠÙĪØ§ÙĦØ§Ø³": 4574,
      "ĠØ£ÙĥØ³ÙĬØ¯": 4575,
      "ĠØ¨Ø®": 4576,
      "Ġ60": 4577,
      "ĠØ¨Ø´Ø£ÙĨ": 4578,
      "ĨÙĬÙĪ": 4579,
      "ĠØ§ÙĦØ£ÙģØ¶ÙĦ": 4580,
      "ĠØ§ÙĦÙĩÙĨØ¯Ø³Ø©": 4581,
      "ĠØ§ÙĦÙĨØ²": 4582,
      "ĠÙĦÙģØªØ±Ø©": 4583,
      "ĠØ£ÙħØ«ÙĦØ©": 4584,
      "ĠØ§ÙĦØªØ¬Ø§Ø±Ø©": 4585,
      "Ġ26": 4586,
      "ªÙĩØ¯Ùģ": 4587,
      "Ø±Ø¨ÙĬ": 4588,
      "ĠØŃØ¯Ø¯": 4589,
      "ÙĪÙĬÙĤ": 4590,
      "Ø±ÙĪØ¨Ø§Øª": 4591,
      "ĠÙģØ¦Ø©": 4592,
      "ĠÙħØ³ØªØ¹": 4593,
      "ĠÙħÙĨØªØµÙģ": 4594,
      "ĠÙĨÙģØ³Ùĥ": 4595,
      "ĬÙĨÙ": 4596,
      "ÙĤØ³": 4597,
      "ÙĩØ¯Ùģ": 4598,
      "ĠØ§ÙĦØŃØ§ÙĦ": 4599,
      "ĠØ¹Ø§ÙħÙĦ": 4600,
      "ĠÙĦØªØ¬": 4601,
      "ĠØ§ÙĦØ¯Ø±Ø¬Ø©": 4602,
      "ĠØªØ«": 4603,
      "ĠØ§ÙĦÙħØ¯ÙĨ": 4604,
      "ĠØ§ÙĦØŃØ´Ø±Ø§Øª": 4605,
      "Ġg": 4606,
      "§ÙĨØ¹": 4607,
      "ĠØ§ÙĦÙħØ³Ø§ÙĪØ§Ø©": 4608,
      "ÙĬÙĥØ": 4609,
      "ĠØ°Ù": 4610,
      "ĠØ§ÙĦÙģØµÙĪÙĦ": 4611,
      "Ø±Ø±Ø©": 4612,
      "ĠØ¶ÙħØ§ÙĨ": 4613,
      "ĠÙĦÙĦÙħØ±": 4614,
      "ĠÙģÙĬØ¯ÙĬÙĪ": 4615,
      "ĠØªÙĪØ²": 4616,
      "ĠÙĪØ§ÙĦÙħ": 4617,
      "ĠÙĦØ¯Ø±": 4618,
      "ĠÙĬÙĩ": 4619,
      "ĠØ§ÙĦØªÙĨ": 4620,
      "Ø±ÙĪØ¯": 4621,
      "ĠØ§Ø³ØªØ´": 4622,
      "ce": 4623,
      "ĠÙĤÙĪØ§Ø¹Ø¯": 4624,
      "§ÙĬÙĬÙĨ": 4625,
      "ĠÙĦÙĪØŃØ©": 4626,
      "ĠØªØªØ¨Ø¹": 4627,
      "ĠÙĪØ³ÙĬÙĦØ©": 4628,
      "ÙĩÙĨ": 4629,
      "ĠØ´Ø¹Ø¨ÙĬØ©": 4630,
      "ĠØ§ØŃØªÙĬØ§Ø¬Ø§Øª": 4631,
      "ĠØ§ÙĦØ§Ø³ØªÙĤ": 4632,
      "ĠØ§ÙĦØ°Ø§ØªÙĬØ©": 4633,
      "Ø¹ÙĦÙī": 4634,
      "ĠÙħØ¹Ø§ÙĬÙĬØ±": 4635,
      "ĠÙĥØ¬": 4636,
      "ĠØ§ÙĦØ¥Ø¶": 4637,
      "ĠØ§ÙĦØ®Ø¯ÙħØ§Øª": 4638,
      "ĠØ§ÙĦØ°Ø§ØªÙ": 4639,
      "ĠØ§ÙĦØ°Ø§ØªÙĬ": 4640,
      "ĠØ®ÙĬØ§Ø±": 4641,
      "ĠØ§ÙĦØ£ØŃÙħØ±": 4642,
      "ĠÙĪØº": 4643,
      "ĨØªØ§Ø¬": 4644,
      "ĠØ§ÙĦÙħÙĥØ": 4645,
      "ĠØ§ÙĦØªÙĤØ¯Ùħ": 4646,
      "ĠØ§ÙĦÙħÙĩÙ": 4647,
      "Ø°ÙĨ": 4648,
      "Ø³ØªÙĪØ±": 4649,
      "ĠØ§ÙĦØ§Ø±": 4650,
      "ĠØ§ÙĦØ²Ø±": 4651,
      "ĠØ§ÙĦÙħÙĤØ¯ÙħØ©": 4652,
      "ĠØ£Ø·Ùģ": 4653,
      "ĠØ§ÙĦÙħØ¬ÙħÙĪØ¹Ø§Øª": 4654,
      "Ø¨ÙĬÙĨ": 4655,
      "ÙĨÙĬÙĪ": 4656,
      "ĠØ§ÙĦÙħÙĦ": 4657,
      "ĠØ§ÙĦÙħÙĩØ§Ùħ": 4658,
      "ĠØ¹ÙħÙĦÙ": 4659,
      "ĠØ§ÙĦØ¨Ø§Ø±": 4660,
      "ĠØ§ÙĦØªØ§Ø±ÙĬØ®ÙĬØ©": 4661,
      "Ø±ØªÙģØ¹": 4662,
      "Ø§Ø¦Ø±Ø§Øª": 4663,
      "ĠØ§ÙĦØ£ØµÙĦÙĬ": 4664,
      "Ø¯Ø§ÙĦØ©": 4665,
      "ĠØ§ÙĦØ£Ø±Ø¬": 4666,
      "ĠÙħØ³Ø§Ø±": 4667,
      "ÙħÙĥØ": 4668,
      "ĠØ§ÙĦØ«ÙĦØ§Ø«Ø©": 4669,
      "ÙĦÙĪÙĬ": 4670,
      "ĠÙģØ§": 4671,
      "ĠØ§ÙĦØ£Ø³ÙħØ§Ùĥ": 4672,
      "ĬÙħÙĤØ±Ø§Ø·": 4673,
      "ĠØ§ÙĦØŃØ¯ÙĬÙĤØ©": 4674,
      "ĠØ§ÙĦØ¥ÙħØ¨Ø±Ø§Ø·": 4675,
      "ØªÙħÙĬÙĬØ²": 4676,
      "ĠØ®ÙĦÙĤ": 4677,
      "ŃÙĨ": 4678,
      "ĠÙĬÙĨØ¨ØºÙĬ": 4679,
      "ĠØ§ÙĦØ¨ÙĦØ§Ø³ØªÙ": 4680,
      "ĠÙģØ¶ÙĦ": 4681,
      "§ÙħØ§Øª": 4682,
      "ÙĦØ§ØªØ¬Ø§Ùĩ": 4683,
      "§ÙĦØ§ØªØ¬Ø§Ùĩ": 4684,
      "ĪØ§Ø´": 4685,
      "ĠY": 4686,
      "ĠØ³ÙĦ": 4687,
      "ĠØ§ÙĦØ³Ø±ÙĬØ¹": 4688,
      "ĠØ§ÙĦØŃØ¬Ùħ": 4689,
      "ĠØ§ÙĦØ§ØªØ¬Ø§Ùĩ": 4690,
      "ĠØ§ÙĦÙĥÙĪÙĥ": 4691,
      "Ø±ÙĪÙĦ": 4692,
      "ĠØ§ÙĤØªØµ": 4693,
      "ĠØ§ÙĦÙħØ¯Ùī": 4694,
      "ĪÙĬØ¬": 4695,
      "ĠØ³Ø§Ù": 4696,
      "ĠÙĬØ«": 4697,
      "ĠØ§ÙĦÙĨÙĤÙĦ": 4698,
      "ĠÙģØ±Øµ": 4699,
      "ĠÙĤÙĪÙĬ": 4700,
      "ĠØ¶Ø±Ø¨": 4701,
      "ell": 4702,
      "ĠØªÙĪØ²ÙĬØ¹": 4703,
      "ĠØ§ÙĦØ±Ø·": 4704,
      "ĠØªØ¯Ø±": 4705,
      "ĠCh": 4706,
      "oi": 4707,
      "ĠØ§ÙĦØ¥Ø¯": 4708,
      "ĠØ§ÙĦÙħÙħÙĬØ": 4709,
      "Ġh": 4710,
      "ĠØ§ÙĦØ¨ÙĨØ§Ø¡": 4711,
      "ĠØ§ÙĦØŃØ¬": 4712,
      "ĠÙĦÙħØ³Ø§Ø¹Ø¯Ø©": 4713,
      "Ø§Ø±Ø§": 4714,
      "ĠØ§ÙĦÙĦØ§Ø²ÙħØ©": 4715,
      "ØªØ«Ù": 4716,
      "ĠØ§ØªØ¬Ø§Ùĩ": 4717,
      "ĠØ§ÙĦØµÙĬØ¯": 4718,
      "ĠØ¶Ø±ÙĪØ±": 4719,
      "ĠÙĬÙĥÙĪÙĨÙĪØ§": 4720,
      "ĠØ¹ÙĨØ§ØµØ±": 4721,
      "ĠØ§ÙĦØ¬ÙħÙĬØ¹": 4722,
      "ÙħØ¯Ø©": 4723,
      "ÙĦØªÙħÙĬÙĬØ²": 4724,
      "ĠØªØªØ¶ÙħÙĨ": 4725,
      "Ø§ÙħØ§Øª": 4726,
      "§ÙĦØªÙħÙĬÙĬØ²": 4727,
      "ĠØ§ÙĦØ£ØºØ°ÙĬØ©": 4728,
      "ĠØµÙĪØª": 4729,
      "ÙĦÙĬØ¯ÙĬ": 4730,
      "ĠÙĬØ®ÙĦÙĤ": 4731,
      "ĠØ§ÙĦÙĨÙħØ·": 4732,
      "ĠØ§Ø®ØªØ±": 4733,
      "ĠÙģØ¶ÙĦØ": 4734,
      "ĠØ´Ø¬Ø±Ø©": 4735,
      "ĠØ¬Ø¯ÙĪÙĦ": 4736,
      "ĠÙĥÙĦÙħØ§Øª": 4737,
      "ĠØ§ÙĦØºØ±Ø¨ÙĬØ©": 4738,
      "ĠÙģØ¶ÙĦØ§": 4739,
      "ÙĬÙĪØ§ÙĨØ§Øª": 4740,
      "ĠØ¥ÙĦÙĥØªØ±ÙĪÙĨ": 4741,
      "ĠÙĬØ³Ø": 4742,
      "Ø§ØªÙĩÙħ": 4743,
      "ĠØ§ÙĦÙħØªØ¬": 4744,
      "ĠØ¨Ø£ÙĥÙħÙĦÙ": 4745,
      "ĠØ§ÙĦÙħØ¯Ø±": 4746,
      "ĠØ§ÙĦÙĪØ±Ø§Ø«": 4747,
      "ÙħÙĥØ§": 4748,
      "®ØªØ§Ø±": 4749,
      "ĠØ·Ø§ÙĤØ©": 4750,
      "ĠØ§ÙĦØ¹Ø§Ø·": 4751,
      "ĠØ§ÙĦÙĤÙħØ±": 4752,
      "ĠØ§ÙĦØªÙħÙĬÙĬØ²": 4753,
      "ĠØ§ÙĦØ¥Ø¹ÙĦØ§Ùħ": 4754,
      "ĠØ§ÙĦÙħØŃÙĦÙĬ": 4755,
      "ĠØ³Ø¤": 4756,
      "ħØ§ØŃ": 4757,
      "ĠØ§ÙĦÙħØ¬ØªÙħØ¹Ø§Øª": 4758,
      "ĠÙĦÙĬÙĨ": 4759,
      "ĠÙĪØ±Ø§Ø¡": 4760,
      "if": 4761,
      "ĠØ¨ØªØ": 4762,
      "ÙĬÙĨØ§ÙħÙ": 4763,
      "ÙĦÙĦÙĤ": 4764,
      "ĠØºØ¶": 4765,
      "ĠØªÙĤØ³ÙĬÙħ": 4766,
      "ĠØ§ÙĦØ£Ø®ÙĬØ±": 4767,
      "ĠÙħÙħØ§Ø«ÙĦØ©": 4768,
      "ĠØ£Ø³Ø§ÙĦÙĬØ¨": 4769,
      "ĠØ§ÙĦØ³ÙĬØ§Ø³ÙĬØ©": 4770,
      "ĠØ£Ø¹ØªÙĤØ¯": 4771,
      "ĠØ§ÙĦÙħÙĪØ¸ÙģÙĬÙĨ": 4772,
      "ÙĬÙĥÙĬØ©": 4773,
      "§ÙħÙĬØ©": 4774,
      "ĠØ§ÙĦØ£ÙĥØ¨Ø±": 4775,
      "ĠØ§ÙĦÙħØ°Ùĥ": 4776,
      "§ÙĦÙĦÙĤ": 4777,
      "ĠØ§ÙĦØµÙĨØ§Ø¹Ø©": 4778,
      "ĠØ§ÙĦÙħÙĪØª": 4779,
      "Ø¯ÙĪÙĨ": 4780,
      "ĠÙĬØŃØ¯Ø¯": 4781,
      "ĠØ§ÙĦÙħØ¹Ø¯Ø©": 4782,
      "VID": 4783,
      "ÙĪØªÙĬ": 4784,
      "ªØ±Ø§ÙĪØŃ": 4785,
      "ĠØ¨ÙħØ¹": 4786,
      "ĠØ§ÙĦÙħÙĥØ§": 4787,
      "£Ø«ÙĬØ±": 4788,
      "ĠØ¬Ø°": 4789,
      "ĠØ§ÙĦØ³ØŃ": 4790,
      "§ÙĨØ¨Ø¹Ø§Ø«Ø§Øª": 4791,
      "Ø§Ø¨ÙĬØ±": 4792,
      "§ÙĦØ§Ùģ": 4793,
      "ªÙĪØ§ÙģÙĤ": 4794,
      "ĠØ¹ÙĨØµØ±": 4795,
      "),": 4796,
      "ĠÙħØ³ØªÙħØ±": 4797,
      "ÙħØªØ¯": 4798,
      "ªØ¯Ø±ÙĬØ³": 4799,
      "ĠØ§ÙĦÙħØ¹Ø¯Ø§Øª": 4800,
      "Ø·Ø§Øª": 4801,
      "ĠØ«Ø§ÙĨÙĬ": 4802,
      "Ġ'": 4803,
      "ĠØ§ÙĦÙħØªØ·": 4804,
      "ER": 4805,
      "ĠÙĪØ¢Ø®Ø±": 4806,
      "ªØ§Ø³": 4807,
      "ĠÙħÙĨØ§Ø³Ø¨": 4808,
      "ĠØªÙĤØ¯ÙĬØ±": 4809,
      "ĠØŃØ¯ÙĪØ¯": 4810,
      "ĠÙĬØ°ÙĩØ¨": 4811,
      "ĠØ³ØªÙĥÙĪÙĨ": 4812,
      "ĠØ§ÙĦØªØ¹Ø§ÙĪÙĨ": 4813,
      "ĠØ§ÙĦØ¨Ø±ÙĬØ¯": 4814,
      "Ø¹ÙĦØ§ÙĨ": 4815,
      "ĠØªØ¹ÙĬÙĬÙĨ": 4816,
      "ĠØ³Ø±Ø¹Ø©": 4817,
      "ĠØ§ÙĦÙĦÙĤ": 4818,
      "Ø²ÙĨ": 4819,
      "ĠØªØ£Ø®Ø°": 4820,
      "ĠØªØŃÙĤÙĤ": 4821,
      "ÙĬÙĨÙĬØ§": 4822,
      "Ø§Ø¤ÙĩØ§": 4823,
      "ĠØ§ÙĦÙĥØ´Ùģ": 4824,
      "90": 4825,
      "ØªÙĬØ©": 4826,
      "ĠØ§ÙĦØªÙĨÙĪØ¹": 4827,
      "ĠSt": 4828,
      "ĠÙĬÙĥÙģÙĬ": 4829,
      "ĠØ¶Ø±ÙĪØ±ÙĬ": 4830,
      "ĠØ³ÙĬØ": 4831,
      "ĠQ": 4832,
      "ĠØ§ÙĦÙħÙĥØ§Ù": 4833,
      "ÙĬÙĦØ": 4834,
      "Ø§ÙĦØ´": 4835,
      "ĠØ·ÙĪØ§ÙĦ": 4836,
      "ĠØ§ÙĦÙħÙĥØ§ÙĨ": 4837,
      "ĠØ§ÙĦØªÙģØ§Ø¹ÙĦ": 4838,
      "ĠØ±Ø¯": 4839,
      "ĠØ§ÙĦÙħØ¨ÙĥØ±Ø©": 4840,
      "ĠØ³Ø§Ø¨ÙĤ": 4841,
      "ÙĬÙħØ§Øª": 4842,
      "Ø¬ÙĬØ¹": 4843,
      "ĠØ§ÙĦØ§Ùģ": 4844,
      "ĠÙĥØ±Ø©": 4845,
      "ÙĦÙĦØ¹": 4846,
      "ĠØ§ÙĦØ¹Ø¶ÙĪÙĬØ©": 4847,
      "ĠÙĪÙģÙĤ": 4848,
      "ÙĪØ¬ÙĬÙĨ": 4849,
      "ĠÙĦÙĦÙħØ³Ø§Ø¹Ø¯Ø©": 4850,
      "ĠØ§ÙĦØªØµÙĪÙĬØ±": 4851,
      "ĠØ§ÙĦÙĥØŃÙĪÙĦ": 4852,
      "ĠØ¨Ø§Ø³ØªÙħØ±Ø§Ø±": 4853,
      "ØªØ§Ø³": 4854,
      "§ÙĦÙĦØ¹": 4855,
      "ĠÙħÙĨØªØ¬": 4856,
      "ĠØ§ÙĦÙĥÙĪÙĨ": 4857,
      "ĠØ±Ø§": 4858,
      "ØªØ§Ø¨Ø©": 4859,
      "ĠØ¯Ø±Ø§Ø³Ø§Øª": 4860,
      "¸Ø§Ùĩ": 4861,
      "AR": 4862,
      "ĠØªØ¹ÙĤ": 4863,
      "ĠØ§ÙĦÙĨØ§Ø±": 4864,
      "ĠØ§ÙĦÙħÙĩÙħØ©": 4865,
      "ĠØ¥ÙħØ¯": 4866,
      "ĠÙħÙĥØ§ÙģØŃØ©": 4867,
      "ÙĩÙħØ©": 4868,
      "ĠØ§ÙĦØ®ÙĦÙĬØ©": 4869,
      "ĠØ§ÙĦØ®Ø¶Ø±Ø§Ø¡": 4870,
      "Ø¨Ø²": 4871,
      "Ø±ÙģÙĬØ©": 4872,
      "ĠØ§ÙĦÙĤØµØµ": 4873,
      "ÙĬØªØ³": 4874,
      "ĠÙĨÙĬÙĪ": 4875,
      "ĠØ¢Ø³": 4876,
      "ĠØ§ÙĦÙĦØ¹": 4877,
      "ĠØ§ÙĦØ£ÙĨ": 4878,
      "ĨØ§Ø³Ø¨": 4879,
      "ĠØŃÙħØ¶": 4880,
      "ĨØ¹Ùħ": 4881,
      "ØªØ¨Ø§Ø·": 4882,
      "ĠØ§ÙĨØªÙĤ": 4883,
      "ÙĪØ§ÙĥÙĩ": 4884,
      "ĠØ£Ø·ÙĪÙĦ": 4885,
      "av": 4886,
      "33": 4887,
      "ÙģØ¸": 4888,
      "ĠØ£Ø³ÙĨØ§ÙĨ": 4889,
      "ĠØ§ÙĦØªØ¬Ø§Ø±Ø¨": 4890,
      "ĠÙĪØªØ¹Ø²ÙĬØ²": 4891,
      "ĠØ§ÙĦØ£ÙĪØ±ÙĪØ¨ÙĬ": 4892,
      "ĠØŃØ¯ÙĬÙĤØ©": 4893,
      "Ø±Ø§Ø¬": 4894,
      "AS": 4895,
      "ĠØ§ÙĦÙĪØ§Ø¶ØŃ": 4896,
      "ĠØ§ÙĦØªÙħØ±": 4897,
      "Ø§Ø¯Øª": 4898,
      "ĠØ´Ø§Ø¦Ø¹": 4899,
      "ĠØ§ÙĦØªØ¹ÙĦÙĬÙħÙĬØ©": 4900,
      "ĠØ§ÙĦØªØºØ°ÙĬØ©": 4901,
      "ĠØ§ÙĦÙĪØ¶Ø¹": 4902,
      "ÙĪØ±ÙĬ": 4903,
      "ĠØ§ÙĦØ¨ØŃÙĪØ«": 4904,
      "ĠØ£ÙĪØ§Ø¦ÙĦ": 4905,
      "ÙĪØ¨Ø§Øª": 4906,
      "ĠØ³ÙĬØ±": 4907,
      "ÙĪØ§Ø´": 4908,
      "ĠØ§ÙĦØŃÙĤ": 4909,
      "ÙĨØ§Ùĥ": 4910,
      "ĠØ§ÙĦØ¯Ø¹Ùħ": 4911,
      "ĠØ§ÙĦØ³Ø±ÙĬØ¹Ø©": 4912,
      "ĠÙħØ¹Ø¯ÙĦØ§Øª": 4913,
      "ĠØºØ°Ø§Ø¦ÙĬ": 4914,
      "ĪÙĦÙĬØ": 4915,
      "27": 4916,
      "ĠÙħØ°": 4917,
      "ØªÙģØ¸": 4918,
      "ĠØ¨Ø¬": 4919,
      "ÙĬÙĥØ§": 4920,
      "ĠØ§ÙĦÙħØ®Ø¯Ø±Ø§Øª": 4921,
      "Ø¨ØŃØ«": 4922,
      "ĠØ§ÙĦÙģØ¦": 4923,
      "ĠÙħØ²ÙĬØ¯": 4924,
      "ĠÙĬØªØŃØ¯Ø«": 4925,
      "ĠØ§ÙĦØ³ÙĬØ§Ø³Ø©": 4926,
      "ĠØ¯ÙĪØ±Ø§": 4927,
      "ĠØ§ÙĦÙĨÙģØ·": 4928,
      "ĠÙĦØ£ÙĨÙĩØ§": 4929,
      "ÙĨØ¹Ùħ": 4930,
      "ĠØŃØ§Ø¬Ø©": 4931,
      "ÙĦØªØ§Ø³": 4932,
      "ĠØ±ØŃÙĦØ©": 4933,
      "ĠØ§ÙĦØ¥Ø¬Ø±Ø§Ø¡Ø§Øª": 4934,
      "§ÙĦØªØ§Ø³": 4935,
      "ĠØ§ÙĦØ£Ø¯ÙĦØ©": 4936,
      "ĠCOVID": 4937,
      "ĠØ§ÙĦØªØ§Ø³": 4938,
      "ĠÙĦØªØ¹Ø²ÙĬØ²": 4939,
      "Ø§Ø²Ø©": 4940,
      "ØªÙĦÙģ": 4941,
      "ĠØ§ÙĦØ¹Ø¯": 4942,
      "ĠØ¹ÙĬØ¯": 4943,
      "Ø¸Ø±": 4944,
      "ĠØªØ¯ÙħÙĬØ±": 4945,
      "Ø§ÙĤÙ": 4946,
      "ĠØ§ÙĦØ´Ù": 4947,
      "ĠÙĥØ«Ø§ÙģØ©": 4948,
      "ĠÙĪÙĬØ¨": 4949,
      "Ø§ØªÙĩ": 4950,
      "ĠØ§ÙĥØªØ³": 4951,
      "ĠÙĥÙĬ": 4952,
      "ĠØ§ÙĦÙħÙħØ§Ø±Ø³Ø©": 4953,
      "ĠØ§ÙĦÙħÙĤØ§Ùħ": 4954,
      "ĠØ§ÙĦØ¹Ø§ÙĦÙĬ": 4955,
      "ĠØ§ÙĦÙĥØ§Ø¦ÙĨØ§Øª": 4956,
      "ĠØ¨Øº": 4957,
      "ĠØ£ØµØºØ±": 4958,
      "ĠØ±Ø³Ø§ÙĦØ©": 4959,
      "ĠØ§ÙĦÙĨÙģØ³ÙĬØ©": 4960,
      "ĠØ§ÙĦØ±ÙĬØ§ØŃ": 4961,
      "ĬÙĦØ¹Ø¨": 4962,
      "ÙĬÙĦØ¹Ø¨": 4963,
      "ĠÙĪØªØ¯": 4964,
      "ĠÙģÙĬØªØ§ÙħÙĬÙĨ": 4965,
      "ĠØ§ÙĦØ´ÙĬØ¡": 4966,
      "ib": 4967,
      "ine": 4968,
      "ĠØ§ØªØµØ§ÙĦ": 4969,
      "ĨØ§Ø¦ÙĬ": 4970,
      "ĠØªØ¹ÙĦÙĬÙĤ": 4971,
      "ĠØ¸ÙĩÙĪØ±": 4972,
      "ĠØ§ÙĦØ¬ÙĬØ´": 4973,
      "est": 4974,
      "ÙĦØ§ÙħØ§Øª": 4975,
      "ÙĥÙĪÙħÙĬØ©": 4976,
      "ÙĦØ§Ø¶Ø·Ø±": 4977,
      "ĠØ§ÙĦØ¬ÙĪÙĬ": 4978,
      "§ÙĦØ§Ø¶Ø·Ø±": 4979,
      "26": 4980,
      "ĠØµØ¹ÙĪØ¨Ø©": 4981,
      "ĠÙĬØ¨ØŃØ«": 4982,
      "ĠÙĦØ¥ÙĨØªØ§Ø¬": 4983,
      "ªÙĬ": 4984,
      "ĠØ§Ø¶Ø·Ø±Ø§Ø¨": 4985,
      "ĠØ§ÙĦÙĥØ¨Ø¯": 4986,
      "ĠÙģØ³": 4987,
      "ĬÙħØ«ÙĦ": 4988,
      "ÙĬÙħØ«ÙĦ": 4989,
      "ĠÙĦÙĦØ£Ø³": 4990,
      "ĠØ§ÙĦÙĨÙĩØ¬": 4991,
      "ĠÙħÙĤØ§Ø·Ø¹Ø©": 4992,
      "ÙĨÙĩ": 4993,
      "ĠØ§ÙĦÙħØµØ¯Ø±": 4994,
      "ĠÙĥØ§ÙģÙĬØ©": 4995,
      "ĠÙĪØªØŃØ³ÙĬÙĨ": 4996,
      "ĠØ§ÙĦØ¨ÙĪÙĦÙ": 4997,
      "ĠØ§ÙĦÙĤØ¯Ùħ": 4998,
      "ĠØ§ÙĦÙħØ¹Ø§ÙĬÙĬØ±": 4999,
      "ĠØ¨ÙĤÙ": 5000,
      "ÙĦØ§Ø¯": 5001,
      "ĠÙģØ´ÙĦ": 5002,
      "ĠÙĬÙĦØ¹Ø¨": 5003,
      "ĠÙĬÙħØ«ÙĦ": 5004,
      "ÙĪÙĨØ³": 5005,
      "ØªØ®Ø¯Ø§": 5006,
      "IS": 5007,
      "ÙĪÙĦØ§": 5008,
      "ĠØ¨ÙĪØµ": 5009,
      "ĠØ±ÙĪØ³": 5010,
      "ĠÙħÙģÙĬØ¯": 5011,
      "ĠØ¹ÙĨÙĩØ§": 5012,
      "Ø§ÙģØ±": 5013,
      "ud": 5014,
      "ĠØ°ÙĥØ±": 5015,
      "ÙħØ±Ø©": 5016,
      "ĠØ§ÙĦÙħØ§Ø¶ÙĬØ©": 5017,
      "ĠØŃØ³Ø¨": 5018,
      "ĠØºØ±ÙģØ©": 5019,
      "ĠÙħÙĪØ¬ÙĪØ¯Ø©": 5020,
      "ĠØ§ÙĦÙħØ´Ø§Ø±ÙĬØ¹": 5021,
      "ĠÙĪØ§Ø³ØªØ®Ø¯Ø§Ùħ": 5022,
      "ĠØªÙĥÙĨÙĪÙĦÙĪØ¬ÙĬØ§": 5023,
      "Ø±Ø§ÙĦÙĬØ©": 5024,
      "Ø¨Ø§Ø¹": 5025,
      "ind": 5026,
      "Ø§ØªÙĩØ§": 5027,
      "ĠØ§ÙĦÙĨØ¸Ø±ÙĬØ©": 5028,
      "Ø§Ø¨ÙĬØ¹": 5029,
      "ÙĪÙĬØ¬": 5030,
      "ĠØ§ÙĦÙħØŃÙĥÙħØ©": 5031,
      "ĠÙĥÙĬÙĦÙ": 5032,
      "ĠØ¥ÙĬ": 5033,
      "ĠÃ": 5034,
      "ĠØ§ÙĦØ¯Ø®ÙĦ": 5035,
      "ĠØ®ÙĬØ§Ø±Ø§Øª": 5036,
      "ĠØªØ´Ø¹Ø±": 5037,
      "ĠØ§ÙĦØ§Ø³ØªØ¹": 5038,
      "ĠØ§ÙĦØ£Ø¹Ø¶Ø§Ø¡": 5039,
      "ĠØ§ÙĦØ®Øµ": 5040,
      "ÙĨØ·Ù": 5041,
      "ĠØ§ÙĦØµÙĬÙģ": 5042,
      "ÙĬØªÙĥ": 5043,
      "Ġ2009": 5044,
      "ĠØ§ÙĦÙħÙĦÙĥÙĬØ©": 5045,
      "ĠÙĪÙĦØ¯": 5046,
      "Ø§Ø¨Ø§ÙĨ": 5047,
      "ĠÙĬØº": 5048,
      "ĠØ£Ø¨Ø¯Ø§": 5049,
      "ªØ´Ø±": 5050,
      "ÙĩØ§Ø¡": 5051,
      "ĠØ§ÙĦØ«ÙĤØ§ÙģØ©": 5052,
      "ØªØ§ÙĦ": 5053,
      "ĠØªÙĪÙħ": 5054,
      "ĠØªÙĪÙĤØ¹": 5055,
      "ØªÙĦØ": 5056,
      "ĠÙĦØ¨": 5057,
      "ĠØ±Ø·": 5058,
      "Ø§ÙĪÙĦØ©": 5059,
      "Ø§Ø¦Ø": 5060,
      "ĠØªÙĪØ¬ÙĬÙĩ": 5061,
      "ĠÙħØŃØ±Ùĥ": 5062,
      "ĠØ¨Ø§ÙĦØ¶Ø¨Ø·": 5063,
      "ĠÙĥÙĪÙĥ": 5064,
      "ĠÙħÙĨÙĩÙħ": 5065,
      "ĠØ§ÙĦØŃÙĤÙĬÙĤÙĬØ©": 5066,
      "ØªØ´ÙģÙī": 5067,
      "ĠØ§Ø¹ØªÙħØ§Ø¯Ø§": 5068,
      "ĠØªÙĨÙħÙĪ": 5069,
      "Ø§Ø¦Øª": 5070,
      "Ġ2008": 5071,
      "Ø§ÙĦØ£": 5072,
      "ĠØ§ÙĦØ£ÙĦÙĬØ§Ùģ": 5073,
      "®Ø§": 5074,
      "ĠØ§ÙĦÙĪØŃÙĬØ¯": 5075,
      "ħÙĦØŃ": 5076,
      "ĠØ§ÙĦØ¨Ø§ÙĦØºÙĬÙĨ": 5077,
      "ĠØ¨Ø§ÙĦØ¬": 5078,
      "ĠÙĪØ³Ø·": 5079,
      "ÙħÙĪØ²": 5080,
      "ĠÙĦØªØ±": 5081,
      "ĠÙĤØµØµ": 5082,
      "ĠÙħØªÙĥ": 5083,
      "ĠØŃØ¬": 5084,
      "ĠØ§ÙĦØ§Ø¶Ø·Ø±": 5085,
      "ĠØ§ÙĦØªØ¹Ø±Ø¶": 5086,
      "ĠØ£ÙĨÙģØ³ÙĩÙħ": 5087,
      "ĠÙĪÙĬØ¬": 5088,
      "ĠØ§ÙĦÙĪØŃØ¯Ø©": 5089,
      "ĠÙĪØ§ÙĦØ¶": 5090,
      "ÙħÙĬØ§": 5091,
      "ĠØ§ÙĦØ®ØµØ§Ø¦Øµ": 5092,
      "ĠØ¬ÙĬÙĨ": 5093,
      "ĠØ®ÙħØ³": 5094,
      "ĠØ¹ÙħÙĬÙĤ": 5095,
      "§ÙĤÙģ": 5096,
      "ĨØ³Ø§Ø¡": 5097,
      "ĠØ§ÙĦØ£Ø³Ø±Ø©": 5098,
      "PA": 5099,
      "ĠØ§ÙĦØ·Ø¨ÙĤØ©": 5100,
      "ĠÙħÙĨØ²ÙĦ": 5101,
      "Ø®ÙħØ©": 5102,
      "ĠÙħØ®Ø·Ø·": 5103,
      "ĠØ£Ø³ØªØ±Ø§ÙĦÙĬØ§": 5104,
      "ĠØ§Ø³ØªØ±Ø§ØªÙĬØ¬ÙĬØ§Øª": 5105,
      "ĠØŃÙĬ": 5106,
      "ĠØ£Ø´ÙĬØ§Ø¡": 5107,
      "Ø¬ÙĨØ©": 5108,
      "ĠÙĬØªØ¬": 5109,
      "Ġe": 5110,
      "ĠØ¶Ø¹Ùģ": 5111,
      "ĬÙĥØ§ÙĨÙ": 5112,
      "ØªØ±Ø§Ø¶": 5113,
      "ÙĦØ§ÙħØ": 5114,
      "Ġi": 5115,
      "ph": 5116,
      "ĠØ§ÙĦØ¹ÙħÙĦØ§Ø¡": 5117,
      "ĠØ§ÙĦØ¹Ø³": 5118,
      "28": 5119,
      "ĠÙħØ±Ø§Øª": 5120,
      "ĠØ£ÙĪØ³": 5121,
      "ĠÙħÙĪØ±": 5122,
      "ĠØ§ÙĦØ¬ÙħÙĩÙĪØ±": 5123,
      "ĠØ§ÙĦÙħØªÙĪÙĤØ¹": 5124,
      "Ø±ÙĪØ¨ÙĬØ©": 5125,
      "ĠØ§ÙĦØ¨Ø±ÙħØ¬ÙĬØ§Øª": 5126,
      "ÙĨØ·ÙĨ": 5127,
      "ĠØ³ØªØ©": 5128,
      "35": 5129,
      "ĠØ§ÙĦÙħØ´ØªØ±Ùĥ": 5130,
      "ĠÙĪØ§Ø´": 5131,
      "ĠØ§ÙĦØ´Ø§Ø¦Ø¹Ø©": 5132,
      "29": 5133,
      "((": 5134,
      "ĠØ§ÙĦØ°Ø§ÙĥØ±Ø©": 5135,
      "ĠØ§ÙĦØ£Ø¬ÙĦ": 5136,
      "ĠÙĬØ´ÙħÙĦ": 5137,
      "ĠÙĥÙĨØ¯Ø§": 5138,
      "ĠØ§ÙĦØŃØ´": 5139,
      "ÙħÙĪÙħ": 5140,
      "Ġ2021": 5141,
      "ĠØ§ÙĦØ³ÙĬ": 5142,
      "ĠØ§ÙĦÙħÙģØªØ±Ø¶": 5143,
      "ĠØ§ÙĦØ£ÙĦØ¹Ø§Ø¨": 5144,
      "ĠÙĪÙħØ´": 5145,
      "ĠØªØªØ¬": 5146,
      "ÙħÙĨÙĬ": 5147,
      "ĠØ§ÙĦÙĨØªÙĬØ¬Ø©": 5148,
      "ĠØ¨ÙĪÙĦ": 5149,
      "ĠØ§ÙĦØ¥Ø¬Ø§Ø¨Ø©": 5150,
      "ĠØ§ÙĦÙħØŃØ¯Ø¯": 5151,
      "ĠØ§ÙĦØ¬ÙĬØ¯": 5152,
      "ĠØ§ÙĦØ¹ÙĤÙĦ": 5153,
      "ĠØ§ÙĦØ±Ø³ÙĪÙħ": 5154,
      "ĠÙĦÙĨØ¯ÙĨ": 5155,
      "ĠØ§ÙĦØªÙĨØ¨Ø¤": 5156,
      "Ø±Ø§Ø¦Ø¨": 5157,
      "ĠØºÙ": 5158,
      "ĪÙĪØ": 5159,
      "ĠÙħÙĨØ§ÙĤØ´Ø©": 5160,
      "ĠÙħÙĪÙ": 5161,
      "Ø§ÙĦØ³": 5162,
      "ĠØ®Ø·ÙĪØ·": 5163,
      "ĠÙĪØ³ÙĪÙģ": 5164,
      "ĠØ§ÙĦØ¹ØµØ¨ÙĬ": 5165,
      "ĠÙĦØªØ·ÙĪÙĬØ±": 5166,
      "ak": 5167,
      "Ø²Ø¨": 5168,
      "ĠÙĦØªØµ": 5169,
      "ĠØ§ÙĦÙħØ§Ø¦ÙĬØ©": 5170,
      "ĨØ§ØŃÙĬØ©": 5171,
      "ĠØ³Ø¤Ø": 5172,
      "Ø¨ÙĦØ§Øº": 5173,
      "ĠØ³Ø¤Ø§": 5174,
      "ĠØ³Ø¤Ø§ÙĦ": 5175,
      "§ÙĦØ§ÙħØ": 5176,
      "ĠØ£Ø³Ø±Ø¹": 5177,
      "ĠØªÙħØªÙĦÙĥ": 5178,
      "Ø¨Ø§ÙĨ": 5179,
      "ĠØ§ÙĦØ§ÙĤØªØµØ§Ø¯ÙĬ": 5180,
      "ĠØ§ÙĦØªØ®Ø·ÙĬØ·": 5181,
      "§ÙĦÙĥ": 5182,
      "78": 5183,
      "²ÙĬØ¹": 5184,
      "ĠØ¨ØŃØ§Ø¬Ø©": 5185,
      "ħÙģØª": 5186,
      "Ø§ÙĨØª": 5187,
      "ĠØ§ÙĦØ§Ø¹ØªØ¨Ø§Ø±": 5188,
      "ĠØ§Ø¹ØªØ¨Ø§Ø±": 5189,
      "ĠØ§ÙĦØªØ¬Ø±Ø¨Ø©": 5190,
      "ĠØ±Ø§Ø¦Ø¹": 5191,
      "·ÙĪÙĬ": 5192,
      "ÙĬØºØ©": 5193,
      "ĠØ¬ÙħØ¹ÙĬØ©": 5194,
      "ĠØ±ØŃ": 5195,
      "ÙĪØ£": 5196,
      "ÙĪÙĪØ": 5197,
      "ĠÙĥØ°ÙĦÙĥ": 5198,
      "ĠØ§ÙĦÙĩÙĨØ¯ÙĬØ©": 5199,
      "ĠØ§ÙĦØµØ¹": 5200,
      "ĠØ³ØªØ³": 5201,
      "ÙĬÙĦØ§": 5202,
      "ĠØ¹Øµ": 5203,
      "ÙħÙĦÙĥ": 5204,
      "ĠØ¬Ø²Ø¦": 5205,
      "ĠÙĬØ·ÙĦÙĤ": 5206,
      "ĠÙĪÙĪØ": 5207,
      "ÙĨØ§ØŃÙĬØ©": 5208,
      "ĠØ²ÙĬØ§Ø±Ø©": 5209,
      "ĠÙĦØªØ³": 5210,
      "ĠÙĨØ§ØŃÙĬØ©": 5211,
      "¶Ù": 5212,
      "ĠØ§ÙĦÙĨÙĩØ§Ø¦ÙĬ": 5213,
      "Ø¨ÙĨ": 5214,
      "ĠØ§ÙĦØµØŃÙĬØŃ": 5215,
      "ĠØ£Ø¨ØŃØ§Ø«": 5216,
      "ĠÙħØ¹ÙĩØ¯": 5217,
      "ĠØ§ÙĦÙħØ±ÙĪØ±": 5218,
      "ĠØ§ÙĦØ±Ø¦": 5219,
      "ÙħÙĪÙĬ": 5220,
      "ist": 5221,
      "ĠØ§ÙĦØ¥Ø´Ø§Ø±Ø©": 5222,
      "ÙĬÙĨØ³": 5223,
      "ĠÙħØ¬Ø§ÙĦØ§Øª": 5224,
      "ĠØ§ÙĦØ§ÙħØ": 5225,
      "ÙĦÙĦØ§Øª": 5226,
      "ĠØ§ÙĦØ¨Ø³": 5227,
      "ĠØ§ÙĦÙħØµØ·ÙĦØŃ": 5228,
      "ĠØ§ÙĦØ¬ÙĨÙĪØ¨ÙĬØ©": 5229,
      "ĠØ§ÙĦØŃØ±Ø§Ø±ÙĬ": 5230,
      "ĠØ§ÙĦØ¬ÙĪÙĬØ©": 5231,
      "ØªÙĬØ§Ø·": 5232,
      "ĠØªØ²ÙĬØ¯": 5233,
      "ĠØ«Ø": 5234,
      "ĠØ£Ø·Ø±": 5235,
      "ĠØ§ÙĦØ§ÙĥØªØ¦Ø§Ø¨": 5236,
      "Ġ29": 5237,
      "ĠØ±ÙĤ": 5238,
      "199": 5239,
      "ĨØ¨ÙĬ": 5240,
      "ĠØ£ÙĦÙħØ§ÙĨÙĬØ§": 5241,
      "ªÙĩÙĬ": 5242,
      "ªÙĪØ³Ø¹": 5243,
      "ÙĨØ§ÙĬØ©": 5244,
      "ÙħÙģØª": 5245,
      "ĠØ§ÙĦØµÙĦØ¨": 5246,
      "ĠØ®Ø·Ø·": 5247,
      "ĠØ¨Ø§ÙĨØ": 5248,
      "ĠØ§Ø®Ø": 5249,
      "ĠØ§Ø®Øª": 5250,
      "ĠØ·Ø§ÙĦØ¨": 5251,
      "ÙħÙĦØŃ": 5252,
      "ĪÙĥÙĦ": 5253,
      "ÙĬØ§ÙĨØ©": 5254,
      "ĨØ¯Ø§": 5255,
      "ĠØ¨Ø§ÙĦÙħØ": 5256,
      "ĠØ¥ÙħØ¯Ø§Ø¯Ø§Øª": 5257,
      "ĠØ§ÙĦØ£Ø³ÙĪØ¯": 5258,
      "ĠØ§ÙĦØ¹ÙħØ§ÙĦ": 5259,
      "ĠØ§ÙĦØ®Ø¯ÙħØ©": 5260,
      "ÙĦÙĦØ¹Ø¨": 5261,
      "ĠØ§ÙĦÙħÙĨØ®ÙģØ¶Ø©": 5262,
      "ĠØ§ÙĦØ´ØªØ§Ø¡": 5263,
      "§ÙĦÙĦØ¹Ø¨": 5264,
      "ĠØ§ÙĦÙħØ±ÙĥØ²ÙĬØ©": 5265,
      "ĠØ§ÙĦØ¯ÙĬÙħÙĤØ±Ø§Ø·": 5266,
      "ĠØ§ÙĦÙĨÙĤØ·Ø©": 5267,
      "ĠÙĬØ´Ø§Ø±Ùĥ": 5268,
      "ĠÙĬØ¯Ø±Ø³": 5269,
      "ĠØ§ÙĦØµÙģØŃØ§Øª": 5270,
      "ĠØªØ¹Ø¨ÙĬØ±": 5271,
      "ĠØ°Ùĥ": 5272,
      "ÙĪØªØ§Øª": 5273,
      "ĠØ§ÙĦÙħÙĦØŃ": 5274,
      "«Ø": 5275,
      "ĠÙĩØ¬": 5276,
      "ĠÙĨØ¹Ùħ": 5277,
      "ĠØ¬Ø³Ùħ": 5278,
      "ĠØ§ÙĦØ¥Ø¨Ø¯": 5279,
      "ØºÙĪØ·": 5280,
      "ĠØ§ÙĦÙĦØ¹Ø¨Ø©": 5281,
      "ĠØªÙĤØ¯": 5282,
      "ĠØ§ÙĦÙĦØ¹Ø¨": 5283,
      "«Ø§": 5284,
      "ĨØ§Ø¯": 5285,
      "ĠÙħØ¤Ø³Ø³Ø©": 5286,
      "ÙĦØ§ÙĨØ¯": 5287,
      "ĠØ§ÙĦÙĥØ±Ø©": 5288,
      "ĠØ¹ÙħÙĪ": 5289,
      "ĠÙħÙĦØŃ": 5290,
      "Ø§ØªØ§": 5291,
      "ĠZ": 5292,
      "ÙĦØªÙĦÙģ": 5293,
      "ĠØ£Ø®ÙĬØ±Ø§": 5294,
      "ĠØªØ¹ØªÙħØ¯": 5295,
      "§ÙĦØªÙĦÙģ": 5296,
      "ĠØ³ØªØŃ": 5297,
      "ĠØ·Ø¨ÙĬØ¹ÙĬØ©": 5298,
      "ĠØ¨ÙĪ": 5299,
      "ĠÙħØ±Ùĥ": 5300,
      "Ø§Ø®Ø±": 5301,
      "ĠÙĥÙħØ": 5302,
      "ĠÙĥØ´": 5303,
      "Ø§ÙĨÙģ": 5304,
      "ĠÙĪØ§ÙĦÙħØ±": 5305,
      "ĠØ§ÙĦÙĨØ§ØªØ¬": 5306,
      "ĠØ§ÙĦØ¥Ø¯Ø§Ø±Ø©": 5307,
      "ĠØ§ÙĦØ£Ø¯Ø§Ø¡": 5308,
      "ĠÙħÙģØª": 5309,
      "ĠØ§ÙĦÙĨØ¨Ø§ØªÙĬØ©": 5310,
      "ĠØ³ÙĪØ¡": 5311,
      "ĠØ§ÙĦØ¬Ø°": 5312,
      "Ø§Ø¹Ø¯Ø": 5313,
      "ĠØ§ÙĦÙħØ³ØªÙĩÙĦÙĥ": 5314,
      "ĠØ§ÙĦÙĬÙħÙ": 5315,
      "ØªÙģØ§Ø¯Ø©": 5316,
      "ĠØ£ØŃØ¯Ø«": 5317,
      "ĠØ§ÙĦØªÙĦÙģ": 5318,
      "70": 5319,
      "ÙĦÙĪØº": 5320,
      "ĠØªÙħÙĥ": 5321,
      "¤Ø³": 5322,
      "ĠØ§ÙĨÙĤØ±": 5323,
      "Ø§Ø±Ø¬ÙĬ": 5324,
      "ĠØ§ÙĦÙĪÙģ": 5325,
      "ÙħØ±Ø§Ø¶": 5326,
      "ĠØ¨Ø¹ÙĬØ¯Ø§": 5327,
      "ĠÙĩÙĬÙĥÙĦ": 5328,
      "ĠØ§ÙĦØ¥Ø¬ÙĩØ§Ø¯": 5329,
      "ĠØªÙĪ": 5330,
      "ĠÙħÙĪØ§Ø±Ø¯": 5331,
      "ĠØ§ÙĦØ£ØŃÙĬØ§Ø¡": 5332,
      "ĠØ§ÙĦØ¨Ø±ÙĬØ·Ø§ÙĨÙĬØ©": 5333,
      "ĠØ§ÙĦØŃØ¬Ø±": 5334,
      "ĠÙħØ¨ÙĥØ±": 5335,
      "ĠØªØŃØ¯ÙĬØ«": 5336,
      "ħØ§Ø±ÙĬÙĨ": 5337,
      "ĠØ§ÙĦØªØ§Ø³Ø¹": 5338,
      "ĠÙħÙĨØ®ÙģØ¶": 5339,
      "ĠØ¬Ø²ÙĬØ±Ø©": 5340,
      "ĠØªÙĦØ¹Ø¨": 5341,
      "ĠØ¥Øº": 5342,
      "ĠÙĦØ¹Ø¨Ø©": 5343,
      "ĠÙĪÙĥØ§ÙĨØª": 5344,
      "ÙħÙħØ©": 5345,
      "ĠØ§ÙĦÙħÙĨØ´": 5346,
      "ĠØ§ÙĦØºØ±Ø¶": 5347,
      "ĠÙĬØªÙħÙĥÙĨ": 5348,
      "®Ø§ÙĪÙģ": 5349,
      "36": 5350,
      "ĠØ§ÙĦØ¹ÙħÙĬÙĤ": 5351,
      "ĠØ¥ØµÙĦØ§ØŃ": 5352,
      "ħÙĦÙĬØ": 5353,
      "ĠÙħØ´ØªØ±": 5354,
      "ĠØ§ÙĦØ¹Ø´Ø±ÙĬÙĨ": 5355,
      "ĠØ§ÙĦØ±Ø³ÙħÙĬØ©": 5356,
      "ĠÙĤØ±Ø§Ø±": 5357,
      "Ø§ÙĨØ¸Ø±": 5358,
      "ÙĨÙĪÙĦÙĪØ¬": 5359,
      "ĠØ§ÙĦØ¬Ø¯ÙĪÙĦ": 5360,
      "ĠÙĬÙħÙĥÙĨÙĩÙħ": 5361,
      "ĠÙĪÙĬØ´": 5362,
      "ĠØªØªØ±Ø§ÙĪØŃ": 5363,
      "ĠØ£Ø¯Øª": 5364,
      "ØªØª": 5365,
      "ĠÙĦÙĦÙĪØµÙĪÙĦ": 5366,
      "ĠØ§ÙĦÙħØªØ¨": 5367,
      "ĠØ®ÙģØ¶": 5368,
      "Ø§Ø²ÙĬ": 5369,
      "ĠØªØŃØµÙĦ": 5370,
      "ÙĨØ³Ù": 5371,
      "ob": 5372,
      "ÙĤØª": 5373,
      "ØªØ±ØŃ": 5374,
      "ĠÙħÙĤÙĬØ§Ø³": 5375,
      "ĠØ§Ø³Ø": 5376,
      "ĠØ§ÙĦØ³ÙĦØ¨ÙĬØ©": 5377,
      "§ÙĦÙĦØ§Øª": 5378,
      "ĠÙĪØ§ÙĦØ£Ø³": 5379,
      "AT": 5380,
      "ĠØ¬ÙĪØ§ÙĨØ¨": 5381,
      "ĠØ¨ØªØ¹": 5382,
      "ĠÙĪØ§ÙĦØ§ÙĨØ": 5383,
      "ĨØ§Ùģ": 5384,
      "Ø´ØŃ": 5385,
      "ØªÙģØ¹": 5386,
      "Ġ2007": 5387,
      "ĠÙĤØ¯Ø±": 5388,
      "ĠØŃØµ": 5389,
      "ĠØ¬ÙĦØ¯": 5390,
      "Ø£ÙĦØ©": 5391,
      "Ø¹ÙĪØ±": 5392,
      "ĠØ±ÙģØ¶": 5393,
      "ÙģØ§ÙĩÙĬØ©": 5394,
      "ĠØ§ØªÙģØ§ÙĤ": 5395,
      "ĬØ§Ùĩ": 5396,
      "ĠÙĪØ§ÙĦÙħÙĪØ§Ø¯": 5397,
      "§ÙħÙĬ": 5398,
      "ĠØ§ÙĦØ³ÙģØ±": 5399,
      "ĠØ¨Ø³ÙĬØ·": 5400,
      "ĠØ¹ØµØ±": 5401,
      "ĠÙĨØ¹Ø±Ùģ": 5402,
      "Ø§ÙĦØ¹": 5403,
      "ĠØ§ÙĦØµÙĦØ¨Ø©": 5404,
      "ŃÙĬ": 5405,
      "ĠØ§ÙĦØ³Ø±Ø¹Ø©": 5406,
      "Ø±Ø§ÙĥØ²": 5407,
      ".)": 5408,
      "45": 5409,
      "ĠÙħØŃØ·Ø©": 5410,
      "ĠÙĪØ§Ø´ÙĨØ·ÙĨ": 5411,
      "ĠĠĠĠ": 5412,
      "ØªÙģØ": 5413,
      "ĠÙĦÙģÙĩÙħ": 5414,
      "ÙĦÙĬØ·": 5415,
      "ÙĨÙĪØ¯": 5416,
      "ĠØ¨Ø±ÙĬØ·": 5417,
      "ĠØ¥Ø¬Ø±Ø§Ø¡Ø§Øª": 5418,
      "ĠØ®Ø·Ø£": 5419,
      "ĠØ¯Ø±ÙĪØ³": 5420,
      "ÙħÙĬØ¯": 5421,
      "ĠØ´Ø§Ø¦Ø¹Ø©": 5422,
      "ĠØ§ÙĦÙħØµØ§Ø¨ÙĬÙĨ": 5423,
      "ÙĪØªÙĪÙĥ": 5424,
      "ĠØªØºÙĬÙĬØ±Ø§Øª": 5425,
      "ev": 5426,
      "ªØ±Ùĥ": 5427,
      "Ø²ÙĬ": 5428,
      "ĠØ§ÙĦØ³ÙħÙĥ": 5429,
      "ÙĬÙĪÙĦÙĪØ¬ÙĬØ§": 5430,
      "ang": 5431,
      "ĠØ§ÙĦØªØ´Ø®ÙĬØµ": 5432,
      "Ø±ØªÙģØ¹Ø©": 5433,
      "ĠØ§ÙĦÙħØºÙĨØ§Ø·": 5434,
      "ĠØ§ÙĦØ¯Ø§Ø®ÙĦÙĬ": 5435,
      "ĠØ§ÙĦØ¬ÙĬØ¯Ø©": 5436,
      "ĠØªÙģØ¹ÙĦ": 5437,
      "ĠØ§ÙĤØªØ¨Ø§Ø³": 5438,
      "ĠØªØ·Ø¨ÙĬÙĤØ§Øª": 5439,
      "ĠØ£ÙĦÙħ": 5440,
      "ĠØªØ¹Ø§ÙĨÙĬ": 5441,
      "ĠÙħØ¹Ø±ÙĪÙģØ©": 5442,
      "ĠØ§ÙĦØ§Ø³ØªØ±Ø§ØªÙĬØ¬": 5443,
      "ĠØ§ÙĦÙĥÙĦÙħØ©": 5444,
      "Ø§Ø±ÙĨ": 5445,
      "Ø§Ø±Øª": 5446,
      "ĠÙĥÙĬÙħÙ": 5447,
      "ÙĦÙĬØ¬": 5448,
      "ĠØªØ£Ø³": 5449,
      "ĠØ§ÙĦØ£ÙĨÙģ": 5450,
      "Ø¨ÙĤØ©": 5451,
      "Ø¹ÙĦØ§Ø¬": 5452,
      "ĠØ§ÙĦÙħØ¹ÙĦÙħ": 5453,
      "ĠØ¯Ùħ": 5454,
      "ĠØ£Ø·Ø±ÙĪØŃØ©": 5455,
      "ÙĬÙĨÙĬØ§Øª": 5456,
      "ĠØ§ÙĦØ´Ø¹ÙĪØ±": 5457,
      "Ø¶ÙĪ": 5458,
      "ĠØ§ÙĦØ§Ø®ØªÙĦØ§ÙģØ§Øª": 5459,
      "Ø¯ÙĩØ§": 5460,
      "ÙħÙĦÙĬØ": 5461,
      "ĠØªØ£Ø«ÙĬØ±Ø§Øª": 5462,
      "ĠØ¨ØºØ¶": 5463,
      "SS": 5464,
      "ĠØ§ÙĦØ·Ø¨Ø§Ø¹Ø©": 5465,
      "ĠØ§ÙĦØªÙĤÙĬÙĬÙħ": 5466,
      "Ø¨Ø§ÙĨÙĬØ©": 5467,
      "ĠØ§ÙĦØ³Ø¨": 5468,
      "ÙĦÙĪÙĤ": 5469,
      "ĠØ¥ÙĨØ´": 5470,
      "ĠØ§ÙĦØªØºÙĬÙĬØ±Ø§Øª": 5471,
      "ĠØ§ÙĦØ´Ùĩ": 5472,
      "ĠØ§ÙĦÙĦØ§Øª": 5473,
      "Ġ80": 5474,
      "ĬÙħØª": 5475,
      "ĠØªÙħØ§Ùħ": 5476,
      "ØªØŃÙĤ": 5477,
      "art": 5478,
      "Ġr": 5479,
      "ĠÙħÙĦÙĥ": 5480,
      "ªÙĪØ¬ÙĬÙĩ": 5481,
      "Ġ>": 5482,
      "ĠØªØ¹ÙĬØ´": 5483,
      "ĠÙħÙĪØ«ÙĪÙĤ": 5484,
      "ÙħÙĦØ": 5485,
      "ĠÙĪÙĦÙħ": 5486,
      "ĠÙĤØªÙĦ": 5487,
      "ÙģÙĦØ": 5488,
      "ĠØ§ÙĦØŃØ³Ø§Ø³ÙĬØ©": 5489,
      "ĠØ§ÙĦØŃØ¨": 5490,
      "ĬÙĨØº": 5491,
      "ĠØ§ÙĦÙĪØ«": 5492,
      "ĠØ§ÙĦØ²ÙĩÙĪØ±": 5493,
      "ĠØ¨Ø£ÙĨÙĩ": 5494,
      "ĠØŃØ§Ø³Ùħ": 5495,
      "ħØ¯Ø±": 5496,
      "ĠÙħØ¤Ø´Ø±": 5497,
      "ĠØ§ÙĦØªÙģØ§Ø¹": 5498,
      "Ø§ÙĨØ¹": 5499,
      "ĠØ§ÙĦØªÙĤÙĨÙĬØ©": 5500,
      "ĠØ§ÙĦÙĨÙĤØ§Ø·": 5501,
      "ĠÙĦØŃÙħØ§ÙĬØ©": 5502,
      "ĠØ§ÙĦÙĪØ±ÙĤ": 5503,
      "ĨØ¸ÙĬÙħ": 5504,
      "ĠØ§Ø¨Ù": 5505,
      "ĠØ®Ø·ÙĬØ±Ø©": 5506,
      "ĠÙģØ±ÙĬØ¯": 5507,
      "ĠØ¨Ø§ÙĦØ±": 5508,
      "ĠØ¥ØµØ§Ø¨Ø©": 5509,
      "ÙĬÙĥÙĬ": 5510,
      "ĠØ³Ø§ÙĨØª": 5511,
      "ĠØ¨ÙĬØ¦": 5512,
      "ĠØªÙħÙĥÙĨ": 5513,
      "ok": 5514,
      "ĠÎ": 5515,
      "Ø¯Ø§Ø¡": 5516,
      "ÙħØ¯Ø±": 5517,
      "Ø¹ØªØ¨Ø±": 5518,
      "ĠÙħØ¤ÙĦÙģ": 5519,
      "Ø§ÙĦÙĩ": 5520,
      "ĠÙĦÙĦØ£Ø´": 5521,
      "ĠÙĬÙĪ": 5522,
      "Ø§Ø±Ø¦": 5523,
      "ĠØ¨Ùģ": 5524,
      "ĠØ§ÙĦØ£Ø¨Ø¹Ø§Ø¯": 5525,
      "ĠÙħÙĬÙĥ": 5526,
      "ĠØ§ÙĦØŃÙĥÙħ": 5527,
      "Ġ195": 5528,
      "ĨØ¸Ø±": 5529,
      "ĠÙĨØ§": 5530,
      "ĠØ§ÙĦØ³Ø¹Ø±": 5531,
      "ĠØ§ÙĦØ·Ø§ÙĦØ¨": 5532,
      "ĠØªØ±ØªØ¨Ø·": 5533,
      "ĠØ§ÙĦØ¹Ø§Ø¦ÙĦØ©": 5534,
      "ĠØ§ÙĦÙĥØ§": 5535,
      "Ø²Ùħ": 5536,
      "ĠÙħÙĦÙĬØ": 5537,
      "qu": 5538,
      "Ø§Ø´Ø§Øª": 5539,
      "ĠØ§ÙĦØ«ÙĤØ§ÙģÙĬØ©": 5540,
      "ÙĦÙĬÙĨØ§": 5541,
      "Ø±ÙĪÙĨ": 5542,
      "ĠÙħØ«ÙĬØ±Ø©": 5543,
      "Ø±Ø´Ø§Ø¯Ø§Øª": 5544,
      "ĠØ§ÙĦØ¨Ø°ÙĪØ±": 5545,
      "ħÙĦÙģ": 5546,
      "Ø§ÙĦØªÙĩ": 5547,
      "ĠØ£ÙĦÙģ": 5548,
      "ĠØ§ÙĦØ£ÙĦÙĪØ§ÙĨ": 5549,
      "§ÙĤØ¶": 5550,
      "ĪÙħØ¬": 5551,
      "ÙħÙĬÙĦØ©": 5552,
      "ØªÙĦØ§": 5553,
      "ĠØ§ÙĦÙģÙĬ": 5554,
      "Ø´Ø©": 5555,
      "ĠAn": 5556,
      "ĠÙĪØµÙĦ": 5557,
      "ĠØ§ÙĦÙħØ²Ø±ÙĪØ¹Ø©": 5558,
      "Ø±Ø§ÙĩÙĤÙĬÙĨ": 5559,
      "ÙĪÙħØ¬": 5560,
      "ĠØªØ±Ùī": 5561,
      "ĠØ£ÙĦØ¹Ø§Ø¨": 5562,
      "ØºØ§Ø±": 5563,
      "38": 5564,
      "ĪØ§Ø¯Ø«": 5565,
      "ªÙĥØ´Ùģ": 5566,
      "ĠØŃÙĦÙĪÙĦ": 5567,
      "ĠÙĪÙħØ¬": 5568,
      "ĠØ§ÙĦØ®ÙĦÙģÙĬØ©": 5569,
      "ĠÙĤØµÙĬØ±": 5570,
      "ĠÙĨØ³Ø¨ÙĬØ§": 5571,
      "ik": 5572,
      "ĠØ§ÙĦØ·ÙĬØ±Ø§ÙĨ": 5573,
      "³Ø§ÙĨÙĬØ©": 5574,
      "Ġ<": 5575,
      "ĠØ¥ÙĬØ±": 5576,
      "ĠÙħÙģØªØ§ØŃ": 5577,
      "ĠØ§ÙĦØ«Ø§ÙĦØ«Ø©": 5578,
      "ĠØ°ÙĪ": 5579,
      "ĠØ§ÙĦØ§Ø³Ù": 5580,
      "ĠØ§ÙĦØ§Ø³Ùħ": 5581,
      "ĠØ§ÙĦØ§ÙĨØªÙĤØ§ÙĦ": 5582,
      "Ø¬ÙĦØ©": 5583,
      "ĠÙħØ¯Ø±": 5584,
      "ÙĪÙĥÙĦ": 5585,
      "ĠÙĦØ¬ÙĨØ©": 5586,
      "ĠØ§ÙĦÙħØ¹Øª": 5587,
      "ĠØ§ÙĦØªØºÙĬØ±Ø§Øª": 5588,
      "ÙĦØ³ÙģØ©": 5589,
      "ĠØ§ÙĦÙĥÙĦØ§Ø³": 5590,
      "ĠØ¢ÙħÙĨØ©": 5591,
      "39": 5592,
      "ÙĦØ§Ø´": 5593,
      "ªÙĪØ³Ø·Ø©": 5594,
      "ÙħÙĦÙģ": 5595,
      "¦Ù": 5596,
      "Ġk": 5597,
      "ĠØ§ÙĦØªØŃØ¯Ø«": 5598,
      "ĠØ§ÙĩØªÙħØ§Ùħ": 5599,
      "ĠØ§ÙĦÙĦÙĪØŃØ©": 5600,
      "ĠØ³Ùĥ": 5601,
      "ĠØ£ÙĪØ§Ø®Ø±": 5602,
      "ĠØ§Ø³ØªØ¬Ø§Ø¨Ø©": 5603,
      "ĠØ§ÙĦØŃÙĬÙĪÙĬ": 5604,
      "ĠØ§ÙĦØ·ÙĤØ³": 5605,
      "Ø§Ø±ÙĬÙĪ": 5606,
      "ĠØ§ÙĦØ£ÙĥØ§Ø¯ÙĬÙħÙĬØ©": 5607,
      "ÙĦÙĦÙĬÙĦ": 5608,
      "Ø¯ÙĦØ©": 5609,
      "§ÙĦÙĦÙĬÙĦ": 5610,
      "ĠØ³Ø¬ÙĦ": 5611,
      "ĠØ§ÙĦÙħØŃØ": 5612,
      "ĠØ§ÙĦÙģÙĪØ§Ø¦Ø¯": 5613,
      "ĠÙĨÙħØ§Ø°Ø¬": 5614,
      "Ø£ÙĦ": 5615,
      "ĠØ¥Ø¬ÙħØ§ÙĦÙĬ": 5616,
      "AC": 5617,
      "ħÙģØ±": 5618,
      "Ø§Ø¨Ø¹Ø©": 5619,
      "ĠÙĦØªØ®": 5620,
      "ĠÙĬØ³ØªØ®Ø¯ÙħÙĪÙĨ": 5621,
      "ĠØ§ÙĦØ¥ÙĤ": 5622,
      "ĠØ§ÙĦÙħÙģØ§ØµÙĦ": 5623,
      "ĠÙĪÙĬØ±": 5624,
      "ØµØ§Ù": 5625,
      "ØªÙħØ§Ø¹": 5626,
      "DF": 5627,
      "Ø·Øª": 5628,
      "ĠØ§ÙĦÙĤØ±Ø§Ø±Ø§Øª": 5629,
      "ĠØ§ÙĦÙħØ®ØªØ¨Ø±": 5630,
      "ĠØ§ÙĦØ£ÙĬØ§Ùħ": 5631,
      "ĠØ§ÙĦØ³ÙħØ§Ø¡": 5632,
      "ĠÙĬØ°ÙĥØ±": 5633,
      "ĠØ§ÙĦÙħØ³ØªØ®Ø¯ÙħÙĬÙĨ": 5634,
      "ŃØ¯": 5635,
      "ĠØ§ÙĦØªÙĥÙĦÙģØ©": 5636,
      "ĠÙĬØ±ÙĥØ²": 5637,
      "ĠØ£Ø¸ÙĩØ±": 5638,
      "ĠØ§ÙĦÙĦÙĬÙĦ": 5639,
      "ĨÙĨÙĬ": 5640,
      "ĠÙħØªØ·ÙĦØ¨Ø§Øª": 5641,
      "ĠØ§ÙĦØ§ØŃØ": 5642,
      "ĠÙħÙĦÙĬØ§Ø±": 5643,
      "ĠØ§ÙĦØ§ØŃØª": 5644,
      "ĠØ§ÙĦÙħÙĨØªØ": 5645,
      "Ø¨ÙĪØ¯": 5646,
      "ŃÙĪ": 5647,
      "Ø§Ø±ÙĤØ©": 5648,
      "ĠØ§ÙĦØ¨ÙĬØ§ÙĨÙĬ": 5649,
      "ĠØªØºØ·ÙĬ": 5650,
      "ĨØ¨Ø§Øª": 5651,
      "ĠØ§ÙĦØ£Ø¯ÙĨÙī": 5652,
      "ĠØ§ÙĦÙħÙĨØ§Ø²ÙĦ": 5653,
      "ĠØ§Ø®ØªØ¨Ø§Ø±Ø§Øª": 5654,
      "ĠÙĦØ¨Ø¹Ø¶": 5655,
      "Ø§Ø¬Ù": 5656,
      "ÙĦÙĪØ±ÙĬØ¯": 5657,
      "ĠØ§ÙĦÙĤÙĬÙħ": 5658,
      "ĠØ§ÙĦØ³ÙĩÙĦ": 5659,
      "ĠØ§ÙĦØºÙĦØ§Ùģ": 5660,
      "ĠØ§ÙĦØ³Ø§Ø¯": 5661,
      "ĠØ§ÙĦÙħØ°ÙĥÙĪØ±Ø©": 5662,
      "ÙĦÙĬÙģØ©": 5663,
      "ĠØ´Ø¹ÙĪØ±": 5664,
      "ĠØ§ÙĦØ®ÙĬØ§Ø±Ø§Øª": 5665,
      "ĠØ§ÙĦØ¹Ø¨": 5666,
      "ÙĦØ§ÙĨÙģ": 5667,
      "Ø§Ø¦ØŃØ©": 5668,
      "ĠÙĪØ§ÙĦØŃÙģØ§Ø¸": 5669,
      "ĠØ§ÙĦØ£ÙħÙħ": 5670,
      "ĠØªÙĥØ§ÙĦÙĬÙģ": 5671,
      "ĠÙĦÙĦØ¶": 5672,
      "ĪØ§Ø¬ÙĩØ©": 5673,
      "ĠÙĬÙħÙĨØ¹": 5674,
      "ĠØ¨Ø§ÙĦØ®": 5675,
      "ĠØªÙĪØ³ÙĬØ¹": 5676,
      "§ÙĦØ§ÙĨÙģ": 5677,
      "Ø§ÙĦÙĩÙħ": 5678,
      "ĠØ§ÙĦØªÙģØ§ØµÙĬÙĦ": 5679,
      "ĠÙĬØ¹ÙĬØ´ÙĪÙĨ": 5680,
      "ÙĦØ§ØªØµØ§ÙĦØ§Øª": 5681,
      "ĠØ§ÙĦØ³ÙĬÙĨ": 5682,
      "ens": 5683,
      "§ÙĦØ§ØªØµØ§ÙĦØ§Øª": 5684,
      "ĠØ§ÙĦØ§ÙĨÙģ": 5685,
      "ĠÙĤØ¶ÙĬØ©": 5686,
      "ĠØ§ÙĦØ·Ø¨ÙĬØ¨": 5687,
      "ĠØ®Ø±ÙĬØ·Ø©": 5688,
      "ĠØ§ÙĦØ³ÙĦØ§ÙħØ©": 5689,
      "ĠÙħØ·ÙĦÙĪØ¨": 5690,
      "³Ø§ÙĪÙĬØ©": 5691,
      "ĠØ§ÙĦØªØŃÙĤÙĬÙĤ": 5692,
      "ĠÙĦØ¯Ø¹Ùħ": 5693,
      "ĠØ§ÙĦØ§ØªØµØ§ÙĦØ§Øª": 5694,
      "ĠÙĪÙĥÙĦ": 5695,
      "ĬÙĨÙĬ": 5696,
      "Ø²ÙĦ": 5697,
      "ĠØ§ÙĦÙĨÙħØ§Ø°Ø¬": 5698,
      "ĠØ§ÙĦØ¬ÙĬÙĨØ§Øª": 5699,
      "ĥÙĨÙĨÙĬ": 5700,
      "ĠÙĬØ·ÙĦØ¨": 5701,
      "ĠØ§ÙĦÙħÙĨØ¸ÙħØ©": 5702,
      "ĠØ§ÙĦÙħØ±ÙĥØ¨Ø§Øª": 5703,
      "ĠÙħØ®Ø§Ø·Ø±": 5704,
      "Ġ35": 5705,
      "ĠÙħØµÙĨÙ": 5706,
      "Ø§Ø¦ÙĩØ§": 5707,
      "ÙĦÙĬÙħÙĬ": 5708,
      "ĠØ§ÙĦØ¨Ø¯ÙĨÙĬØ©": 5709,
      "ĠØ§ÙĦØ³ÙĬØ¯": 5710,
      "ØªØ¯Ø§Ø¡": 5711,
      "eb": 5712,
      "ĠØ§ÙĦØ¥Ø·ÙĦØ§ÙĤ": 5713,
      "ĪØ§Ø¶ÙĬØ¹": 5714,
      "ĠØ§ÙĦÙĩØ§": 5715,
      "ĠØ£ÙħØ§ÙĥÙĨ": 5716,
      "ĠØ§ÙĦÙĨÙĪÙĪÙĬØ©": 5717,
      "ĠØ¨ÙĦØ": 5718,
      "ĠÙĦØªÙĪÙģÙĬØ±": 5719,
      "ÙĪØ³ÙĬØ©": 5720,
      "ĨØ±Ùī": 5721,
      "ĠØ§ÙĦØªØŃØ¯ÙĬØ§Øª": 5722,
      "ØªØ®Ø¯Ø§ÙħÙĩØ§": 5723,
      "ĠÙģØ±Ø¯": 5724,
      "ÙĦØ·Ø§Øª": 5725,
      "ĠØ§ÙĦØ®Ø·ÙĪØ§Øª": 5726,
      "ĠØ§ÙĦÙħÙĦÙģØ§Øª": 5727,
      "ÙĨØ±Ùī": 5728,
      "ĠØ§ÙĤØ±Ø£": 5729,
      "ĠÙĨØ¬Ø§ØŃ": 5730,
      "ĠØ§ÙĦÙĥÙĩØ±Ø¨Ø§Ø¦ÙĬ": 5731,
      "ĠØ§ÙĦÙħØŃØ§ØµÙĬÙĦ": 5732,
      "ĠÙħØªØ§ØŃØ©": 5733,
      "ÙĪÙĨÙ": 5734,
      "ĠØ§ÙĦÙħØ«ÙĬØ±Ø©": 5735,
      "ĠØ§ÙĦØºØ§ÙĦØ¨": 5736,
      "ĪÙħÙĪØ": 5737,
      "up": 5738,
      "ĠØ§ÙĦØ®Ø·ÙĪØ·": 5739,
      "ĠÙĬØ´Ø§Ø±": 5740,
      "¸Ù": 5741,
      "Ø§Ø¹ØªØ¨Ø§Ø±": 5742,
      "Ø·ÙĪØ·": 5743,
      "ÙĦØ§ÙĦØªØ": 5744,
      "ĠØ§ÙĦØ´ÙħØ§ÙĦÙĬ": 5745,
      "Ø¹ÙĪØ©": 5746,
      "ĠÙĪØ£Ø³": 5747,
      "ÙģØªÙĪØŃ": 5748,
      "§ÙĦØ§ÙĦØªØ": 5749,
      "ĠØ§ÙĦÙħØ¨Ø§ÙĨÙĬ": 5750,
      "µÙĦ": 5751,
      "ĠØ§ÙĦØ§Ø¹ØªØ±Ø§Ùģ": 5752,
      "ÙĦØ§Ø¨Ø³": 5753,
      "ÙĬØ¦Ø": 5754,
      "ĠØ¨ÙĪØµØ©": 5755,
      "ĠØ§ÙĥØªØ´Ùģ": 5756,
      "ªØ±ÙĬ": 5757,
      "ĠØ§ÙĦØ§ÙĦØªØ": 5758,
      "ĠØ§ÙĦÙħØ¨ÙĥØ±": 5759,
      "ĠÙĨØ±Ùī": 5760,
      "Ø§ÙĦÙĤ": 5761,
      "ÙĨÙĬÙĬÙĨ": 5762,
      "ĠÙħØªØ²Ø§ÙĬØ¯": 5763,
      "ĠØ§ÙĦØªØ·ÙĪØ±": 5764,
      "ĠØ¨ÙĦØ§": 5765,
      "ÙĬØ¦Ø§": 5766,
      "ĠØ¨Ø§ÙĦØ·Ø¨Ø¹": 5767,
      "ĠØ¹Ø¶ÙĪ": 5768,
      "ĠØªÙĪØ§Ø¬Ùĩ": 5769,
      "ĠØ§ÙĦÙħØ´Ù": 5770,
      "ĠØ§ÙĦØ§ØŃØªÙģØ§Ø¸": 5771,
      "ĠØ¯ÙĤØ©": 5772,
      "ĠØ§ÙĦÙħÙĦØ§Ø¨Ø³": 5773,
      "ĠØ§ÙĦÙħÙĪØ§Ø·": 5774,
      "ĠÙħØªÙī": 5775,
      "ĠÂ·": 5776,
      "ĠØ¹ÙĨÙĩ": 5777,
      "¸Ùħ": 5778,
      "ĠÙĥØ±ÙĬØ³": 5779,
      "ĠØ§ÙĦØªØ³Ø¬ÙĬÙĦ": 5780,
      "ĠØ¨Ø±Ø§": 5781,
      "ĠØªØ±ÙĥØ²": 5782,
      "ĠØ§ÙĦØ£ÙħØ¹": 5783,
      "Ø±ÙģÙ": 5784,
      "ĠØ§ÙĦØ£ÙĨØ¸ÙħØ©": 5785,
      "ĠØ§ÙĦØŃÙĤÙĬÙĤØ©": 5786,
      "ĠØµØŃÙ": 5787,
      "ĠÙĪÙĦÙĬØ§": 5788,
      "75": 5789,
      "ĠØ§ÙĦÙĨÙĩØ§Ø¦ÙĬØ©": 5790,
      "ÙĨØ³ÙĬ": 5791,
      "ĠÙĬØ³ØªØºØ±ÙĤ": 5792,
      "Ø³Ø§Ø±Ø©": 5793,
      "Ø®ÙĦØ§Øª": 5794,
      "ØªÙĥØ§Ø±": 5795,
      "ĠÙģØ±ÙĨØ³Ø§": 5796,
      "Ø§Ø¸Ø±": 5797,
      "ØªØ¯Ø±ÙĬØ³": 5798,
      "ĠØ§ÙĦÙĬØ§Ø¨Ø§ÙĨ": 5799,
      "ÙĪØ§Ø±Ø²": 5800,
      "ĠÙħÙĦÙģ": 5801,
      "ÙĩØ±Ø©": 5802,
      "Ø¯ÙĤØ§Ø¡": 5803,
      "ĠØ§ÙĦØ¹ÙĦÙħÙĬ": 5804,
      "ÙĥÙĬØ§Øª": 5805,
      "ÙħÙĩÙĪØ±ÙĬØ©": 5806,
      "ĠØ§ÙĦØ¥ØŃØµ": 5807,
      "ĠØ±Ø¯ÙĪØ¯": 5808,
      "ĠØ§ÙĦÙĨØ³Ø®Ø©": 5809,
      "ĠØ§ÙĦØ£ÙħØ«ÙĦØ©": 5810,
      "ĠØºØ¶ÙĪÙĨ": 5811,
      "ĠÙĪØ£Øµ": 5812,
      "¦ÙĬ": 5813,
      "¶Ùħ": 5814,
      "Ø§ÙĦØªÙ": 5815,
      "ĠØªØ¹Ø¯": 5816,
      "ĠÙĪÙĬØª": 5817,
      "ĠØ³ÙħÙĥ": 5818,
      "ĠÙĪØ²Ø§Ø±Ø©": 5819,
      "ÙĪØŃÙĬ": 5820,
      "ÙĪÙħÙĪØ": 5821,
      "Ø¹ÙĪ": 5822,
      "ĠØ§ÙĦØ±Ø§Ø¨Ø¹": 5823,
      "Ø¹Ø¯Ø§Ø¯": 5824,
      "ÙģÙĬØ¶": 5825,
      "ĠØ³Ø¹": 5826,
      "ĠÙĦÙħØ¬": 5827,
      "ep": 5828,
      "ĠØ¢Ø³ÙĬØ§": 5829,
      "ØªØºÙĦ": 5830,
      "ÙĪØ§ÙĤØ¨": 5831,
      "ĠØ§Ø³ØªØ±Ø§ØªÙĬØ¬ÙĬØ©": 5832,
      "ĪØ¹ÙĬØ©": 5833,
      "ĠØ§ÙĦÙħÙĪØ³ÙĬÙĤÙĬØ©": 5834,
      "Ø±ÙħÙĪÙĨ": 5835,
      "ĠÙĬØ¹Ø·ÙĬ": 5836,
      "ÙĪØ³Øª": 5837,
      "ĠÙħØŃØ¯Ø¯": 5838,
      "ĠØ£Ø¶": 5839,
      "ĠØ§ÙĦØºØ±Ø¨": 5840,
      "ci": 5841,
      "ĠØ§ÙĦØ¹Ø§Ø¦": 5842,
      "ĠØ§ÙĦÙģØ§Ùĥ": 5843,
      "ĠÙĦÙĥÙĨÙĩ": 5844,
      "Ø¹Ø¬": 5845,
      "ĠØ§ÙĦØ®Ù": 5846,
      "ĠØ§ÙĦØ«ÙĦØ¬": 5847,
      "ĬÙĪØµ": 5848,
      "ĠØ£ÙĨÙħØ§Ø·": 5849,
      "ĠØµÙĦØ©": 5850,
      "ÙĬÙĪØµ": 5851,
      "ĠØ³Ø§ÙĨ": 5852,
      "ĠØ§ÙĦØ³Ø±ÙĬØ±ÙĬØ©": 5853,
      "ĠØ§ÙĦÙĪØ±ÙĤØ©": 5854,
      "ĠØ§ÙĦØ£ÙĪÙĦÙĬØ©": 5855,
      "ĠÙĪØ§ÙĦØ«ÙĤ": 5856,
      "ĨØ¹Ø©": 5857,
      "ÙĪÙĬØ§Øª": 5858,
      "ord": 5859,
      "ĠÙĪÙħÙĪØ": 5860,
      "Ø§Ø¦ØªÙħØ§ÙĨ": 5861,
      "ĠØ§ÙĦÙĤÙĪØ§Ø¹Ø¯": 5862,
      "ĠØ§ÙĦØ£ÙĪÙĦÙ": 5863,
      "ÙħÙĪØ§ÙĦ": 5864,
      "ĠØ¯ÙĪÙĦØ©": 5865,
      "ĠØ§ÙĦØ³Ø": 5866,
      "ĠØ§ÙĦØ¨Ø¯ÙĨÙĬ": 5867,
      "ĠØ§ÙĦØ£ÙĥØ³Ø¬ÙĬÙĨ": 5868,
      "ÙģØ§ÙĬØ©": 5869,
      "ĠØ§ÙĦØ¯Ø±Ø§Ø³Ù": 5870,
      "ĠØ§ÙĦØ¯Ø±Ø§Ø³ÙĬ": 5871,
      "ĠÙĬØ®ØªÙĦÙģ": 5872,
      "Ø²Ø§Ù": 5873,
      "ĠØ§ÙĦØŃÙĥÙĪÙħÙĬØ©": 5874,
      "ĠØ§ÙĦØŃÙĤØ§Ø¦ÙĤ": 5875,
      "ĠØµØŃÙĬ": 5876,
      "ĠÙĤÙĬØ¯": 5877,
      "ĠÙĬÙĪØµ": 5878,
      "ĠÙĦØ§Ø³ØªØ®Ø¯Ø§Ùħ": 5879,
      "ÙĪØ§ÙģÙĤ": 5880,
      "ĠØ§ÙĦØ±Øµ": 5881,
      "ĠØ§ÙĦØ³ÙĦØ¹": 5882,
      "ÙĩØ´": 5883,
      "ÙĦØªØ¯Ø±ÙĬØ³": 5884,
      "ĠÙĬÙģØ¹": 5885,
      "ĠØ§ÙĦØ³Ø§Ø¦ÙĦ": 5886,
      "ÙĥÙĪÙĦÙ": 5887,
      "ĠÙĪØ§ÙĤ": 5888,
      "ÙłÙł": 5889,
      "³Ø§ÙĪÙĬ": 5890,
      "ĠØ§ÙĦØ§Ø³ØªØ«ÙħØ§Ø±": 5891,
      "ĠÙģÙĬÙĦÙħ": 5892,
      "].": 5893,
      "§ÙĦØªØ¯Ø±ÙĬØ³": 5894,
      "ĠÙĬØ¹Ø§ÙĨÙĬ": 5895,
      "ĠÙĤØ·Ø±": 5896,
      "ĠÙĥØ¬Ø²Ø¡": 5897,
      "ĠØ£Ø¯ÙĦØ©": 5898,
      "ĠØ§ÙĦØ¬Ø§ÙħØ¹Ø©": 5899,
      "Ġ((": 5900,
      "ĠÙĪØ¹ÙĦÙī": 5901,
      "Ø¹Ø±Ùģ": 5902,
      "ĠØ£ÙĤØµÙī": 5903,
      "Ġ90": 5904,
      "Ø§ÙĦÙĬØ¯": 5905,
      "ĠÙģØ±Ø¶": 5906,
      "ĠØ§ÙĦØ®Ø·Ø£": 5907,
      "ÙĪÙĤØ§Øª": 5908,
      "ĪÙĥØ³": 5909,
      "34": 5910,
      "ĠØ§ÙĦÙħÙģØ§ÙĩÙĬÙħ": 5911,
      "ill": 5912,
      "ĠØ§ÙĦØ¹ÙĨÙģ": 5913,
      "Ø¹Ø§Ø¡": 5914,
      "ĠØ§ÙĦØ¬ÙĨØ³ÙĬØ©": 5915,
      "ĠØ¯Ø§Ø®": 5916,
      "ĠØ§ÙĦØ°ÙĥÙĪØ±": 5917,
      "ĠÙĬØµÙģ": 5918,
      "ĠØ£ÙĤØ±Ø¨": 5919,
      "ªØ¹Ø©": 5920,
      "ĠÙĥÙĪ": 5921,
      "ĠØ§ÙĦÙħØ´ÙĬ": 5922,
      "ÙĦÙĤØ": 5923,
      "ĠØ§ÙĦØ±Ø¬ÙĦ": 5924,
      "ĠØµØ¹Ø¨Ø©": 5925,
      "³Ø§ÙĩÙħØ©": 5926,
      "ĠÙĦÙĦÙħØ±Ø¶": 5927,
      "ĠØªÙĨØ´": 5928,
      "ĠØ§ÙĦØµØ®ÙĪØ±": 5929,
      "ÙĤØ§ÙħØ©": 5930,
      "ĠØŃØ°": 5931,
      "ÙģÙĬÙĦ": 5932,
      "ĠØ¥Ø¹ÙĦØ§ÙĨ": 5933,
      "ĠØ§ÙĦØªÙĤÙĨÙĬØ§Øª": 5934,
      "ĠØ¬Ø³ÙħÙĥ": 5935,
      "ÙĦÙĤÙ": 5936,
      "ĠØ§ÙĦÙĨØ¬ÙĪÙħ": 5937,
      "ĠØªØ¬ÙħÙĬØ¹": 5938,
      "ĠÙĪÙģØ§Ø©": 5939,
      "ĠÙĪØ§ÙĦÙĥÙ": 5940,
      "¢ÙĥÙĦ": 5941,
      "ĠØ§ÙĦØ«Ù": 5942,
      "ĠØ§ÙĦØªÙĪØ§Ø²ÙĨ": 5943,
      "Ø±Ø§ÙĨØ³": 5944,
      "ªÙĬÙĨ": 5945,
      "ĠØ¨ÙħØ³": 5946,
      "ĠØ§ÙĦØ±Ø¨ÙĬØ¹": 5947,
      "ĠØ§ÙĦØ¯Ø±": 5948,
      "ĠØ¬ÙĩÙĪØ¯": 5949,
      "ĠØ£ÙĨÙĨÙĬ": 5950,
      "ĠØ§ÙĦÙħÙĪÙĤÙģ": 5951,
      "ĠØ§ÙĦØ£ÙħØ¹Ø§Ø¡": 5952,
      "ĠØ§ÙĦØªØ¯Ø±ÙĬØ³": 5953,
      "ĠØŃØ§Ø³": 5954,
      "Ø§Ø¯ÙħØ©": 5955,
      "ĠØªØ±ÙĥÙĬØ¨": 5956,
      "ĠØ±ÙĪØ§ÙĬØ©": 5957,
      "ÙĬÙĬÙģ": 5958,
      "ĠØ§ÙĦØ¥Ø³ÙĦ": 5959,
      "ĠÙĬÙħÙĥÙĨÙĨÙĬ": 5960,
      "ØŃÙĬØŃ": 5961,
      "Ø³ÙĬÙħØ§Øª": 5962,
      "ĠØ´Ø¨Ùĩ": 5963,
      "ĠØ§ÙĦØ¥Ø³ÙĦØ": 5964,
      "ÙĦØ§ÙĨØª": 5965,
      "ĠÙħÙĬÙĨ": 5966,
      "ªÙĦÙĪØ«": 5967,
      "Ø¯Ø§Ø¹": 5968,
      "ĠØ§ÙĦÙĤØ±Ø§Ø±": 5969,
      "ĠØ§Ø³ØªØ®Ø¯Ø§ÙħÙĩ": 5970,
      "ĠØ§ÙĦÙħØ£": 5971,
      "ÙĦÙĤÙĬ": 5972,
      "ĠÙĪØ£ØŃ": 5973,
      "ĠØ§ÙĦÙĤÙĪÙĬØ©": 5974,
      "ĠØ³ÙĪÙĤ": 5975,
      "ĠØ§ÙĦØŃØ¯ÙĬØ¯ÙĬØ©": 5976,
      "ĠÙĬÙĪØ§Ø¬Ùĩ": 5977,
      "Ø±ÙģÙĬ": 5978,
      "ĠÙĪØ§ÙĦÙħÙĤ": 5979,
      "ĠØ§ÙĦÙĪØ¸Ø§Ø¦Ùģ": 5980,
      "Ø§ÙĨÙĤ": 5981,
      "Ø§Ø¦Ø²Ø©": 5982,
      "ĠØªØ¹Ø²Ø²": 5983,
      "ĠØ¯Ø±Ø§": 5984,
      "ĠØ§ÙĦØ¨Ø¯Ø¡": 5985,
      "ĠØ§ÙĦÙħØ³ØªÙ": 5986,
      "ct": 5987,
      "ĠÙĨÙĥ": 5988,
      "ħØ±Ø": 5989,
      "Ø§Ø¦ÙĬÙĦ": 5990,
      "ĠØ§ÙĦÙħØ¹ÙħØ§Ø±": 5991,
      "ĠØ§Ø³ØªØ¨Ø¯Ø§ÙĦ": 5992,
      "ĠØ£ÙħØ§Ùħ": 5993,
      "ĠØ§ÙĨÙģ": 5994,
      "ĠØªØ³ØªÙħØ±": 5995,
      "Ø§Ø¨Ùĩ": 5996,
      "ĨØ¯ÙĬØ©": 5997,
      "ÙĦÙĤÙī": 5998,
      "ĠÙĦÙĦÙĤÙĬØ§Ùħ": 5999,
      "ĠØ§ÙħØ±": 6000,
      "ĠØ§ÙĦØ¹ØµØ±": 6001,
      "ĠØ¨ÙĬØ¹": 6002,
      "ĠÙĬØ¬Ø¯": 6003,
      "ĠØ§ÙĦÙĤØ§ÙĨÙĪÙĨÙĬØ©": 6004,
      "ĠØ£Ø³Ø¹Ø§Ø±": 6005,
      "Ġ2006": 6006,
      "ĠØ§ÙĦÙĨÙģØ³ÙĬ": 6007,
      "Ø§ØªÙ": 6008,
      "ĠØ§ÙĦÙģØ±ÙĬÙĤ": 6009,
      "ĠØªÙĦÙģ": 6010,
      "ĠØ§ÙĦÙĥÙĦÙī": 6011,
      "Ø§Ø¡Ø©": 6012,
      "Ġw": 6013,
      "Ø¨ÙĪÙĦÙ": 6014,
      "ĠØ³ÙĦØ§ÙħØ©": 6015,
      "ĠÙħÙĦØ§Ø¨Ø³": 6016,
      "ĠÙĪØªØŃØ¯ÙĬØ¯": 6017,
      "ĠØ¬ÙĬÙħØ³": 6018,
      "ĠØ¥ÙĬØ¬Ø§Ø¨ÙĬØ©": 6019,
      "ĠØ§ÙĦÙĪØŃÙĬØ¯Ø©": 6020,
      "ĠØ§ÙĦØ±ÙĬØ§Ø¶Ø©": 6021,
      "ĠÙĦØ¹Ø¨": 6022,
      "ĠØ§ÙĦØ¬ØºØ±Ø§Ùģ": 6023,
      "ÙĥÙħØ§ÙĦ": 6024,
      "ĠÙĪØ¨Ø¹Ø¶": 6025,
      "ard": 6026,
      "ĠÙĪØ¹Ø¯Ùħ": 6027,
      "§ÙĦØ§ÙĨØª": 6028,
      "ĠÙĪØ§ÙĦÙħÙĨØ": 6029,
      "ÙħØ±Ø": 6030,
      "ĠØ£Ø³ÙħØ§Ø¡": 6031,
      "ĠØ´Ø±ÙĥØ§Øª": 6032,
      "ĠØ§ÙĦØ´Ø¹Ø¨ÙĬØ©": 6033,
      "Ġof": 6034,
      "ĠÙħÙĪ": 6035,
      "ĠØ¹ÙĬÙĨØ§Øª": 6036,
      "ĠÙħØ¯Ø§Ø±": 6037,
      "ĠØ£Ø³Ø§Ø¨ÙĬØ¹": 6038,
      "ĠØªØªØ¹ÙĦÙĤ": 6039,
      "ĠÙĪØ±Ø¨ÙħØ§": 6040,
      "ĪØ¬Ø¨": 6041,
      "ST": 6042,
      "ĠÙĦØ¹ÙĦØ§Ø¬": 6043,
      "ĠÙĬØ£Ø®Ø°": 6044,
      "ØªÙĪØ¨Ø©": 6045,
      "ĠØŃÙĬØ§ØªÙĩÙħ": 6046,
      "ĠØ§ÙĦÙĥÙħÙĬØ©": 6047,
      "ĠØ§Ø³ØªØ®Ø¯ÙħØª": 6048,
      "ØªÙĪØ¬ÙĬÙĩ": 6049,
      "ĠØ¶Ø±ÙĪØ±ÙĬØ©": 6050,
      "ĠØ§ÙĦØ°ÙĩØ§Ø¨": 6051,
      "ĠØ³Ø¹Ø±": 6052,
      "Ø£Ø": 6053,
      "ĠØ§ÙĦÙģÙĪÙĦ": 6054,
      "ÙĦÙĪÙĥÙĬØ§Øª": 6055,
      "ØªØµØ±": 6056,
      "ĠØ§ÙĦØ£Ø®Ø¨Ø§Ø±": 6057,
      "ĠØ§ÙĦØ§ÙĨØª": 6058,
      "ĠØ§Ø³ØªØ±Ø¯Ø§Ø¯": 6059,
      "ĠÙĨØ¸Ø§": 6060,
      "ĠØ§ÙĦØ¹Ø¯Ø§ÙĦØ©": 6061,
      "ĠØ§ÙĦØ£ÙħØ§": 6062,
      "£Ø«Ø±": 6063,
      "ħØ§Ø¯Ø©": 6064,
      "ĠÙħØ¹ÙĤ": 6065,
      "Ø¨Ø®": 6066,
      "Ø£Øª": 6067,
      "ĠÙĪÙĨØŃÙĨ": 6068,
      "ĠØ§ÙĦÙħØ¹ÙĤØ¯Ø©": 6069,
      "ĠØ·Ø¨ÙĤØ©": 6070,
      "ÙħØ§Ø³": 6071,
      "ĠØ§ÙĦÙĤØ§Ø¹Ø¯Ø©": 6072,
      "ĠØªÙĨØ¸ÙĬÙģ": 6073,
      "Ġ70": 6074,
      "ªØ§Ø¨Ø¹Ø©": 6075,
      "37": 6076,
      "ĠØ§ÙĦØ±Ùĥ": 6077,
      "Ġ2005": 6078,
      "ĠØ§ÙĦÙħØ·ÙĦÙĪØ¨Ø©": 6079,
      "ĠÙĬØ¯Ø±Ùĥ": 6080,
      "ĠÙĦØ²ÙĬØ§Ø¯Ø©": 6081,
      "ĠØ§ÙĦØ¨ÙĬØ¦Ù": 6082,
      "ĠØ§ÙĦØ¨ÙĬØ¦ÙĬ": 6083,
      "ĠØ£Ø±Ø³": 6084,
      "ĠØ§ÙĦØ³Ø¬": 6085,
      "ĠØ§ÙĦØ£Ø¬Ø²Ø§Ø¡": 6086,
      "ĠØ¹ÙĦÙĬÙĩÙħ": 6087,
      "ĠÙĤÙĦØ¨": 6088,
      "ĠÙħØ¦ÙĪÙĬØ©": 6089,
      "ĠØªØŃØ¯Ø¯": 6090,
      "ĠÙħØ«Ø§ÙĦÙĬØ©": 6091,
      "ĠØ¨Ø§Ø¹ØªØ¨Ø§Ø±": 6092,
      "ĠØ¨ÙĬØª": 6093,
      "ÙħÙĥØ§Ù": 6094,
      "ĠØ§ÙĦØŃÙĬÙĪØ§ÙĨÙĬØ©": 6095,
      "ĠÙĬØ¶ÙħÙĨ": 6096,
      "ĠØ§ÙĦÙģØ±ÙĨØ³ÙĬØ©": 6097,
      "ĠØ§ÙĦÙħÙĨØ¸ÙħØ§Øª": 6098,
      "ĠØ§ÙĦÙģÙħ": 6099,
      "ÙħØ¹Ø§Øª": 6100,
      "ÙĨÙĪØ¨ÙĬ": 6101,
      "ØºØ±Ø§Ø¶": 6102,
      "ĠØ§ÙħØ±Ø£Ø©": 6103,
      "ÙħÙĥØ§ÙĨ": 6104,
      "ĠÙĥÙĨØ§": 6105,
      "ĠØªØ®ÙģÙĬÙģ": 6106,
      "ĠÙĬØ±Øº": 6107,
      "ĠÙĤÙħØª": 6108,
      "ĠÙĦØªÙĤØ¯ÙĬÙħ": 6109,
      "eg": 6110,
      "ĪÙħØªØ±": 6111,
      "ĠØ§ÙĦØªÙģØ": 6112,
      "ĠØªØŃÙĪÙĦ": 6113,
      "ĠØ§ÙĦØ²Ø±Ø§Ø¹ÙĬØ©": 6114,
      "65": 6115,
      "ĥÙħÙĦ": 6116,
      "Ø§Ø°Ø¨ÙĬØ©": 6117,
      "ĠØ§ÙĦÙĪØ±Ùħ": 6118,
      "ĠØ§ÙĦÙħØªØ¹Ø¯Ø¯Ø©": 6119,
      "Ø¯Ø±Ø§Ø¬": 6120,
      "99": 6121,
      "ĠØ§ÙĦÙĩØ§ØªÙģ": 6122,
      "ÙĦØªÙĪØ¬ÙĬÙĩ": 6123,
      "ĠØªØµÙĨÙĬØ¹": 6124,
      "ĠØªØ¬Ø¯": 6125,
      "ĠØ§ÙĦØ°ÙĩØ¨": 6126,
      "ĠØ§ÙĦØµÙĬÙĨÙĬØ©": 6127,
      "ĠØ§ÙĦØ§Ø³ØªØ¬Ø§Ø¨Ø©": 6128,
      "ĠØ§ÙĦØªØŃÙĪÙĦ": 6129,
      "ĠØ¨ÙĪÙĦÙ": 6130,
      "ĠØ§ØŃØªÙħØ§ÙĦ": 6131,
      "ĠÙģØ±ÙĬØ¯Ø©": 6132,
      "ĠØ§ÙĦØµØŃÙĬØŃØ©": 6133,
      "ĠØ§ÙĦØ¹Ø´": 6134,
      "ĠØªÙĪØ§Ø²ÙĨ": 6135,
      "ĠÙħØ±Ø": 6136,
      "§ÙĦØªÙĪØ¬ÙĬÙĩ": 6137,
      "ØµØ§ÙĨ": 6138,
      "ĠÙħÙĪÙĤÙģ": 6139,
      "Ø¯ÙħØ±": 6140,
      "ĠØ§ÙĦÙħØ²Ø¯ÙĪØ¬": 6141,
      "ĠÙĪØŃØ¯Ø§Øª": 6142,
      "ĠÙħØ¤Ø®": 6143,
      "ĪØ§ØµÙĦØ©": 6144,
      "ĠØ§ÙĦÙĩÙĬÙĥÙĦ": 6145,
      "ĠÙħØªØ®": 6146,
      "ÙĬØªÙĨØ§": 6147,
      "ĠØ§ÙĦØ¯ÙĬÙĨÙĬØ©": 6148,
      "ĠÙħØ¬Ø§ÙĨÙĬØ©": 6149,
      "ĠØ£ÙħØ±ÙĬÙĥÙĬ": 6150,
      "ĠØ§ÙĦØ§ÙĨØªØ±ÙĨØª": 6151,
      "ĠÙĦÙĦØŃÙĬØ§Ø©": 6152,
      "ÙĩØ§Ùħ": 6153,
      "ªØ®Ø§Ø¨Ø§Øª": 6154,
      "ĠÙĬØŃØµÙĦ": 6155,
      "ÙħÙĦØª": 6156,
      "ĠØ§ÙĦÙģÙĬØ²ÙĬØ§Ø¡": 6157,
      "ĠØ§ÙĦØ¹Ø§Øµ": 6158,
      "Ø§ÙħØ±": 6159,
      "ĠØ§ÙĦØ±Ø³ÙħÙĬ": 6160,
      "ĠØ§ÙĦØ§Ø³Ø": 6161,
      "ĠÙģÙĩÙĬ": 6162,
      "ĠØ¨Ø¶": 6163,
      "ĠØ§ÙĦØºØ±Ø¨ÙĬ": 6164,
      "ĠØ§ÙĦÙĤØ¶Ø§Ø¡": 6165,
      "ĠÙĦÙĦÙħØŃ": 6166,
      "ÙĩÙħØ§": 6167,
      "ĠÙĪØ²ÙĨ": 6168,
      "ĠØ§ÙĦÙħØ³Ø±ØŃ": 6169,
      "ĠÙĬØ³ØªØ·ÙĬØ¹": 6170,
      "ĠØ§ÙĦÙħÙĦÙģ": 6171,
      "ĠØ²ÙĬØª": 6172,
      "ĠÙĦØªÙĤÙĬÙĬÙħ": 6173,
      "ĠØ¯ÙĤØ§Ø¦ÙĤ": 6174,
      "ØªÙĬØ§Øª": 6175,
      "ĠØ§ÙĦØ·Ùģ": 6176,
      "ĠØ§ÙĦØ¯ÙģØ¹": 6177,
      "ĠØ§ØªØ¨Ø§Ø¹": 6178,
      "ĠØ§ÙĦØ±Ø§ØŃØ©": 6179,
      "ĠÙģØ§Ù": 6180,
      "ĠØ§ÙĦÙģØ¹ÙĦ": 6181,
      "ĠÙĪØªØ¨": 6182,
      "ÙĦÙĪÙģ": 6183,
      "ĠØ§ÙĦØ´Ø®ØµÙĬØ§Øª": 6184,
      "ªØµØ§Øµ": 6185,
      "ĠØ§ÙĦØªÙĪØ¬ÙĬÙĩ": 6186,
      "ĠÙĦÙĪÙĬØ³": 6187,
      "ĠØ§ÙĦØ«ÙĤØ©": 6188,
      "ĠØªØ¨ØŃØ«": 6189,
      "ĪÙħÙĥ": 6190,
      "Ø±ÙĪØ¶": 6191,
      "ĠØ§ÙĦÙģÙĪØ§ÙĥÙĩ": 6192,
      "ĠØ§ÙĦØ¹Ø´Ø¨": 6193,
      "ªØ¸Ø§Ùħ": 6194,
      "Ø³ØªØ±": 6195,
      "ØªØ¨Ø·": 6196,
      "ÙĬÙĪÙĦ": 6197,
      "ĠØ§ÙĦÙĨØŃÙĦ": 6198,
      "ĠÙĥÙĩØ±Ø¨": 6199,
      "ĠØ¨ØªØ·": 6200,
      "ĠÙħÙĥÙĪÙĨØ§Øª": 6201,
      "ĠØ§ÙĦØ°ÙĥÙĬØ©": 6202,
      "ĪÙħÙĪ": 6203,
      "ĠØ§ÙĦØ£ÙģØ±ÙĬÙĤ": 6204,
      "ĠØ³ÙĪÙī": 6205,
      "ĠØ§ÙĦÙħØ®Øª": 6206,
      "ĠÙĦÙĦØ²": 6207,
      "ĠÙħØ«ÙĬØ±": 6208,
      "ĠØ§ÙĦØªÙĪ": 6209,
      "ant": 6210,
      "ĠØŃØ§ÙĦÙĬØ§": 6211,
      "ĠÙĪØªÙĪØ": 6212,
      "Ø¨ÙĪØ¹Ø©": 6213,
      "ÙĦØ±Ùħ": 6214,
      "Ø¯Ø±Ø©": 6215,
      "Ø±Ø¹ÙĬØ©": 6216,
      "ĠØ£Ø³Ø§Ø³Ø": 6217,
      "§ÙĦØ±Ùħ": 6218,
      "Ø§Ø¹Ø¯ØªÙĥ": 6219,
      "ĠØ§ÙĦØ¹ÙĦØ§ÙħØ§Øª": 6220,
      "ĠØ£Ø³Ø§Ø³Ø§": 6221,
      "ĠØµÙĨØ¯ÙĪÙĤ": 6222,
      "our": 6223,
      "ħØ§Ø±Ø§Øª": 6224,
      "Ø§Ø¶ÙĬØ¹": 6225,
      "oog": 6226,
      "ÙĬØ²Ù": 6227,
      "ĠØ¨ÙħÙĪØ¬Ø¨": 6228,
      "ĠØªØ¯Ø®ÙĦ": 6229,
      "ĠØ§ÙĦØ±ÙĤÙħÙĬ": 6230,
      "ĠÙĪÙĪØ¶Ø¹": 6231,
      "ĠØ§ÙĦØ«ÙĪØ±Ø©": 6232,
      "ĠÙĤØ±ÙĬØ¨": 6233,
      "ÙĪÙĦÙĩ": 6234,
      "ĠØ§ÙĦØ³Ø§ØŃ": 6235,
      "Ø¨ÙĬØ¹Ø©": 6236,
      "ĠØ¬ÙĦØ³": 6237,
      "Ø¹ÙĦØ§ÙĨØ§Øª": 6238,
      "ĠÙĪÙħÙĨØ": 6239,
      "ĠÙĪØ§ÙĦÙħÙĪØ": 6240,
      "ĠØ§ÙĦÙħØ¸": 6241,
      "ĠØ§ÙĦØ«Ø§ÙħÙĨ": 6242,
      "ĠØ§ÙĦØ¯Ø®ÙĪÙĦ": 6243,
      "ĠÙħÙĨÙĩØ¬": 6244,
      "ĠÙħÙĦØ§ØŃØ¸Ø§Øª": 6245,
      "ĨØ²Ø§": 6246,
      "Ġde": 6247,
      "Ø´Ø§Ø¨": 6248,
      "ĠØ§ÙĦÙħØ¹Ø¯ÙĦ": 6249,
      "ĠØ§ÙĦØ£ÙĩØ¯Ø§Ùģ": 6250,
      "ĠÙĦØ¨ÙĨØ§Ø¡": 6251,
      "ĠÙĪØªÙĪÙģÙĬØ±": 6252,
      "ĠØ§ÙĦØ±Ùħ": 6253,
      "ĠÙĬØ¹ÙħÙĦÙĪÙĨ": 6254,
      "ĠÙĤÙĪØ§ÙĨÙĬÙĨ": 6255,
      "ĠØ§ÙĦÙħÙħØ§Ø±Ø³Ø§Øª": 6256,
      "ĠØ§ÙĦÙĦØºØ§Øª": 6257,
      "ĠØ§ÙĦØ¯ÙħØ§ØºÙĬØ©": 6258,
      "................": 6259,
      "ĠØªÙĦÙĪØ«": 6260,
      "PS": 6261,
      "ĠØªØŃØ±ÙĬØ±": 6262,
      "ĠØ®ÙĦÙģ": 6263,
      "ĠØ§ÙĦØ£ÙĪØ±ÙĪØ¨ÙĬØ©": 6264,
      "ĠÙĥÙĪØ³": 6265,
      "ØµØ§Ø¨": 6266,
      "ĠØµØ¯ÙĬÙĤ": 6267,
      "ĠØ§ÙĦÙģØŃÙħ": 6268,
      "ĠØ§ÙĦØ¯ÙģØ§Ø¹": 6269,
      "Ġ45": 6270,
      "Ø§Ø¯Ø«Ø©": 6271,
      "ÙĨØ¸Ø±": 6272,
      "ĠØ¥Ø´Ø§Ø±Ø§Øª": 6273,
      "ĠØ§ÙĦÙĤÙĪØ§Øª": 6274,
      "ĠØ§ÙĦØ±ÙħØ²": 6275,
      "ĠØ«ÙĤØ§ÙģØ©": 6276,
      "ĠØ§ÙĦØ³ÙĬØ±": 6277,
      "ĠØ§ÙĦØŃÙħØ§ÙĬØ©": 6278,
      "Ø±ÙĬØ¨ÙĬ": 6279,
      "ĠØ§ÙĦÙĤÙĪÙī": 6280,
      "ĠÙĥØ¹": 6281,
      "ĠØ¨ÙĪØ±": 6282,
      "ĠÙĬÙĦÙĬ": 6283,
      "ĠØªØºØ·ÙĬØ©": 6284,
      "ÙĪØ§Ø±Ø¦": 6285,
      "ĠÙģÙĥØ±": 6286,
      "ĠÙħØ¹Ø±Ø¶": 6287,
      "ÙĬÙĪØ³": 6288,
      "ĬÙħØ§ÙĨ": 6289,
      "ÙĬÙħØª": 6290,
      "ĠØ«Ø§ÙĨÙĬØ©": 6291,
      "ĠØ§ÙĦØªÙĨÙĤÙĦ": 6292,
      "ĠØ§ÙĦØ¯Ø¨": 6293,
      "Ø¹ÙĬÙĨ": 6294,
      "ĠØ¹Ø¯": 6295,
      "ĠÙħØ¹ÙĤØ¯Ø©": 6296,
      "Ø§Ø±ÙĬÙĨ": 6297,
      "ĠÙĬÙĨØªØ¬": 6298,
      "ĠÙĪØ¬ÙĩØ§Øª": 6299,
      "ĠØ¨Ø§ÙĨØªØ¸Ø§Ùħ": 6300,
      "ĠØ§ÙĦÙģØ¦Ø±Ø§ÙĨ": 6301,
      "ĠÙĦØ¥Ø¹Ø§Ø¯Ø©": 6302,
      "ĠØ£ØµØŃØ§Ø¨": 6303,
      "ĠÙĤØ§ÙĦØ": 6304,
      "ĬÙĪØ¶ØŃ": 6305,
      "ÙĬÙĪØ¶ØŃ": 6306,
      "ĠÙĤØ§ÙĦØª": 6307,
      "oogle": 6308,
      "ĠEn": 6309,
      "ĠØ§ÙĦØ£Ø±Ø¶ÙĬØ©": 6310,
      "Ø³Ø±Ø§Ø¦ÙĬÙĦ": 6311,
      "ÙĦÙĥÙĬ": 6312,
      "ĠÙĪÙĥÙĬÙģÙĬØ©": 6313,
      "ĠÙĤÙĬØ§Ø¯Ø©": 6314,
      "ĠØ§ÙĦÙħØ±ÙĥØ²ÙĬ": 6315,
      "ĠØªÙĨØ²": 6316,
      "ĠØªØ§Ù": 6317,
      "ĠÙĪØ§ÙĦÙĨ": 6318,
      "ĠØ§ÙĦØŃÙĦÙĬØ¨": 6319,
      "ĠØ¨Ø£ÙĬ": 6320,
      "Ø¬Ø²": 6321,
      "ĠØªØ¹ØªÙĤØ¯": 6322,
      "ĠØªØ®ØµÙĬØµ": 6323,
      "ĠØ§ÙĦØ¨ÙĦØ¯": 6324,
      "ĠÙĦØªØ¬ÙĨØ¨": 6325,
      "ĠØ§ÙĦÙħÙģØªÙĪØŃØ©": 6326,
      "ĠØ§ÙĦÙħÙĪØµ": 6327,
      "ĠÙħØŃØ¯ÙĪØ¯Ø©": 6328,
      "ĠØ¨Ø§ÙĦØµ": 6329,
      "ĠÙħÙĬØ²Ø©": 6330,
      "ĠØªÙĩØ¯Ùģ": 6331,
      "ĠØ¥Ø®": 6332,
      "ĠÙĪØ§ÙĦÙħÙĩ": 6333,
      "ĠÙħØ¬ÙħÙĪØ¹": 6334,
      "ĠÙħØ¶Ø§Ø¯Ø§Øª": 6335,
      "pl": 6336,
      "ÙĪÙĨØ²": 6337,
      "ĠÙģØ±ÙĤ": 6338,
      "ĠÙħØ³ØªÙĤØ¨ÙĦ": 6339,
      "ÙĬÙħÙĬØ©": 6340,
      "ĠØ¯Ùģ": 6341,
      "ĠØ±ÙģØ¹": 6342,
      "ĠØ§ÙĦÙĤØ·Ø·": 6343,
      "ĠØ§ÙĦØ£ÙĪØ³": 6344,
      "³ØªÙĤ": 6345,
      "ĠØ§ÙĦÙĬØ§Ø¨": 6346,
      "ĠÙĪÙĥØ§ÙĦØ©": 6347,
      "ĠÙĬÙħÙĨØŃ": 6348,
      "ĠØ§ÙĦØ²Ø¬Ø§Ø¬": 6349,
      "ĪÙĦÙĥ": 6350,
      "ĠØ§ÙĦØ´Ø§": 6351,
      "ĠØ§ÙĦÙħØ´ÙĩØ¯": 6352,
      "ĠØ§ÙĦØªÙĦÙģØ²": 6353,
      "Ø®ÙĬØ±": 6354,
      "ĠÙĪØ¶Ø¹Øª": 6355,
      "ĠØ§ÙĦØ¥ÙħØ¨Ø±Ø§Ø·ÙĪØ±ÙĬØ©": 6356,
      "ĠØ®Ø·ÙĪØ§Øª": 6357,
      "ĠÙĬÙĪØ¶ØŃ": 6358,
      "ÙĥÙĪÙħØ§Øª": 6359,
      "ĠØ§ÙĦØ±ÙĪØŃ": 6360,
      "ĠØ§ÙĦØµÙĪØªÙĬØ©": 6361,
      "ĠØ§ÙĦØ®ÙĦÙģ": 6362,
      "ĠØ¨ÙĬØ¶": 6363,
      "Ø§Ø¦Ø¨": 6364,
      "ĠØ³ÙĩÙĦØ©": 6365,
      "ĠÙĬÙĪÙħÙĬ": 6366,
      "ĠØ§ÙĦÙħÙĦØ§ØŃØ¸": 6367,
      "ĠÙģÙĪØ±": 6368,
      "ĠÙħØ§Øª": 6369,
      "ĠÙĦØªÙĤÙĦÙĬÙĦ": 6370,
      "ĠØ£Ø³ØªØ§Ø°": 6371,
      "ĬØ§Ø¨": 6372,
      "ĠÙĪØ§ÙĦØªÙĤ": 6373,
      "ĠØ§ÙĦÙĬØ³": 6374,
      "Ø²ÙĪ": 6375,
      "ĠØ¨Ø¹ÙĨØ§ÙĬØ©": 6376,
      "Ø§Ø®ØªØ¨Ø§Ø±": 6377,
      "ØŃØ": 6378,
      "ĠÙĪØ²ÙĬØ§Ø¯Ø©": 6379,
      "ĠØ§ÙĦØ¹Ø±Ø¶": 6380,
      "ĠØ§ÙĦÙħØ¨Ø§Ø´Ø±": 6381,
      "ĠØ§ÙĦØªÙħØ§Ø±ÙĬÙĨ": 6382,
      "ÙħØ¬Ø©": 6383,
      "ĠÙĬØ¹ÙĪØ¯": 6384,
      "Ø§ØªÙĬØŃ": 6385,
      "ØªØ±ÙĬ": 6386,
      "ĠØªØ¯Ø¹Ùħ": 6387,
      "ÙĦÙĪÙĨØ²Ø§": 6388,
      "Ġ--": 6389,
      "ĠØ§ÙĦÙħÙĪØ¬Ø§Øª": 6390,
      "ĠØ§ÙĦØ´Ø®ØµÙ": 6391,
      "ĠØ§ÙĦØ´Ø®ØµÙĬ": 6392,
      "ĠØ§ÙĦÙħØ²ÙħÙĨØ©": 6393,
      "ÙħØ§Ø¯Ø©": 6394,
      "ħÙģØªÙĪØŃØ©": 6395,
      "ĠÙĤÙħÙĨØ§": 6396,
      "Ø±ÙĬØª": 6397,
      "ÙħÙģØªÙĪØŃØ©": 6398,
      "ĠØ§ÙĦØ³ÙĦØ": 6399,
      "ĠÙĨÙĬÙĥ": 6400,
      "ĠØ§ÙĦÙĨØµØ§Ø¦ØŃ": 6401,
      "ĠØ§ÙĦØ¨ØµØ±ÙĬØ©": 6402,
      "ĠØ§ÙĦØ¹ÙĨØµ": 6403,
      "ĠØ§ÙĦØ²ÙħÙĨ": 6404,
      "ĠÙĪØ¢Ø®Ø±ÙĪÙĨ": 6405,
      "ĠØ£Ø®ÙĦØ§ÙĤ": 6406,
      "ĠØ§ÙĦÙħØ¹Ø§ÙĦØ¬Ø©": 6407,
      "ĠØªÙĪØ±": 6408,
      "ÙĬØ³ÙĬØ©": 6409,
      "ĠÙĬÙħØ±": 6410,
      "ÙħÙĬÙĥ": 6411,
      "ĠØ§ÙĦØ¥Ø¹Ø§ÙĤØ©": 6412,
      "Ø±ØªÙĩ": 6413,
      "ĠØ§ÙĦØ¨Ø±Ø§ÙħØ¬": 6414,
      "ĠØ§ÙĦØ¹ÙĦÙĪÙĬ": 6415,
      "ĠÙĩÙĬØ±": 6416,
      "ĠÙĤØ±Ø§Ø±Ø§Øª": 6417,
      "ĠÙĬÙħØª": 6418,
      "ĠØµØ¨Ø§ØŃ": 6419,
      "ÙĪØ¬Ùĩ": 6420,
      "ie": 6421,
      "ĠØ§ÙĦØ£ÙĪØ¹ÙĬØ©": 6422,
      "ĠÙģØªØ±Ø§Øª": 6423,
      "ĠÙħÙģØªÙĪØŃØ©": 6424,
      "ĠØªÙģØ§ØµÙĬÙĦ": 6425,
      "ĠÙĬØŃØªØ§Ø¬ÙĪÙĨ": 6426,
      "ĠØ§ÙĦØ³ÙĦØ§": 6427,
      "ĠØ§ÙĦØ±Ø¤ÙĬØ©": 6428,
      "ĠØ§ÙĦØŃÙĤÙĪÙĤ": 6429,
      "ou": 6430,
      "ĨØ§Ø«": 6431,
      "95": 6432,
      "ĠØ§ÙĦØ¯Ø³ØªÙĪØ±": 6433,
      "ĠØ§ÙĦØ£ÙħØ§ÙĥÙĨ": 6434,
      "Ø¬ÙĪØ©": 6435,
      "48": 6436,
      "ĠØ£Ø³ÙĩÙĦ": 6437,
      "Ġin": 6438,
      "ĠÙĪØ¥Ø¹Ø§Ø¯Ø©": 6439,
      "ĠØ§ÙĦØ¸ÙĩØ±": 6440,
      "Ø§ÙĦØ´ÙĥÙĦ": 6441,
      "Ø§ÙĥØ§Ø©": 6442,
      "Ø§ÙĦÙĪÙĨ": 6443,
      "ĠØ§ÙĦØŃØ±Ø©": 6444,
      "df": 6445,
      "ĠØ§ÙĦØ£Ø®ÙĦØ§ÙĤÙĬØ©": 6446,
      "ÙĬÙĦØ§Øª": 6447,
      "ĠÙħØªØ·": 6448,
      "ast": 6449,
      "ĠÙĪÙħØµ": 6450,
      "ĠÙħØ´Ø§ÙĩØ¯Ø©": 6451,
      "ĠÙĬÙĤØ¯Ø±": 6452,
      "ĠØ§ÙĦØ¨ÙĬÙĪÙĦÙĪØ¬Ù": 6453,
      "ĠØ§ÙĦÙħØ¯ÙĬØ±": 6454,
      "ĠØ§ÙĦØ¨ÙĬÙĪÙĦÙĪØ¬ÙĬ": 6455,
      "ĠØªØ¨ÙĤÙī": 6456,
      "ĠÙĪØ¥Ø°Ø§": 6457,
      "ĠÙĥÙĦØ¨": 6458,
      "§ÙĦÙĦØºØ©": 6459,
      "ĠØ§ÙĦÙħØŃÙħÙĪÙĦØ©": 6460,
      "ªÙĪ": 6461,
      "Ø§Ø¤Ùĩ": 6462,
      "ĠØ§ÙĦØ¹Ø§Ø¯ÙĬØ©": 6463,
      "ĠØ¨Ø±ÙĬØ·Ø§ÙĨÙĬØ§": 6464,
      "ĠØ¬Ø°ÙĪØ±": 6465,
      "ĠÙħØ¤Ø®Ø±Ø§": 6466,
      "Ø¹ÙĬÙħ": 6467,
      "ĠØ§ÙĦØµØºÙĬØ±": 6468,
      "ĠÙĦÙĪØŃØ§Øª": 6469,
      "ÙĬØªØ§Ù": 6470,
      "ĠØªÙĤÙĦÙĦ": 6471,
      "Ø§Ø²ÙĬØ©": 6472,
      "ĠØ§ÙĦÙħÙģÙĬØ¯": 6473,
      "Ø°Ø©": 6474,
      "05": 6475,
      "ED": 6476,
      "ĠØ§ÙĦØ¨ÙĪÙĦ": 6477,
      "ÙĬÙĪÙĦÙĪØ¬ÙĬØ©": 6478,
      "ĠØ§ÙĦØªØ¶": 6479,
      "ĠÙĨÙĤÙĪÙħ": 6480,
      "ĠÙĤØ§Ø¨ÙĦ": 6481,
      "ĨØ§ÙĤØ¶": 6482,
      "ØªØ®Ø¯ÙħÙĩØ§": 6483,
      "ĠØ¸Ùĩ": 6484,
      "ĠÙħØ£": 6485,
      "ĠØ§ÙĦØ¹Ø±ÙĤ": 6486,
      "Ø§Ø·Ùģ": 6487,
      "ĠØ§ÙĦØ¹ÙħÙĦØ§Øª": 6488,
      "ĠØ§ÙĦÙĨÙĩØ±": 6489,
      "ĠØªØ¯Ø±ÙĬØ¬": 6490,
      "ĠØ¥ÙĬÙĤ": 6491,
      "ĠÙĪØªØ·ÙĪÙĬØ±": 6492,
      "ÙĨØ§Ø³": 6493,
      "ĠØ§ÙĦØ®Ø¨Ø±Ø§Ø¡": 6494,
      "ØºØ©": 6495,
      "ĠØ³ÙĬØ§Ø³Ø©": 6496,
      "ĠØªÙĪÙħØ§Ø³": 6497,
      "ĠØŃØ±Ø¨": 6498,
      "ÙĬØªÙĪÙĨ": 6499,
      "EM": 6500,
      "ÙĤÙģ": 6501,
      "ĠØªØ°": 6502,
      "ĠØ§ÙĦÙħØ³ØªØ¯Ø§ÙħØ©": 6503,
      "ĠØ§ÙĦÙħØ¶Ø·": 6504,
      "ĠØ¨Ø§Ùĥ": 6505,
      "Ø§ØªØ´": 6506,
      "ĠÙĥØ³Ø±": 6507,
      "ĠØ§ÙĦØ®Ø§Ø±Ø¬ÙĬ": 6508,
      "IC": 6509,
      "32": 6510,
      "ÙĦØ²Ø": 6511,
      "ĠØ§ÙĦØ¬ÙĦÙĬØ¯": 6512,
      "ĠØ§ÙĦÙħØªÙĤØ¯ÙħØ©": 6513,
      "ĠØ§ÙĦÙĨØ®": 6514,
      "ĠØ§ÙĦØ¯ÙĤÙĬÙĤ": 6515,
      "ĠØ§ÙĦØ£ØµÙĦÙĬÙĬÙĨ": 6516,
      "ĠÙĦÙĦÙħÙĤ": 6517,
      "ĠØ£Ø´Ø®Ø§Øµ": 6518,
      "ĠØªØ´Ø§Ø±": 6519,
      "ÙĬØ§ÙĥÙĦ": 6520,
      "Ø§Ø¦ÙĩÙħ": 6521,
      "ĠØ§ÙĦØ¹ÙĦØ§Ø¬Ø§Øª": 6522,
      "the": 6523,
      "Ø§ÙĦØ¥": 6524,
      "ĠÙĪØ§ÙĦØ¥Ø³": 6525,
      "ĠIS": 6526,
      "ĠØ§ÙĦØªØ®ÙĦØµ": 6527,
      "ĠØ§ÙĦÙħÙĪØ§Ø¶ÙĬØ¹": 6528,
      "ĠØ§ÙĦÙħØ¨Ø§Ø¯Ø¦": 6529,
      "ĠØ§ÙĦÙħÙĩØ§Ø¬": 6530,
      "ĠØ§ÙĦØŃØ±ÙĬØ©": 6531,
      "ĠØªØªÙħÙĥÙĨ": 6532,
      "ĠÙħØ±Ø§ØŃÙĦ": 6533,
      "ĠØ§ÙĦØ®Ø§Ù": 6534,
      "**": 6535,
      "Ø§Ø«ÙĪÙĦÙ": 6536,
      "²Ø§ÙĨÙĬØ©": 6537,
      "ÙĪØ§Ø·": 6538,
      "Ø§Ø¦Ùĩ": 6539,
      "ĠØ§ÙĦÙģØ§ÙĥÙĩØ©": 6540,
      "ĠØ§ÙĦØŃØ¨ÙĪØ¨": 6541,
      "ĠØ²Ø±Ø¹": 6542,
      "ĠØªØ¬Ø§Ø±Ø¨": 6543,
      "ĠØ§ÙĦØ¨ÙĨÙĬØ©": 6544,
      "ŃØ¯Ø©": 6545,
      "ĠÙĪØ§ÙĦØªÙĨÙħÙĬØ©": 6546,
      "ĠØ§ÙĦØªÙĥÙĬÙģ": 6547,
      "ĠØ¨Ø§Ø³ØªØ«ÙĨØ§Ø¡": 6548,
      "ÙĤØ·": 6549,
      "ĠÙĪØ§ÙĦØŃÙĬÙĪØ§ÙĨØ§Øª": 6550,
      "ĠØ§ÙĦØ®Ø§Ùħ": 6551,
      "ĠØ§ÙĦØ£Ø¹ÙĦÙī": 6552,
      "ĠÙĪØ§ÙĦØ§ØŃ": 6553,
      "ĠÙĤØ¶Ø§ÙĬØ§": 6554,
      "ĠØ§ÙĦØªØ¯Ø®ÙĬÙĨ": 6555,
      "ÙĪÙħÙĪ": 6556,
      "ÙĦØ§Ø¦ØªÙħØ§ÙĨ": 6557,
      "§ÙĦØ§Ø¦ØªÙħØ§ÙĨ": 6558,
      "Ø§ÙģØ¸Ø©": 6559,
      "all": 6560,
      "ĠØ§ÙĦØ¶ÙĪØ": 6561,
      "ĠÙħØªØ¹Ø¯Ø¯": 6562,
      "ªÙĦØ§Ø²ÙħØ©": 6563,
      "ÙĨØ§Ø¯": 6564,
      "ĠÙħØ§Ø¯Ø©": 6565,
      "ĠØ§ÙĦÙħÙĪØ±": 6566,
      "ĠØ§ÙĦØ±Ø§Ø¯": 6567,
      "ĨØ§Ø¬": 6568,
      "ĠØ£Ø·ÙģØ§ÙĦ": 6569,
      "ÙĨØ«": 6570,
      "ĠØ§ÙĦØ¯ÙĪØ§Ø¡": 6571,
      "ÙĪÙĦÙĪØ¬": 6572,
      "ĠØ«Ø§Ø¨ØªØ©": 6573,
      "ĠØ§ÙĦÙħØ²ÙħÙĨ": 6574,
      "ĠØ§ÙĦÙħØŃÙĬØ·Ø©": 6575,
      "ĠØ¹ÙĤØ¯": 6576,
      "ĠØ§Ø³ØªØ¹Ø§Ø¯Ø©": 6577,
      "ĠØ´ÙĬØ¦Ø§": 6578,
      "ĠØ§ÙĦØ£Ø²Ø±ÙĤ": 6579,
      "ĠØ§ÙĦØ¸ÙĦ": 6580,
      "ĠÙĦØ¬Ø¹ÙĦ": 6581,
      "ĠØ§ÙĦØ£Ø·Ø¨Ø§Ø¡": 6582,
      "Ġ31": 6583,
      "ĠØ¬Ø§Ù": 6584,
      "ÙĦØ±ÙĪØ¨": 6585,
      "ĠÙĩÙĨ": 6586,
      "ĠØ§Ø´": 6587,
      "ĠÙĪØ£Ø®": 6588,
      "ÙĪØ§ÙĨÙĬ": 6589,
      "§ÙĦØ±ÙĪØ¨": 6590,
      "ĠÙĪØªÙĤÙĦÙĬÙĦ": 6591,
      "ĠÙĪÙĬØ¬Ø¨": 6592,
      "ĠÙĦØ£ØºØ±Ø§Ø¶": 6593,
      "ĠØ¥Ø¸ÙĩØ§Ø±": 6594,
      "ĠÙĬÙħØªÙĦÙĥ": 6595,
      "ĠØ§ÙĦÙĪÙĦØ§ÙĬØ©": 6596,
      "ĠØ§ÙĦØ¬ÙĨØ³Ù": 6597,
      "ĠØ§ÙĦØ¬ÙĨØ³ÙĬ": 6598,
      "Ø±Ø§Ø¦Ø·": 6599,
      "ĠØ§ÙĦØ¥Ø¶Ø§ÙģÙĬØ©": 6600,
      "ĠØ£ÙĨØ´Ø·Ø©": 6601,
      "ĠØ§ÙĦØ§Ø³ØªØ´": 6602,
      "AN": 6603,
      "ĠØ·Ø¨ÙĬØ¹Ø©": 6604,
      "Ø§Ø«Ø±": 6605,
      "ĠÙĪØ§Ø±": 6606,
      "ĠÙħØ¶Ø§Ø¹": 6607,
      "Ø±ØªÙĩØ§": 6608,
      "ĠØ§ÙĦØ¥Ø¨ÙĦØ§Øº": 6609,
      "ate": 6610,
      "ªÙģÙĬØ¯": 6611,
      "ĠÙħØ®ØªØ¨Ø±": 6612,
      "ĠÙĤÙĬÙħ": 6613,
      "ĠØ§ÙĦÙĥÙģØ§ÙĬØ©": 6614,
      "ĠØ£Ø³ÙĪØ£": 6615,
      "ÙħÙĬØ«": 6616,
      "ĠØ§ÙĦØ£ÙħØ§Ùħ": 6617,
      "£ÙĥØ¯": 6618,
      "ĠÙĪÙħÙĪ": 6619,
      "ĠÙĬÙĪÙħÙ": 6620,
      "ĠØ¨Ø¹Ø¶ÙĩÙħ": 6621,
      "ĠÙĪØ¨Ø¹Ø¯": 6622,
      "ĠØ§ÙĦØ´Ø±ÙĤÙĬØ©": 6623,
      "ªØ§Øª": 6624,
      "ĠØ§ÙĦØŃØ¶Ø±ÙĬØ©": 6625,
      "ĨØ´Ø±": 6626,
      "ÙģÙĦØ§": 6627,
      "ÙĬØºØ": 6628,
      "ĠØ§ÙĦØ·Ø§Ø¦Ø±Ø©": 6629,
      "ĠØ³ÙĬÙĨ": 6630,
      "ĠØ§ÙĦØ®Ø§ÙħØ³": 6631,
      "ĠØ§ÙĦØ¹Ø¸ÙĬÙħ": 6632,
      "ĠØ¹ÙħÙĪÙħØ§": 6633,
      "ĠØ§ÙĦØ³ÙĪÙģ": 6634,
      "ĠØ§ÙĦØ¨Ø±ÙĪØªÙĬÙĨØ§Øª": 6635,
      "ĠØ§ÙĦØªÙĤØ§Ø·": 6636,
      "ĠØ§ÙĦØ§Ø¦ØªÙħØ§ÙĨ": 6637,
      "ĠØ§ÙĦÙħØ³Ø§ÙģØ©": 6638,
      "ĠØ³ØªÙĤ": 6639,
      "ĠØ§ÙĦÙħØµØ§Ø¯Ø±": 6640,
      "ĠØ§ÙĦÙĥÙĦØ¨": 6641,
      "ĠØ§ÙĦÙħÙĬØ¯": 6642,
      "ÙĬÙģØ": 6643,
      "ĠØ£Ø¹Ø±Ùģ": 6644,
      "ĠÙĦØ¯Ø±Ø§Ø³Ø©": 6645,
      "ĠØ¬Ø§Ùĥ": 6646,
      "ĠÙĤØ¯Ø±Ø§Øª": 6647,
      "ĠØ§ÙĦÙĨØµÙĪØµ": 6648,
      "ĠØŃØµÙĦØ": 6649,
      "ĠØŃØµÙĦØª": 6650,
      "ÙĨØ§Ø¬": 6651,
      "ĠØ§ÙĦÙħØ¹Ø¯ÙĦØ©": 6652,
      "ĠØ§ÙĦØ®Ø¨Ø²": 6653,
      "01": 6654,
      "ĪÙĦØ§ÙĬØ§Øª": 6655,
      "ĠÙħØªÙĤ": 6656,
      "ĠØ§ÙĦØ±ÙĪØ¨": 6657,
      "ĠÙĪÙĦÙĬØ§Ù": 6658,
      "Ġ2003": 6659,
      "ĠÙĦØªÙĨÙģÙĬØ°": 6660,
      "Ø¨ÙĪÙĥ": 6661,
      "ÙĪÙħÙĥ": 6662,
      "ĠØ´Ø±ÙĬØ·": 6663,
      "ĠØ¢Ø®Ø±ÙĬÙĨ": 6664,
      "ĠØ§ÙĦÙħÙĨØ§Ø¹ÙĬ": 6665,
      "ĠÙĪÙĦÙĬØ§Ùħ": 6666,
      "ØªÙģØ§": 6667,
      "ĠØªÙĪÙĤÙģ": 6668,
      "ĠØ§Ø³ØªÙħØ±Ø§Ø±": 6669,
      "Ø§Ø«ÙĦ": 6670,
      "ĠØ§ÙĦØ£ÙĦÙħØ§ÙĨÙĬØ©": 6671,
      "ĠÙħØ¹Ø±Ùģ": 6672,
      "ĠØªØ±Ø¯Ø¯": 6673,
      "ĠÙĨØ²": 6674,
      "io": 6675,
      "ĠØ§ÙĦØ¨ÙĬÙĪÙĦÙĪØ¬ÙĬØ©": 6676,
      "ĠÙħÙĦØ§ÙĬÙĬÙĨ": 6677,
      "ĠØ§ÙĦØ°Ùĩ": 6678,
      "ĠØ§ÙĦØ¹ÙĤØ¯": 6679,
      "ĠØ§ÙĦØ¬ÙħØ¹ÙĬØ©": 6680,
      "ĠØ±Ùĥ": 6681,
      "ĠØ³ÙĬØ§ÙĤ": 6682,
      "Ø·Ø¡": 6683,
      "ĠÙĦÙĦØªØ¹ÙĦÙħ": 6684,
      "ĠÙĪØ§ÙĦÙħØ´": 6685,
      "ĠØ§ÙĦÙħÙĤØ¨": 6686,
      "ĠØ³Ø¨Ø¹Ø©": 6687,
      "ĠÙĪØªØŃÙĦÙĬÙĦ": 6688,
      "Ø¬ÙĨ": 6689,
      "ĠØ§ÙĦØºØ¯Ø©": 6690,
      "ĠÙĪØ§ÙĦØ¨Ø±": 6691,
      "ĠØ§ÙĦØ£Ø®Ø¶Ø±": 6692,
      "ÙĪØ¹ÙĬØ©": 6693,
      "ĠØ¢ÙħÙĨ": 6694,
      "ĠÙĦÙĦØªÙĥ": 6695,
      "ES": 6696,
      "Ø§Ø¬Ø¦": 6697,
      "ĠØ§ÙħØªØµØ§Øµ": 6698,
      "ĠØŃØ±ÙĤ": 6699,
      "ĠØ§ÙĦØ£ØµÙĦ": 6700,
      "ĠÙĦÙĦØ£Ø´Ø®Ø§Øµ": 6701,
      "ĠÙģØ§Ø¦Ø¯Ø©": 6702,
      "ÙħÙĨØ": 6703,
      "ĠØ§ÙĦØªØ¹Ø¯ÙĬÙĨ": 6704,
      "ĠØ§ÙĦÙħØ«Ø§ÙĦÙĬ": 6705,
      "ĠØ§ÙĦØ¬ÙħÙĦØ©": 6706,
      "ÙĤØ§ÙĬØ§": 6707,
      "ĠØ§ÙĦØ®ØµÙĪØµ": 6708,
      "ĠØ£ÙĤØ¯Ùħ": 6709,
      "44": 6710,
      "ĠØ§ÙĦÙħÙĦØ§ØŃ": 6711,
      "ÙĪØªÙĪÙĨ": 6712,
      "ĠÙĪÙħÙĥ": 6713,
      "Ø¨Ø¹Ø¯": 6714,
      "Ġ2004": 6715,
      "ĠØ¹Ø´Ø±Ø©": 6716,
      "ĠØ§ÙĦØ¥Ø³Ø¨Ø§ÙĨÙĬØ©": 6717,
      "ĠØ§ÙĦÙħØ¨Ø§Ø´Ø±Ø©": 6718,
      "ĨÙĩÙ": 6719,
      "ĠØŃÙĬØ§ØªÙĩ": 6720,
      "ĠØ§ÙĦÙħØ§ÙĦÙĬ": 6721,
      "ĠØªÙĤØ§Ø±ÙĬØ±": 6722,
      "Ø«Ø©": 6723,
      "ĠØ³ØªÙĬÙģ": 6724,
      "ĠØ·Ø¨ÙĬØ©": 6725,
      "ĠØ¥ØŃØµ": 6726,
      "ĠØ¨Ø§ÙĦÙĦØºØ©": 6727,
      "ĠÙĪØ§ÙĦÙħØ±Ø¶": 6728,
      "ÙĨØ¹Ø©": 6729,
      "Ø¶Ø§Ø¡Ø©": 6730,
      "ÙĦÙĦØ¬": 6731,
      "ĠÙħÙĪØ§Ø¶ÙĬØ¹": 6732,
      "ĠÙĦÙĦØ°": 6733,
      "ĠØ§ÙĦØ§Ø®ØªØ¨Ø§Ø±Ø§Øª": 6734,
      "ĠØŃÙĤÙĬÙĤÙĬØ©": 6735,
      "ĠÙĦÙħØ¹Ø§ÙĦØ¬Ø©": 6736,
      "ĠØ§ÙĦÙĩØ¬Ø±Ø©": 6737,
      "ĠØ§ÙĦÙĥÙĬÙħÙĬØ§Ø¡": 6738,
      "§ÙĦÙĦØ¬": 6739,
      "ĠÙĨØ§Ø¬": 6740,
      "ĠÙĨØŃØªØ§Ø¬": 6741,
      "ÙĬØ§ÙĦÙĬØ©": 6742,
      "ØŃÙĬØ©": 6743,
      "ªØ²": 6744,
      "Ġ2022": 6745,
      "ĠØ§ÙĦØ¥Ø´Ø¹Ø§Ø¹": 6746,
      "ĠØ§ÙĦØ£ÙĦÙĬÙģØ©": 6747,
      "ÙĪÙĨÙĬ": 6748,
      "ÙĩÙĪØ©": 6749,
      "ĠØ§ÙĦØ¬Ø³ÙĬÙħØ§Øª": 6750,
      "ĠØ§ÙĦØ£Ø±Ø¬ØŃ": 6751,
      "ĠØ§ÙĦØªÙĥÙĨÙĪÙĦÙĪØ¬": 6752,
      "ÙģÙĪØ±Ø¯": 6753,
      "ĠØ§ÙĦÙħÙĤØ§ÙĪÙħØ©": 6754,
      "ĠØ¨ØªØµ": 6755,
      "ĠÙĨÙĪØ¹ÙĬØ©": 6756,
      "ĠÙĤÙĦÙĤ": 6757,
      "ĠÙħØ¦Ø§Øª": 6758,
      "ĠØ¨ØŃØ«ÙĬØ©": 6759,
      "ĠÙĬÙĦØ§ØŃØ¸": 6760,
      "ĠØ§ÙĦØ£Ø´ÙĥØ§ÙĦ": 6761,
      "ÙĬØ·Ø±": 6762,
      "ĠØ§ÙĦÙĦØ¬": 6763,
      "Ø±ÙĪØ¬ÙĬÙĨ": 6764,
      "ĠØ¨Ø§ÙĦØº": 6765,
      "ĠØªÙħØ«ÙĬÙĦ": 6766,
      "ĠØµÙģØŃØ§Øª": 6767,
      "ĠØ§ÙĦØ¨ÙĦØ§Ø³ØªÙĬÙĥ": 6768,
      "ĠØ§ÙĦÙħÙħØª": 6769,
      "ĠØ§ÙĦØ«Ø¯ÙĬ": 6770,
      "ĠÙĥØ«ÙĬØ±Ø": 6771,
      "ĠÙĥØ«ÙĬØ±Ø§": 6772,
      "ĠØ§ÙĦØ¥ÙĬØ¬Ø§Ø¨ÙĬØ©": 6773,
      "ĠØ§ÙĦØ³ÙĬØ§Ø³Ù": 6774,
      "ĠØ§ÙĦØ³ÙĬØ§Ø³ÙĬ": 6775,
      "ĠØ§ÙĦØ§Øª": 6776,
      "ĠÙħÙĨÙģØµÙĦØ©": 6777,
      "ÙĬÙģØ§": 6778,
      "ĠØªØ¯Ø§Ø¨ÙĬØ±": 6779,
      "ÙĤÙĬÙĦØ©": 6780,
      "OS": 6781,
      "ĠÙĦÙĦÙĩ": 6782,
      "²Ø§ÙĬØ¯Ø©": 6783,
      "ĠØ§ÙĦØ§ÙģØªØ±": 6784,
      "ĠØ¹Ø¯ÙĪÙī": 6785,
      "ĠÙĦÙĦØ¨ØŃØ«": 6786,
      "ĠÙħÙĦØŃÙĪØ¸": 6787,
      "Ø§ÙħÙĦØ§Øª": 6788,
      "ĠØ§ÙĦØ¬ÙĩØ¯": 6789,
      "ĠØ§Ø³ØªØ®Ø±Ø§Ø¬": 6790,
      "ĠØ§ÙĦØ·Ø¨ÙĬ": 6791,
      "ĠØ§ÙĦØŃÙĦ": 6792,
      "ĠØ¨ØªØ¬": 6793,
      "Ø±Ø¨Ø·": 6794,
      "ÙĨÙĩÙ": 6795,
      "ÙĦØ³Ù": 6796,
      "ØªÙĦØ§Ùģ": 6797,
      "Ø§ÙĦØ¨Ø": 6798,
      "ÙĬØ³ÙĪÙĨ": 6799,
      "Ø§ÙĨØ³": 6800,
      "ĠØ§Ø¹ØªÙħØ§Ø¯": 6801,
      "ĠØ§ÙĦÙħØ¹ÙĨÙī": 6802,
      "ĠÙĪØ§ÙĦØ³ÙĬØ§Ø³": 6803,
      "ÙĥØªÙĪ": 6804,
      "ĠØ¨Ø¶Ø¹": 6805,
      "ĠØ¥ÙĬØ¬Ø§Ø¨ÙĬ": 6806,
      "ĠÙħØ¹Ø¸": 6807,
      "ĠØªÙĬ": 6808,
      "ØªÙģÙĥÙĬØ±": 6809,
      "100": 6810,
      "ĠØ±ÙĪÙħØ§": 6811,
      "ĠØ£Ø±ÙĤØ§Ùħ": 6812,
      "ĠØ§ÙĦØªØ£ÙħÙĬÙĨ": 6813,
      "ĠØªÙĪÙĦÙĬØ¯": 6814,
      "ĠÙħÙĦØ®Øµ": 6815,
      "ĠØ§ÙĦØ¶Ø±Ø§Ø¦Ø¨": 6816,
      "ĬØ¯Ø±Ø§Øª": 6817,
      "ĠØ¥ÙħÙĥØ§ÙĨØ§Øª": 6818,
      "ĠØ£ÙĪÙĤØ§Øª": 6819,
      "ĠØ¸ÙĩØ±": 6820,
      "ĠØ§ÙĦØªÙĤÙĦÙĬØ¯ÙĬ": 6821,
      "ĠØ§ÙĦÙħØ®Ø·Ø·": 6822,
      "ĠØ§ÙĦÙĨØ¬Ø§ØŃ": 6823,
      "ĠØ¨ÙĤÙĪØ©": 6824,
      "ÙĩØ§Ø±": 6825,
      "ĠØ§ÙĦÙĨØ¸Ù": 6826,
      "ØªÙħØ§Ø¯": 6827,
      "ĠØ§ÙĦÙĨØ¸Ùħ": 6828,
      "II": 6829,
      "ĠØ§ÙĦÙĥÙĪÙĥØ¨": 6830,
      "ĠØ§ÙĦØªØŃØªÙĬØ©": 6831,
      "§ÙĦØ§Ø«": 6832,
      "Ġand": 6833,
      "ĠØ§ÙĦØ¬ÙĨÙĪØ¨ÙĬ": 6834,
      "ĠÙģÙĨ": 6835,
      "Ø§ÙĤÙħ": 6836,
      "ĠØ§ÙĦÙħØ¯ÙĨÙĬØ©": 6837,
      "ĠÙĬØ¹Ø±ÙģÙĪÙĨ": 6838,
      "Ø¨Ø¹Ø©": 6839,
      "ive": 6840,
      "ĠØ§ÙĦØ§Ø«": 6841,
      "ÙĬØ³Ø": 6842,
      "Ø§Ø¦Ùĥ": 6843,
      "ĠØ§ÙĦÙĩØ§Ø¯Ø¦": 6844,
      "IN": 6845,
      "ÙĬÙģÙ": 6846,
      "ÙĦØ§ÙĦØªÙĩ": 6847,
      "ass": 6848,
      "ĠØ£Ø²": 6849,
      "ĠØ§ÙĦÙħÙħÙĬØ²Ø©": 6850,
      "ĠØ¹Ø¸": 6851,
      "ÙĪÙģØ©": 6852,
      "ĠÙĦØ£ÙĪÙĦØ¦Ùĥ": 6853,
      "ĠØ§ÙĦÙĥÙĦ": 6854,
      "ĠÙĦØ¥Ø¯Ø§Ø±Ø©": 6855,
      "Ø§ÙĦÙħØ¹": 6856,
      "Ø±ØºÙĪØ¨": 6857,
      "ros": 6858,
      "ĠÙĦÙħØ²ÙĬØ¯": 6859,
      "ĠÙĦÙħØŃ": 6860,
      "ÙħÙĪÙĦ": 6861,
      "ĠØ§ÙĦØªÙĨØ¸ÙĬÙħ": 6862,
      "ĠØ§ÙĦÙĨÙĤØ¯ÙĬ": 6863,
      "ĠØ¯ÙĪØ±Ø§Øª": 6864,
      "ĠØ¬Ø²ÙĬØ¦Ø§Øª": 6865,
      "ĠØ³ÙħØ¹": 6866,
      "ĠØ§ÙĦÙħÙĦÙĪØ«": 6867,
      "ĠØ¯ÙĪ": 6868,
      "ĠØ§ÙĦÙħØ§Ø¯ÙĬØ©": 6869,
      "ĠÙĬÙĤØ¯": 6870,
      "Ø±Ø¤ÙĬØ©": 6871,
      "ĠThe": 6872,
      "ĠÙħØ«Ø§ÙĦÙĬ": 6873,
      "ĠØ£Ø¹ÙĦÙĨ": 6874,
      "ĠØ§ÙĦØ³ÙģÙĨ": 6875,
      "ÙģÙĦØ§Ù": 6876,
      "ÙĥØªÙĪØ±Ø§Ùĩ": 6877,
      "ort": 6878,
      "ĠØ§ÙĦØ¹ÙħÙĪØ¯": 6879,
      "ans": 6880,
      "AM": 6881,
      "ii": 6882,
      "ØªÙĦÙĪØ«": 6883,
      "ĠÙĦÙĦØ¯Ù": 6884,
      "ĠÙĪØ£Ø¹": 6885,
      "ĠÙģØ§ÙĨ": 6886,
      "ĠØ§ÙĦØ·ÙĪÙĬÙĦØ©": 6887,
      "ĠÙħØ§Ø³": 6888,
      "ĠØ§ÙĦØªÙĪØ§ÙĦÙĬ": 6889,
      "ĠÙħØªØŃÙģ": 6890,
      "ĠØ§ÙĦØ¥ÙĨØ³Ø§ÙĨÙĬØ©": 6891,
      "ĠØ§ÙĦÙĩÙĨØ¯ÙĬ": 6892,
      "ĠØ¬ÙĬØ¯Ø": 6893,
      "ĠØ¥Ø³Ø±Ø§Ø¦ÙĬÙĦ": 6894,
      "ĠØ¨Ø·Ø±ÙĤ": 6895,
      "ĠØ¬ÙĬØ¯Ø§": 6896,
      "ĠØ§ÙĦØ¹ÙĪØ¯Ø©": 6897,
      "Ø¨ÙĪÙĩÙ": 6898,
      "ĪÙĬØ©": 6899,
      "ĠØ§ÙĦØ¥Ø´Ø§Ø±Ø§Øª": 6900,
      "Ø³ØªØ§ÙĨ": 6901,
      "ĠØ§ÙĦØ£Ø³ÙĦØŃØ©": 6902,
      "ĠÙħÙĤØ¯": 6903,
      "ĠØŃÙģØ±Ø©": 6904,
      "ĠÙħØ¨Ø§Ø´Ø±": 6905,
      "ĠØ§ÙĦØ¨Ø§Ø±Ø¯Ø©": 6906,
      "ĠØ§ÙĦØ¬ÙĬÙĨ": 6907,
      "ĠÙħÙĪØ³Ù": 6908,
      "ØªÙĦØ§ÙĦ": 6909,
      "ĠØ±ÙĪØŃ": 6910,
      "ªØŃØ": 6911,
      "ĠØªÙĤØ¯Ù": 6912,
      "ÙģÙĦØ§Ùħ": 6913,
      "ĠSp": 6914,
      "ĠØ§ÙĨØ®ÙģØ¶": 6915,
      "ĠSch": 6916,
      "ĠÙĦÙĦØ³Ù": 6917,
      "ĠØ«ÙħØ§ÙĨÙĬØ©": 6918,
      "ºØ": 6919,
      "ĠØŃØ¬Ø±": 6920,
      "ĠÙģØ¦": 6921,
      "ĠØ§ÙĦÙĤÙĦÙĬÙĦ": 6922,
      "ĠØ§ÙĦØ¹ÙĬÙĨØ§Øª": 6923,
      "ĠØ¨ÙĨØ¬": 6924,
      "ĠØ¹Ø¯ÙĬØ¯Ø©": 6925,
      "ĨØ¸Ø§Ùħ": 6926,
      "ĠØ¨Ø´Ø¯Ø©": 6927,
      "ĠØ¨ÙĬÙĥ": 6928,
      "ĠØªÙĥØ³Ø§Ø³": 6929,
      "ĠØ§ÙĦÙħØ³ÙĬØŃÙĬØ©": 6930,
      "ĠØ§ÙĦÙĥÙĬÙħÙĬØ§Ø¦ÙĬ": 6931,
      "ØªØ¶": 6932,
      "ĠØ§ÙĦØ³ÙħØ§ØŃ": 6933,
      "ĠØ£ÙĤÙĪÙī": 6934,
      "§ÙĦØ§ÙĦØªÙĩ": 6935,
      "ĠØ§ÙĦØ£Ø´Ø¹Ø©": 6936,
      "ĠØªØ¬ÙħØ¹": 6937,
      "Ø±Ø§ÙĦÙĬ": 6938,
      "ÙĬØºØ§": 6939,
      "ĠØ¹ÙĦÙĪÙħ": 6940,
      "ØªÙħØ¯Ø©": 6941,
      "ĠØ³Ø±ÙĬØ¹": 6942,
      "ĠÙħØ±Ø¶Ùī": 6943,
      "ĠÙħØ¹Ø±ÙĥØ©": 6944,
      "ĬØ²": 6945,
      "ĠØªØ¶ÙħÙĬÙĨ": 6946,
      "ĠØ¨Ø·Ø§ÙĤØ§Øª": 6947,
      "ªÙĪÙĨ": 6948,
      "ØªÙĬØ±": 6949,
      "ØªÙĤØ§Ø¯": 6950,
      "ÙħØªÙĩ": 6951,
      "ĠÙħÙĥØªØ¨Ø©": 6952,
      "Ø§ÙĦØ¨Ø§": 6953,
      "ºØ§": 6954,
      "ĠAr": 6955,
      "ĠØ§ÙĦØ³ÙĪØ§Ø¦ÙĦ": 6956,
      "ĠØªØ±Ø¬": 6957,
      "ĠØ³ÙĬØ§Ø±Ø©": 6958,
      "ĠØ§ÙĦØ®Ø¶Ø±ÙĪØ§Øª": 6959,
      "ĠØ§ÙĦØ±Ø¨": 6960,
      "ĠØ§ÙĦÙģÙĬÙĦÙħ": 6961,
      "ĠØªÙĪÙĤ": 6962,
      "76": 6963,
      "ÙĬØªØ§ÙĨ": 6964,
      "ĠØ¨Ø£ÙĥÙħÙĦÙĩØ§": 6965,
      "ĠØ§ÙĦØ´Ø¯ÙĬØ¯": 6966,
      "ĠØ¯ÙĬÙģÙĬØ¯": 6967,
      "ĠØ¯Ø±Ø³": 6968,
      "ĠØ±ÙĬØªØ´": 6969,
      "ĠÙĥØŃ": 6970,
      "ĠØ§ÙĦÙĩØ§ÙħØ©": 6971,
      "ĠØ§ÙĦØ¹Ø§ÙħÙĦØ©": 6972,
      "ĠØ§ÙĦÙĪØ§ØŃ": 6973,
      "ĠØŃÙĬØ§ØªÙĥ": 6974,
      "ĠØ§ÙĦØ§ÙĦØªÙĩ": 6975,
      "ÙĬÙĤÙī": 6976,
      "Ø§Ø¦ÙĨ": 6977,
      "ĠØ§Ø³Øª": 6978,
      "ĠØ¨Ø§Øª": 6979,
      "Ġ1000": 6980,
      "ĠØ§ÙĦÙħÙĨØ§": 6981,
      "ÙĬØªÙĬÙĨ": 6982,
      "ĠØ®ÙģÙĬÙģØ©": 6983,
      "ĠØ¬ÙĨØ³": 6984,
      "ĠØŃÙĦÙĤØ©": 6985,
      "Ø®Ø±Ø©": 6986,
      "ĠØ£ÙħØ§": 6987,
      "Ø¹ÙĦÙĩØ§": 6988,
      "ÙĦÙĬÙĪÙĨ": 6989,
      "ĠØ§ÙĦØ³ÙħØ¹": 6990,
      "Ø¯ÙĬØ¯Ø§Øª": 6991,
      "ĪÙĤØ¹Ø©": 6992,
      "Ġ500": 6993,
      "ĠÙħØ§Ù": 6994,
      "ĠØ§ÙĨØ¨Ø¹Ø§Ø«Ø§Øª": 6995,
      "ĠØ§ÙĦÙĥØ«": 6996,
      "ĠØ´Ø§Ø±Ùĥ": 6997,
      "ĠÙĥØ§Ø¨": 6998,
      "ect": 6999,
      "ĠØ§ÙĦØ®Ø¨Ø±Ø©": 7000,
      "ªÙħÙĪÙĬÙĦ": 7001,
      "88": 7002,
      "ĠEx": 7003,
      "ĠØ±ÙĪØ³ÙĬØ§": 7004,
      "ĠØ´ÙĩØ§Ø¯Ø©": 7005,
      "ĠÙĪÙĦÙĥÙĨÙĩØ§": 7006,
      "ĠØªØ³Ø§Ø¹Ø¯Ùĥ": 7007,
      "ÙĦÙħØ§Ù": 7008,
      "ĠØ¹ÙĦÙĬÙĨØ§": 7009,
      "ĠØ¥ØºÙĦØ§ÙĤ": 7010,
      "ĠÙĦÙĦØ§ØŃ": 7011,
      "ĠØ§ÙĦØ´Ø§Ù": 7012,
      "ĠØ§ÙĦØŃØ¸": 7013,
      "Ø¨ÙĪØ¯ÙĬØ©": 7014,
      "ĠØ§ÙĦØ£Ø¨ØŃØ§Ø«": 7015,
      "ĠØ°ÙĩØ¨": 7016,
      "Ø§Ø³Ø": 7017,
      "Ø±ÙĪØ±Ø©": 7018,
      "ĠØ§ÙĦØ¹Ø³ÙĥØ±ÙĬØ©": 7019,
      "ĠØ§ÙĦÙĬÙĪÙĨØ§ÙĨÙĬØ©": 7020,
      "ĠØ¢ÙĦØ§Ùģ": 7021,
      "ĠØ§ÙĦÙħØ³ØªÙĤØ¨ÙĦÙĬØ©": 7022,
      "§ÙģØ°Ø©": 7023,
      "ear": 7024,
      "ĠØªØ¹ÙĦÙĬÙħÙĬØ©": 7025,
      "ĪØ§Ø¦ÙĬ": 7026,
      "ĠØ§ÙĦØ´ÙħØ§ÙĦ": 7027,
      "Ø§Ø¶Ø±": 7028,
      "ÙĦÙħØ§ÙĨ": 7029,
      "31": 7030,
      "ĠØ§Ø¨ÙĨ": 7031,
      "ĠÙħÙħØ§Ø±Ø³Ø§Øª": 7032,
      "ĠØŃØ¶": 7033,
      "ĠÙĬØ±ØªØ¨Ø·": 7034,
      "ĠØªÙĨØ§": 7035,
      "ah": 7036,
      "ĠØ¨Ø§ÙĦØªØ¹": 7037,
      "ĠØ²Ø§": 7038,
      "ĠØ§ÙĦÙħÙĬØ²Ø§Øª": 7039,
      "ĠØªØªØŃØ±Ùĥ": 7040,
      "ÙħØ·Ø§Ø±": 7041,
      "ĠØ§ÙĦØ¨Ø³ÙĬØ·Ø©": 7042,
      "ĠÙĪØ¥Ø¯Ø§Ø±Ø©": 7043,
      "ĠØ´Ø¯ÙĬØ¯Ø©": 7044,
      "ĠÙħÙĨØ²ÙĦÙĥ": 7045,
      "ĠØ§ÙĦØ¯ÙĬÙħÙĤØ±Ø§Ø·ÙĬØ©": 7046,
      "ĠØ§Ø±ØªØ¨Ø§Ø·": 7047,
      "ĠØ®Ø¨Ø±Ø§Ø¡": 7048,
      "ĠØ§ÙĦØªÙĤØ±ÙĬØ±": 7049,
      "ĠÙĨØ³Ø®": 7050,
      "ĠØ¥ÙĤ": 7051,
      "·Ø¨ÙĤ": 7052,
      "ĠØ´Ø§ÙħÙĦ": 7053,
      "ĠØªØºÙĬØ±Ø§Øª": 7054,
      "ĠØ§ÙĦØ¶Ø¹": 7055,
      "ĠØ§ÙĦØ³ÙĨÙĬÙĨ": 7056,
      "ÙĦØªÙĦÙĪØ«": 7057,
      "Ø¨ÙĪÙĩÙĬØ¯Ø±Ø§Øª": 7058,
      "ĠØªØŃØ¯ÙĬ": 7059,
      "ĠØ§ÙĦØ¹ØµÙĪØ±": 7060,
      "ĠØ§ÙĦØ³Ø§Ø®": 7061,
      "ĥÙħÙĦØ§Øª": 7062,
      "Ø§ÙĤØªØµ": 7063,
      "§ÙĦØªÙĦÙĪØ«": 7064,
      "ĠÙĪØ§ÙĦØ®Ø¶": 7065,
      "ĠØ·Ø¨ÙĤ": 7066,
      "Ø§Ø¦Ø²": 7067,
      "ĠÙĬÙĤØ±Ø¨": 7068,
      "ET": 7069,
      "ĠØ«Ø§Ø¨Øª": 7070,
      "ĠÙĦØ°Ø§": 7071,
      "ĠØ¸ÙĩØ±Øª": 7072,
      "ÙĦÙĨØª": 7073,
      "ĠÙĬÙģØªØ±Ø¶": 7074,
      "ĠØ§ÙĦØ£Ø¹ØµØ§Ø¨": 7075,
      "ĠÙĬÙĩØ¯Ùģ": 7076,
      "46": 7077,
      "ĠØ§ÙĦØ²ÙĪØ§Ø¬": 7078,
      "ĠÙĥÙħÙĬØ§Øª": 7079,
      "ĠÙĬØ¹ØªÙĤØ¯ÙĪÙĨ": 7080,
      "ĠØ¨Ø§ÙĦØ¯": 7081,
      "ĠØ§ÙĦÙĨØ§": 7082,
      "ĠØ§ÙĦÙħØ¬ÙĦØ³": 7083,
      "ĠØ§ÙĦØ³ÙĬØ§Ø±Ø©": 7084,
      "ĠØ§ÙĦØ¥Ø¬ÙħØ§ÙĦÙĬ": 7085,
      "ĬØ±Ùī": 7086,
      "ÙĬØ±Ùī": 7087,
      "ae": 7088,
      "ĨØ§Ø²": 7089,
      "ĠØ§ÙĦØ³Ø§ØŃÙĦ": 7090,
      "Ø±Ø·": 7091,
      "ªÙħØ«ÙĬÙĦ": 7092,
      "¶ÙĬØŃ": 7093,
      "ĠØŃÙģØ±": 7094,
      "ÙĦÙĤØ§Ø¡": 7095,
      "Ø¹ÙĪÙĨ": 7096,
      "ĠØ·ÙĨ": 7097,
      "ĠØ¹ÙħÙĤ": 7098,
      "ĠØ§ÙĦØ³ÙĦØ§Ù": 7099,
      "ĠØ§ÙĦÙħÙĨØ²ÙĦÙĬ": 7100,
      "ĠØ§ÙĦØ£ÙĪÙĤØ§Øª": 7101,
      "Ø´Ø": 7102,
      "ĠØ§ÙĦØ¹Ø¯Ø¯": 7103,
      "ĠÙĬØ¶Ù": 7104,
      "ÙĥÙĪÙĥ": 7105,
      "ĠØŃØ³ÙĨØ§": 7106,
      "ĠÙĬÙĥØªØ¨": 7107,
      "ĠÙĪØ§ÙĦÙħØŃ": 7108,
      "ĠØ§ÙĦØ±ÙĪÙħØ§ÙĨÙĬØ©": 7109,
      "ĠØ§ÙĦÙħØ±Ø§ÙĩÙĤÙĬÙĨ": 7110,
      "Ø±Ø¹Ø§Øª": 7111,
      "ªØ¯ÙģÙĤ": 7112,
      "Ø¬ÙħØ©": 7113,
      "ĠØ§ÙĦØ³ÙĦØ§Ùħ": 7114,
      "ĠØ§ÙĦÙĦØŃÙĪÙħ": 7115,
      "ĠØ§ÙĦØªÙĦÙĪØ«": 7116,
      "ĠØ§ÙĦÙĪØ±Ø§Ø«ÙĬØ©": 7117,
      "ĠØŃØ±Ùģ": 7118,
      "ĠØ§ÙĦÙģÙĤØ±": 7119,
      "§ÙħØª": 7120,
      "§ÙĨÙĩÙ": 7121,
      "ĠØ§ÙĦØ¬ÙĨ": 7122,
      "ĠØ§ÙĦÙħÙĥØªØ¨Ø©": 7123,
      "ĠÙĦÙĨÙģØ³": 7124,
      "ĠØ§ÙĦÙĤØµÙĬØ±Ø©": 7125,
      "ĠØ³ÙĬÙĤ": 7126,
      "ĠØ§ÙĦØµØºØ§Ø±": 7127,
      "int": 7128,
      "Ø¶Ø¨": 7129,
      "ĠÙĨØµØ§Ø¦ØŃ": 7130,
      "ĠØ§ÙĦÙħØ±Ø¡": 7131,
      "ĠÙħÙĪØ¬ÙĪØ¯": 7132,
      "ĠØ¬Ùħ": 7133,
      "ĠØ§ÙĦÙħØ¶Ø§Ø¯Ø§Øª": 7134,
      "Ø¹ÙĦØª": 7135,
      "Ø§Ø¯ÙĪ": 7136,
      "ĠØ§ÙĦØ´Ø±Ø·Ø©": 7137,
      "ĠØ§ÙĦÙħØ¬Ø§ÙĨÙĬØ©": 7138,
      "ÙĪØ³Ù": 7139,
      "ĠØ§ÙĦÙģØ·": 7140,
      "ĠØ§ÙĦØ±ÙĤÙħ": 7141,
      "ĠØ§ÙĦÙħØŃØ±Ùĥ": 7142,
      "ĠØ§ØªØµ": 7143,
      "ĠÙĪØ§ÙĦØ§Ø¬ØªÙħ": 7144,
      "ĠØ§ÙĦØ¬ÙĪ": 7145,
      "ĠØ§ÙĦØ§ÙĦØªØ²Ø§Ùħ": 7146,
      "ĠÙĦÙĦØ§Ø³ØªØ®Ø¯Ø§Ùħ": 7147,
      "ĠØ§ÙĦØ±ÙĪØ§Ø¨Ø·": 7148,
      "ĠÙĬØ¶Ùħ": 7149,
      "ĠÙģØ±Ø§ÙĨ": 7150,
      "Ġy": 7151,
      "ĠPr": 7152,
      "ØªØ«ÙħØ±": 7153,
      "ĠÙħØªÙĦØ§Ø²ÙħØ©": 7154,
      "85": 7155,
      "ĠÙĬØ±Ùī": 7156,
      "ĠØ¬ÙĪØ²": 7157,
      "ĠÙĤØ§ÙħÙĪØ³": 7158,
      "Ø§ØºÙĪ": 7159,
      "ÙĨÙĨÙĬ": 7160,
      "ØµØ§ÙĦ": 7161,
      "ĠÙĨØ£": 7162,
      "Ø¥Ø°Ø§": 7163,
      "ĠØ§ÙĦØ¬Ø³Ø¯ÙĬØ©": 7164,
      "Ø¯ÙĬÙĦØ©": 7165,
      "ĠØ§ÙĦÙģØ§Ø¦Ø¯Ø©": 7166,
      "ĠÙħØ´Ø§Ø±ÙĬØ¹": 7167,
      "ĠØ§ÙĦÙĩØ¬": 7168,
      "ÙĨÙģØ§ÙĤ": 7169,
      "ĠÙĦÙĦØ¢": 7170,
      "AP": 7171,
      "ĠÙĦØªÙĥÙĪÙĨ": 7172,
      "ĨØ¨Ø§ØªØ§Øª": 7173,
      "®Ø°": 7174,
      "ĠØ³ÙĨØ§": 7175,
      "ĠØ§ÙĦØŃÙĬÙĪØ§ÙĨ": 7176,
      "ĠØ¥ÙĬØ·": 7177,
      "ÙħÙĦØ§Ø¡": 7178,
      "Ø§Ø¦Ø·": 7179,
      "ĠØ§ÙĦÙħØ¬Ø§ÙĦØ§Øª": 7180,
      "Ø§Ø®ØªÙĬØ§Ø±": 7181,
      "iz": 7182,
      "ĠØ§ÙĦØ°Ø±Ø©": 7183,
      "ÙĦÙĪÙĬØ©": 7184,
      "ĠØ£ØŃØ¨": 7185,
      "ĠØ´Ø¹Ø¨": 7186,
      "ĠØ§ÙĦÙĥÙĦØ": 7187,
      "ĠÙĨØ§Ø³": 7188,
      "ÙĳÙĲ": 7189,
      "ÙĪØ¶ÙĪØŃ": 7190,
      "ªØŃØ§": 7191,
      "ĠØ§ÙĦØ´ÙĩÙĬØ±": 7192,
      "ĠØ§ÙĦÙħØ¤Ø³Ø³Ø§Øª": 7193,
      "ĠØ§ÙĦØ·Ø§Ø¦Ø±Ø§Øª": 7194,
      "Ø¹Ø§Øª": 7195,
      "Ø±Ø¬Ø": 7196,
      "Ø§Ø±ÙĬØ§Øª": 7197,
      "ĬÙĦÙĩØ§": 7198,
      "ĠØ¨Ø¯ÙĤØ©": 7199,
      "ĠØ¨Ø¨Ø·Ø¡": 7200,
      "ĠÙĦÙĦÙħÙĪØ": 7201,
      "AD": 7202,
      "ĠØ§ÙĦØªØ¹Ø¨": 7203,
      "ĠÙĥØ¥": 7204,
      "ħÙĦÙģØ§Øª": 7205,
      "ĠØŃØ¯ÙĬØ«Ø©": 7206,
      "ĠØ¹ÙĦØ§ÙĤØ§Øª": 7207,
      "ĠØ±Ø³Ø§Ø¦ÙĦ": 7208,
      "ĠÙħÙĬ": 7209,
      "Ġ300": 7210,
      "ĪÙĨØº": 7211,
      "ĠÙĥØ£": 7212,
      "ĠØªØ¯ÙĪÙĬØ±": 7213,
      "ĠÙĩÙĨØ¯": 7214,
      "ĠØ¹Ø´Ù": 7215,
      "ØŃØ§ÙĬØ§": 7216,
      "ĠØ§ÙĦÙĥØ§ÙĦØ³": 7217,
      "ĠØ´ÙĬÙĥ": 7218,
      "ĠØ¯Ø®ÙĦ": 7219,
      "ĠØ§ÙĦØ¨Ø§ØŃØ«ÙĬÙĨ": 7220,
      "ĠØŃØ¨": 7221,
      "ĪØ¹Ø¯": 7222,
      "à¤": 7223,
      "ĠØ³Ø±ÙĬØ¹Ø©": 7224,
      "ĨØ§Ø¹Ø©": 7225,
      "are": 7226,
      "ĠØªØŃÙħÙĬÙĦ": 7227,
      "CC": 7228,
      "ĠØ§ÙĦÙħÙĬÙĥØ§ÙĨÙ": 7229,
      "ĠØ§ÙĦØŃØ§Ø³": 7230,
      "ÙĦØªÙĦ": 7231,
      "ĠÃĹ": 7232,
      "ĠØŃØ§ÙĦ": 7233,
      "ĠØ¥Ùģ": 7234,
      "ĠÙħÙĪØ¶ØŃ": 7235,
      "ĠØªØ°ÙĩØ¨": 7236,
      "ĠØŃØ¸Ø±": 7237,
      "ĠØ¨Ø§ÙĦØªÙ": 7238,
      "ĠØ£Ø´Ø§Ø±": 7239,
      "ĠØ®Ø·Ø§Ø¨": 7240,
      "ĠØ§ÙĦÙĤØ´Ø±Ø©": 7241,
      "ĠØ¥ÙĦÙĩ": 7242,
      "ĠØ§ÙĦÙĪØ²": 7243,
      "Ø¯Ø§ÙĤ": 7244,
      "ĠØ§ÙĦØ´Ø¬Ø±Ø©": 7245,
      "amp": 7246,
      "ĠØ¨Ø±ÙĬØ¯": 7247,
      "Ø§ÙĬÙĬØ±": 7248,
      "ÙĬÙħÙĥÙĨ": 7249,
      "Ø®Ø§Ù": 7250,
      "ÙħØ§ÙħØ©": 7251,
      "ĠØªØŃØ³ÙĨ": 7252,
      "ĠØ³ÙĨÙĪ": 7253,
      "ĠØ±ÙĪØ¨Ø±Øª": 7254,
      "§ÙĦØªÙĦ": 7255,
      "ĠÙĨØ¯": 7256,
      "Ø§ÙĦØ±": 7257,
      "ÙĪØ®Ø©": 7258,
      "uc": 7259,
      "ĠØ£ÙĦØ¨": 7260,
      "ĠØ§ÙĦØµÙĪ": 7261,
      "ĠØ¬Ø¨ÙĦ": 7262,
      "ĠØ§ÙĦØ¹ÙĥØ³": 7263,
      "ĠØ¯Ø±Ø§ÙĬØ©": 7264,
      "ĠØ§ÙĦÙħØ¦Ø©": 7265,
      "ĠØ§ÙĦØ´Ø¹Ø¨": 7266,
      "ĠØ§ÙĦØ´ÙĩØ±": 7267,
      "Ø³ÙĪØ±": 7268,
      "ĠØºÙĬØ±ÙĩØ§": 7269,
      "ĠØ£Ø±Ø§Ø¶ÙĬ": 7270,
      "ĠÙĦÙħÙĥ": 7271,
      "ĠÙĪØ§ÙĦØ¹ÙĤ": 7272,
      "ĠØŃÙĥÙħ": 7273,
      "ĠÙĥÙĪÙĦÙĪÙħ": 7274,
      "ÙĬÙĨØ²": 7275,
      "ĠÙĪØ§ÙĦØ§ÙĤØªØµ": 7276,
      "ĠÙħØ³Ø§Ø¡": 7277,
      "ĠØ§ÙĦÙħØ³ØªÙĩØ¯Ùģ": 7278,
      "ĠØ§ÙĦØ´Ø§Ø´Ø©": 7279,
      "ĠØ§ÙĦÙģÙĬØ²Ù": 7280,
      "ÙĦØºØ§Ø¡": 7281,
      "ÙĪØ§ÙĬ": 7282,
      "ÙģÙĬÙĩ": 7283,
      "²ÙĬ": 7284,
      "ĠPDF": 7285,
      "ĠØ§ÙĦÙĤÙĬØ§Ø³ÙĬØ©": 7286,
      "Ø®Ø§Ø±": 7287,
      "ĠØ§ÙĦØªÙĬØ§Ø±": 7288,
      "Ġ2001": 7289,
      "ĠØ³ÙĬØ¦Ø©": 7290,
      "ĠØŃÙĥÙĪÙħØ©": 7291,
      "ÙĨÙĤØ§Ø°": 7292,
      "ĠØªØ¨ÙĨÙĬ": 7293,
      "77": 7294,
      "ĠØ³ÙĩÙĦ": 7295,
      "ĠÙĪÙĬÙĦ": 7296,
      "ĠØ§ÙĦÙĤØ¶ÙĬØ©": 7297,
      "ĠØ£Ø±Ø¨Ø¹": 7298,
      "Ġ36": 7299,
      "ØªÙģÙĦ": 7300,
      "ĠØ¨ÙħØ±Ø¶": 7301,
      "ÙħÙĬØ±Ø": 7302,
      "Ø³ÙĬÙĦ": 7303,
      "ĠØ§ÙĦØ±Ø·ÙĪØ¨Ø©": 7304,
      "ĠØ§ÙĦØ³ÙģÙĦÙĬ": 7305,
      "ĠØªØ´Ø¨Ùĩ": 7306,
      "Ø¨ÙĪØ±Øº": 7307,
      "ĠØ¬ÙĦØ¨": 7308,
      "ÙĦÙĦÙĬØ": 7309,
      "ÙĩØ§ÙĨ": 7310,
      "ĠØ§ÙĦØ³ÙĬØ¦Ø©": 7311,
      "ĠØ¨Ø¯ÙĬÙĦ": 7312,
      "ĠÙĦÙĦØ§ÙĨØ": 7313,
      "ĠØ§ÙĦØ£Ø·Ø±Ø§Ùģ": 7314,
      "ĠØ§ÙĦÙĤÙĪØ§ÙĨÙĬÙĨ": 7315,
      "ĠÙĬØ´Ø¨Ùĩ": 7316,
      "ĠÙĬØ²Ø¯Ø§Ø¯": 7317,
      "ĠØ¨Ø§ÙĦÙĨØ¸Ø±": 7318,
      "ĠØªØ´Ø¬ÙĬØ¹": 7319,
      "ĠØ§ÙĦØ¶Ø§Ø±Ø©": 7320,
      "ĠØ§ÙĦØ¨Ø¹": 7321,
      "ĠØ±Øµ": 7322,
      "ÙħÙĬØ±Ø§": 7323,
      "ĠÙħØ´Ø§Ø¹Ø±": 7324,
      "ĠØ§ÙĦØ·ÙĪØ§Ø±Ø¦": 7325,
      "ĠÙĦÙĦØ¹Ø«ÙĪØ±": 7326,
      "ĠØ¹ÙĬÙĨØ©": 7327,
      "ĠØ§ÙĦØ¹ÙĬØ´": 7328,
      "ÙħÙĦÙģØ§Øª": 7329,
      "ĠØªÙĨÙģ": 7330,
      "Ø±Ø®": 7331,
      "ÙĨÙĪÙĥ": 7332,
      "ĠØªÙĥÙĪÙĬÙĨ": 7333,
      "ĠØŃØ³Ø§Ø³ÙĬØ©": 7334,
      "ĠÙĬØ¨ÙĤÙī": 7335,
      "§ÙĦÙĦÙĬØ": 7336,
      "ÙħØªØ±": 7337,
      "Ø±ÙĪÙĤ": 7338,
      "Ø±Ø§Ø±Ø©": 7339,
      "ªÙĤÙĦ": 7340,
      "ÙĤÙĨ": 7341,
      "ØµÙħ": 7342,
      "ĠØ§ÙĦÙħÙĪØ³Ù": 7343,
      "ĠØ§ÙĦÙħØ±Ø§ÙģÙĤ": 7344,
      "ĠÙħÙĪØ³Ùħ": 7345,
      "ĠØ§ÙĦÙĤØ§Ø¯ÙħØ©": 7346,
      "Ø¨Ø§Ø·": 7347,
      "ĠØ¨Ø§ÙĦØ´Ø¹ÙĪØ±": 7348,
      "Ø°ÙĬØ±": 7349,
      "Ø±Ø§ÙĦ": 7350,
      "Ø§Ø¹Ø¯Øª": 7351,
      "ÙĪØªØ³": 7352,
      "ĠÙħØ¹ÙĩØ§": 7353,
      "89": 7354,
      "ħØ§Ø¶": 7355,
      "ºØ¨Ø©": 7356,
      "ĠØ§ÙĦØ³ÙĬÙĦÙ": 7357,
      "ĠØ§ÙĦØ§Ø³ØªØ¹ÙħØ§Ø±": 7358,
      "ĠÙħØµÙĨØ¹": 7359,
      "ĠØ§Ø³ØªØ·": 7360,
      "ÙģØ¶ÙĦØ©": 7361,
      "ªØ¨Ø§Ùĩ": 7362,
      "ĠÙģØ§Ø±": 7363,
      "und": 7364,
      "ĠÙĬÙģØ¹ÙĦ": 7365,
      "ĠÙĦÙĪØ³": 7366,
      "Ø§Ø±Ø¨Ø©": 7367,
      "ĠØ§ÙĦÙĤØ±Ø§Ø¡": 7368,
      "ĠÙĥÙħØ¨ÙĬÙĪØªØ±": 7369,
      "ĠØ§ÙĦØ³Ø§Ø¯Ø³": 7370,
      "ĠØ§ÙĦØªØµÙĨÙĬØ¹": 7371,
      "Ø¨Ø§ÙĨÙĬØ§": 7372,
      "ĠÙĪØ§ÙĦØªØµ": 7373,
      "Ġ2002": 7374,
      "³Ø¤": 7375,
      "ĠÙĬØ³Ø§Ø¹Ø¯Ùĥ": 7376,
      "86": 7377,
      "ys": 7378,
      "ĠÙĪØªØ·Ø¨ÙĬÙĤ": 7379,
      "ĠØ£Ø¹Ø·": 7380,
      "ĠØ´Ø¨ÙĥØ§Øª": 7381,
      "ĠØ¬ÙħÙĬØ¹Ø": 7382,
      "ªØŃØ§Ù": 7383,
      "ĠØ¬ÙħÙĬØ¹Ø§": 7384,
      "ĠØ§ÙĦØªÙĦ": 7385,
      "ĠØ¨Ø£Ø³": 7386,
      "ĠØ§Ø³ØªÙĨ": 7387,
      "Ø§ÙĪÙĬØ©": 7388,
      "ĠÙģØ±Ø§ÙĨØ³": 7389,
      "ĠØ§ÙĦÙĨØ§ØŃÙĬØ©": 7390,
      "ÙħÙĦÙĬØ©": 7391,
      "ªØŃØ§ÙĨ": 7392,
      "ĠØ§ÙĦØ±Ø³Ø§Ø¦ÙĦ": 7393,
      "ĠÙħØ²Ø§ÙĬØ§": 7394,
      "ĠØ§ÙĦØ£ØµØºØ±": 7395,
      "ÙĬÙħÙĬ": 7396,
      "ĠØ¨ÙĪØ¶ÙĪØŃ": 7397,
      "ĠÙĬØŃØ§ÙĪÙĦ": 7398,
      "ÙģÙģ": 7399,
      "ÙĥØ§Ùħ": 7400,
      "ĠAl": 7401,
      "Ø§ØªØ³": 7402,
      "ĠØ³Ø¬ÙĦØ§Øª": 7403,
      "ĠØ³ÙĬØŃ": 7404,
      "ĠØ´ÙĥØ±Ø§": 7405,
      "ĠØ§ÙĦÙĪØ¬Ùĩ": 7406,
      "ĠØ§ÙĦØªÙĥØ§ÙĦÙĬÙģ": 7407,
      "ĠØ§Ø¬ØªÙħØ§Ø¹ÙĬØ©": 7408,
      "ĠØ¨ÙĬÙĦ": 7409,
      "ĠÙĬØ¬Ø¹ÙĦÙĩØ§": 7410,
      "ĠØ¥ÙĥØ³": 7411,
      "ĠØ§Ø³ØªÙĨØªØ§Ø¬": 7412,
      "ØªÙĪØ³Ø¹": 7413,
      "ĠØ§ÙĦØ®Ø´": 7414,
      "ĠØªÙĥØ±Ø§Ø±": 7415,
      "ĠØ£ÙģØ±Ø§Ø¯": 7416,
      "ØªØ²": 7417,
      "ĠØ¹Ø§ÙĦÙħÙĬØ©": 7418,
      "ĠØªØµÙħÙ": 7419,
      "ef": 7420,
      "ĠØ§ÙĦÙĦÙĬØ": 7421,
      "ĠØ§ÙĦØªØ®ØµØµ": 7422,
      "ÙĬØ¬Ù": 7423,
      "IT": 7424,
      "Ø§ØªØŃØ§Ø¯": 7425,
      "ÙģÙĪØ±ÙĬ": 7426,
      "ĠØ§ÙĦÙĤØ·Ø¨": 7427,
      "ĠØŃÙĬÙĪØ§ÙĨ": 7428,
      "ĠØ§ÙĦÙħØ³Ø§Ø±": 7429,
      "ÙħØ§Ø¶": 7430,
      "ĠÙĤÙĨØ§Ø©": 7431,
      "ĠÙħØ¨Ø§Ø¯Ø¦": 7432,
      "ÙĬÙĬØ¯": 7433,
      "ÙĪØ±Øª": 7434,
      "SA": 7435,
      "ÙģØ¦Ø©": 7436,
      "ĠÙĦÙĦØ£Ø³Ùģ": 7437,
      "ĠÙĨØ§Ø³Ø": 7438,
      "ĠØ§ÙĦÙĥÙĪØ±": 7439,
      "ĠÙĥØ§Øª": 7440,
      "ĠØ·Ø¨Ø§Ø¹Ø©": 7441,
      "ĠØ§ÙĦÙħØ®ØªÙĦÙģ": 7442,
      "ĠØ´Ø§ÙħÙĦØ©": 7443,
      "ÙĪØ§ÙħØ±": 7444,
      "ĠÙĪØ§ÙĦÙĩÙĨØ¯": 7445,
      "ĠÙĨØ§Ø³Ø§": 7446,
      "ĠÙĥÙĬÙĦÙĪÙħØªØ±": 7447,
      "ªØ¸": 7448,
      "ĠØªØµÙĪÙĬØ±": 7449,
      "ĠØ¨Ø·Ø§ÙĤØ©": 7450,
      "ªØ¸Ø±": 7451,
      "ĠØ§ÙĦÙĨØŃØ§Ø³": 7452,
      "ĠØ¥Ø«Ø§Ø±Ø©": 7453,
      "ĠØ§ÙĦØ¨Ø·Ø§Ø·": 7454,
      "ĠÙħÙĦÙģØ§Øª": 7455,
      "ĠØ³Ø§Ø¹Ø¯": 7456,
      "ĠØ§ÙĦÙĥÙĦØ§": 7457,
      "ĠÙĬØ¬ÙħØ¹": 7458,
      "ĠØ§ÙĦØŃØµ": 7459,
      "ĠØ¨ÙĪØ³": 7460,
      "Ø§ÙĦØµ": 7461,
      "ĠØ§ÙĦØ´ÙħØ³Ù": 7462,
      "âĢ¬âĢ¬âĢ¬âĢ¬âĢ¬âĢ¬âĢ¬âĢ¬âĢ¬âĢ¬âĢ¬âĢ¬âĢ¬âĢ¬âĢ¬âĢ¬âĢ¬âĢ¬âĢ¬âĢ¬âĢ¬âĢ¬âĢ¬âĢ¬âĢ¬âĢ¬âĢ¬âĢ¬âĢ¬âĢ¬âĢ¬âĢ¬âĢ¬âĢ¬âĢ¬âĢ¬âĢ¬âĢ¬âĢ¬âĢ¬âĢ¬âĢ¬âĢ¬âĢ¬âĢ¬âĢ¬âĢ¬âĢ¬âĢ¬âĢ¬âĢ¬âĢ¬âĢ¬âĢ¬âĢ¬âĢ¬âĢ¬âĢ¬âĢ¬âĢ¬âĢ¬âĢ¬âĢ¬âĢ¬": 7463,
      "ĠØ§ÙĦØŃØ¯Ø«": 7464,
      "ĠØºØ±": 7465,
      "ØªØ´Ø§Ùģ": 7466,
      "ĠØ§ÙĦØ´ÙħØ³ÙĬ": 7467,
      "ĠØ§ÙĦØ±Ø§Ø¨Ø·": 7468,
      "ĠØ§ÙĥØªØ³Ø§Ø¨": 7469,
      "ĠØªÙħÙĬÙĦ": 7470,
      "ĠØ·Ø§Ø¦Ø±Ø©": 7471,
      "ÙĦÙĤØª": 7472,
      "ĠØ¹ÙħÙĪØ¯": 7473,
      "ĠØ³ØªØ¬": 7474,
      "55": 7475,
      "EC": 7476,
      "ĠÙĩØ§Ø¦ÙĦØ©": 7477,
      "ĠØªÙħØªØ¯": 7478,
      "ĠÙĬØªØ¨Ø¹": 7479,
      "ĠØªØ¶Ø¹": 7480,
      "ĠÙĪØ§ÙĦØ¹ÙĦØ§Ø¬": 7481,
      "ĠØ³ÙĨÙĪÙĬØ§": 7482,
      "ĠØ¹Ø§Ø´": 7483,
      "ÙĪØ§ÙĥØ¨": 7484,
      "Ø±ÙĩØ§": 7485,
      "ook": 7486,
      "ĠØ§ÙĦÙħÙĦØ§ØŃØ¸Ø§Øª": 7487,
      "ĠØ¨Ø±ÙĪØªÙĬÙĨ": 7488,
      "ÙĦØªØ§": 7489,
      "ĠØ§ÙĦÙħØ®ØµØµØ©": 7490,
      "ĠØªØµÙĪØ±": 7491,
      "Ġ186": 7492,
      "ĠØ¨ÙĨØ¬Ø§ØŃ": 7493,
      "ÙĦÙĬØ²Ù": 7494,
      "ĠØ§ÙĦØ¯Ø§Ø®ÙĦ": 7495,
      "ĠØ§ÙĦÙĩÙĬØ¦Ø©": 7496,
      "ĠØ§ÙĦÙħØ¹Ø§Ø±Ø¶": 7497,
      "ĠØ±Ø³ÙĪÙħ": 7498,
      "ÙĨØ§ÙĪÙĬÙĨ": 7499,
      "ĠØ§ÙĦØ¯ÙĪØ±Ø§Øª": 7500,
      "ĠØ§ÙĦØ¯ÙĦÙĬÙĦ": 7501,
      "ĠØ§ÙĦÙħØ«ÙĬØ±": 7502,
      "ĠØ£ØŃÙĬØ§ÙĨØ§": 7503,
      "ĠØ§ÙĦØ§ØªØŃØ§Ø¯ÙĬØ©": 7504,
      "ĠØ¥Ø¶Ø§ÙģÙĬ": 7505,
      "ĠØ§ÙĦÙĨØŃÙĪ": 7506,
      "ĠØ§ÙĦØ§ØŃØªÙĬØ§Ø·": 7507,
      "ĠØ§ÙĦÙħÙĪØ¶ÙĪØ¹Ø§Øª": 7508,
      "ĠØ¹Ø§ÙħÙĬ": 7509,
      "49": 7510,
      "ĠÙħØ±ÙĬØ¶": 7511,
      "ĠØ§ÙĦÙħØ³ØªØŃ": 7512,
      "ĠØ²Ø§ÙĪÙĬØ©": 7513,
      "ĠØ³Ùģ": 7514,
      "ÙĨØªÙĬÙĨ": 7515,
      "Ø³Ø§Ø¨": 7516,
      "ĠØ§ÙĦØ£Ø±Ø¨Ø¹Ø©": 7517,
      "ont": 7518,
      "ĠØ§ÙĦØ¹Ø§Ø¯ÙĬ": 7519,
      "ÙħØµ": 7520,
      "Ø±Ø¶Ø": 7521,
      "ure": 7522,
      "ĠØ¯Ø§Ùģ": 7523,
      "ĠØ§ÙĦØ®Ø·Ø±": 7524,
      "ĠÙĤØ±Ø§Ø¡": 7525,
      "ĠØ£Ø¬Ø±ÙĬØª": 7526,
      "ĠØ§ÙĦÙĪÙĤØ§ÙĬØ©": 7527,
      "ĠÙĪØ¶ÙĪØŃ": 7528,
      "ĠØ³ÙħØŃ": 7529,
      "ĠØ§ÙĦÙħÙģØ±Ø·": 7530,
      "§ÙĨÙĩÙĬØ§Ø±": 7531,
      "ĠØ¯Ø®ÙĪÙĦ": 7532,
      "ÙĦÙĪÙĤØ§Øª": 7533,
      "Ġo": 7534,
      "Ø¬ÙħØ§Øª": 7535,
      "ĠØ¨Ø°ÙĪØ±": 7536,
      "ĠØ§ÙĦØ´Ø§ÙĬ": 7537,
      "ĠØ§ÙĦØ£ÙħÙĪØ§ÙĦ": 7538,
      "ĠØ§ÙĦØ¬ÙĪØ§ÙĨØ¨": 7539,
      "ĠØ³ØŃØ¨": 7540,
      "ĠØ§ÙĦÙĤØ±Øµ": 7541,
      "ĠÙĪØ¶Ø¹ÙĩØ§": 7542,
      "ĠØ§ÙĦÙģØ±Ø¹ÙĬØ©": 7543,
      "Ø§Ø¹Ø¨ÙĬÙĨ": 7544,
      "MS": 7545,
      "ĠØ·Ø¨ÙĬØ¨Ùĥ": 7546,
      "ĠØ§ÙĦÙħØªØ®": 7547,
      "ħØ±ØªØ¨Ø·": 7548,
      "ĠÙĦÙħÙĨØ": 7549,
      "ÙħØ±ØªØ¨Ø·": 7550,
      "ĠÙĪØ§ÙĦÙħØ¬ØªÙħØ¹": 7551,
      "ĠØŃÙĬØ§ØªÙĨØ§": 7552,
      "ĠØªØµÙģ": 7553,
      "ĠØ¥Ø±Ø´Ø§Ø¯Ø§Øª": 7554,
      "Ø´Ø§Ø±Ø©": 7555,
      "ĠÙħØ³Ø±ØŃ": 7556,
      "ĠØ¨ÙĨØ§": 7557,
      "ĠØ§ÙĦØ³ÙħÙĨØ©": 7558,
      "ħØ±ØªÙģØ¹": 7559,
      "ÙĦÙĦÙ": 7560,
      "ĠÙģÙĬÙ": 7561,
      "ĠØ§ÙĦØ«ÙĤØ§ÙģØ§Øª": 7562,
      "ĠØ§ÙĦØ£Ø®Ø·Ø§Ø¡": 7563,
      "ĠØ§Ø®ØªÙĦØ§ÙģØ§Øª": 7564,
      "ĠØ§ÙĦÙħÙĤØ§Ø¨ÙĦØ©": 7565,
      "ĠØ¨ØªØ³": 7566,
      "ÙĦÙĥØ§Øª": 7567,
      "ĠØ§ÙĦÙħØŃØ§": 7568,
      "ÙĦØªÙĪØ³Ø¹": 7569,
      "ĠØŃÙĪØ¶": 7570,
      "ØªØ«ÙħØ§Ø±Ø§Øª": 7571,
      "ĠÙĪØ§ÙĦØ®Ø¯ÙħØ§Øª": 7572,
      "ĠØ¯ÙĬÙĥ": 7573,
      "ÙħØ±ØªÙģØ¹": 7574,
      "ĠØ´Ø±Ø¨": 7575,
      "ĠØ§ÙĦØ¬Ø±Ø§ØŃØ©": 7576,
      "ĠØ§ÙĦÙģÙĤØ±Ø©": 7577,
      "§ÙĦØªÙĪØ³Ø¹": 7578,
      "ĠØ§ÙĦÙĬØ": 7579,
      "ĠØ³ÙĦØ¨ÙĬØ©": 7580,
      "ĠØ£Ø³Ø·": 7581,
      "ĠØ¹Ø¨Ø§Ø±Ø©": 7582,
      "ĠØ§ÙĦÙģØ±ÙĬØ¯Ø©": 7583,
      "ĠØ§ÙĦÙĤØ§Ø±Ø¦": 7584,
      "ĠØ¹ÙĬÙĨ": 7585,
      "ĠÙħÙĬØ³": 7586,
      "ĠØ§ÙĦØ¨Ø±Ø§Ø²": 7587,
      "ĠØ§ÙĦØ³Ùĥ": 7588,
      "ĠØ§ÙĦÙħÙĦØ§ØŃØ¸Ø©": 7589,
      "ĪØ¨Ø§Øª": 7590,
      "ĠÙħØ±ØªØ¨Ø·": 7591,
      "ĠÙĨÙĪØ¹Ø": 7592,
      "ĠÙĨÙĪØ¹Ø§": 7593,
      "end": 7594,
      "ĠØ§ÙĦØ£Ø³Ø": 7595,
      "ĠÙĤØ§Ø¯Ø±ÙĬÙĨ": 7596,
      "ĨØ¯Ø±": 7597,
      "ĠØ¢ÙĦØ©": 7598,
      "ĠÙĪØªÙĤØ¯ÙĬÙħ": 7599,
      "ĠØ§ÙĦØ³Ø§Ø¨Ø¹": 7600,
      "ĠØŃØ²ÙħØ©": 7601,
      "ĠØ§ÙĦØ£ØµÙĪÙĦ": 7602,
      "ack": 7603,
      "ĠÙħØ¶Ø§Ø¯": 7604,
      "Ø´Ø§": 7605,
      "ĠØ§ØªØµÙĦ": 7606,
      "ĠØ§ÙĦÙħÙĨØ§Ùģ": 7607,
      "ĠØ³ÙĨØ": 7608,
      "ØªÙĪØ±": 7609,
      "ĠÙĤÙĦÙĬÙĦØ©": 7610,
      "ĠÙħØ±ØªÙģØ¹": 7611,
      "ĠÙħØµÙĨÙĪØ¹Ø©": 7612,
      "ĠØ§ÙĦÙĥØ§Ø«ÙĪÙĦÙ": 7613,
      "ÙĪÙĨÙĩØ§": 7614,
      "Ø¨ÙĬÙĥ": 7615,
      "ĠØ§ÙĦÙħØªØ¬Ø¯Ø¯Ø©": 7616,
      "ĨÙĪÙĬ": 7617,
      "ØªÙģØ§ÙĦ": 7618,
      "ĠØ§ÙĦÙģØ¶Ø§Ø¦ÙĬØ©": 7619,
      "ĪÙĦÙĬØ³Øª": 7620,
      "ish": 7621,
      "ĠØ§ÙĦØ£ÙĨØ§Ø¨ÙĬØ¨": 7622,
      "ĠØ§ÙĩØª": 7623,
      "ĠÙħØŃØ±ÙĥØ§Øª": 7624,
      "¤Ø¯ÙĬ": 7625,
      "ĠØ§ÙĦÙħÙħ": 7626,
      "ÙħÙģØ±": 7627,
      "ĠÙĦÙĦØ¹Ø¯ÙĬØ¯": 7628,
      "ĠØªÙĪÙģÙ": 7629,
      "Ø§Ø¨ÙĪÙĨ": 7630,
      "ĠØ¨Ø¥ÙĨØ´Ø§Ø¡": 7631,
      "ĠÙħØ¤ØªÙħØ±": 7632,
      "47": 7633,
      "ĠØ§ÙĦØ³Ø¨Ø¹": 7634,
      "ĠØ§ÙĦÙĤÙĦÙĬÙĦØ©": 7635,
      "ĠÙĩÙĨØ±ÙĬ": 7636,
      "ĪÙĬ": 7637,
      "ĠØ§ÙĦØªØ´Ø±ÙĬØ¹": 7638,
      "ÙĦÙĬØ²ÙĬ": 7639,
      "ĠÙĪØµÙĪÙĦ": 7640,
      "ĠØ§ÙĦØªØ¬ÙħÙĬØ¹": 7641,
      "ĠÙĦÙĦØªØ®": 7642,
      "ĠØªØ¶Ù": 7643,
      "ÙħÙĬØ³": 7644,
      "ĠØªØ¶Ùħ": 7645,
      "Ø·Ùģ": 7646,
      "ĠØ§ÙĦØ´Ø¯ÙĬØ¯Ø©": 7647,
      "ne": 7648,
      "ĪÙĬØ²": 7649,
      "ĠØ§ÙĦØ§Ø«ÙĨÙĬÙĨ": 7650,
      "ĠØªØ§ÙĬ": 7651,
      "ĠØ§ÙĦØªØ¬Ø§Ø±ÙĬ": 7652,
      "ĠÙħØµØ±": 7653,
      "Ø§Ø¨ÙĩØ©": 7654,
      "ĠÙħØ²Ø¯ÙĪØ¬": 7655,
      "ªÙģØ§Ø¹ÙĦ": 7656,
      "ĠØ¨Ø¯ÙĪØ±": 7657,
      "ĠØªØ³ÙĦØ³ÙĦ": 7658,
      "ĠØ£ÙĦ": 7659,
      "ĠØ§ÙĦØ·ÙģÙĪÙĦØ©": 7660,
      "ĠÙĦØªØ´ÙĥÙĬÙĦ": 7661,
      "ĠØ§ÙĦÙħÙĪØ§Ø·ÙĨÙĬÙĨ": 7662,
      "ĠØ§ÙĦØ§ØªÙģØ§ÙĤ": 7663,
      "ĠÙħÙĨØµØ©": 7664,
      "ĠØ§ÙĦØ³ÙĦØ·Ø§Øª": 7665,
      "ĠØ§ÙĦØ³ÙĬØ¯Ø©": 7666,
      "ĠØ¹Ø§ÙĦ": 7667,
      "ĠØ§ÙĦÙħØ±Ø§ÙĤØ¨Ø©": 7668,
      "ØªÙĬÙĥ": 7669,
      "ĠØ§ÙĦÙħØ³ØªØ¹": 7670,
      "ÙħØ§ÙħØ§Øª": 7671,
      "ÙĬÙĪÙģ": 7672,
      "ĠØ§ÙĦØ³ÙĬØ§Ø³Ø§Øª": 7673,
      "ĠØ®Ø¨Ø±Ø©": 7674,
      "ÙħÙĦÙĬØ§Øª": 7675,
      "ĠØ§ÙĦØªÙĪÙĤÙģ": 7676,
      "ªÙĪØ·": 7677,
      "ĠØ§ÙĤØªØµØ§Ø¯": 7678,
      "ĠÙĪØ§ÙĦØ¨ØŃ": 7679,
      "ÙĬÙģÙĬ": 7680,
      "ĠØ§ÙĦÙĨØµÙģ": 7681,
      "ÙĪØºØ": 7682,
      "Ø±ÙĬØ¨Ø§Øª": 7683,
      "ĠØ§ÙĦØ®Ø±ÙĪØ¬": 7684,
      "ĠØ§ÙĦÙĪØ§ÙĦØ¯": 7685,
      "ÙĬÙĨØ¬": 7686,
      "ĠØªØ¹ÙĦÙħÙ": 7687,
      "ĠØ§ÙĦØ¢ÙĦØ§Øª": 7688,
      "ĠØ§ÙĦØ£ÙĩÙĦÙĬØ©": 7689,
      "ĠÙĪØ§ÙĦÙħÙĥ": 7690,
      "ĠØªÙĨØ²ÙĬÙĦ": 7691,
      "ĠÙģÙĦÙĪØ±ÙĬØ¯": 7692,
      "ĠØ§ÙĦØ¬Ø§ÙĨØ¨ÙĬØ©": 7693,
      "ÙĪÙĦØ¯": 7694,
      "ach": 7695,
      "ĠØºØ·Ø§Ø¡": 7696,
      "ÙĨØ¨ÙĬØ©": 7697,
      "Ø±Øµ": 7698,
      "ĠÙħØ¹Ø¯Ø§Øª": 7699,
      "ĠÙĪØ¹ÙĨØ¯": 7700,
      "ĪÙĥÙĬ": 7701,
      "ĠØ´Ù": 7702,
      "ĠØ¥ÙĨØ´Ø§Ø¤ÙĩØ§": 7703,
      "ĠCom": 7704,
      "ĠØªØ¬Ø±Ø¨": 7705,
      "Ø´ÙĬØ©": 7706,
      "ĠØ§ÙĦØ£Ø³Øª": 7707,
      "ĠÙħØ®Ø§ÙĪÙģ": 7708,
      "Ø¨ØªØ©": 7709,
      "ÙĪØºØ§": 7710,
      "ĠØ§ÙĦÙħØªÙĪØ³Ø·Ø©": 7711,
      "ĠØ¨ÙĤÙĬØ©": 7712,
      "ĠØªØ¹ÙĥØ³": 7713,
      "ĠØ§ÙĦÙĤØ·Ø§Ø¹": 7714,
      "ÙĤØ§ÙĦ": 7715,
      "ĠØ§ÙĦÙĨØ§Ø´": 7716,
      "Ø±ÙĪØ·": 7717,
      "ĠØ§ÙĦÙĦØ§ØªÙĬÙĨÙĬØ©": 7718,
      "ĠØ§ÙĦØ·Ù": 7719,
      "ĠÙħØªÙĨ": 7720,
      "ĠØ§ÙĦØªÙĪØ³Ø¹": 7721,
      "ĠØ¯ÙĬÙĨ": 7722,
      "Ġ190": 7723,
      "ĪØ§Ø¯ÙĬ": 7724,
      "ĠØ§ÙĦÙħÙĥØ³ÙĬÙĥ": 7725,
      "ĠÙħØµÙħÙħØ©": 7726,
      "ĠØ§ÙĦÙħÙģÙĬØ¯Ø©": 7727,
      "ĠØ§ÙĦÙģÙĨÙĬØ©": 7728,
      "ĠØ§ÙĦØªØ¹ÙĦÙĬÙĤ": 7729,
      "ĠØ£Ø¨ÙĦØº": 7730,
      "Ġ32": 7731,
      "ĠØ¥Ø¨": 7732,
      "ĠØ§ÙĦÙĤØ¯ÙĬØ³": 7733,
      "ĠØ§ÙĦØ´Ø±ÙĤÙ": 7734,
      "ĠØ§ÙĦØ´Ø±ÙĤÙĬ": 7735,
      "Ø²ÙĪØ§Ø¬": 7736,
      "ĠØ§ÙĦØ®ÙĬØ±": 7737,
      "ĠÙħØ¶Ø§Ø¯Ø©": 7738,
      "ĠØ§ÙĦØ§Ø¶Ø·Ø±Ø§Ø¨Ø§Øª": 7739,
      "ĠÙĪÙĬÙĨ": 7740,
      "ĠØµÙĦØ¨Ø©": 7741,
      "·Ø¨ÙĬÙĤ": 7742,
      "ĠÙĬÙĨØ¸Ø±": 7743,
      "§ÙĦØ§Ø´": 7744,
      "ĬØ¹Ø§Ø¨": 7745,
      "Ø¶Ø±Ø§Ø±": 7746,
      "ĠØ§ÙĦØ§Ø³ØªÙħØ§Ø¹": 7747,
      "Ø§Ø«Ø©": 7748,
      "³Ø§ÙħØŃ": 7749,
      "ĠØ³ØªØ¹": 7750,
      "ĠØ§ÙĦØ£ÙħØ·Ø§Ø±": 7751,
      "ĠØ§ÙĦØ£Ø°ÙĨ": 7752,
      "ĠÙħØªÙģ": 7753,
      "ÙĦØ³ÙĬ": 7754,
      "ÙĬØ¯Ø§Øª": 7755,
      "ĠST": 7756,
      "µÙĦØ©": 7757,
      "ĠÙħØ³Ø§ÙģØ©": 7758,
      "Ø¶Ùħ": 7759,
      "ĠÙĪØ§ÙĦØ¸": 7760,
      "ĠØ§ÙĦØ±Ø³ÙĪÙħØ§Øª": 7761,
      "man": 7762,
      "Ø³Ø§Ø¯": 7763,
      "Ø¯ÙĪØ§Ø±": 7764,
      "ÙĪØ³Ø¨Ø©": 7765,
      "ĠÙĦÙĦØ·Ø§ÙĤØ©": 7766,
      "ĠÙħÙĨØ´": 7767,
      "ÙĪÙĬÙ": 7768,
      "ĠØ§ÙĦØ¥Ø¹ÙĦØ§ÙĨ": 7769,
      "ĠØ§ÙĦÙħØµÙģ": 7770,
      "ĠØ£Ø³ÙĦÙĪØ¨": 7771,
      "ĠØ§ÙĦØ¨Ø·Ø§Ø±ÙĬØ©": 7772,
      "ĠÙĪÙĬÙ": 7773,
      "ĠØ§ÙĤØªØ±Ø§ØŃ": 7774,
      "ĠØ£ÙĪÙĥ": 7775,
      "ĨØ±ÙĬØ¯": 7776,
      "ĠØ¯Ø§Ø¦Ø±Ø©": 7777,
      "ĠØ§ÙĦÙħØ¹Ø±ÙĥØ©": 7778,
      "ªÙħØª": 7779,
      "ÙĨØ±ÙĬØ¯": 7780,
      "ĠÙĤØ·Ø§Ø¹": 7781,
      "ÙĬÙħØ±": 7782,
      "ĠØ´Ø¹Ø±": 7783,
      "ĠÙħÙģØ±": 7784,
      "ĠØ¨ØŃÙĬØ±Ø©": 7785,
      "ĠÙħØŃØ·Ø§Øª": 7786,
      "ÙħØº": 7787,
      "ĠØ£Ø¯ÙĪÙĬØ©": 7788,
      "ĠØŃÙĬÙĪØ§ÙĨØ§Øª": 7789,
      "ĠÙĦÙĨÙĤÙĦ": 7790,
      "ĠØ§ÙĦØ§Ø³ØªÙģØ§Ø¯Ø©": 7791,
      "ĠØ§ÙĦÙħØ³ØªØ´ÙģÙī": 7792,
      "ĠØ¨ÙĬØªØ±": 7793,
      "ĠØ§ÙĦØ¬Ø¯": 7794,
      "ĠØ§ÙĦØ±Ø¦Ø©": 7795,
      "ÙĪÙĦÙĬØ§": 7796,
      "ĠAP": 7797,
      "Ø§ØªÙĦ": 7798,
      "ĠØ²Ø±": 7799,
      "ĠÙħÙĦÙĬØ¦Ø©": 7800,
      "ĠØ§ÙĦÙħÙģÙĩÙĪÙħ": 7801,
      "ĠØ¨ÙĤØ§ÙĬØ§": 7802,
      "ĠØ§ÙĦÙħÙĪØ³Ùħ": 7803,
      "ĠØ§ÙĦÙģØ¦Ø©": 7804,
      "ĠØ§ÙĦØ¨Ø±ÙĬØ·Ø§ÙĨÙĬ": 7805,
      "ĠÙģØ±Ø§ÙĨÙĥ": 7806,
      "ĠØ§ÙĦØ¢ÙĦÙĬ": 7807,
      "ĠØ§ÙĦÙħØªØºÙĬØ±Ø§Øª": 7808,
      "ĠÙĦÙĦØ¨ÙĬØ¦Ø©": 7809,
      "ĠØ¨Ø«": 7810,
      "ĠØªØŃÙģÙĬØ²": 7811,
      "ĠØµÙĬØ¯": 7812,
      "ĠØ§ÙĦÙħØ·Ø¨ÙĪØ¹Ø©": 7813,
      "ĠØ§ÙĦØ¨ØŃØ±ÙĬ": 7814,
      "ĠØ§ÙĦØ¥Ø·Ø§Ø±": 7815,
      "ĠØ«Ø§ÙĦØ«": 7816,
      "ĠØ§ÙĦØ®ÙĬØ§Ø±": 7817,
      "ĠØ£Ø¹ÙĦÙĨØª": 7818,
      "ĠØµØŃÙĬØŃØ©": 7819,
      "ÙĪÙħÙĪÙĨ": 7820,
      "ĠØ§ÙĦÙģÙĬØ±ÙĪØ³Ø§Øª": 7821,
      "ÙĪÙģØ": 7822,
      "ĠÙħÙħØ§Ø«ÙĦ": 7823,
      "ĠÙĪØ§ÙĦØ±Ø³": 7824,
      "§ÙĬØ§Øª": 7825,
      "ma": 7826,
      "¶Ø©": 7827,
      "ĠØ´Ø¯ÙĬØ¯": 7828,
      "Ø§ÙĬØ§Øª": 7829,
      "ĠØ§ÙĦØªØ¨Ø": 7830,
      "ĠØ§ÙĦØ§Ø¨ØªØ¯": 7831,
      "ÙĩØ²": 7832,
      "ĠØ§ÙĦÙģÙĥØ±Ø©": 7833,
      "ĠÙĪØ§ÙĦØ±ÙĬ": 7834,
      "ÙĦÙħØ³": 7835,
      "ĠØ§ÙĦØ§Ø´": 7836,
      "ĠØ§ÙĦÙĨØ¨": 7837,
      "ĠÙĨÙĩ": 7838,
      "ĠØŃÙĤÙĬÙĤÙ": 7839,
      "ĠØŃÙĤÙĬÙĤÙĬ": 7840,
      "ĠØ§ÙĦÙħÙĪØ§ÙĤÙģ": 7841,
      "ĠØªØŃØ§ÙĪÙĦ": 7842,
      "ĠØŃØ§ÙĦÙĬ": 7843,
      "ĠØ´ÙĥØ³": 7844,
      "ĠÙĪØ§ÙĦÙģÙ": 7845,
      "§ÙĦÙĦÙ": 7846,
      "ity": 7847,
      "ĠÙħØŃØªÙħÙĦØ©": 7848,
      "ĠØ±Ø¨": 7849,
      "ĠØ§ÙĦØ¢ÙģØ§Øª": 7850,
      "ĠÙĬØ§": 7851,
      "ĠØ§ÙĦØµØ¯ÙħØ©": 7852,
      "ĠÙĨÙĥÙĪÙĨ": 7853,
      "ĬØ§Ø¯": 7854,
      "ĠÙĬØ¶ÙĬÙģ": 7855,
      "ÙĦØ¯Ø§Ùģ": 7856,
      "ĠÙĪØªÙĤÙĬÙĬÙħ": 7857,
      "Ø±ÙĥØ": 7858,
      "ĠØªØ®ÙĦÙĤ": 7859,
      "ĠØ®ÙĪØ§Ø±Ø²": 7860,
      "§ÙĦØ¯Ø§Ùģ": 7861,
      "ĠØªÙĨØ·ÙĪÙĬ": 7862,
      "ĠØ§ÙĦÙħÙħØ±": 7863,
      "ĠÙĬØ³ØªÙħØ±": 7864,
      "ĠÙħÙĬØ¯": 7865,
      "ĠÙĪØ§ÙĦØŃØµÙĪÙĦ": 7866,
      "ĠØ§ÙĦØ¨Ø±ÙħØ¬Ø©": 7867,
      "ĪÙĦÙĬØ³ØªØ±ÙĪÙĦ": 7868,
      "ath": 7869,
      "ĠØªÙĪÙģÙĬ": 7870,
      "ĠØ§Ø¬ØªÙħØ§Ø¹": 7871,
      "ĠIP": 7872,
      "ĠÙĦÙĥÙĨÙĩØ§": 7873,
      "----": 7874,
      "ĠØªØ£Ø³ÙĬØ³": 7875,
      "ĠØ§ÙĦØ£Ø³ÙĩÙħ": 7876,
      "ĠØ³ÙħÙĬØ«": 7877,
      "ÙĨØ²ÙĬØ±": 7878,
      "ĠØ§ÙĦÙĦÙ": 7879,
      "ÙĬÙĨÙĪ": 7880,
      "ĠØ§ÙĦØ´ØŃÙĨ": 7881,
      "Ø¬ÙĩØ²Ø©": 7882,
      "ĠØ§ÙĦØ®ÙħØ³": 7883,
      "ĠÙĦÙĦØ¬ÙħÙĬØ¹": 7884,
      "ĠØ§ÙĦØ¹Ø§ÙħÙĦ": 7885,
      "ĠØ¹ÙĦÙħÙĬØ©": 7886,
      "ĠØ§ÙĦÙħØ¨ÙĦØº": 7887,
      "ĠÙĤØ¨ÙĪÙĦ": 7888,
      "ĠØ§ÙĦØ¯Ø§Ùģ": 7889,
      "ØªØºÙĦØ": 7890,
      "ĠØªØ³ØªÙĨØ¯": 7891,
      "ÙĩÙĨÙĬØ©": 7892,
      "ÙĦØ¯ÙĬ": 7893,
      "ÙĪÙĨÙĬØ©": 7894,
      "ĠØ¨Ø§ØŃØ«": 7895,
      "ĠØ§ÙĦØ³ÙĬØ§ÙĤ": 7896,
      "ĠØ§ÙĦÙħØ²Ø§Ø±Ø¹ÙĬÙĨ": 7897,
      "ĠØªØ£ÙĥÙĬØ¯": 7898,
      "Ġ75": 7899,
      "ĠØ§ÙĦØ¬Ø²ÙĬØ±Ø©": 7900,
      "ĠØ§Ø³ØªÙĤØ±Ø§Ø±": 7901,
      "ĠÙħØ³ØªÙħØ±Ø©": 7902,
      "ĠØ§ÙĦÙĥÙģØ§Ø¡Ø©": 7903,
      "ÙĬØªØ²": 7904,
      "ĪÙĦÙģ": 7905,
      "ĠØ±Ø³ÙħÙĬØ©": 7906,
      "ĠÙĪØ§ÙĦØ¹ÙĦÙĪÙħ": 7907,
      "ĠØ§ÙĦØªØ±Ø¯Ø¯": 7908,
      "ĠÙĪØ§ÙĨØ": 7909,
      "ĠØ§ÙĦØ²Ø§ÙĪÙĬØ©": 7910,
      "ĠØ¨Ø¶Ø¹Ø©": 7911,
      "ĠØªØ´Ø§Ø±ÙĦØ²": 7912,
      "ĠØ¨ÙĤØ¯Ø±": 7913,
      "ĠØ§ÙĦØ¯ÙħÙĪÙĬ": 7914,
      "Ø±ÙħÙĦ": 7915,
      "ĠØ®Ø¶": 7916,
      "Ø¯Ø¦": 7917,
      "ĠØ§Ø³ØªÙĨØ§Ø¯Ø§": 7918,
      "ĠØ§ÙĦØ¬Ø²ÙĬØ¦": 7919,
      "ĠØ¥ÙĨØ¯": 7920,
      "ĠÙĦÙħØ§": 7921,
      "ĠØ¬ÙħÙĬØ¹ÙĩØ§": 7922,
      "ĠØ§ÙĦØ§Ø¬ØªÙħØ§Ø¹": 7923,
      "ĠØ§ÙĦØ´Ø¨ÙĥØ§Øª": 7924,
      "ĠÙĦÙĦØ£ÙģØ±Ø§Ø¯": 7925,
      "ĠØªØ¯Ø±ÙĬØ³": 7926,
      "ĠÙĨØ±ÙĬØ¯": 7927,
      "ĠØ§ÙĦÙħÙĤØ¨ÙĦØ©": 7928,
      "ĠÙĪØ§ÙĦÙĪÙĤ": 7929,
      "ĠØªÙħÙĪÙĬÙĦ": 7930,
      "ÙĪÙĨØª": 7931,
      "ĠÙĩÙĬÙĦ": 7932,
      "Ø´ÙĬ": 7933,
      "ĠÙĪØ§ÙĦØµØŃØ©": 7934,
      "ØµÙĬÙĦ": 7935,
      "ĠØ§ÙĦØ¨Ùĥ": 7936,
      "ĠCl": 7937,
      "ĠÙĤØ¯ÙħØª": 7938,
      "Ø¨ÙĪØ·": 7939,
      "ĠØªÙħÙĦÙĥ": 7940,
      "ĠÙĦØ¹Ø¯Ø©": 7941,
      "ØªØ§ÙĬÙĨ": 7942,
      "ĠÙĬÙģØ¶": 7943,
      "ĠØ£ÙĦØ": 7944,
      "ÙĦÙĤØ§Øª": 7945,
      "ÙħØ«Ø": 7946,
      "ĠÙĦÙĦØªØ¯": 7947,
      "ÙħØ«Ø§": 7948,
      "ĬÙĪÙħ": 7949,
      "ĠØ³Ø±": 7950,
      "ÙĩÙī": 7951,
      "ĠØ§ÙĦØ±ÙĬÙģÙĬØ©": 7952,
      "ĠØ§ÙĦØ§ØŃØªÙĬØ§Ø¬Ø§Øª": 7953,
      "ĠØ§ÙĦØ£Ø±Ø²": 7954,
      "Ø§Ø¯ÙĦØ§Øª": 7955,
      "SD": 7956,
      "ert": 7957,
      "ĠØ§ÙĦØªØ¬Ø±ÙĬØ¨ÙĬØ©": 7958,
      "ĠØ§ÙĦÙħÙĤØµ": 7959,
      "ĠÙħØªØ¬Ø±": 7960,
      "ĠÙģÙĦÙĪØ±ÙĬØ¯Ø": 7961,
      "ĠÙģÙĦÙĪØ±ÙĬØ¯Ø§": 7962,
      "ĠØ¥ÙĨØ": 7963,
      "ªØ¸Ø§Ø±": 7964,
      "ĠØ§ÙĦÙĥØ§ÙĦØ³ÙĬÙĪÙħ": 7965,
      "Ø§ÙĦÙħØ§": 7966,
      "ÙĦÙĥÙĬØ©": 7967,
      "ÙĦØ§Ø©": 7968,
      "Ø§Ø¯ÙĬÙħÙĬ": 7969,
      "CO": 7970,
      "«Ø§ÙĦ": 7971,
      "ĠØ¹Ø·": 7972,
      "ĠØ§ÙĦØ¬ÙģØ§Ùģ": 7973,
      "ĠØ§ÙĦØ¨ÙĤØ±": 7974,
      "ĪØ§ØªÙģ": 7975,
      "ĠÙĦÙĦÙħØ±Ø¶Ùī": 7976,
      "ÙĨÙĬÙĩ": 7977,
      "doi": 7978,
      "ĠØ§ÙĦÙħÙģØ¶ÙĦØ©": 7979,
      "ĪÙĨÙ": 7980,
      "ĠØ£Ø¯ÙĨÙī": 7981,
      "Ø¹ÙĦÙĩ": 7982,
      "ĠØ§ÙĦÙħØ¯Ø±Ø³ÙĬØ©": 7983,
      "ĠÙĬØ´ÙĥÙĦ": 7984,
      "ÙĦØ³ÙĪÙĨ": 7985,
      "ĠÙĦÙħØ³Ø§Ø¹Ø¯ØªÙĥ": 7986,
      "ĠØ£ÙħÙĨ": 7987,
      "Ø±ÙĬØ±ÙĬ": 7988,
      "ĠØ§ÙĦÙĥÙĦØ§Ù": 7989,
      "ĠØ§ÙĦÙħÙĤØ§Ø·Ø¹Ø©": 7990,
      "ĠØªØªØ¬Ø§ÙĪØ²": 7991,
      "ØªØºÙĦØ§": 7992,
      "ÙħØ«Ø§ÙĦ": 7993,
      "ĠØ§ÙĦÙĬÙĩÙĪØ¯ÙĬØ©": 7994,
      "ĠØ§ÙĦØ±ÙĪÙħØ§": 7995,
      "ĠÙĦÙĦÙĨØ§Ø³": 7996,
      "ĠØ§ÙĦØ¯ÙĥØªÙĪØ±Ø§Ùĩ": 7997,
      "ĠØ³Ø§Ø¨": 7998,
      "ĠÙħØ¬Ø§ÙĨÙĬ": 7999,
      "ML": 8000,
      "ĠØ®Ø§Ø·Ø¦": 8001,
      "ĠÙĪØ¹ÙĨØ¯ÙħØ§": 8002,
      "ØªØºÙĦØ§ÙĦ": 8003,
      "ĠÙĪÙĤÙģ": 8004,
      "ĠØ®Øµ": 8005,
      "ĠØ§ÙĦÙħÙĥØ«": 8006,
      "Ø§Ø·Ø¦Ø©": 8007,
      "¶ÙħØ§Ùħ": 8008,
      "ĠØ§ÙĦØ§Ø´ØªØ±Ø§": 8009,
      "Ø§ÙĥØ³": 8010,
      "ĠØ§ÙĦØ·Ø¨Ø¹Ø©": 8011,
      "ĠÙħØ¸": 8012,
      "ºÙĬØ±Ø©": 8013,
      "ÙĬØªØ§ÙħÙĬÙĨØ§Øª": 8014,
      "ĠØŃÙģØ¸": 8015,
      "ĠÙĬØŃÙħÙĦ": 8016,
      "ĠØ§ÙĦÙĥÙĦØ§Ø³ÙĬÙĥÙĬØ©": 8017,
      "Ø§Ø¹Ùħ": 8018,
      "ĠÙĬØªØ¹ÙĦÙħ": 8019,
      "ĠØ¥Ø¯Ø±Ø§Ø¬": 8020,
      "ĠÙĩÙĬØ¯": 8021,
      "ĠØ§Ø±ØªØ¯Ø§Ø¡": 8022,
      "ĠØ§ÙĦÙģØ¹Ø§ÙĦØ©": 8023,
      "ĠØ¨Ø¨Ø¹Ø¶": 8024,
      "Ø±Ø¨ÙĬÙĨ": 8025,
      "Ø§Ø¯Ø±Ø§Øª": 8026,
      "ĠØ£ÙĪØ¯": 8027,
      "ĠØºØ±Ø§Ùħ": 8028,
      "ĠÙĦÙĦÙħÙĨØ": 8029,
      "ĠØ§ÙĦÙħØ¹ØªØ§Ø¯": 8030,
      "ĠØ§ÙĦØ´Ø±Ø§": 8031,
      "ĠØ§ÙĦØ¹Ø±Ø¨ÙĬØ©": 8032,
      "Ø¯Ø§Ø±Ø§Øª": 8033,
      "ÙĦÙĬØ§Ù": 8034,
      "ĠØ¨ÙĩØ°Ø§": 8035,
      "ĠÙħØ¹Ø§ÙĦØ¬": 8036,
      "ĠØ±ÙĪØ²": 8037,
      "ĠÙģØ¦Ø§Øª": 8038,
      "ĠÙĦÙĤÙĬØ§Ø³": 8039,
      "ĠÂ©": 8040,
      "ĠØ¥Ø«Ø¨Ø§Øª": 8041,
      "ĪÙģØ±Ø©": 8042,
      "ĠÙħØ¬Ø§ÙĨØ§": 8043,
      "ĠØ§ÙĦØªØ¹Ø±ÙĬÙģ": 8044,
      "ĠØ§Ø®ØªØ±Ø§Ø¹": 8045,
      "ĠØ¥ÙĬÙĤØ§Ùģ": 8046,
      "ĠØ§ÙĦØªÙħØ±ÙĬÙĨ": 8047,
      "ĠØ´Ø§Ø±": 8048,
      "ÙĨÙħØ§Ø·": 8049,
      "ĠØ§ÙĦØ£Ø³Ø±": 8050,
      "ÙĪØ¶Ø§Ø¡": 8051,
      "ĠØ¹Ø§Ø¦": 8052,
      "ĠÙĦÙĦØ´Ø±ÙĥØ§Øª": 8053,
      "ĠØ¨Ø±ÙĪØªÙĪÙĥ": 8054,
      "ĠØ§ÙĦØ§Ø³ØªÙĤÙĦ": 8055,
      "ĠÙĬØªÙĪÙĤØ¹": 8056,
      "ĠÙĬØ±ÙĬØ¯ÙĪÙĨ": 8057,
      "ĠØ³ØŃ": 8058,
      "ĠØ§ÙĦÙĥØ±Ø¨ÙĪÙĩÙĬØ¯Ø±Ø§Øª": 8059,
      "ĠÙħÙĨØ¸ÙĪØ±": 8060,
      "ÙĦÙħØ§Ø¡": 8061,
      "ĠØ§ÙĦÙĤÙĩÙĪØ©": 8062,
      "ĠÙħØ³ØªÙĤÙĦ": 8063,
      "ons": 8064,
      "ĠØ§ÙĦØ¹Ø¨ÙĪØ¯ÙĬØ©": 8065,
      "ĠØ§ÙĦÙĩÙĬØ¯Ø±ÙĪØ¬ÙĬÙĨ": 8066,
      "ĠØ£Ø³ÙĪØ¯": 8067,
      "ĠØ§ÙĦØ®ÙĪÙģ": 8068,
      "ĠÙħØ§Ø±Ùĥ": 8069,
      "ĨÙĩØ§Ø±": 8070,
      "ĠSh": 8071,
      "ĠØªÙħØ±": 8072,
      "ĠTr": 8073,
      "ÙħØ§ÙĦØ§Øª": 8074,
      "ĠÙĪØ§ÙĦØµÙ": 8075,
      "ĠØ§ÙĦØ£Ø¹Ø´Ø§Ø¨": 8076,
      "ĠØ§ÙĦÙĥÙĦØ§Ùħ": 8077,
      "ĠØ§ÙĦÙħØ¹Ø±Ø¶": 8078,
      "ĠÙĪÙħØ«": 8079,
      "ĠØ§ÙĦØªÙģØ³ÙĬØ±": 8080,
      "²Ø§ÙħÙĨ": 8081,
      "ĠÙģÙĪÙĦ": 8082,
      "¬Ù": 8083,
      "ĠØ§ÙĦØºÙĨÙĬØ©": 8084,
      "ĠAD": 8085,
      "ĠÙĪØªØ´ÙħÙĦ": 8086,
      "ĠÙħØªØ³": 8087,
      "ĠØªØ¬Ø§Ø±ÙĬØ©": 8088,
      "ĪØ§Ø±Ø«": 8089,
      "ĠØ§ÙĦÙĨØ³ÙĬØ¬": 8090,
      "co": 8091,
      "ÙģÙĥØ§Ø±": 8092,
      "ÙĪØ§ÙĬØ§Øª": 8093,
      "ĠØ§Ø³ØªÙģ": 8094,
      "ĠØ§ÙĦÙħØ±ÙĬØ®": 8095,
      "ian": 8096,
      "ĠØ¨Ø§Ø±ÙĬØ³": 8097,
      "ÙħÙĨØ¹": 8098,
      "ĠÙĦÙĦØªØ¹Ø§ÙħÙĦ": 8099,
      "ĠÙĦÙĦÙħØ¹ÙĦÙħÙĬÙĨ": 8100,
      "ÙĦÙĦÙĬ": 8101,
      "ĠÙĦÙĬÙĥÙĪÙĨ": 8102,
      "ØªÙħÙĪÙĬÙĦ": 8103,
      "ĠØ§ÙĦØ¨Ø·ÙĨ": 8104,
      "ĠØ§ÙĦØ±ØµØ§Øµ": 8105,
      "Ø¶ÙĬ": 8106,
      "ĠØ£ÙĦØ§": 8107,
      "ĠÙĬØ³ØªØŃÙĤ": 8108,
      "ĠØ§ÙĦØ³ÙĦØ§ØŃ": 8109,
      "ĠØ§ÙĦÙħØ³ØªÙħØ±Ø©": 8110,
      "ĬØ¯ÙĬ": 8111,
      "§ÙĬÙĨ": 8112,
      "ĠÙħØ¹ÙĩÙħ": 8113,
      "ĠØ§ÙĦØ£Ø³Ø§ÙĦÙĬØ¨": 8114,
      "ĠØ§ÙĦÙĨÙĤØ¯ÙĬØ©": 8115,
      "ĠØ§ÙĦÙħÙĩÙĨÙĬ": 8116,
      "ĠÙĨÙĬÙĪØ²": 8117,
      "ĠØ§ÙĦØªØ°": 8118,
      "ĠÙĪØ§ÙĦØªØ¹ÙĦÙħ": 8119,
      "ĠØ§ÙĦØªØ®Ø²ÙĬÙĨ": 8120,
      "ĠØªÙĤÙĦÙĬØ¯": 8121,
      "ĠØ§ÙĦØŃØ²Ø¨": 8122,
      "ĠØ°Ùĩ": 8123,
      "Ø³Ø§Ø¦Ø±": 8124,
      "ÙĪÙĨØºØ±Ø³": 8125,
      "ĠÙĪØ¨Ø§Ø¡": 8126,
      "79": 8127,
      "ÙĬØ³ÙĪØ±": 8128,
      "ÙĬÙĪÙĨØ§Øª": 8129,
      "Ø±ÙĬØ¶": 8130,
      "ĠØ§ÙĦØªØµÙĪÙĬØª": 8131,
      "ĠØªØ¹ÙĪØ¯": 8132,
      "ħØ±Ø§ÙĥØ²": 8133,
      "%)": 8134,
      "ĠØ®ÙĦÙģÙĬØ©": 8135,
      "Ø§ÙĦØªÙĬ": 8136,
      "ĠØªÙģÙĥØ±": 8137,
      "ĠÙĬØ«ÙĬØ±": 8138,
      "ĠØ¯ÙĤÙĬÙĤ": 8139,
      "ĠØ§ÙĦØ¨ÙĨÙĥ": 8140,
      "ØªÙĤØ¯Ø§Øª": 8141,
      "§ÙħØ¹Ø©": 8142,
      "olog": 8143,
      "Ø¯ØªÙĩØ§": 8144,
      "ĠØ¬ÙĪÙĩØ±": 8145,
      "ĠÙģØ±Ø§ÙĨØ³ÙĬØ³": 8146,
      "CR": 8147,
      "CS": 8148,
      "ĠØ®Ø°": 8149,
      "ĠÙĦØ£Ø³": 8150,
      "yl": 8151,
      "ĠØ§ÙĦØ¶Ø±Ø±": 8152,
      "ĠÙĪØªØ£Ø«ÙĬØ±": 8153,
      "ĠØ¨Ø¹ÙĬØ¯": 8154,
      "Ø§ÙħØ¹Ø©": 8155,
      "ÙĦÙĪÙĥÙĪØ²": 8156,
      "ĠÙħØŃØ§": 8157,
      "ĠÙĨÙĤØ¯Ùħ": 8158,
      "ÙĪÙĬÙĥ": 8159,
      "ĠÙĦØ£ÙĥØ«Ø±": 8160,
      "ĠØ§ÙĦØ£ØŃÙģÙĪØ±ÙĬ": 8161,
      "ĠØªØ±Ø§": 8162,
      "ĠØ§ÙĦØºØ±ÙģØ©": 8163,
      "ĠÙĬØ®ØªØ§Ø±": 8164,
      "ØŃÙĥ": 8165,
      "ĠØ§ÙĦÙĤØ§Ø¦Ùħ": 8166,
      "ĠØ§ÙĦÙħÙĩÙĨÙĬÙĬÙĨ": 8167,
      "ÙĪØ§ÙĬØ§": 8168,
      "ame": 8169,
      "ĠØªØ®Ø·ÙĬØ·": 8170,
      "LA": 8171,
      "ĠâĨ": 8172,
      "ĠØ§ÙĦØ¯Ø¬Ø§Ø¬": 8173,
      "ĠØ±Ø¬Ø§ÙĦ": 8174,
      "ÙĪÙĬØ²": 8175,
      "ĠÙĬØŃØ¨": 8176,
      "ĠÙĬÙĨÙħÙĪ": 8177,
      "ÙĬÙĨØ§ÙħÙĬÙĥÙĬØ©": 8178,
      "ĠØ§ÙĦØªØ¢ÙĥÙĦ": 8179,
      "ªÙĬØ´": 8180,
      "ĠØ§ÙĦÙĪÙģÙĬØ§Øª": 8181,
      "Ø¯Ø¹": 8182,
      "ĠØ§ÙĦÙħØ¹Ø¯ÙĨ": 8183,
      "ĠØ¥ÙĬØ·Ø§ÙĦÙĬØ§": 8184,
      "ĠØ§ÙĦÙĤÙĪÙĦ": 8185,
      "ĠØµØŃÙĬÙģØ©": 8186,
      "Ø±ÙĬØ¯Ø¬": 8187,
      "ĠØ§ÙĦÙħØªØŃØ¯Ø«": 8188,
      "ĠØ¨ÙħÙĤ": 8189,
      "ØªØ±Ø§Ø¹": 8190,
      "ĠØ§ÙĦØ±Ø³Ø§ÙĦØ©": 8191,
      "§ÙĨØ©": 8192,
      "ÙĪØ¬ÙĦ": 8193,
      "Ø±ÙĪÙĬØ¬": 8194,
      "ĠØ³ÙĨÙĤ": 8195,
      "ÙĦØ§ÙĨÙĤ": 8196,
      "§ÙĦØ§ÙĨÙĤ": 8197,
      "ĠØ®Ø": 8198,
      "ĠØ§ÙĦØ£ÙĪÙĦÙĬ": 8199,
      "²Ø§ÙĨ": 8200,
      "ĠØªÙĨØ³ÙĬÙĤ": 8201,
      "ĠØ§ÙĦØ¹Ø¸ÙħÙī": 8202,
      "ĠØ§ÙĦØ§ÙĨÙĤ": 8203,
      "ĠØªØŃÙĥÙħ": 8204,
      "ÙĩÙĬÙħÙ": 8205,
      "ĠØ¨Ø§Ù": 8206,
      "ĠØ§ÙĦØ´ÙĬ": 8207,
      "ĠØ§ÙĦØ¹Ø±ÙĤÙĬØ©": 8208,
      "ĠØ§ÙĦØ«ÙĤØ§ÙģÙĬ": 8209,
      "ĠØ§ÙĦØ³ÙħÙĪÙħ": 8210,
      "ĠØ§ÙĦÙħØ·Ø±": 8211,
      "ØªÙħØ«ÙĬÙĦ": 8212,
      "ĠØªØªØºÙĬØ±": 8213,
      "Ã©": 8214,
      "ÙħØ±Ø§ÙĥØ²": 8215,
      "Ø¯ØªÙĩ": 8216,
      "ĠØ§ÙĦØ®ÙģÙĬÙģØ©": 8217,
      "ĠØ§ÙĦØ§ÙĨØªØ®Ø§Ø¨Ø§Øª": 8218,
      "ÙĬØ¶Ø§ÙĨØ§Øª": 8219,
      "ĠØ§ÙĦØªØ³ÙĪÙĬÙĤ": 8220,
      "ĠÙĬØªØºÙĬØ±": 8221,
      "ĠÙĥÙĨÙĬØ³Ø©": 8222,
      "ĠØªÙĥÙĬÙĬÙģ": 8223,
      "ĠÙĪÙĨÙĤ": 8224,
      "ĠØ§ÙĦØ³ÙģÙĬÙĨØ©": 8225,
      "ĠØ´ÙĥØ³Ø¨ÙĬØ±": 8226,
      "ĠØ§ÙĦØ´ÙĪÙĥ": 8227,
      "ĠØ¬Ø²Ø±": 8228,
      "ÙĦØªÙħÙĪÙĬÙĦ": 8229,
      "ĠØ§ÙĦØªÙģØ§Ø¹ÙĦØ§Øª": 8230,
      "ĠØ§ÙĦØ£Ø«": 8231,
      "ĠØŃÙĬÙĪÙĬØ©": 8232,
      "§ÙĦØªÙħÙĪÙĬÙĦ": 8233,
      "ĠÙĦØ¬ÙħØ¹": 8234,
      "ĠÙĥØ·": 8235,
      "ĠÙħØªØ§ØŃ": 8236,
      "ĠØ§ÙĦØµÙģØ±Ø§Ø¡": 8237,
      "OR": 8238,
      "ĠØ§ÙĦØ¨Ø§Ø¨": 8239,
      "ĠØ¨ØªØ·ÙĪÙĬØ±": 8240,
      "ĠØ¨ØŃØ±ÙĬØ©": 8241,
      "ÙħÙĦØ§Øª": 8242,
      "ĠØ§ÙĦÙħÙĩÙĨØ¯": 8243,
      "Ø±Ø¬ÙĬÙĨÙĬØ§": 8244,
      "ĠØ§ÙĦØ·Ø±Ùģ": 8245,
      "ÙħÙĬØ²Ø©": 8246,
      "ĠØ§ÙĦÙĤÙĨØ¨": 8247,
      "ĠØŃÙĬÙĪÙĬ": 8248,
      "ĠÙħØ§Ø±Ù": 8249,
      "ĠØ§ØŃØªØ±Ø§Ùħ": 8250,
      "ue": 8251,
      "ĪÙĨÙĬ": 8252,
      "ĠØ®Ø§Ø±Ø¬ÙĬØ©": 8253,
      "ĠÙĨØ¸Ø±Ø§": 8254,
      "ÙĦØ²Ø§": 8255,
      "Ø±ÙĤØ§Ø¡": 8256,
      "ĠØ§ÙĦØ§ÙĨØªÙĩØ§Ø¡": 8257,
      "ĠØ§ÙĦÙħØ¨ÙĨÙī": 8258,
      "ĠØªÙĪÙĤØ¹Ø§Øª": 8259,
      "ĠÙĪÙĨØ´": 8260,
      "ĪØ¨ÙĨØ§Ø¡": 8261,
      "ÙĪØ¨ÙĨØ§Ø¡": 8262,
      "ĠÙħØµØ§Ø¨": 8263,
      "ies": 8264,
      "Ø±Ø§ÙĬ": 8265,
      "ĠÙĪØ¨ÙĨØ§Ø¡": 8266,
      "ĪØ§Ø¬Ø²": 8267,
      "ĠÙħÙĪÙĨØ": 8268,
      "ĠØ§ÙĦÙĨØ´Ø±": 8269,
      "act": 8270,
      "66": 8271,
      "ÙħÙħÙ": 8272,
      "ĠØ§ÙĦÙĩÙĪÙĬØ©": 8273,
      "ĠØ¹Ø§Ø¦ÙĦ": 8274,
      "ĠÙħØŃÙĪØ±": 8275,
      "Ġ$": 8276,
      "ĠØ¨ÙħØ³Ø§Ø¹Ø¯Ø©": 8277,
[...]
