{
  "version": "1.0",
  "truncation": null,
  "padding": null,
  "added_tokens": [
    {
      "id": 0,
      "content": "<|endoftext|>",
      "single_word": false,
      "lstrip": false,
      "rstrip": false,
      "normalized": false,
      "special": true
    }
  ],
  "normalizer": null,
  "pre_tokenizer": {
    "type": "ByteLevel",
    "add_prefix_space": false,
    "trim_offsets": true,
    "use_regex": true
  },
  "post_processor": {
    "type": "ByteLevel",
    "add_prefix_space": true,
    "trim_offsets": false,
    "use_regex": true
  },
  "decoder": null,
  "model": {
    "type": "BPE",
    "dropout": null,
    "unk_token": null,
    "continuing_subword_prefix": null,
    "end_of_word_suffix": null,
    "fuse_unk": false,
    "byte_fallback": false,
    "ignore_merges": false,
    "vocab": {
      "<|endoftext|>": 0,
      "!": 1,
      "\"": 2,
      "#": 3,
      "$": 4,
      "%": 5,
      "&": 6,
      "'": 7,
      "(": 8,
      ")": 9,
      "*": 10,
      "+": 11,
      ",": 12,
      "-": 13,
      ".": 14,
      "/": 15,
      "0": 16,
      "1": 17,
      "2": 18,
      "3": 19,
      "4": 20,
      "5": 21,
      "6": 22,
      "7": 23,
      "8": 24,
      "9": 25,
      ":": 26,
      ";": 27,
      "<": 28,
      "=": 29,
      ">": 30,
      "?": 31,
      "@": 32,
      "A": 33,
      "B": 34,
      "C": 35,
      "D": 36,
      "E": 37,
      "F": 38,
      "G": 39,
      "H": 40,
      "I": 41,
      "J": 42,
      "K": 43,
      "L": 44,
      "M": 45,
      "N": 46,
      "O": 47,
      "P": 48,
      "Q": 49,
      "R": 50,
      "S": 51,
      "T": 52,
      "U": 53,
      "V": 54,
      "W": 55,
      "X": 56,
      "Y": 57,
      "Z": 58,
      "[": 59,
      "\\": 60,
      "]": 61,
      "^": 62,
      "_": 63,
      "`": 64,
      "a": 65,
      "b": 66,
      "c": 67,
      "d": 68,
      "e": 69,
      "f": 70,
      "g": 71,
      "h": 72,
      "i": 73,
      "j": 74,
      "k": 75,
      "l": 76,
      "m": 77,
      "n": 78,
      "o": 79,
      "p": 80,
      "q": 81,
      "r": 82,
      "s": 83,
      "t": 84,
      "u": 85,
      "v": 86,
      "w": 87,
      "x": 88,
      "y": 89,
      "z": 90,
      "{": 91,
      "|": 92,
      "}": 93,
      "~": 94,
      "¡": 95,
      "¢": 96,
      "£": 97,
      "¤": 98,
      "¥": 99,
      "¦": 100,
      "§": 101,
      "¨": 102,
      "©": 103,
      "ª": 104,
      "«": 105,
      "¬": 106,
      "®": 107,
      "¯": 108,
      "°": 109,
      "±": 110,
      "²": 111,
      "³": 112,
      "´": 113,
      "µ": 114,
      "¶": 115,
      "·": 116,
      "¸": 117,
      "¹": 118,
      "º": 119,
      "»": 120,
      "¼": 121,
      "½": 122,
      "¾": 123,
      "¿": 124,
      "À": 125,
      "Á": 126,
      "Â": 127,
      "Ã": 128,
      "Ä": 129,
      "Å": 130,
      "Æ": 131,
      "Ç": 132,
      "È": 133,
      "É": 134,
      "Ê": 135,
      "Ë": 136,
      "Ì": 137,
      "Í": 138,
      "Î": 139,
      "Ï": 140,
      "Ð": 141,
      "Ñ": 142,
      "Ò": 143,
      "Ó": 144,
      "Ô": 145,
      "Õ": 146,
      "Ö": 147,
      "×": 148,
      "Ø": 149,
      "Ù": 150,
      "Ú": 151,
      "Û": 152,
      "Ü": 153,
      "Ý": 154,
      "Þ": 155,
      "ß": 156,
      "à": 157,
      "á": 158,
      "â": 159,
      "ã": 160,
      "ä": 161,
      "å": 162,
      "æ": 163,
      "ç": 164,
      "è": 165,
      "é": 166,
      "ê": 167,
      "ë": 168,
      "ì": 169,
      "í": 170,
      "î": 171,
      "ï": 172,
      "ð": 173,
      "ñ": 174,
      "ò": 175,
      "ó": 176,
      "ô": 177,
      "õ": 178,
      "ö": 179,
      "÷": 180,
      "ø": 181,
      "ù": 182,
      "ú": 183,
      "û": 184,
      "ü": 185,
      "ý": 186,
      "þ": 187,
      "ÿ": 188,
      "Ā": 189,
      "ā": 190,
      "Ă": 191,
      "ă": 192,
      "Ą": 193,
      "ą": 194,
      "Ć": 195,
      "ć": 196,
      "Ĉ": 197,
      "ĉ": 198,
      "Ċ": 199,
      "ċ": 200,
      "Č": 201,
      "č": 202,
      "Ď": 203,
      "ď": 204,
      "Đ": 205,
      "đ": 206,
      "Ē": 207,
      "ē": 208,
      "Ĕ": 209,
      "ĕ": 210,
      "Ė": 211,
      "ė": 212,
      "Ę": 213,
      "ę": 214,
      "Ě": 215,
      "ě": 216,
      "Ĝ": 217,
      "ĝ": 218,
      "Ğ": 219,
      "ğ": 220,
      "Ġ": 221,
      "ġ": 222,
      "Ģ": 223,
      "ģ": 224,
      "Ĥ": 225,
      "ĥ": 226,
      "Ħ": 227,
      "ħ": 228,
      "Ĩ": 229,
      "ĩ": 230,
      "Ī": 231,
      "ī": 232,
      "Ĭ": 233,
      "ĭ": 234,
      "Į": 235,
      "į": 236,
      "İ": 237,
      "ı": 238,
      "Ĳ": 239,
      "ĳ": 240,
      "Ĵ": 241,
      "ĵ": 242,
      "Ķ": 243,
      "ķ": 244,
      "ĸ": 245,
      "Ĺ": 246,
      "ĺ": 247,
      "Ļ": 248,
      "ļ": 249,
      "Ľ": 250,
      "ľ": 251,
      "Ŀ": 252,
      "ŀ": 253,
      "Ł": 254,
      "ł": 255,
      "Ń": 256,
      "Ðµ": 257,
      "Ð¸": 258,
      "Ð°": 259,
      "Ð½": 260,
      "ÑĤ": 261,
      "¾Ð": 262,
      "Ð¾Ð": 263,
      "Ñģ": 264,
      "ÑĢ": 265,
      "Ð»": 266,
      "Ð²": 267,
      "Ðº": 268,
      "Ġt": 269,
      "Ð¼": 270,
      "Ð¿": 271,
      "Ġa": 272,
      "Ñĥ": 273,
      "Ð´": 274,
      "in": 275,
      "he": 276,
      "Ñı": 277,
      "Ñĭ": 278,
      "ĠÐ¿": 279,
      "ÑĮ": 280,
      "re": 281,
      "on": 282,
      "ÑģÑĤ": 283,
      "ĠÐ²": 284,
      "Ġthe": 285,
      "Ð·": 286,
      "Ñĩ": 287,
      "er": 288,
      "ĠÑģ": 289,
      "at": 290,
      "Ġs": 291,
      "Ġo": 292,
      "ÐµÐ½": 293,
      "ĠÐ½": 294,
      "en": 295,
      "Ġc": 296,
      "ĠÐ¸": 297,
      "ÑĢÐ°": 298,
      "es": 299,
      "Ð³": 300,
      "Ð±": 301,
      "Ð¾Ð²": 302,
      "is": 303,
      "Ġw": 304,
      "nd": 305,
      "Ñħ": 306,
      "it": 307,
      "or": 308,
      "Ġp": 309,
      "al": 310,
      "an": 311,
      "ĠÐº": 312,
      "ing": 313,
      "Ġf": 314,
      "Ġb": 315,
      "Ġof": 316,
      "ÑĢÐµ": 317,
      "Ð¹": 318,
      "ed": 319,
      "Ġin": 320,
      "ou": 321,
      "ar": 322,
      "Ð¾Ð»": 323,
      "Ð»Ð¸": 324,
      "Ġm": 325,
      "¾ÑĤ": 326,
      "ic": 327,
      "Ġand": 328,
      "Ð¶": 329,
      "Ñİ": 330,
      "ÐµÑĤ": 331,
      "Ð¾ÑĤ": 332,
      "Ġto": 333,
      "ĠÐ´": 334,
      "Ð½Ð¸": 335,
      "ion": 336,
      "Ġd": 337,
      "Ð¾Ð´": 338,
      "¾ÑĢ": 339,
      "Ð¾Ð¼": 340,
      "Ð¾ÑĢ": 341,
      "ĠÑĤ": 342,
      "Ð½Ñĭ": 343,
      "ÑĪ": 344,
      "ĠÐ¼": 345,
      "Ð½Ð": 346,
      "Ð½Ð¾": 347,
      "ÐµÑĢ": 348,
      "le": 349,
      "Ð¾Ð³": 350,
      "ĠÐ½Ð°": 351,
      "ro": 352,
      "ÑĨ": 353,
      "Ð¸ÑĤ": 354,
      "Ð°ÑĤ": 355,
      "as": 356,
      "ÐµÐ»": 357,
      "ĠÐ±": 358,
      "Ð¾Ð¹": 359,
      "ent": 360,
      "ĠÐ¿ÑĢ": 361,
      "âĢ": 362,
      "Ð¾Ð±": 363,
      "Ð½Ð°": 364,
      "ÐµÐ½Ð¸": 365,
      "Ġh": 366,
      "ÑģÐº": 367,
      "ct": 368,
      "Ġth": 369,
      "Ð°Ð»": 370,
      "Ġe": 371,
      "ĠÑĩ": 372,
      "il": 373,
      "Ð°Ðº": 374,
      "Ġre": 375,
      "ÐµÐ¼": 376,
      "ĠÑ": 377,
      "om": 378,
      "Ñī": 379,
      "ve": 380,
      "ÑģÑı": 381,
      "¾Ñģ": 382,
      "Ð¾Ñģ": 383,
      "ĠÐ·": 384,
      "ĠÐ½Ðµ": 385,
      "st": 386,
      "Ġl": 387,
      "ĠÑĥ": 388,
      "ÑĤÐ": 389,
      "ÑĤÐ¾": 390,
      "Ġn": 391,
      "¾Ð½": 392,
      "Ð¾Ð½": 393,
      "Ð°Ð½": 394,
      "Ġis": 395,
      "ĠÐ³": 396,
      "et": 397,
      "ÑģÑĤÐ²": 398,
      "ly": 399,
      "ĠT": 400,
      "Ð»Ð°": 401,
      "Ð¾Ð³Ð": 402,
      "Ð¾Ð³Ð¾": 403,
      "ol": 404,
      "ation": 405,
      "Ġg": 406,
      "us": 407,
      "im": 408,
      "id": 409,
      "Ġbe": 410,
      "Ð¼Ð¸": 411,
      "Ġ(": 412,
      "ce": 413,
      "ra": 414,
      "ÑĨÐ¸": 415,
      "Ġ1": 416,
      "ch": 417,
      "ĠÑĢÐ°": 418,
      "ow": 419,
      "ÐµÐ¹": 420,
      "ÑĢÑĥ": 421,
      "ut": 422,
      "ĠÑį": 423,
      "ot": 424,
      "ĠA": 425,
      "ur": 426,
      "¾ÑģÑĤ": 427,
      "Ð¾ÑģÑĤ": 428,
      "Ġfor": 429,
      "ig": 430,
      "ĠS": 431,
      "Ð´Ð°": 432,
      "Ð¾Ðº": 433,
      "ÐĴ": 434,
      "ÐºÐ°": 435,
      "Ġy": 436,
      "Ð¾Ð¶": 437,
      "Ġst": 438,
      "Ð²Ð°": 439,
      "Ð»Ñı": 440,
      "Ġon": 441,
      "ÑĤÐ¸": 442,
      "ĠI": 443,
      "Ð¡": 444,
      "ĠC": 445,
      "ÑĢÐ¸": 446,
      "Ð»Ðµ": 447,
      "ver": 448,
      "ÐŁ": 449,
      "ĠÐ¾ÑĤ": 450,
      "el": 451,
      "Ġthat": 452,
      "ul": 453,
      "ir": 454,
      "Ð°ÑĤÑĮ": 455,
      "ĠÐ·Ð°": 456,
      "ĠâĢ": 457,
      "ay": 458,
      "ĠÐ¿ÑĢÐ¸": 459,
      "Ð¾Ð»ÑĮ": 460,
      "ĠÑģÑĤ": 461,
      "ĠÐ¾Ð±": 462,
      "Ð¾Ð¿": 463,
      "ÑĩÐµ": 464,
      "am": 465,
      "ĠÐµ": 466,
      "Ġyou": 467,
      "se": 468,
      "ith": 469,
      "Ġas": 470,
      "Ġpro": 471,
      "ÑĦ": 472,
      "Ð¾Ð·": 473,
      "ÐµÐ»ÑĮ": 474,
      "Ġcon": 475,
      "ÐºÐ¸": 476,
      "Ġare": 477,
      "Ġan": 478,
      "ad": 479,
      "Ð¸Ð»": 480,
      "ĠÐ±Ñĭ": 481,
      "ÐµÐ½Ð¸Ñı": 482,
      "ĠÐ²Ñĭ": 483,
      "ÑĢÐµÐ´": 484,
      "if": 485,
      "ĠÐ°": 486,
      "Ð³Ð": 487,
      "Ð³Ð¾": 488,
      "Ðļ": 489,
      "ĠÑĩÑĤÐ¾": 490,
      "Ġwith": 491,
      "her": 492,
      "Ð¸Ð½": 493,
      "Ġ2": 494,
      "ĠÐ¿Ð": 495,
      "ĠÐ¿Ð¾": 496,
      "Ð°Ð½Ð¸": 497,
      "Ġor": 498,
      "Ð¸Ð¼": 499,
      "od": 500,
      "ĠÐĴ": 501,
      "ĠM": 502,
      "ter": 503,
      "Ġal": 504,
      "ess": 505,
      "Ġit": 506,
      "Ð¸Ñħ": 507,
      "ÐĿ": 508,
      "ment": 509,
      "ĠP": 510,
      "un": 511,
      "ĠThe": 512,
      "Ġwh": 513,
      "Ð½Ð¾Ð¹": 514,
      "ĠÐ¸Ð·": 515,
      "ge": 516,
      "Ðŀ": 517,
      "Ð½ÑĭÑħ": 518,
      "th": 519,
      "ĠÐ¡": 520,
      "ers": 521,
      "ate": 522,
      "ÑĥÑİ": 523,
      "Ð½Ð¾ÑģÑĤ": 524,
      "ĠÐŁ": 525,
      "Ð°ÑĢ": 526,
      "Ġde": 527,
      "op": 528,
      "ab": 529,
      "Ð°Ð¼": 530,
      "ist": 531,
      "Ġex": 532,
      "Ð¶Ðµ": 533,
      "ÐĲ": 534,
      "ies": 535,
      "ect": 536,
      "ĠB": 537,
      "ÐµÐ½Ð¸Ðµ": 538,
      "ÑĤÑĮ": 539,
      "Ð°Ð²": 540,
      "Ġcom": 541,
      "ill": 542,
      "Ġhe": 543,
      "res": 544,
      "Ð¸Ðµ": 545,
      "ity": 546,
      "um": 547,
      "ive": 548,
      "ÑĢÐ¾Ð²": 549,
      "ÑģÐ¿": 550,
      "Ð½ÑĭÐµ": 551,
      "¾Ñĩ": 552,
      "Ðľ": 553,
      "Ð¾Ñĩ": 554,
      "Ð¸ÑĤÑĮ": 555,
      "Ð½Ð¾Ð³Ð¾": 556,
      "ĠÑĦ": 557,
      "Ġv": 558,
      "ĠÑģÐ²": 559,
      "est": 560,
      "qu": 561,
      "ĠW": 562,
      "ÐµÐ´": 563,
      "âĢĻ": 564,
      "ÑģÑĮ": 565,
      "ac": 566,
      "ore": 567,
      "ant": 568,
      "ĠÑĢÐµ": 569,
      "ere": 570,
      "os": 571,
      "ĠH": 572,
      "ÑĩÐµÑģÐº": 573,
      "ÐµÑĢÐµ": 574,
      "Ġsu": 575,
      "Ðĺ": 576,
      "em": 577,
      "ĠÐļ": 578,
      "iv": 579,
      "Ġcan": 580,
      "ke": 581,
      "Ġha": 582,
      "ÑİÑĤ": 583,
      "Ð¾ÑĤÐ¾ÑĢ": 584,
      "ĠD": 585,
      "Ð½Ðµ": 586,
      "ĠE": 587,
      "ÐĶ": 588,
      "rom": 589,
      "ain": 590,
      "pp": 591,
      "ĠÐºÐ°Ðº": 592,
      "ĠÑĢÐ°Ð·": 593,
      "Ð°Ð»ÑĮ": 594,
      "Ġby": 595,
      "ud": 596,
      "00": 597,
      "oc": 598,
      "ĠÑı": 599,
      "ÑĤÐ°": 600,
      "ÐµÑĤÑģÑı": 601,
      "ÐµÐº": 602,
      "ld": 603,
      "Ð¸Ð¹": 604,
      "Ð¢": 605,
      "Ð¸Ð²": 606,
      "Ġus": 607,
      "igh": 608,
      "ĠR": 609,
      "ial": 610,
      "ÑĩÐ°": 611,
      "ĠF": 612,
      "ĠÐ»": 613,
      "Ġch": 614,
      "ÑīÐµ": 615,
      "ort": 616,
      "Ð½ÑĭÐ¹": 617,
      "ÑĢÐ°Ð²": 618,
      "Ðł": 619,
      "ĠÐĿ": 620,
      "ĠÑĤÐ°Ðº": 621,
      "ĠÐ¿Ð¾Ð´": 622,
      "Ð¸Ñģ": 623,
      "ÑģÐµ": 624,
      "Ġ-": 625,
      "Ġr": 626,
      "Ġat": 627,
      "nt": 628,
      "ure": 629,
      "ÑĥÐ´": 630,
      "and": 631,
      "ĠÐ¿Ð¾Ð»": 632,
      "ĠÐºÐ¾ÑĤÐ¾ÑĢ": 633,
      "Ġfrom": 634,
      "ÐºÐ": 635,
      "ÐºÐ¾": 636,
      "Ġne": 637,
      "ÑĥÑĤ": 638,
      "ical": 639,
      "Ð¼ÐµÐ½": 640,
      "Ð¸Ð·": 641,
      "ÑħÐ¾Ð´": 642,
      "Ġse": 643,
      "ĠÐŀ": 644,
      "Ġle": 645,
      "og": 646,
      "Â»": 647,
      "ĠÐ¶": 648,
      "ĠÐľ": 649,
      "ĠÐ¿ÑĢÐ": 650,
      "ĠÐ¿ÑĢÐ¾": 651,
      "Â«": 652,
      "ÐµÑģÑĤ": 653,
      "ĠG": 654,
      "art": 655,
      "Ðĳ": 656,
      "ĠL": 657,
      "Ġwas": 658,
      "ĠN": 659,
      "¾Ðµ": 660,
      "Ð¾Ðµ": 661,
      "Ð»ÑĮ": 662,
      "ÑģÑģ": 663,
      "Ġen": 664,
      "Ð¸Ð´": 665,
      "ĠÑħ": 666,
      "ri": 667,
      "ÑĭÐµ": 668,
      "Ġ\"": 669,
      "Ġnot": 670,
      "Ġhave": 671,
      "Ġsh": 672,
      "Ð¼Ð°": 673,
      "ĠÐ´Ð»Ñı": 674,
      "pe": 675,
      "ĠÂ«": 676,
      "ĠÐĲ": 677,
      "pt": 678,
      "Ð¸Ð¸": 679,
      "Ġwor": 680,
      "Ð°Ð·": 681,
      "Ñĳ": 682,
      "ions": 683,
      "du": 684,
      "ÑĨÐ¸Ð¸": 685,
      "per": 686,
      "Ġthis": 687,
      "ĠÐĶ": 688,
      "Ð¸Ðº": 689,
      "Ð°Ñı": 690,
      "ĠÑįÑĤ": 691,
      "ight": 692,
      "Ġim": 693,
      "Ġ19": 694,
      "ĠâĢĶ": 695,
      "ÑĪÐµ": 696,
      "our": 697,
      "ĠÐ¿ÑĢÐµÐ´": 698,
      "ine": 699,
      "Ġab": 700,
      "Ðĵ": 701,
      "Ġyour": 702,
      "act": 703,
      "ag": 704,
      "all": 705,
      "Ġwe": 706,
      "Ð´Ðµ": 707,
      "ÑĢÑĭ": 708,
      "¾Ð½Ð°": 709,
      "Ð¾Ð½Ð°": 710,
      "rou": 711,
      "Ð¸Ñı": 712,
      "ost": 713,
      "ich": 714,
      "ĠÐĺ": 715,
      "pl": 716,
      "Ð¸ÑĩÐµÑģÐº": 717,
      ").": 718,
      "Ġpl": 719,
      "Ð»Ð": 720,
      "Ð»Ð¾": 721,
      "ĠÐ¢": 722,
      "ÑıÑĤ": 723,
      "Ġu": 724,
      "ome": 725,
      "Ð½ÑĭÐ¼": 726,
      "ÑĭÑħ": 727,
      "ĠÐ»Ð¸": 728,
      "out": 729,
      "ated": 730,
      "ff": 731,
      "ell": 732,
      "ÐµÐ·": 733,
      "ĠÐ²ÑģÐµ": 734,
      "ÑĥÑĩ": 735,
      "The": 736,
      "..": 737,
      "Ð°Ð»Ð¸": 738,
      "ĠÑģÐ¿": 739,
      "Ð»ÐµÐ´": 740,
      "ĠO": 741,
      "iz": 742,
      "Ðķ": 743,
      "Ð¶Ð´": 744,
      "age": 745,
      "Ð½Ð¾Ðµ": 746,
      "gh": 747,
      "ard": 748,
      "ther": 749,
      "ÑĤÐµ": 750,
      "ÐºÑĥ": 751,
      "ĠÐĳ": 752,
      "ÑĭÐ¹": 753,
      "Ð¼Ðµ": 754,
      "Ġint": 755,
      "ru": 756,
      "are": 757,
      "ould": 758,
      "Ġtheir": 759,
      "ĠÑįÑĤÐ¾": 760,
      "ide": 761,
      "ĠÑģÐ»": 762,
      "ult": 763,
      "Ġk": 764,
      "ÐµÐ²": 765,
      "Ð¾Ð¼Ñĥ": 766,
      "ak": 767,
      "ĠÐł": 768,
      "ans": 769,
      "ĠÐ¸Ð½": 770,
      "Ð·Ð°": 771,
      "Ð½Ð°Ñı": 772,
      "ĠÐ¼Ð¾Ð¶": 773,
      "ĠÐ¾Ð´": 774,
      "ĠÐ¸Ð»Ð¸": 775,
      "Ġad": 776,
      "Ð½Ð¾ÑģÑĤÐ¸": 777,
      "Ġcomp": 778,
      "ast": 779,
      "ÐµÐ½ÑĤ": 780,
      "ÐºÐ¾Ð²": 781,
      "Ð½Ñı": 782,
      "ĠÐºÐ¾Ð½": 783,
      "Ð½Ð¾Ð²": 784,
      "ĠÐµÐ³Ð¾": 785,
      "Ð½Ð¾ÑģÑĤÑĮ": 786,
      "Ð¸ÑĤÐµÐ»ÑĮ": 787,
      "ous": 788,
      "ĠU": 789,
      "Ġcont": 790,
      "ĠÐ¾Ð¿": 791,
      "ĠÐ¿Ð¾Ñģ": 792,
      "ĠÐ³Ð¾Ð´": 793,
      "ear": 794,
      "Ġinc": 795,
      "ĠIn": 796,
      "ÐŃ": 797,
      "Ð°Ñģ": 798,
      "ÑĢÑĥÐ³": 799,
      "ood": 800,
      "Ð¸Ð»Ð¸": 801,
      "ib": 802,
      "ĠÐ¾Ñģ": 803,
      "ĠâĢĵ": 804,
      "cc": 805,
      "Ġ3": 806,
      "ÑģÑĤÐ²ÐµÐ½": 807,
      "Ġwhich": 808,
      "ations": 809,
      "ÐĽ": 810,
      "end": 811,
      "Ġwhe": 812,
      "ust": 813,
      "Ġwill": 814,
      "Ġres": 815,
      "Ð°Ð»Ð°": 816,
      "vel": 817,
      "ie": 818,
      "Ġdis": 819,
      "ip": 820,
      "ĠJ": 821,
      "ia": 822,
      "Ġ20": 823,
      "ĠÑĢ": 824,
      "orm": 825,
      "ÐµÐ½ÑĮ": 826,
      "Ġall": 827,
      "so": 828,
      "ks": 829,
      "ÐµÐ»Ð¸": 830,
      "ĠÑĨ": 831,
      "ÑģÑĤÐ²Ð°": 832,
      "Ð¸ÑģÑĤ": 833,
      "Ġthey": 834,
      "ÑĢÐ°Ð·": 835,
      "Ð¼ÐµÑĢ": 836,
      "ĠÐ¾Ð½": 837,
      "ary": 838,
      "âĢĿ": 839,
      "able": 840,
      "ĠÐ²Ð¾Ð·": 841,
      "ÑĢÐ°Ð½": 842,
      "ĠÑĤÐµ": 843,
      "Ñį": 844,
      "ĠÐĵ": 845,
      "Ġmore": 846,
      "ong": 847,
      "ÑĢÐ": 848,
      "ÑĢÐ¾": 849,
      "ence": 850,
      "Ġhas": 851,
      "Ġdo": 852,
      "ÑĥÐ¿": 853,
      "ĠÑĪ": 854,
      "ĠTh": 855,
      "Ð¾Ð»ÑĮÐºÐ¾": 856,
      "Ð¾Ð³Ð´Ð°": 857,
      "ap": 858,
      "Ð¸Ð½Ð°": 859,
      "Ð»Ñİ": 860,
      "ÑģÐ»Ð¸": 861,
      "ĠÐ¿ÑĢÐµ": 862,
      "ance": 863,
      "ual": 864,
      "ind": 865,
      "Ġimp": 866,
      "Ð¾Ð±Ñĭ": 867,
      "ater": 868,
      "Ð»ÐµÐ½": 869,
      "ÑĥÐ¶": 870,
      "Ġman": 871,
      "Ð°Ð½Ð¸Ñı": 872,
      "ire": 873,
      "Ð°ÑģÑĤ": 874,
      "ÑİÑī": 875,
      "ÑĭÐ²Ð°": 876,
      "Ġte": 877,
      "ry": 878,
      "ÑĢÐµÐ¼": 879,
      "Ġcl": 880,
      "ĠÐ¿ÐµÑĢÐµ": 881,
      "Ġun": 882,
      "Ð£": 883,
      "ents": 884,
      "ĠÐ½Ð": 885,
      "ĠÑģÐ²Ð": 886,
      "ĠÑģÐ²Ð¾": 887,
      "ĠÐ½Ð¾": 888,
      "),": 889,
      "ĠÐºÐ¾Ð¼": 890,
      "ign": 891,
      "rit": 892,
      "ach": 893,
      "Ð±Ð¾ÑĤ": 894,
      "ĠÐºÐ°": 895,
      "Ð²ÐµÑĢ": 896,
      "oo": 897,
      "ep": 898,
      "Ġme": 899,
      "ÑģÑĤÐ²Ð": 900,
      "ÑģÑĤÐ²Ð¾": 901,
      "Ġalso": 902,
      "ild": 903,
      "ction": 904,
      "Ð°Ð¹": 905,
      "Ġother": 906,
      "¾Ð½Ð¸": 907,
      "Ð¾Ð½Ð¸": 908,
      "ĠâĢľ": 909,
      "ÑĤÐ¾ÑĢ": 910,
      "Ð½Ð¾Ð¼": 911,
      "ÐĹ": 912,
      "ress": 913,
      "reat": 914,
      "Ð°Ð´": 915,
      "ase": 916,
      "ake": 917,
      "ĠÑģÐ°Ð¼": 918,
      "ass": 919,
      "Ð¾Ð»Ðµ": 920,
      "Ġper": 921,
      "av": 922,
      "ÑĥÑĢ": 923,
      "Ġj": 924,
      "¾Ñı": 925,
      "Ð¾Ñı": 926,
      "ĠÐŃ": 927,
      "ĠÐ¿ÐµÑĢ": 928,
      "ition": 929,
      "Ð½Ñĥ": 930,
      "Ġbut": 931,
      "ice": 932,
      "ÐµÑĢÐ°": 933,
      "ĠÐ»Ñİ": 934,
      "ĠÑģÐ": 935,
      "ĠÑģÐ¾": 936,
      "Ġone": 937,
      "Ġpre": 938,
      "ĠÐ´ÑĢÑĥÐ³": 939,
      "ces": 940,
      "Ġapp": 941,
      "Ġsp": 942,
      "Ð½ÑĥÑİ": 943,
      "Ġar": 944,
      "ory": 945,
      "Ð¤": 946,
      "ĠÐ±ÑĥÐ´": 947,
      "Ð°ÑĤÐµÐ»ÑĮ": 948,
      "Ġstud": 949,
      "one": 950,
      "aus": 951,
      "Ð°Ð¼Ð¸": 952,
      "ĠÑĤÐ": 953,
      "ĠÑĤÐ¾": 954,
      "ime": 955,
      "ĠÐ±Ð¾Ð»ÑĮ": 956,
      "Ġsy": 957,
      "Ġso": 958,
      "Ð²Ð¸": 959,
      "ber": 960,
      "Ġout": 961,
      "ens": 962,
      "ÐºÑĤ": 963,
      "Ð¸Ð»ÑĮ": 964,
      "ord": 965,
      "Ġinf": 966,
      "ÐµÐ¼Ñĥ": 967,
      "ace": 968,
      "ĠSt": 969,
      "ĠÐ¸ÑģÐ¿": 970,
      "ang": 971,
      "Ġwere": 972,
      "Ð¾Ð»ÑĮÐ·": 973,
      "'s": 974,
      "ĠÐķ": 975,
      "ish": 976,
      "very": 977,
      "Ġpart": 978,
      "ÐµÑĩ": 979,
      "¾ÑĢÐ°": 980,
      "Ð§": 981,
      "Ð¾ÑĢÐ°": 982,
      "ĠÐĽ": 983,
      "Ġabout": 984,
      "ors": 985,
      "ack": 986,
      "olog": 987,
      "ue": 988,
      "Ġqu": 989,
      "Ġ4": 990,
      "ount": 991,
      "ĠÐ²ÑĢÐµÐ¼": 992,
      "iff": 993,
      "ĠÐ¾Ðº": 994,
      "ub": 995,
      "ĠÐ·Ð½Ð°": 996,
      "ĠÐ¶Ðµ": 997,
      "Ð°Ñħ": 998,
      "ĠK": 999,
      "ree": 1000,
      "ÑĤÐ¾Ð±Ñĭ": 1001,
      "Ġev": 1002,
      "ĠÐ¼Ð¾Ð¶ÐµÑĤ": 1003,
      "ÑĢÐ¾Ñģ": 1004,
      "ĠÐ´Ð": 1005,
      "ĠÐ´Ð¾": 1006,
      "ĠÐ´Ð¾Ð»": 1007,
      "ÑĢÑı": 1008,
      "Ġcomm": 1009,
      "Ð²ÐµÑĤ": 1010,
      "Ġpe": 1011,
      "Ð¸Ð²Ð°": 1012,
      "Ġsc": 1013,
      "Ð¯": 1014,
      "ÐºÐµ": 1015,
      "ÑĥÐ±": 1016,
      "Ð°ÑĢÐ°": 1017,
      "Ġ5": 1018,
      "ose": 1019,
      "Ð´ÐµÐ»": 1020,
      "ĠIt": 1021,
      "ric": 1022,
      "ame": 1023,
      "Ð°ÐµÑĤ": 1024,
      "ike": 1025,
      "low": 1026,
      "ÑģÑĤÑĮ": 1027,
      "now": 1028,
      "ÑĨÐ¸Ñı": 1029,
      "Ð´Ð¸": 1030,
      "Ð°Ð½Ð¸Ðµ": 1031,
      "ĠÐ²Ð": 1032,
      "ĠÐ²Ð¾": 1033,
      "Ġthem": 1034,
      "ile": 1035,
      "ĠV": 1036,
      "ÐµÐ½Ð¸Ð¸": 1037,
      "ÑĨÐµ": 1038,
      "Ġits": 1039,
      "ph": 1040,
      "ĠÐ¼Ñĭ": 1041,
      "ays": 1042,
      "ew": 1043,
      "ĠÐ½Ð°Ð¿": 1044,
      "ound": 1045,
      "Ð½ÑĭÐ¼Ð¸": 1046,
      "ĠÐ¸Ñħ": 1047,
      "ail": 1048,
      "Ġspe": 1049,
      "ÐºÐ°Ð·": 1050,
      "Ġmay": 1051,
      "Ġ201": 1052,
      "ĠÐ¿Ð¾ÑĤ": 1053,
      "ĠÐ¿ÑĢÐ°Ð²": 1054,
      "ÐµÑĢÐ¶": 1055,
      "ÑģÐºÐ¾Ð¹": 1056,
      "Ġwho": 1057,
      "ĠÑĩÑĤÐ¾Ð±Ñĭ": 1058,
      "ÑİÑĤÑģÑı": 1059,
      "Ġdiff": 1060,
      "ĠÐ¿Ð¾Ðº": 1061,
      "ys": 1062,
      "ÑĬ": 1063,
      "Ð¥": 1064,
      "nder": 1065,
      "ĠThis": 1066,
      "Ð½Ð¸Ð¼": 1067,
      "Ð²Ð»Ñı": 1068,
      "ÐµÐ±": 1069,
      "Ð½Ð¸Ñı": 1070,
      "ific": 1071,
      "Ð²Ð¾Ð´": 1072,
      "ĠÑĩÐ°ÑģÑĤ": 1073,
      "ite": 1074,
      "Ð½Ð¸Ðµ": 1075,
      "Ġup": 1076,
      "Ġbec": 1077,
      "ates": 1078,
      "ÑĪÐ¸": 1079,
      "Ð¾ÑģÑĤÐ°Ð²": 1080,
      "Ð¾ÑģÑĮ": 1081,
      "ople": 1082,
      "Ð³Ð°": 1083,
      "Ð°Ð½Ð¾Ð²": 1084,
      "king": 1085,
      "Ġhow": 1086,
      "ĠCh": 1087,
      "ÐµÐ»Ð¾Ð²": 1088,
      "ĠÐ±ÑĭÐ»": 1089,
      "Ð¸ÑĤÐµ": 1090,
      "ÑĥÑģ": 1091,
      "Ġrec": 1092,
      "Ġro": 1093,
      "Ġtra": 1094,
      "alth": 1095,
      "ĠÑĢÑĥ": 1096,
      "Ġsome": 1097,
      "ÑĭÐ¼": 1098,
      "ings": 1099,
      "Ġthan": 1100,
      "Ġcons": 1101,
      "lud": 1102,
      "Ġuse": 1103,
      "ren": 1104,
      "Ġwhen": 1105,
      "ĠÐ¿Ð¾Ð²": 1106,
      "ĠÐ¿Ð¾Ð¼": 1107,
      "ĠÐ¼Ð¸": 1108,
      "te": 1109,
      "ÐºÐ¾Ð¼": 1110,
      "ĠÐ²Ð°": 1111,
      "ĠÐ£": 1112,
      "ms": 1113,
      "Ġcol": 1114,
      "ÑĥÐ»ÑĮ": 1115,
      "ian": 1116,
      "Ġhis": 1117,
      "mer": 1118,
      "ĠÐ¼Ðµ": 1119,
      "ÑģÐºÐ¾Ð³Ð¾": 1120,
      "Ġtime": 1121,
      "Ġinto": 1122,
      "Ð¾ÑģÑĤÐ¸": 1123,
      "vers": 1124,
      "lect": 1125,
      "ÑģÑĤÐ°Ð²": 1126,
      "erv": 1127,
      "Ġbet": 1128,
      "Ġhel": 1129,
      "ĠÐ±ÑĭÐ»Ð¾": 1130,
      "con": 1131,
      "ĠY": 1132,
      "ĠÑģÐ¾Ð²": 1133,
      "ĠÑģÑĥ": 1134,
      "ments": 1135,
      "ĠÑĢÐ°Ð±Ð¾ÑĤ": 1136,
      "Ġthere": 1137,
      "ĠÐ¸Ð¼": 1138,
      "ffect": 1139,
      "int": 1140,
      "Ġgo": 1141,
      "we": 1142,
      "tern": 1143,
      "Ġover": 1144,
      "Ġact": 1145,
      "Ġthese": 1146,
      "ally": 1147,
      "ĠÐ¾ÑĢ": 1148,
      "cess": 1149,
      "ĠÑģÐ¾Ð±": 1150,
      "ll": 1151,
      "ities": 1152,
      "ĠÐĹ": 1153,
      "rough": 1154,
      "ning": 1155,
      "Ġbeen": 1156,
      "les": 1157,
      "stem": 1158,
      "ĠÐ¼Ð¾Ð³": 1159,
      "Ð¨": 1160,
      "Ġag": 1161,
      "Ġpeople": 1162,
      "Ġtr": 1163,
      "Ġyear": 1164,
      "Ġacc": 1165,
      "Ġdes": 1166,
      "Ð¾Ð»ÐµÐµ": 1167,
      "Ð¾Ð²Ð¾ÑĢ": 1168,
      "Ġhelp": 1169,
      "ĠÐ¤": 1170,
      "velop": 1171,
      "Ð»ÐµÐ½Ð¸Ñı": 1172,
      "ÑĢÐ¾Ð¼": 1173,
      "ause": 1174,
      "ject": 1175,
      "ons": 1176,
      "Ġunder": 1177,
      "ough": 1178,
      "ĠÐ½Ð°Ñĩ": 1179,
      "ĠÑĤÐ¾Ð»ÑĮÐºÐ¾": 1180,
      "Ð¸Ð¼Ð¸": 1181,
      "Ð°ÑĤÑĮÑģÑı": 1182,
      "Ð¸Ð»Ð°": 1183,
      "lic": 1184,
      "Ġlike": 1185,
      "Ġmost": 1186,
      "Ġknow": 1187,
      "ÐµÑģ": 1188,
      "ÑĤÐ¸Ð²": 1189,
      "Ġneed": 1190,
      "Ġrel": 1191,
      "ĠÐ²ÑĢÐµÐ¼Ñı": 1192,
      "Ġra": 1193,
      "ious": 1194,
      "ple": 1195,
      "Ġour": 1196,
      "Ġbl": 1197,
      "ove": 1198,
      "ĠÐ»Ðµ": 1199,
      "row": 1200,
      "ĠÐºÐ¾ÑĤÐ¾ÑĢÑĭÐµ": 1201,
      "ÐµÐ½Ð¸Ð¹": 1202,
      "ative": 1203,
      "ĠÐ¾Ð½Ð¸": 1204,
      "ÑĤÑĥ": 1205,
      "Ð³Ð¸": 1206,
      "ĠÑĩÐµÐ»Ð¾Ð²": 1207,
      "ÑıÐ·": 1208,
      "ĠÐ·Ð°Ðº": 1209,
      "Ġsuch": 1210,
      "ÑĢÐ°Ð¶": 1211,
      "ob": 1212,
      "ĠÐ´ÐµÐ»": 1213,
      "ics": 1214,
      "Ġ200": 1215,
      "Ġinclud": 1216,
      "ating": 1217,
      "Ð´Ñĥ": 1218,
      "Ð»Ð¾Ð²": 1219,
      "20": 1220,
      "Ð¼Ñĭ": 1221,
      "Ġph": 1222,
      "irst": 1223,
      "ÑĥÑĩÐ°": 1224,
      "Ġused": 1225,
      "Ġind": 1226,
      "ular": 1227,
      "ÐµÐ¹ÑģÑĤÐ²": 1228,
      "ÑĥÐ½": 1229,
      "ĠÐ¿ÑĢÐ¾Ð´": 1230,
      "Ġpr": 1231,
      "ĠÑģÑĤÑĢÐ°": 1232,
      "ĠÐ¸ÑģÐ¿Ð¾Ð»ÑĮÐ·": 1233,
      "Ð¾Ð¾Ð": 1234,
      "ient": 1235,
      "Ġgen": 1236,
      "ĠÑĤÐ°ÐºÐ¶Ðµ": 1237,
      "ook": 1238,
      "ĠÐ²Ð¸Ð´": 1239,
      "âĢĶ": 1240,
      "ÑĨÐ°": 1241,
      "Ġ6": 1242,
      "Ġprov": 1243,
      "Ġnew": 1244,
      "Ð¾Ð³ÑĢÐ°": 1245,
      "Ð¼Ð¾Ð¶": 1246,
      "Ġprodu": 1247,
      "ÑĢÐ¾Ð´": 1248,
      "red": 1249,
      "ÐµÐ»Ñı": 1250,
      "Ġdiffere": 1251,
      "ĠÐ´Ð¾Ð»Ð¶": 1252,
      "Ġtw": 1253,
      "ov": 1254,
      "uc": 1255,
      "Ġif": 1256,
      "Ð¸ÑĤÑģÑı": 1257,
      "Ġany": 1258,
      "eth": 1259,
      "ÑĮÑİ": 1260,
      "ĠÐ§": 1261,
      "Ġsa": 1262,
      "Ġwork": 1263,
      "Ð½ÐµÐ¹": 1264,
      "ced": 1265,
      "ÑģÐºÐ¸Ð¹": 1266,
      "Ġdevelop": 1267,
      "ational": 1268,
      "¾ÑĪ": 1269,
      "Ð¾ÑĪ": 1270,
      "Ġem": 1271,
      "Ð½Ð¸Ðº": 1272,
      "ĠÐ±ÑĭÑĤÑĮ": 1273,
      "...": 1274,
      "Ð¸ÑĢÐ¾Ð²": 1275,
      "iet": 1276,
      "ĠÐ¿ÑĢÐ¾ÑĤ": 1277,
      "Ġfe": 1278,
      "Ġass": 1279,
      "ĠÐ¥": 1280,
      "ool": 1281,
      "ĠÐ²Ñģ": 1282,
      "ĠÐ²ÐµÑĢ": 1283,
      "ĠÐ·Ð°Ð¿": 1284,
      "ÐµÐ½Ð¸Ñİ": 1285,
      "Ð¾Ð¾Ð±": 1286,
      "ath": 1287,
      "ĠÐ³Ð¾ÑĢ": 1288,
      "Ġam": 1289,
      "ĠÑįÑĤÐ¸": 1290,
      "ĠÑıÐ²Ð»Ñı": 1291,
      "Ġspec": 1292,
      "hat": 1293,
      "ĠÐºÐ¾Ð³Ð´Ð°": 1294,
      "Ġchild": 1295,
      "Ġwhat": 1296,
      "Ġ18": 1297,
      "ility": 1298,
      "ĠÐ¯": 1299,
      "Ġsystem": 1300,
      "ne": 1301,
      "Ġac": 1302,
      "ise": 1303,
      "ĠÐµÑģÐ»Ð¸": 1304,
      "Ð·Ñĭ": 1305,
      "ĠÑģÐº": 1306,
      "ÑĦÐ¾ÑĢ": 1307,
      "Ð¾Ð»Ð¾Ð³": 1308,
      "ĠÑįÐº": 1309,
      "Ġreg": 1310,
      "ĠÐ½Ð¸": 1311,
      "Ġthrough": 1312,
      "ĠÑģÐµÐ±": 1313,
      "ÑĩÐ¸ÑĤ": 1314,
      "Ð»Ð°Ð²": 1315,
      "ĠÐ¼ÐµÐ½": 1316,
      "ÑģÑĤÐ¸": 1317,
      "Ġpo": 1318,
      "uring": 1319,
      "rib": 1320,
      "ĠÐ³Ð¾Ð´Ð°": 1321,
      "ĠÐ¿Ð¾Ð·": 1322,
      "Ġrep": 1323,
      "Ð»Ð¸Ñĩ": 1324,
      "ful": 1325,
      "ract": 1326,
      "Ġmany": 1327,
      "hen": 1328,
      "ĠÐĿÐ°": 1329,
      "als": 1330,
      "ĠÐ´Ðµ": 1331,
      "ĠÑĤÐ¾Ð³Ð¾": 1332,
      "Ġoff": 1333,
      "erm": 1334,
      "Ġhealth": 1335,
      "ĠÑĥÑģÑĤ": 1336,
      "ĠÐ¾ÑģÑĤ": 1337,
      "Ġadd": 1338,
      "ĠÐ¿Ð¾ÑģÑĤ": 1339,
      "ÑĢÐµÐ±": 1340,
      "ark": 1341,
      "Ġexp": 1342,
      "ÐµÑĤÐµ": 1343,
      "||": 1344,
      "oss": 1345,
      "Ġno": 1346,
      "19": 1347,
      "Ð½Ð¸ÐºÐ°": 1348,
      "hed": 1349,
      "ĠÐ¿ÐµÑĢÐ²": 1350,
      "ĠÐ±ÐµÐ·": 1351,
      "ures": 1352,
      "ĠÑĤÐµÐ¼": 1353,
      "arch": 1354,
      "¾Ñī": 1355,
      "Ġhad": 1356,
      "Ġfirst": 1357,
      "ĠÐ´Ð°": 1358,
      "Ð¾Ð»Ð¸": 1359,
      "Ð°Ð³": 1360,
      "oth": 1361,
      "ĠÐ½Ð¾Ð²": 1362,
      "Ġwould": 1363,
      "ÑıÐ²": 1364,
      "ased": 1365,
      "ÑĢÐ°ÑĤ": 1366,
      "ert": 1367,
      "Ġob": 1368,
      "ĠÐ¾ÑģÐ½Ð¾Ð²": 1369,
      "Ġonly": 1370,
      "ĠÐ¾Ñĩ": 1371,
      "ten": 1372,
      "ram": 1373,
      "round": 1374,
      "ĠÐ¿ÑĢÐ¾Ð²": 1375,
      "Ð¾Ñī": 1376,
      "Â».": 1377,
      "ower": 1378,
      "ĠÐ¼ÐµÑģÑĤ": 1379,
      "Ġwell": 1380,
      "ÑģÐºÐ¸Ñħ": 1381,
      "Ġ10": 1382,
      "ange": 1383,
      "Ð¿Ð¾Ð»": 1384,
      "ÑĩÐ¸": 1385,
      "ÑīÐµÑģÑĤÐ²": 1386,
      "ĠÐ¸ÑģÑĤ": 1387,
      "cy": 1388,
      "ĠÐ±Ð¾Ð»ÐµÐµ": 1389,
      "ÐµÐ½Ð°": 1390,
      "ĠUn": 1391,
      "ÐµÐ½Ð¸ÐµÐ¼": 1392,
      "ble": 1393,
      "xt": 1394,
      "ÑĥÑİÑī": 1395,
      "fter": 1396,
      "Ð»ÐµÐ¼": 1397,
      "ween": 1398,
      ".,": 1399,
      "ĠÐ¾Ð±ÑĢÐ°Ð·": 1400,
      "Ġtwo": 1401,
      "ÑĥÐ´Ð°": 1402,
      "ĠÐ±ÑĭÐ»Ð¸": 1403,
      "old": 1404,
      "Ġdec": 1405,
      "ĠÑĥÐ¿": 1406,
      "ef": 1407,
      "Ð»ÐµÐ´Ð¾Ð²": 1408,
      "ÑĥÑħ": 1409,
      "Ġinv": 1410,
      "ible": 1411,
      "Ð¼Ð¾ÑĤ": 1412,
      "Ð°Ð½Ð´": 1413,
      "Ð¿ÑĢÐ¸": 1414,
      "ÑĥÐµÑĤ": 1415,
      "ife": 1416,
      "ĠÐºÐ¾Ð¼Ð¿": 1417,
      "ĠÑĩÐµÐ¼": 1418,
      "ÐµÐ³": 1419,
      "ng": 1420,
      "Ġshould": 1421,
      "ss": 1422,
      "ĠÑĢÐ°Ñģ": 1423,
      "ÑĤÑĭ": 1424,
      "Ġ7": 1425,
      "iss": 1426,
      "ĠÐºÐ¾ÑĢ": 1427,
      "ÐµÐ½Ñĭ": 1428,
      "ĠÑģÐ¾Ð·": 1429,
      "Ġsub": 1430,
      "ĠÐ¾Ð½Ð°": 1431,
      "chn": 1432,
      "ĠÑĥÑģ": 1433,
      "ĠÐ½Ð°Ñģ": 1434,
      "ÑĢÑĥÐ¿": 1435,
      "Ġsupp": 1436,
      "ied": 1437,
      "ĠÐ½Ð°Ð·": 1438,
      "ĠÑģÑĢÐµÐ´": 1439,
      "ĠÐµÐµ": 1440,
      "ĠÐ¼Ð¾Ð¶Ð½Ð¾": 1441,
      "Ġbetween": 1442,
      "ĠÐ»ÑİÐ±": 1443,
      "Ġimport": 1444,
      "its": 1445,
      "Ð»ÐµÐ½Ð¸Ðµ": 1446,
      "ĠÐ¿Ð¾Ð»ÑĥÑĩ": 1447,
      "ology": 1448,
      "ÑĨÑĭ": 1449,
      "In": 1450,
      "Ġatt": 1451,
      "Ð¸ÑĢ": 1452,
      "ĠÐ¿ÑĢÐ¾Ð¸Ð·": 1453,
      "Ġess": 1454,
      "ÑĪÑĮ": 1455,
      "ĠÐ±ÑĥÐ´ÐµÑĤ": 1456,
      "ution": 1457,
      "Ġtrans": 1458,
      "form": 1459,
      "Ġty": 1460,
      "ĠÐ°Ðº": 1461,
      "own": 1462,
      "ĠÐ´Ð²": 1463,
      "Ð¸Ð¿": 1464,
      "Ġpers": 1465,
      "Ġhigh": 1466,
      "gan": 1467,
      "ÑĤÐ¾Ð²": 1468,
      "Ð¸Ð±": 1469,
      "Ġco": 1470,
      "Ð³ÑĢÐ°": 1471,
      "ĠÐ¸Ð¼Ðµ": 1472,
      "ÐºÐ¾Ð¹": 1473,
      "ĠÐ¼Ð½": 1474,
      "ÑģÐ°": 1475,
      "ata": 1476,
      "ĠÐ±Ð¾Ð»ÑĮÑĪ": 1477,
      "ĠÑĤÐ¾Ð¼": 1478,
      "Ġsur": 1479,
      "Ð¶Ð´Ñĥ": 1480,
      "Ġlear": 1481,
      "Ġwater": 1482,
      "Ġexam": 1483,
      "ĠÐ¿ÑĢÐ¾ÑģÑĤ": 1484,
      "ting": 1485,
      "Ġ8": 1486,
      "ĠÐ¶Ð¸Ð·": 1487,
      "ĠÐºÐ¾ÑĤÐ¾ÑĢÑĭÐ¹": 1488,
      "Ð²ÐµÑģÑĤ": 1489,
      "ts": 1490,
      "Ġpres": 1491,
      "Ġform": 1492,
      "hes": 1493,
      "ience": 1494,
      "Ġfl": 1495,
      "ĠÑįÑĤÐ¾Ð¼": 1496,
      "Ġmod": 1497,
      "Ġmake": 1498,
      "Ġwrit": 1499,
      "aw": 1500,
      "Ð¼Ñĥ": 1501,
      "ĠÐ¿Ð¾ÑģÐ»Ðµ": 1502,
      "Ġdifferent": 1503,
      "ÑĦÐ¸": 1504,
      "ĠÐµÑģÑĤÑĮ": 1505,
      "Ð°Ð½Ð°": 1506,
      "ÑĢÐ¸ÑĤ": 1507,
      "ĠÐ¾ÑĤÐ½Ð¾": 1508,
      "ĠÐ¾Ð±ÑĬ": 1509,
      "Ġinter": 1510,
      "Ð°Ð½Ð¸Ð¸": 1511,
      "ĠÐ³Ð¾Ð´Ñĥ": 1512,
      "ÑĥÑĪ": 1513,
      "ond": 1514,
      "Ġrese": 1515,
      "Ġvar": 1516,
      "Ġsm": 1517,
      "ĠÐ²Ðµ": 1518,
      "Ġrem": 1519,
      "Ġget": 1520,
      "Ð»Ð°Ð´": 1521,
      "ĠÑĦÐ¾ÑĢ": 1522,
      "Ð¾ÑģÐ¾Ð±": 1523,
      "ÑĥÑģÑĤ": 1524,
      "ÑıÑĤÑĮ": 1525,
      "Ġeffect": 1526,
      "ÐµÑĢÐ¸": 1527,
      "ural": 1528,
      "ĠÐ°Ð²": 1529,
      "ÑĥÐ¼": 1530,
      "ps": 1531,
      "ÑĤÐ°ÑĤ": 1532,
      "ĠÐ¸Ð½ÑĤ": 1533,
      "ĠÑĥÐ¶Ðµ": 1534,
      "ĠÑįÑĤÐ¾Ð³Ð¾": 1535,
      "ĠÐ¿Ð¾Ð¿": 1536,
      "Ð°Ð»Ð": 1537,
      "Ð°Ð»Ð¾": 1538,
      "ever": 1539,
      "ĠRe": 1540,
      "Ð»Ð¾Ð¶": 1541,
      "Ġexper": 1542,
      "ĠÐ¿Ð¾ÑĢ": 1543,
      "ants": 1544,
      "Ð¾ÑģÑģ": 1545,
      "ĠÐ»ÐµÑĤ": 1546,
      "Ð¼ÐµÑĤ": 1547,
      "Ġnum": 1548,
      "ade": 1549,
      "ines": 1550,
      "ĠÑĢÐµÐ·": 1551,
      "ĠHe": 1552,
      "ĠÐ±ÑĭÐ»Ð°": 1553,
      "ÑģÑĤÑĥÐ¿": 1554,
      "ĠÐ´ÐµÐ¹ÑģÑĤÐ²": 1555,
      "iew": 1556,
      "ĠÑĢÐ°ÑģÐ¿": 1557,
      "ick": 1558,
      "ily": 1559,
      "ident": 1560,
      "Ð²Ð¾Ð»": 1561,
      "Ð²Ð°ÑĤÑĮ": 1562,
      "Â»,": 1563,
      "ness": 1564,
      "ature": 1565,
      "ism": 1566,
      "ÑĨÐ¸Ñİ": 1567,
      "âĢĵ": 1568,
      "ÑĭÑĪ": 1569,
      "chool": 1570,
      "ĠÐ³Ð¾Ð²Ð¾ÑĢ": 1571,
      "ĠÑģÐ»ÑĥÑĩÐ°": 1572,
      "ÐµÑĢÐ²": 1573,
      "fore": 1574,
      "Ġinst": 1575,
      "Ġmed": 1576,
      "Ġsign": 1577,
      "Ġwhere": 1578,
      "ĠÑģÐ»Ð¾Ð²": 1579,
      "ft": 1580,
      "ĠÐ´Ð°Ð½": 1581,
      "ÐµÑĢÐµÐ´": 1582,
      "ĠÐ¿ÑĢÐµÐ´ÑģÑĤÐ°Ð²": 1583,
      "Ð¸ÑĤÑĮÑģÑı": 1584,
      "10": 1585,
      "Ġprocess": 1586,
      "Ġsoc": 1587,
      "Ġ9": 1588,
      "ĠÑģÐ»ÐµÐ´": 1589,
      "Ġed": 1590,
      "cial": 1591,
      "Ġdisc": 1592,
      "__": 1593,
      "ÑĤÐ¾Ð¼": 1594,
      "¾Ñħ": 1595,
      "Ġbu": 1596,
      "ÑĨÐ¸Ð¾Ð½": 1597,
      "ÐµÐ¿": 1598,
      "erg": 1599,
      "ins": 1600,
      "ict": 1601,
      "Ġdet": 1602,
      "Ð°Ð»ÑģÑı": 1603,
      "ĠÐ²Ð·": 1604,
      "Ð»ÑİÑĩ": 1605,
      "ĠÑĢÐµÑĪ": 1606,
      "oy": 1607,
      "Ð»Ð¸ÑģÑĮ": 1608,
      "ited": 1609,
      "ÑĢÐ°Ñģ": 1610,
      "aking": 1611,
      "ĠÐŃÑĤÐ¾": 1612,
      "Ð¸Ñĩ": 1613,
      "Ġdi": 1614,
      "Ġyears": 1615,
      "Ð¾ÑĤÐ¾Ð²": 1616,
      "Ġsim": 1617,
      "cept": 1618,
      "Ð²ÐµÐ´": 1619,
      "ĠÐ°ÑĢ": 1620,
      "ron": 1621,
      "ÑĨÐ¸Ð°Ð»ÑĮ": 1622,
      "ĠÐ¾ÑĩÐµÐ½ÑĮ": 1623,
      "ered": 1624,
      "elf": 1625,
      "ĠÐ´Ð¸": 1626,
      "Ġworld": 1627,
      "Ð³Ð°Ð½Ð¸": 1628,
      "Ð»Ð°Ð³": 1629,
      "wn": 1630,
      "Ð»ÐµÑĤ": 1631,
      "Ġpol": 1632,
      "Ġinform": 1633,
      "ĠÐĿÐ": 1634,
      "Ġcar": 1635,
      "Ð¾Ð²Ð°ÑĤÑĮ": 1636,
      "ĠÐĿÐ¾": 1637,
      "ÐµÐ»ÐµÐ¹": 1638,
      "Ġresp": 1639,
      "Ð±Ñĭ": 1640,
      "meric": 1641,
      "uch": 1642,
      "ages": 1643,
      "Ġcould": 1644,
      "Ġincre": 1645,
      "Ð¾Ð´Ð°": 1646,
      "ÐµÐ½Ð½Ð¾": 1647,
      "Ġke": 1648,
      "ĠÐ²Ð¾Ñģ": 1649,
      "ĠÑģÐ¸ÑģÑĤ": 1650,
      "Ġher": 1651,
      "Ġear": 1652,
      "ĠÐ¿ÑĢÐ¾ÑĤÐ¸Ð²": 1653,
      "ÐµÑģÐ¿": 1654,
      "ÑĢÐµÐ¼ÐµÐ½": 1655,
      "ruct": 1656,
      "ĠÑĤÑĭ": 1657,
      "\".": 1658,
      "ĠÑĥÐ´": 1659,
      "Ġtechn": 1660,
      "vent": 1661,
      "Ð°Ð±": 1662,
      "Ð¾Ñħ": 1663,
      "Ġimportant": 1664,
      "ink": 1665,
      "ĠÐ²Ð¾Ð·Ð¼Ð¾Ð¶": 1666,
      "Ġref": 1667,
      "ds": 1668,
      "ÑĢÐ°Ñī": 1669,
      "ĠPro": 1670,
      "Ġgra": 1671,
      "ĠÐ¼ÐµÐ¶Ð´Ñĥ": 1672,
      "get": 1673,
      "Ġway": 1674,
      "ĠÑģÐºÐ°Ð·": 1675,
      "iron": 1676,
      "Ð°ÑĢÐ¸": 1677,
      "ĠÑıÐ²Ð»ÑıÐµÑĤÑģÑı": 1678,
      "Ġlong": 1679,
      "ues": 1680,
      "ĠÐµÑīÐµ": 1681,
      "Ð¾ÑģÑĤÑĮ": 1682,
      "Ġgener": 1683,
      "ives": 1684,
      "Ġhum": 1685,
      "ÐµÐ¶": 1686,
      "ĠÐ²ÑĭÑģ": 1687,
      "ollow": 1688,
      "ually": 1689,
      "¾ÑĢÐµ": 1690,
      "Ð¾ÑĢÐµ": 1691,
      "Ð°ÑĪ": 1692,
      "ĠÐ¼Ð°ÑĤ": 1693,
      "ically": 1694,
      "ĠÑħÐ¾ÑĤ": 1695,
      "Ð¾Ð¿ÑĢÐ¾Ñģ": 1696,
      "Ġbecause": 1697,
      "Ġart": 1698,
      "ĠÑģÐ´ÐµÐ»": 1699,
      "ĠÐ²Ð¾Ð¹": 1700,
      "ck": 1701,
      "ÐµÑĨ": 1702,
      "ists": 1703,
      "ĠÐ¾Ð¿ÑĢÐµÐ´": 1704,
      "ĠÑģÐ¾ÑģÑĤ": 1705,
      "Ġfact": 1706,
      "ĠÐ¿Ð°ÑĢ": 1707,
      "ĠÐ³Ð¾Ð»": 1708,
      "ases": 1709,
      "ÑĪÐ¸Ñħ": 1710,
      "âĢ¦": 1711,
      "Ġcount": 1712,
      "Ġread": 1713,
      "Ġafter": 1714,
      "Ġresult": 1715,
      "Ð½ÐµÐµ": 1716,
      "ĠÐ¿Ð»": 1717,
      "com": 1718,
      "ÑıÑĤÐ¸": 1719,
      "Ġrequ": 1720,
      "Ð½Ð¸Ð¹": 1721,
      "ices": 1722,
      "Ġpat": 1723,
      "Ð·Ð½Ð°": 1724,
      "ize": 1725,
      "Ġlar": 1726,
      "Ġjust": 1727,
      "Ġext": 1728,
      "Ġfound": 1729,
      "Ġdata": 1730,
      "Ġcent": 1731,
      "Ð¸ÑĤÐµÐ»ÑĮÐ½Ð¾": 1732,
      "Ġvery": 1733,
      "Ð²Ñĭ": 1734,
      "land": 1735,
      "ĠÐ½Ð°Ð´": 1736,
      "Ġlife": 1737,
      "ody": 1738,
      "Ġsk": 1739,
      "Ġeach": 1740,
      "ÑģÐºÐ¸Ðµ": 1741,
      "ÑĢÑĥÐ¶": 1742,
      "Ġeven": 1743,
      "000": 1744,
      "ized": 1745,
      "other": 1746,
      "ÑģÐ¾Ð²": 1747,
      "Ġevery": 1748,
      "ĠÑĢÐ°Ð·Ð²": 1749,
      "ÐµÑĤÐ°": 1750,
      "ĠÑģÐ¿Ð¾ÑģÐ¾Ð±": 1751,
      "ÑĢÑĥÐ´": 1752,
      "ential": 1753,
      "ork": 1754,
      "arm": 1755,
      "Ġprog": 1756,
      "ĠHow": 1757,
      "Ġdef": 1758,
      "ets": 1759,
      "ĠAn": 1760,
      "urn": 1761,
      "ĠÐ½ÐµÑģÐº": 1762,
      "Ġthen": 1763,
      "stand": 1764,
      "Ġcre": 1765,
      "Ġcommun": 1766,
      "\",": 1767,
      "Ġsee": 1768,
      "ÑĢÐµÐ½": 1769,
      "led": 1770,
      "Ð¸Ð³": 1771,
      "Ġ.": 1772,
      "ĠWe": 1773,
      "Ġperson": 1774,
      "Ġdep": 1775,
      "ÑĥÑī": 1776,
      "Ð¾Ð¶Ðµ": 1777,
      "ĠÐ¨": 1778,
      "ivid": 1779,
      "ĠÐŀÐ½": 1780,
      "ivers": 1781,
      "ĠÐ¼ÐµÐ½Ñı": 1782,
      "ĠCom": 1783,
      "ĠÐŁÑĢÐ¸": 1784,
      "Ð¾Ð½Ð°Ð»ÑĮ": 1785,
      "io": 1786,
      "Ġstudents": 1787,
      "Ġ[": 1788,
      "Ð¼ÐµÑģÑĤ": 1789,
      "ĠÐ¿Ð¾Ñĩ": 1790,
      "Ð°Ð»Ð¾ÑģÑĮ": 1791,
      "Ġpartic": 1792,
      "ÑĩÐµÐ½Ð¸Ðµ": 1793,
      "ĠÐ¿ÑĢÐ¾Ð±": 1794,
      "Th": 1795,
      "ĠÑģÐµÐ±Ñı": 1796,
      "Ð°ÐµÑĤÑģÑı": 1797,
      "ĠÑģÐ¸ÑģÑĤÐµÐ¼": 1798,
      "ality": 1799,
      "Ġstudy": 1800,
      "ÑģÑĤÐ²Ðµ": 1801,
      "ÑħÐ¾Ð´Ð¸Ð¼": 1802,
      "Ð»ÐµÐº": 1803,
      "Ġdoes": 1804,
      "ĠÑĤÐµÑħ": 1805,
      "ĠAl": 1806,
      "Ġdist": 1807,
      "Ġusing": 1808,
      "Ġlead": 1809,
      "ĠÑģÐµÑĢ": 1810,
      "ection": 1811,
      "ĠÐ³Ð¾Ñģ": 1812,
      "Ġmain": 1813,
      "cer": 1814,
      "ĠÐ¾ÑĢÐ³Ð°Ð½Ð¸": 1815,
      "ÑĥÐº": 1816,
      "Ġfollow": 1817,
      "Ð½Ð¸Ð¼Ð°": 1818,
      "Ġaut": 1819,
      "Ð½ÑĥÑĤ": 1820,
      "hip": 1821,
      "ĠÐ´Ð¾ÑģÑĤ": 1822,
      "Ġloc": 1823,
      "Ġlevel": 1824,
      "Ð»Ð¸Ð·": 1825,
      "ĠÐ³Ð´Ðµ": 1826,
      "ĠÐ°Ð½": 1827,
      "Ġmin": 1828,
      "Ġstr": 1829,
      "Ġduring": 1830,
      "Ġbeing": 1831,
      "Ġmon": 1832,
      "ĠAmeric": 1833,
      "Ġinformation": 1834,
      "Ð°Ð¿": 1835,
      "ĠÑģÐ²ÑıÐ·": 1836,
      "Ġchildren": 1837,
      "Ġsol": 1838,
      "Ġgrow": 1839,
      "ĠÑģÑĤÐ¾ÑĢ": 1840,
      "Ð½Ð¸ÐºÐ¾Ð²": 1841,
      "ĠÐ½ÐµÐ¼": 1842,
      "ĠÐ²Ð¾Ð¿ÑĢÐ¾Ñģ": 1843,
      "Ð¦": 1844,
      "ĠÐ»ÑİÐ´": 1845,
      "Ð´ÐµÑĢÐ¶": 1846,
      "Ġ15": 1847,
      "ĠÐ½Ð°ÑģÑĤ": 1848,
      "Ġent": 1849,
      "ĠÐ½ÑĥÐ¶": 1850,
      "Ġpub": 1851,
      "ĠÐ´ÐµÑĤ": 1852,
      "Ġ0": 1853,
      "ÑıÑī": 1854,
      "ĠÐ¼Ð¾Ð³ÑĥÑĤ": 1855,
      "Ð±Ð": 1856,
      "Ð±Ð¾": 1857,
      "ÑĥÐ²": 1858,
      "ĠÑĩÐµÐ»Ð¾Ð²ÐµÐº": 1859,
      "Ð»ÑģÑı": 1860,
      "viron": 1861,
      "Ġval": 1862,
      "ĠÐ´Ð°Ð¶Ðµ": 1863,
      "Ġche": 1864,
      "Ġins": 1865,
      "ÐµÐ½Ð½ÑĭÑħ": 1866,
      "Ġgood": 1867,
      "ĠÑĤÐµÐ»": 1868,
      "ec": 1869,
      "Ð¾Ð½Ð¾Ð¼": 1870,
      "Ð¸ÑĢÐ°": 1871,
      "--": 1872,
      "Ġfood": 1873,
      "Ġmy": 1874,
      "Ġproble": 1875,
      "Ð¼Ð°ÑĤ": 1876,
      "Ġcall": 1877,
      "Ġexpl": 1878,
      "ĠÐ¢Ð°Ðº": 1879,
      "Ġthose": 1880,
      "ĠÐ½ÐµÐ¾Ð±": 1881,
      "ÑĤÐµÐ»ÑĮ": 1882,
      "ÑĢÐ¾Ð¿": 1883,
      "any": 1884,
      "ĠÐ½Ð¸Ðº": 1885,
      "Ġresearch": 1886,
      "Ġfind": 1887,
      "ĠAs": 1888,
      "ÑĢÑĥÐ¿Ð¿": 1889,
      "Ġcur": 1890,
      "iqu": 1891,
      "ĠÐ³ÑĢÐ°": 1892,
      "Ð¸Ð»ÑģÑı": 1893,
      "ward": 1894,
      "Ġav": 1895,
      "ÑīÐµÐ³Ð¾": 1896,
      "ÑĩÐ°ÑģÑĤ": 1897,
      "Ð¸ÐºÐ¸": 1898,
      "Ð½Ð¾Ð¼Ñĥ": 1899,
      "Ġ199": 1900,
      "gg": 1901,
      "ÑĪÐµÐ¹": 1902,
      "ĠFor": 1903,
      "ĠÐ¼ÐµÑĤ": 1904,
      "imes": 1905,
      "Ġfam": 1906,
      "tt": 1907,
      "ĠÑĤÐµÑĢ": 1908,
      "ĠÑĥÐ²": 1909,
      "Ġcomple": 1910,
      "ien": 1911,
      "ĠCon": 1912,
      "ĠThey": 1913,
      "ĠÐ±Ð¾Ð»ÑĮÑĪÐµ": 1914,
      "ĠÑĥÑĩ": 1915,
      "Ġshe": 1916,
      "ÑĥÐ´Ð°ÑĢ": 1917,
      "ĠÐ¾ÑĤÐº": 1918,
      "Ġright": 1919,
      "ĠÐ¸ÑģÐº": 1920,
      "Ð¸Ñİ": 1921,
      "ÑĤÐ¸ÑĩÐµÑģÐº": 1922,
      "ved": 1923,
      "ĠÐºÐ°ÑĢ": 1924,
      "Ġfun": 1925,
      "ÑĢÐ¾Ð¹": 1926,
      "ĠÑĩÐµÐ»Ð¾Ð²Ðµ": 1927,
      "ÐµÑĢÐµÐ·": 1928,
      "ÑĢÐµÑĤ": 1929,
      "ĠÐ²Ð¾Ð´": 1930,
      "ĠÐ´Ð¾Ð¼": 1931,
      "Ġown": 1932,
      "Ġset": 1933,
      "ÑĭÑĤ": 1934,
      "Ġhist": 1935,
      "Ð½Ð°ÐºÐ¾": 1936,
      "ĠÐºÐ°Ð¶Ð´": 1937,
      "Ð¾Ð¶Ð´": 1938,
      "Ġcor": 1939,
      "ale": 1940,
      "Ð±Ð¾ÑĢ": 1941,
      "ĠÐĴÑĭ": 1942,
      "dition": 1943,
      "Ð¾Ð¾ÑĤ": 1944,
      "ĠÐ´Ð¾Ð±": 1945,
      "ÑĥÐ»ÑĮÑĤÐ°ÑĤ": 1946,
      "Ġchar": 1947,
      "ÐµÑĤÑĮ": 1948,
      "ÑıÐ¼": 1949,
      "Ð½Ð¾ÑģÑĤÑĮÑİ": 1950,
      "Ġappro": 1951,
      "Ġboth": 1952,
      "cent": 1953,
      "Ġmuch": 1954,
      "ather": 1955,
      "Ð°ÑİÑĤ": 1956,
      "Ġgl": 1957,
      "ĠÐ¿Ð¾ÑģÐ»ÐµÐ´": 1958,
      "Ġtest": 1959,
      "ÑģÐºÐ°Ñı": 1960,
      "nce": 1961,
      "de": 1962,
      "tle": 1963,
      "ÐµÑħ": 1964,
      "ĠIf": 1965,
      "Ġ12": 1966,
      "Ġshow": 1967,
      "Ð³Ñĥ": 1968,
      "ÐµÐ½ÑĤÐ°": 1969,
      "Ġpop": 1970,
      "Ġschool": 1971,
      "ix": 1972,
      "ĠÐ½ÐµÐº": 1973,
      "ÑıÐ´": 1974,
      "¾Ð½Ñĭ": 1975,
      "Ð¾Ð½Ñĭ": 1976,
      "der": 1977,
      "und": 1978,
      "ĠÐ½Ð°ÑħÐ¾Ð´": 1979,
      "ĠÐķÑģÐ»Ð¸": 1980,
      "ax": 1981,
      "iety": 1982,
      "Ð¸ÑĤÑĥ": 1983,
      "iel": 1984,
      "ergy": 1985,
      "ĠÐ½ÐµÐ¾Ð±ÑħÐ¾Ð´Ð¸Ð¼": 1986,
      "ĠÐºÐ¾Ð½ÑĤ": 1987,
      "ional": 1988,
      "Ġprovid": 1989,
      "Ġtreat": 1990,
      "Ð¹ÑĤÐµ": 1991,
      "ĠÐºÐ¾ÑĤ": 1992,
      "ÑĢÐ°Ðº": 1993,
      "ÑĪÐµÐ³Ð¾": 1994,
      "ÑįÑĤ": 1995,
      "ted": 1996,
      "Ġorgan": 1997,
      "Ġactiv": 1998,
      "Ð¿ÑĢÐ°Ð²": 1999,
      "Ġmade": 2000,
      "ÑĥÑİÑĤ": 2001,
      "akes": 2002,
      "ĠInd": 2003,
      "rol": 2004,
      "vironment": 2005,
      "vern": 2006,
      "uss": 2007,
      "Ġsame": 2008,
      "ÑĮÑı": 2009,
      "Ġback": 2010,
      "Ġserv": 2011,
      "inal": 2012,
      "Ġend": 2013,
      "ital": 2014,
      "ĠÐ¶ÐµÐ»": 2015,
      "ÑģÑģÐ»ÐµÐ´Ð¾Ð²": 2016,
      "ĠAr": 2017,
      "ĠÐ¸ÑģÑĤÐ¾ÑĢ": 2018,
      "Ġclass": 2019,
      "Ġwhile": 2020,
      "Ġlit": 2021,
      "Ġoften": 2022,
      "ÑıÑĤÐµÐ»ÑĮ": 2023,
      "ĠÐ½Ð¸Ñħ": 2024,
      "Ġgrou": 2025,
      "ĠÐ¿Ð¾ÐºÐ°Ð·": 2026,
      "ÑĢÐ°Ð±Ð¾ÑĤ": 2027,
      "ÑĨÐ¸Ð¹": 2028,
      "Ġprot": 2029,
      "Ð°Ð¶": 2030,
      "12": 2031,
      "ĠÐŁÐ": 2032,
      "Ġdesign": 2033,
      "18": 2034,
      "Ð½ÑĮ": 2035,
      "ĠYou": 2036,
      "ĠÐŁÐ¾": 2037,
      "Ð½Ð¸Ð¸": 2038,
      "ĠÐ²ÑģÐµÐ³Ð¾": 2039,
      "ĠÑģÐ²Ð¾Ðµ": 2040,
      "Ġredu": 2041,
      "ock": 2042,
      "Ġless": 2043,
      "read": 2044,
      "acter": 2045,
      "cl": 2046,
      "ÑĨÑĥ": 2047,
      "ined": 2048,
      "Ġstate": 2049,
      "ÑģÑĤÑĢÐµ": 2050,
      "Ð¾Ð³Ð»Ð°": 2051,
      "Ġpower": 2052,
      "ĠÑįÑĤÐ¾Ð¹": 2053,
      "ÑĦÑĦ": 2054,
      "ium": 2055,
      "ute": 2056,
      "ĠÐ³ÑĢÑĥÐ¿Ð¿": 2057,
      "Ð½Ð¸Ñĩ": 2058,
      "ÑĢÐ¾Ðº": 2059,
      "Ġcell": 2060,
      "ĠÑģÐ¾ÑģÑĤÐ°Ð²": 2061,
      "ĠÐłÐ¾ÑģÑģ": 2062,
      "ÑĨÐµÐ²": 2063,
      "Ġsaid": 2064,
      "Ð¸ÐºÐ°": 2065,
      "Ġtake": 2066,
      "Ġnumber": 2067,
      "Ġelect": 2068,
      "Ġbody": 2069,
      "the": 2070,
      "ĠÑĢÐµÐ·ÑĥÐ»ÑĮÑĤÐ°ÑĤ": 2071,
      "ĠÑģÐ¾Ð¾Ð±": 2072,
      "ÑĦÐ¾ÑĢÐ¼Ð°": 2073,
      "ex": 2074,
      "Ġcommon": 2075,
      "Ġris": 2076,
      "Ġanal": 2077,
      "ÐµÐ½Ð½ÑĭÐµ": 2078,
      "ĠÐ¼Ð¾Ð»": 2079,
      "ividual": 2080,
      "Ġsmall": 2081,
      "ulation": 2082,
      "ral": 2083,
      "Ġunderstand": 2084,
      "Ġdise": 2085,
      "ĠSc": 2086,
      "Ð²Ðµ": 2087,
      "ĠÐ¿Ð¾Ð¼Ð¾Ñī": 2088,
      "ty": 2089,
      "line": 2090,
      "eg": 2091,
      "ĠÐ¿Ð¸": 2092,
      "Ġbefore": 2093,
      "ran": 2094,
      "Ġconsid": 2095,
      "Ġposs": 2096,
      "Ð²Ð¾ÑĢ": 2097,
      "ÑģÐºÐ¾Ð¼": 2098,
      "ÑīÐµÐµ": 2099,
      "ĠÑĥÐ±": 2100,
      "ĠÑħÐ¾ÑĢ": 2101,
      "Ð³Ð¾Ð²": 2102,
      "ĠÐ¾Ð´Ð¸Ð½": 2103,
      "Ġsupport": 2104,
      "ÑĪÐµÐ½Ð¸Ñı": 2105,
      "ĠÐ¼Ð½Ð¾Ð³": 2106,
      "ĠÐºÐ¾Ð»": 2107,
      "ier": 2108,
      "ĠÑįÑĤÐ¾ÑĤ": 2109,
      "ars": 2110,
      "ĠÐ¼Ð½Ðµ": 2111,
      "What": 2112,
      "imate": 2113,
      "ĠÐ·Ð°ÑĤ": 2114,
      "omen": 2115,
      "lish": 2116,
      "ÐµÑĤÑĭ": 2117,
      "Ġhand": 2118,
      "ĠÐ¾ÑģÐ¾Ð±": 2119,
      "Ð°ÑģÑģ": 2120,
      "aterial": 2121,
      "Ġcare": 2122,
      "ving": 2123,
      "ethod": 2124,
      "Ġtyp": 2125,
      "ÑĤÑĮÑģÑı": 2126,
      "els": 2127,
      "eng": 2128,
      "ĠÐ¾ÑĤÐ²ÐµÑĤ": 2129,
      "Ð¾ÑĢÐ°Ñı": 2130,
      "Ġ&": 2131,
      "ĠÑĩÐµÑĢÐµÐ·": 2132,
      "ĠÐ³Ð¾ÑģÑĥÐ´Ð°ÑĢ": 2133,
      "Ġstart": 2134,
      "up": 2135,
      "Ġ17": 2136,
      ".âĢĿ": 2137,
      "Ðĸ": 2138,
      "hy": 2139,
      "ince": 2140,
      "ĠÐ¶Ð¸Ð²": 2141,
      "Ġequ": 2142,
      "ĠÐ²ÑģÐµÑħ": 2143,
      "ĠÐ½ÐµÑĤ": 2144,
      "ÑĪÐ¸Ð¹": 2145,
      "Ð¾Ð´ÐµÑĢÐ¶": 2146,
      "Ġpract": 2147,
      "raph": 2148,
      "Ð¾Ð²Ð°Ð½Ð¸Ñı": 2149,
      "Ġhuman": 2150,
      "Ġday": 2151,
      "ÑĢÐ¾Ð½": 2152,
      "ÑĭÐ¼Ð¸": 2153,
      "ÐµÐµ": 2154,
      "ĠÐ¿ÑĢÐ¾ÑĨÐµ": 2155,
      "Ð¾Ð·Ð½Ð°": 2156,
      "Ġessay": 2157,
      "ĠÐ¿ÐµÑĢÐµÐ´": 2158,
      "ĠÑĤÑĢÐµ": 2159,
      "ĠÑģÐ¾ÑģÑĤÐ¾Ñı": 2160,
      "Ġgu": 2161,
      "ĠNew": 2162,
      "ĠÑģÑĩÐ¸ÑĤ": 2163,
      "ĠX": 2164,
      "ĠÐ¶Ð¸Ð·Ð½Ð¸": 2165,
      "ĠÐ½ÐµÐºÐ¾ÑĤÐ¾ÑĢ": 2166,
      "Ġocc": 2167,
      "ization": 2168,
      "ÑĥÐ¼Ð°": 2169,
      "Ð¿Ð¸": 2170,
      "ĠÐ»ÑĥÑĩ": 2171,
      "irect": 2172,
      "Ġmem": 2173,
      "ĠÐºÐ¾ÑĤÐ¾ÑĢÐ°Ñı": 2174,
      "ĠÐ·Ð°Ð±": 2175,
      "Ġadv": 2176,
      "ĠÐµÐ¼Ñĥ": 2177,
      "Ġvis": 2178,
      "ves": 2179,
      "air": 2180,
      "Ġindividual": 2181,
      "iness": 2182,
      "ĠÑģÐµÐ¼": 2183,
      "ĠÐ¿Ð¾Ð½": 2184,
      "itions": 2185,
      "Ġexample": 2186,
      "Ġeduc": 2187,
      "Ð¸ÑĢÑĥ": 2188,
      "ĠÑģÐ¾Ð·Ð´Ð°": 2189,
      "Ð°ÑİÑī": 2190,
      "Ġconf": 2191,
      "¾ÑĩÐµ": 2192,
      "Ġdown": 2193,
      "ÐµÐ½Ð": 2194,
      "ĠÐ¸Ð³": 2195,
      "Ġagain": 2196,
      "ÑĢÐ¾ÑģÑĤ": 2197,
      "ÐµÐ½Ð¾": 2198,
      "ÑħÐ¾Ð´Ð¸ÑĤ": 2199,
      "ĠÐ´Ð¾Ðº": 2200,
      "ÑıÑħ": 2201,
      "ave": 2202,
      "rent": 2203,
      "Ġbel": 2204,
      "ÐºÐ°Ñħ": 2205,
      "Ġplan": 2206,
      "ĠÑģÐ¾Ð¾ÑĤ": 2207,
      "ĠÐ½ÐµÑģÐºÐ¾Ð»ÑĮÐºÐ¾": 2208,
      "iving": 2209,
      "ĠÐ´ÐµÐ½ÑĮ": 2210,
      "conom": 2211,
      "aj": 2212,
      "ĠÐ¾Ð±Ð»Ð°": 2213,
      "ĠÐ¶ÐµÐ½": 2214,
      "ĠÑĥÐ³": 2215,
      "Ð¸Ð½Ñĥ": 2216,
      "ĠÐŀÐ´": 2217,
      "Ġquest": 2218,
      "ĠÐ³Ð»Ð°Ð²": 2219,
      "itive": 2220,
      "Ġmet": 2221,
      "Ð¾Ð³ÑĢÐ°Ð¼": 2222,
      "ished": 2223,
      "angu": 2224,
      "Ġmust": 2225,
      "ÑıÑģ": 2226,
      "ters": 2227,
      "Ġincluding": 2228,
      "Ġet": 2229,
      "Ġcle": 2230,
      "Ð°Ð»Ð°ÑģÑĮ": 2231,
      "This": 2232,
      "ĠÑĢÐ¾Ð´": 2233,
      "ĠÐĶÐ¶": 2234,
      "Ð¾ÑĩÐµ": 2235,
      "Ð²Ð¸Ð¶": 2236,
      "co": 2237,
      "Ġpoint": 2238,
      "day": 2239,
      "ash": 2240,
      "Ġaround": 2241,
      "ĠÐ¼Ð½Ð¾Ð³Ð¾": 2242,
      "tain": 2243,
      "ĠÐ²Ðº": 2244,
      "Ġgreat": 2245,
      "ÑĤÐµÑĢ": 2246,
      "ĠÑĢÐ°Ð·Ð²Ð¸ÑĤ": 2247,
      "Ð¾Ð»Ð¶": 2248,
      "Ð½Ð¸ÐºÐ¸": 2249,
      "ering": 2250,
      "Ġallow": 2251,
      "ÑģÑĭ": 2252,
      "ÑĳÐ½": 2253,
      "ÑıÐ½": 2254,
      "ĠÐļÐ°Ðº": 2255,
      "Ġrequire": 2256,
      "Ġthree": 2257,
      "ÐºÐ°Ð¼Ð¸": 2258,
      "Ð¸ÑĩÐµÑģÐºÐ¸Ñħ": 2259,
      "Ð»Ñĭ": 2260,
      "11": 2261,
      "Ð²Ð°ÑĤ": 2262,
      "Ġser": 2263,
      "ull": 2264,
      "Ġbeh": 2265,
      "ffic": 2266,
      "Ġproduct": 2267,
      "Ġ16": 2268,
      "ÐµÑĢÑĪ": 2269,
      "Ġsocial": 2270,
      "ids": 2271,
      "ven": 2272,
      "Ð¸Ð½Ðµ": 2273,
      "Ġconst": 2274,
      "gen": 2275,
      "Ġide": 2276,
      "ross": 2277,
      "Ġnow": 2278,
      "Ġest": 2279,
      "Ð¸ÑĩÐµÑģÐºÐ¾Ð¹": 2280,
      "Ġimpro": 2281,
      "ources": 2282,
      "Ġlearn": 2283,
      "ĠÐºÑĤÐ¾": 2284,
      "ĠÐ¿Ð¾Ð»Ð¸ÑĤ": 2285,
      "Ġtoo": 2286,
      "ĠÐ·Ð°Ð²": 2287,
      "Ġeng": 2288,
      "rodu": 2289,
      "Ð¾ÑĢÐ¾Ð²": 2290,
      "ÑĥÑģÐº": 2291,
      "Ġmaterial": 2292,
      "Ġeas": 2293,
      "Ġ,": 2294,
      "ĠThese": 2295,
      "ah": 2296,
      "Ð»Ð¸Ð²": 2297,
      "Ġplay": 2298,
      "hers": 2299,
      "Ð¾Ð½Ðµ": 2300,
      "ury": 2301,
      "¾ÑģÐº": 2302,
      "Ð¾ÑģÐº": 2303,
      "Ġenvironment": 2304,
      "ÑģÑĤÑĢÐ°": 2305,
      "Ġmethod": 2306,
      "iversity": 2307,
      "ĠÑĤÐ¾Ñĩ": 2308,
      "ption": 2309,
      "ÑĭÐ²Ð°ÐµÑĤ": 2310,
      "ĠAnd": 2311,
      "ĠÐ²Ð°Ð¼": 2312,
      "ÐµÑĢÑĮ": 2313,
      "rain": 2314,
      "Ġop": 2315,
      "ĠÐ¾Ð±Ñī": 2316,
      "Ġprof": 2317,
      "ĠThere": 2318,
      "ÑĢÑĥÐ·": 2319,
      "oms": 2320,
      "ĠEng": 2321,
      "ÑįÑĤÐ¾Ð¼Ñĥ": 2322,
      "ĠÐ¿Ð¾Ð±": 2323,
      "ĠSe": 2324,
      "Ð¸Ð½Ñĭ": 2325,
      "15": 2326,
      "ÑģÐºÐ°Ð·": 2327,
      "ĠEx": 2328,
      "ÐµÐ½Ð½Ð¾Ð¹": 2329,
      "Ġdevelopment": 2330,
      "ĠÑıÐ·Ñĭ": 2331,
      "ental": 2332,
      "ox": 2333,
      "ĠÑĢÐ°ÑģÑģ": 2334,
      "ĠÐ¿ÑĢÐ¾Ð±Ð»ÐµÐ¼": 2335,
      "ĠÑģÑĥÑīÐµÑģÑĤÐ²": 2336,
      "ĠÐ¿ÑĢÐ¾ÑģÑĤÐ": 2337,
      "ĠÐ¿ÑĢÐ¾ÑģÑĤÐ¾": 2338,
      "pect": 2339,
      "Ġpot": 2340,
      "ĠÐºÐ°ÑĩÐµ": 2341,
      "ring": 2342,
      "ĠÑĥÑĢÐ¾Ð²": 2343,
      "Ġpur": 2344,
      "ĠÐ¸ÑģÑģÐ»ÐµÐ´Ð¾Ð²": 2345,
      "Ġcour": 2346,
      "Ð¾Ð¿Ð¾Ð»": 2347,
      "ĠÐ²ÑĤÐ¾ÑĢ": 2348,
      "oci": 2349,
      "ries": 2350,
      "ĠÐ²Ð¿": 2351,
      "cing": 2352,
      "ĠÑģÐ¾Ð´ÐµÑĢÐ¶": 2353,
      "ĠÑģÐ¾Ð¾Ð±Ñī": 2354,
      "Ġenergy": 2355,
      "Ġtem": 2356,
      "ÐµÑĢÐ³": 2357,
      "Ð»Ð°ÑģÑĮ": 2358,
      "ĠÐ½ÐµÐ´": 2359,
      "ĠÐ»ÑİÐ´ÐµÐ¹": 2360,
      "ĠÐ½ÐµÐ¿": 2361,
      "Ð»Ñĥ": 2362,
      "ĠÐ¾ÐºÐ°Ð·": 2363,
      "ability": 2364,
      "ains": 2365,
      "ared": 2366,
      "iod": 2367,
      "Ġsym": 2368,
      "ĠÑģÐ¿Ðµ": 2369,
      "Ġknown": 2370,
      "ĠÐ¿ÑĢÐ¾Ð¸Ð·Ð²Ð¾Ð´": 2371,
      "ination": 2372,
      "iven": 2373,
      "ĠÐ²Ð»Ð°": 2374,
      "Ġmus": 2375,
      "Ġpresent": 2376,
      "ouse": 2377,
      "ĠÐ¸Ð·Ð¼ÐµÐ½": 2378,
      "ior": 2379,
      "Ġcontin": 2380,
      "Ġident": 2381,
      "Ġtop": 2382,
      "ĠÑģÐ¸Ð»": 2383,
      "bs": 2384,
      "Ġphys": 2385,
      "Ġmat": 2386,
      "aper": 2387,
      "ÑĪÐ¸Ðµ": 2388,
      "ĠAd": 2389,
      "Ġreport": 2390,
      "¾ÑĦ": 2391,
      "Ġwithin": 2392,
      "ration": 2393,
      "ĠÐ³Ð¾ÑĢÐ¾Ð´": 2394,
      "Ð¾ÑĦ": 2395,
      "//": 2396,
      "au": 2397,
      "Ġben": 2398,
      "ĠÐĿÐµ": 2399,
      "ÐµÐ´Ð¸Ð½": 2400,
      "ner": 2401,
      "Ġcult": 2402,
      "ĠÐ¸Ð½ÑĦÐ¾ÑĢÐ¼Ð°": 2403,
      "ĠÑĩÐ¸Ñģ": 2404,
      "ĠÑħÐ¾ÑĢÐ¾ÑĪ": 2405,
      "view": 2406,
      "Ġpos": 2407,
      "Ð¸Ð»Ð": 2408,
      "Ð¸Ð»Ð¾": 2409,
      "Ġlarge": 2410,
      "Ð»Ð¸Ð½": 2411,
      "Ð»ÐµÐºÑĤ": 2412,
      "Ġcaus": 2413,
      "Ð¨ÐĲ": 2414,
      "ĠÑģÐ²Ð¾ÐµÐ¹": 2415,
      "ify": 2416,
      "Ġbest": 2417,
      "uro": 2418,
      "ÑĨÐ¸Ð¾Ð½Ð°Ð»ÑĮ": 2419,
      "ĠÐ¦": 2420,
      "ÑģÑĤÐ°": 2421,
      "Ġiss": 2422,
      "ÑģÑĤÐ²Ð¾Ð¼": 2423,
      "Ġdr": 2424,
      "ĠÐºÐ¾ÑĤÐ¾ÑĢÑĭÑħ": 2425,
      "ÐµÐ½Ð½ÑĭÐ¹": 2426,
      "ĠÐ¾ÑĤÐºÑĢÑĭ": 2427,
      "ÑıÐ¶": 2428,
      "ĠÐ¾Ð¿ÑĢÐµÐ´ÐµÐ»": 2429,
      "me": 2430,
      "ĠÐ·Ð½Ð°Ñĩ": 2431,
      "Ġgovern": 2432,
      "Ġhy": 2433,
      "ĠDe": 2434,
      "ills": 2435,
      "Ð´ÐµÑģÑĮ": 2436,
      "ĠÑģÐ¾Ð¾ÑĤÐ²ÐµÑĤ": 2437,
      "ĠÐ²ÑĢÐµÐ¼ÐµÐ½Ð¸": 2438,
      "Ġwant": 2439,
      "Ġbuild": 2440,
      "Ġchang": 2441,
      "Ġdid": 2442,
      "ĠÑĢÐ°Ð·Ð»Ð¸Ñĩ": 2443,
      "ĠÑĦÐ°Ðº": 2444,
      "agn": 2445,
      "reen": 2446,
      "Ġhim": 2447,
      "ÐĿÐ°": 2448,
      "Ð°ÑĤÐ°": 2449,
      "ples": 2450,
      "erest": 2451,
      "ĠÐ½ÐµÐ³Ð¾": 2452,
      "ĠÐ¸Ð·Ð²ÐµÑģÑĤ": 2453,
      "ĠÐ´Ð²Ð°": 2454,
      "Ġdem": 2455,
      "17": 2456,
      "sc": 2457,
      "ĠÐ´ÑĢÑĥÐ³Ð¸Ñħ": 2458,
      "ĠSp": 2459,
      "Ġ30": 2460,
      "ertain": 2461,
      "ĠÐ²Ð°Ñģ": 2462,
      "ÐºÐ¸Ñħ": 2463,
      "Ġpar": 2464,
      "ĠÐ²Ð°Ð¶": 2465,
      "ÑģÑĥ": 2466,
      "Ġaw": 2467,
      "Ġsom": 2468,
      "Ġplace": 2469,
      "Ġstand": 2470,
      "16": 2471,
      "ger": 2472,
      "Ġcap": 2473,
      "ense": 2474,
      "ĠÐ¿ÑĢÐ¾ÑĨÐµÑģÑģ": 2475,
      "âĢľ": 2476,
      "ĠÐ¾Ð±ÑĢÐ°Ð·Ð¾Ð¼": 2477,
      "ĠÑģÑĥÐ´": 2478,
      "lu": 2479,
      "ĠÐ²Ð¾Ð»": 2480,
      "cond": 2481,
      "ĠâĢĺ": 2482,
      "ological": 2483,
      "Ð¾Ð»Ð¸ÑĩÐµ": 2484,
      "Ġinclude": 2485,
      "Ġchange": 2486,
      "ĠÑģÐ¼": 2487,
      "Ð»Ð¸Ñı": 2488,
      "orn": 2489,
      "ĠÑĥÑĩÐ°ÑģÑĤ": 2490,
      "Ġlearning": 2491,
      "Ð¾Ð²Ð¾Ð¹": 2492,
      "iver": 2493,
      "Ð·Ð°ÑĨÐ¸Ð¸": 2494,
      "ĠÐ¿ÑĢÐ¸Ñĩ": 2495,
      "Ġmight": 2496,
      "ÑĳÑĤ": 2497,
      "Ġland": 2498,
      "Ġcalled": 2499,
      "ĠÐ¡Ð¨ÐĲ": 2500,
      "Ð²Ð°ÑĢ": 2501,
      "Ġthough": 2502,
      "Ġ14": 2503,
      "ÑıÐ±": 2504,
      "Ġve": 2505,
      "Ġmeas": 2506,
      "ÑĤÐ¾ÑĢÐ°": 2507,
      "ining": 2508,
      "ĠÐ¸Ð¼ÐµÐ½": 2509,
      "Ð»ÑİÑĩÐ°": 2510,
      "ording": 2511,
      "ĠÑĩÐµÐ»Ð¾Ð²ÐµÐºÐ°": 2512,
      "ĠWhat": 2513,
      "Ð´Ð¸Ð½": 2514,
      "ÑĨÐµÐ½": 2515,
      "Ð®": 2516,
      "ĠÐ¿Ñĥ": 2517,
      "ww": 2518,
      "Ġproper": 2519,
      "ĠÐ²ÑĭÑģÐ¾Ðº": 2520,
      "ÑĥÐ½Ðº": 2521,
      "50": 2522,
      "oun": 2523,
      "ik": 2524,
      "Ġwithout": 2525,
      "ĠQ": 2526,
      "Ġpublic": 2527,
      "ĠÑĥÑĤ": 2528,
      "ĠÐ½Ð°Ð¿ÑĢÐ°Ð²": 2529,
      "Ġlight": 2530,
      "ĠÑħÐ°ÑĢÐ°": 2531,
      "ĠRes": 2532,
      "Ġsignific": 2533,
      "inc": 2534,
      "ĠIs": 2535,
      "ateg": 2536,
      "Ġmark": 2537,
      "Ð»Ð¾Ð¼": 2538,
      "bers": 2539,
      "Ġhome": 2540,
      "Ġbus": 2541,
      "Ġprovide": 2542,
      "ĠÐ¼ÐµÐ´": 2543,
      "ĠÐ²ÑĭÐ±": 2544,
      "ason": 2545,
      "Ġproject": 2546,
      "ĠÑĢÑĭ": 2547,
      "outh": 2548,
      "Ġbas": 2549,
      "Ġworks": 2550,
      "ÐµÑģÑģ": 2551,
      "ĠÑĢÐ¸": 2552,
      "ĠSh": 2553,
      "ĠÐ¿Ð¾Ð·Ð²Ð¾Ð»": 2554,
      "ĠÐ¾Ð±Ñĭ": 2555,
      "ĠÐ½ÑĥÐ¶Ð½Ð¾": 2556,
      "irc": 2557,
      "az": 2558,
      "14": 2559,
      "Ð´Ñĭ": 2560,
      "less": 2561,
      "ĠÐĲÐ½": 2562,
      "Ġdesc": 2563,
      "Ð¸ÑĩÐµÑģÐºÐ¸Ðµ": 2564,
      "ource": 2565,
      "Ġimm": 2566,
      "ĠÑģÐ²Ð¾Ñİ": 2567,
      "ĠÑģÐ»ÑĥÑĩÐ°Ðµ": 2568,
      "ĠÑģÐ²Ð¾Ð¹": 2569,
      "ÑĢÐµÑģÑģ": 2570,
      "ĠÐ¿Ð¾Ð»Ð¾Ð¶": 2571,
      "ĠÐ¾Ð³": 2572,
      "anguage": 2573,
      "Ð»ÑıÐµÑĤ": 2574,
      "Ġant": 2575,
      "ÑĥÐ±Ð»Ð¸": 2576,
      "30": 2577,
      "ĠÑģÐµÐ±Ðµ": 2578,
      "ĠÐºÐ»Ð°": 2579,
      "ĠÐ¼Ñĥ": 2580,
      "atic": 2581,
      "ÑĢÐµÐ¿": 2582,
      "Ð¸ÐºÐ°Ð½": 2583,
      "Ġstill": 2584,
      "ĠÑİ": 2585,
      "osed": 2586,
      "ÑĩÐ½Ð¾": 2587,
      "ĠÑĤÑĢÐµÐ±": 2588,
      "ÑģÑĤÑĢÑĥ": 2589,
      "rop": 2590,
      "Ð¸Ð»Ð¸ÑģÑĮ": 2591,
      "ÑĢÐ¾Ð±": 2592,
      "II": 2593,
      "ĠÐ¿ÑĢÐ¾Ð¸Ñģ": 2594,
      "Ġperform": 2595,
      "ĠÐ¿Ð»Ð°": 2596,
      "ĠÐ¿ÑĢÐ¾Ð´Ð¾Ð»Ð¶": 2597,
      "Ð²Ð": 2598,
      "Ð³Ð¾ÑĤÐ¾Ð²": 2599,
      "ĠÐ¼Ð°ÑĤÐµÑĢÐ¸": 2600,
      "ĠÐ¿ÑĢÐ¾Ð³ÑĢÐ°Ð¼": 2601,
      "Ð°ÑĤÐ¾Ñĩ": 2602,
      "Ð±Ðµ": 2603,
      "ield": 2604,
      "Ġfin": 2605,
      "ÐµÑĢÑĤ": 2606,
      "Ġblood": 2607,
      "icle": 2608,
      "ĠÐ²ÐµÐ´": 2609,
      "ÐºÑĤÐµÑĢ": 2610,
      "ĠÐ¸ÑģÐ¿Ð¾Ð»ÑĮÐ·Ð¾Ð²": 2611,
      "ĠBut": 2612,
      "Ġaddition": 2613,
      "Ð°Ð´Ð°": 2614,
      "Ð³Ð»Ñı": 2615,
      "Ð²Ð¾": 2616,
      "ĠHowever": 2617,
      "ÑĢÐµÐ·": 2618,
      "Ġbre": 2619,
      "Ð½Ð¸ÑĤÑĮ": 2620,
      "ÑģÑĤÐ²ÐµÐ½Ð½Ð¾": 2621,
      "Ġele": 2622,
      "Ð²Ð°Ð»": 2623,
      "Ġfew": 2624,
      "man": 2625,
      "ĠÑĤÑĢÐ¸": 2626,
      "ÐµÐºÑĤÐ¸Ð²": 2627,
      "ĠÑĩÑĥÐ²": 2628,
      "ĠÐºÐ¾Ð»Ð¸ÑĩÐµ": 2629,
      "Ġsit": 2630,
      "ified": 2631,
      "Ġindu": 2632,
      "ccess": 2633,
      "ĠÐ´Ð¾Ð»Ð¶Ð½Ñĭ": 2634,
      "ected": 2635,
      "ĠÐ¾Ð±ÑīÐµ": 2636,
      "ÐºÐ¸Ð¹": 2637,
      "ÐµÐ»Ð°": 2638,
      "Ġcontrol": 2639,
      "ĠTo": 2640,
      "Ð±Ð°": 2641,
      "ĠÐ»ÐµÐ³": 2642,
      "ision": 2643,
      "ĠPl": 2644,
      "ĠÐ¸Ð½ÑĤÐµÑĢÐµ": 2645,
      "Ġdisease": 2646,
      "to": 2647,
      "Ġeconom": 2648,
      "Ġhistory": 2649,
      "Ð³Ð´Ð°": 2650,
      "Ð°ÑĤÐµÐ»ÑĮÐ½Ð¾": 2651,
      "Ġdon": 2652,
      "ĠÐ·ÐµÐ¼": 2653,
      ",âĢĿ": 2654,
      "ĠÐ·Ð²": 2655,
      "It": 2656,
      "ĠÑĥÑģÑĤÐ°Ð½Ð¾Ð²": 2657,
      "arent": 2658,
      "ats": 2659,
      "ĠÑĥÑģÐ»Ð¾Ð²": 2660,
      "ern": 2661,
      "Ġsl": 2662,
      "Ġrisk": 2663,
      "Ġdirect": 2664,
      "Ġmean": 2665,
      "ĠÐ²ÑĭÐ¿Ð¾Ð»": 2666,
      "hor": 2667,
      "ĠCl": 2668,
      "ĠÑģÑĤÐ°ÑĤÑĮ": 2669,
      "13": 2670,
      "ajor": 2671,
      "How": 2672,
      "ĠÑģÐ¾Ð²ÐµÑĢÑĪ": 2673,
      "ug": 2674,
      "Ð»ÑĥÐ±": 2675,
      "Ġ=": 2676,
      "atural": 2677,
      "ÑĢÑĥÑĪ": 2678,
      "ĠÐ½Ð°ÑĪ": 2679,
      "Ð½ÐµÑģ": 2680,
      "ÐµÐ½ÑĤÐ¾Ð²": 2681,
      "ĠWh": 2682,
      "Ġbenef": 2683,
      "Ġbetter": 2684,
      "Ġcal": 2685,
      "ograph": 2686,
      "ĠPh": 2687,
      "ĠÐ²Ð½ÑĥÑĤ": 2688,
      "ories": 2689,
      "ĠÑģÐ¾Ð¾ÑĤÐ²ÐµÑĤÑģÑĤÐ²": 2690,
      "Ġlow": 2691,
      "apt": 2692,
      "ĠÑĥÑģÐ¿": 2693,
      "Ð¾ÐºÐ°": 2694,
      "Ġ/": 2695,
      "ĠÐ¼Ð¸Ð½": 2696,
      "Ð¸ÑĤÐ°": 2697,
      "ÐŁÑĢÐ¸": 2698,
      "Ġ194": 2699,
      "Ġsaf": 2700,
      "Ġprom": 2701,
      "ĠÐ¿Ð¾Ð´Ð´ÐµÑĢÐ¶": 2702,
      "Ġ|": 2703,
      "Ġarea": 2704,
      "ris": 2705,
      "Ġoper": 2706,
      "ients": 2707,
      "Ð½Ð¸Ñħ": 2708,
      "Ġdev": 2709,
      "ysis": 2710,
      "ÑģÐ¸Ñħ": 2711,
      "ĠÐ¼Ð¾Ð´": 2712,
      "Ġinterest": 2713,
      "ĠÐºÐ½Ð¸": 2714,
      "Ġpain": 2715,
      "par": 2716,
      "Ġret": 2717,
      "Ġfree": 2718,
      "ÑİÑīÐ¸Ñħ": 2719,
      "Ġsever": 2720,
      "Ð¾ÑģÐ»Ðµ": 2721,
      "Ġpass": 2722,
      "ĠÑģÑĭ": 2723,
      "Ġorder": 2724,
      "Ġtype": 2725,
      "ĠÐ²ÑĭÐ·": 2726,
      "ÐµÐºÑĤ": 2727,
      "Ð°Ð»ÑĮÐ½Ð¾": 2728,
      "ĠÑįÑĤÐ°": 2729,
      "ĠÑĥÐ´Ð°": 2730,
      "Ġopp": 2731,
      "ĠÐ³Ð»Ð°": 2732,
      "Ġaffect": 2733,
      "Ġmill": 2734,
      "Ġinvol": 2735,
      "Ġcause": 2736,
      "ÑĢÐ¾Ð²Ð°Ð½": 2737,
      "Ġ13": 2738,
      "Ġkeep": 2739,
      "Ġ198": 2740,
      "Ġplant": 2741,
      "Ð°Ð»Ð¸ÑģÑĮ": 2742,
      "ton": 2743,
      "Ġbelie": 2744,
      "ĠÐ·Ð°Ð´Ð°": 2745,
      "Ġmeans": 2746,
      "eral": 2747,
      "ĠÑĢÑĥÑģ": 2748,
      "Ġbecome": 2749,
      "ention": 2750,
      "ived": 2751,
      "sy": 2752,
      "Ð¾Ð½Ð¾Ð²": 2753,
      "Ð¾Ð½Ñĩ": 2754,
      "Ġstruct": 2755,
      "ĠÑģÐµÐº": 2756,
      "ĠÐ¿Ð¾Ð³": 2757,
      "ĠÐ½Ð°Ð±": 2758,
      "ĠÐºÐ¾ÑĤÐ¾ÑĢÐ¾Ð¹": 2759,
      "Ġreal": 2760,
      "Ð¾ÑĤÐ°": 2761,
      "ÐºÑĢÐ°": 2762,
      "oid": 2763,
      "Ġanim": 2764,
      "ways": 2765,
      "ĠÐ¿Ð¾Ð»ÑĮÐ·": 2766,
      "Ġanother": 2767,
      "ĠÐ¼Ð": 2768,
      "ĠÐ¼Ð¾": 2769,
      "Ġwomen": 2770,
      "ĠTe": 2771,
      "ead": 2772,
      "ĠÑįÑĤÐ¸Ñħ": 2773,
      "Ġimpact": 2774,
      "ĠÐ±Ð»Ð°Ð³": 2775,
      "ogn": 2776,
      "Ġlaw": 2777,
      "gin": 2778,
      "ĠÑģÐ¾Ð³Ð»Ð°": 2779,
      "ote": 2780,
      "ÑĢÐµÐ²": 2781,
      "ĠÑĤÐµÐ¿": 2782,
      "ÐµÑĢÑĭ": 2783,
      "://": 2784,
      "ĠÐ¼Ð°ÑĢ": 2785,
      "Ð¼Ð°Ð½": 2786,
      "ĠWor": 2787,
      "ards": 2788,
      "Ð¸ÑĩÐµÑģÐºÐ¾Ð³Ð¾": 2789,
      "Ġter": 2790,
      "Ð½Ð°Ñĩ": 2791,
      "ĠÑģÑĤÐ": 2792,
      "ĠÑģÑĤÐ¾": 2793,
      "ĠZ": 2794,
      "ĠÐ¿Ð¾ÑĤÐ¾Ð¼Ñĥ": 2795,
      "Ð°Ð»Ðµ": 2796,
      "Ġprogram": 2797,
      "ĠÐ¸Ð¼ÐµÐµÑĤ": 2798,
      "ator": 2799,
      "port": 2800,
      "Ġmar": 2801,
      "here": 2802,
      "ÑĥÐ»Ñı": 2803,
      "Ġleg": 2804,
      "Ġes": 2805,
      "Ġbook": 2806,
      "ĠÑĦÐ¸Ð»ÑĮ": 2807,
      "Ġavail": 2808,
      "ĠÐ»Ð¸ÑĪÑĮ": 2809,
      "ĠAmerican": 2810,
      "ication": 2811,
      "ently": 2812,
      "Ġsignificant": 2813,
      "ÐµÑĪ": 2814,
      "ÑģÐ»": 2815,
      "ocus": 2816,
      "Ġair": 2817,
      "ĠÐ²ÑĭÐ¿": 2818,
      "ÑĩÐ°Ñģ": 2819,
      "ÑİÑīÐ¸Ðµ": 2820,
      "ÐµÐ½Ð½Ð¾Ð³Ð¾": 2821,
      "ĠÐ¿ÑĢÐ¾ÑĪ": 2822,
      "ĠÐ¼Ð¾Ð¼": 2823,
      "ÑģÐºÐ¸Ð¼": 2824,
      "ĠÑģÐ¸Ð»ÑĮ": 2825,
      "Ġcreat": 2826,
      "Ġwriting": 2827,
      "Ġrest": 2828,
      "Ġcost": 2829,
      "ĠÐ¿ÐµÑĢÐ¸": 2830,
      "Ð²ÑĢÐ¾Ð¿": 2831,
      "Ġwar": 2832,
      "Ð²Ð°Ñı": 2833,
      "Ġhig": 2834,
      "Ġbased": 2835,
      "Ġmove": 2836,
      "Ġbo": 2837,
      "Ġlook": 2838,
      "ÐµÑģÐ¿ÐµÑĩ": 2839,
      "Ð°Ð½ÑĤ": 2840,
      "ĠÐ¸Ð´": 2841,
      "Ġfeel": 2842,
      "Ġtre": 2843,
      "ĠÑĤÑĢÐ°": 2844,
      "Ġparticular": 2845,
      "ĠÑĨÐµÐ½ÑĤ": 2846,
      "ÑĩÐµÐ³Ð¾": 2847,
      "Ġnon": 2848,
      "Ġmajor": 2849,
      "Ð¹ÑĤÐ¸": 2850,
      "Ġcurrent": 2851,
      "ĠÐ²Ð¼ÐµÑģÑĤ": 2852,
      "ĠÑģÐ¾Ð±ÑģÑĤÐ²ÐµÐ½": 2853,
      "Ġdel": 2854,
      "Ġperiod": 2855,
      "ĠÐ¾ÑĤÐ´": 2856,
      "be": 2857,
      "ĠÑĩÐ°ÑģÑĤÐ¸": 2858,
      "____": 2859,
      "ina": 2860,
      "Ð¾Ð²Ð°": 2861,
      "Ġold": 2862,
      "Ġmult": 2863,
      "ĠÐ½Ð°Ð¼": 2864,
      "Ġgroup": 2865,
      "Ð¸ÑģÐº": 2866,
      "sw": 2867,
      "ĠÑģÐ²Ð¾Ð¸Ñħ": 2868,
      "ÑĥÑīÐµÑģÑĤÐ²": 2869,
      "ĠÑħÐ°ÑĢÐ°ÐºÑĤÐµÑĢ": 2870,
      "ĠÐĺÐ½": 2871,
      "Ġoccur": 2872,
      "Ġfamily": 2873,
      "ames": 2874,
      "Ð¸Ð´Ð°": 2875,
      "agement": 2876,
      "ÑģÐ½Ð¾": 2877,
      "ĠÐºÑĢÐ¾Ð²": 2878,
      "ĠÐ°Ð½Ð°": 2879,
      "oh": 2880,
      "ĠUniversity": 2881,
      "icro": 2882,
      "ĠÑģÐºÐ°Ð·Ð°Ð»": 2883,
      "ĠÑĤÐ°Ð¼": 2884,
      "Ð½ÐµÐ½Ð¸Ñı": 2885,
      "ĠÐ¶ÐµÐ½Ñī": 2886,
      "Ð½Ð¸ÑĤÐµÐ»ÑĮ": 2887,
      "Ġseveral": 2888,
      "ĠÑĥÐ¿ÑĢÐ°Ð²": 2889,
      "Ġsec": 2890,
      "ÐµÑĢÑħ": 2891,
      "ĠÐŀÐ±": 2892,
      "Ð¾Ð±Ð¾Ð´": 2893,
      "Ġfollowing": 2894,
      "ĠÑģÐ²Ð¾Ð¸": 2895,
      "ĠÐ¿Ð°": 2896,
      "Ġhere": 2897,
      "ĠÐ¿ÑĢÐ¸Ð·Ð½Ð°": 2898,
      "Ġvarious": 2899,
      "Ġearly": 2900,
      "Ð°ÑĤÑĭ": 2901,
      "Ġaccess": 2902,
      "ÑĢÐ¾Ð¼Ðµ": 2903,
      "work": 2904,
      "Ġconn": 2905,
      "ĠÐ°ÑĤ": 2906,
      "Ð½ÐµÐ¼": 2907,
      "ĠÐ·Ð°Ñī": 2908,
      "ank": 2909,
      "ÐļÐ°Ðº": 2910,
      "ĠÐ±Ð¾ÑĢ": 2911,
      "ĠÑįÑĦÑĦ": 2912,
      "oad": 2913,
      "Ġpossible": 2914,
      "ĠÑįÐºÐ¾Ð½Ð¾Ð¼": 2915,
      "ĠÐ¸Ð´Ðµ": 2916,
      "ĠÐ¡ÑĤ": 2917,
      "Ġbi": 2918,
      "'t": 2919,
      "Ġtreatment": 2920,
      "ÑģÑĥÑĤ": 2921,
      "ĠÑįÐºÑģÐ¿": 2922,
      "rap": 2923,
      "ÐµÐ³Ð¾": 2924,
      "Ġable": 2925,
      "ĠÐ²ÑģÐµÐ³Ð´Ð°": 2926,
      "ÑĢÐµÐ¹": 2927,
      "Ð³Ð»Ð¸": 2928,
      "ĠÐ¼Ð°Ð»": 2929,
      "Ġlim": 2930,
      "Ġpaper": 2931,
      "ĠÐ¿ÑĢÐ¸Ð¼ÐµÐ½": 2932,
      "ĠÑģÐ»ÐµÐ´ÑĥÑİÑī": 2933,
      "ĠWhen": 2934,
      "ides": 2935,
      "ĠÐ²Ð½Ðµ": 2936,
      "Ð½ÐµÐ³Ð¾": 2937,
      "Ð¼ÐµÑĢÐ¸ÐºÐ°Ð½": 2938,
      "ling": 2939,
      "ĠÐ½ÐµÐ¹": 2940,
      "Ð²Ð°Ð»Ð¸": 2941,
      "orth": 2942,
      "Ġ'": 2943,
      "Ġlast": 2944,
      "ole": 2945,
      "ĠÐ²ÐµÐ»Ð¸": 2946,
      "ÐµÑī": 2947,
      "ĠÐ´Ð¾ÑģÑĤÐ¸": 2948,
      "ÑıÑĤÑģÑı": 2949,
      "lished": 2950,
      "ĠÐ¾ÑĤÐ½Ð¾ÑĪ": 2951,
      "ĠÐ¿ÑĢÐ¸Ð½Ñı": 2952,
      "Ð½ÐµÐ²": 2953,
      "Ġprevent": 2954,
      "ression": 2955,
      "ÑıÐ¼Ð¸": 2956,
      "Ð¾ÑĢÐ¸Ð¸": 2957,
      "ĠÑĨÐµÐ»": 2958,
      "ĠÐ¼ÑĥÐ¶": 2959,
      "ĠÐ¿ÑĢÐ¸Ð½": 2960,
      "ots": 2961,
      "Ġ$": 2962,
      "ploy": 2963,
      "ĠÐ¾Ð±ÐµÑģÐ¿ÐµÑĩ": 2964,
      "Ġagainst": 2965,
      "ĠÑģÑĤÐ°ÑĢ": 2966,
      "ilar": 2967,
      "Ġhapp": 2968,
      "ÐµÐ¹ÑĩÐ°Ñģ": 2969,
      "ĠÐ°Ð¿": 2970,
      "ĠÐ±Ð¾Ð»": 2971,
      "ends": 2972,
      "ĠÐ½Ð°ÑĢÐ¾Ð´": 2973,
      "Ð¾Ð»ÑĮÑĪ": 2974,
      "ĠCol": 2975,
      "Ġcond": 2976,
      "rist": 2977,
      "ĠÐºÑĢÐ°": 2978,
      "Ġfore": 2979,
      "ĠÐ¿Ð»Ð¾": 2980,
      "Ġfre": 2981,
      "ÑĢÐ¾ÑĤ": 2982,
      "ians": 2983,
      "Ġbusiness": 2984,
      "Ġname": 2985,
      "ĠÑĤÐ¸Ð¿": 2986,
      "Ġindust": 2987,
      "Ġel": 2988,
      "ĠÐ°Ð´": 2989,
      "ÑĨÐ¸ÐµÐ¹": 2990,
      "ĠÐ²Ð½Ð¸Ð¼": 2991,
      "Ġinvest": 2992,
      "por": 2993,
      "Ġâ": 2994,
      "amp": 2995,
      "Ġ100": 2996,
      "ĠÐ´Ð²Ð¸Ð¶": 2997,
      "Ġfunction": 2998,
      "200": 2999,
      "ĠÐ¾ÑģÑĤÐ°Ð²": 3000,
      "ĠÐ¿ÑĢÐ¸Ð²": 3001,
      "Ð±Ñĥ": 3002,
      "ĠEn": 3003,
      "Ġdue": 3004,
      "ĠÑįÐ½": 3005,
      "ĠÑģÐ»ÑĥÐ¶": 3006,
      "Ġgovernment": 3007,
      "Ġmaking": 3008,
      "ĠÑĤÑĢÑĥÐ´": 3009,
      "ĠÑĤÐ¾ÑĢ": 3010,
      "Ġlanguage": 3011,
      "Ġintern": 3012,
      "Ġ11": 3013,
      "ĠÑģÐ»Ð¾Ð¶": 3014,
      "Ð°Ð½Ð¸Ð¹": 3015,
      "ances": 3016,
      "Ġspecies": 3017,
      "Ġobject": 3018,
      "Ð¿ÐµÑĢÐ°": 3019,
      "hem": 3020,
      "Ð½Ð°Ð´": 3021,
      "ledge": 3022,
      "ÑĳÐ¼": 3023,
      "Ð¸ÑģÐ¸Ð¼": 3024,
      "Ġbehav": 3025,
      "Ð¿Ð¸ÑĤ": 3026,
      "ÑıÐ²Ð»Ñı": 3027,
      "ĠUnited": 3028,
      "Ġlist": 3029,
      "ĠÐŀÑĤ": 3030,
      "Ġfocus": 3031,
      "ission": 3032,
      "Ġamong": 3033,
      "Ð¿Ð¾Ð´": 3034,
      "Ġorig": 3035,
      "Ġcertain": 3036,
      "Ġpotential": 3037,
      "ĠÐĸ": 3038,
      "Ð¸ÑģÑģ": 3039,
      "ĠÑĦÑĥÐ½Ðº": 3040,
      "ĠÐłÐ¾ÑģÑģÐ¸Ð¸": 3041,
      "Ġspecific": 3042,
      "ĠÐ½Ð°Ð·ÑĭÐ²Ð°": 3043,
      "Ġsecond": 3044,
      "ÑģÑĤÐ²Ð¾Ð²": 3045,
      "ĠÐĺÐ·": 3046,
      "Ġmil": 3047,
      "ĠÐ¿ÑĢÐ°Ðº": 3048,
      "Ġthings": 3049,
      "idence": 3050,
      "ĠCan": 3051,
      "Ġopen": 3052,
      "Ġfac": 3053,
      "Ġcharacter": 3054,
      "Ð¸ÑĤÐµÐ»ÐµÐ¹": 3055,
      "ĠÑģÑĤÐ°Ð½": 3056,
      "Ð¸ÐºÐ¾Ð²": 3057,
      "ooks": 3058,
      "ĠÑģÑĤÐ°Ð»": 3059,
      "ĠÑĨÐ¸": 3060,
      "Ġproblems": 3061,
      "Ġage": 3062,
      "Ġassoci": 3063,
      "ĠÐ¸Ñģ": 3064,
      "Ġavailable": 3065,
      "olution": 3066,
      "Ġcase": 3067,
      "ĠÐ®": 3068,
      "ĠÐ·Ð´ÐµÑģÑĮ": 3069,
      "Ð½Ð¸ÑĩÐµÑģÐº": 3070,
      "ĠÑĢÐ°Ð²": 3071,
      "urther": 3072,
      "ĠÑģÐ´ÐµÐ»Ð°ÑĤÑĮ": 3073,
      ".\"": 3074,
      "Ġothers": 3075,
      "Ġwords": 3076,
      "ĠÐ¸Ð·Ð¾Ð±": 3077,
      "ĠÐ¿ÑģÐ¸Ñħ": 3078,
      "Ð¾Ð³ÑĢÐ°ÑĦ": 3079,
      "pecial": 3080,
      "ĠÑģÐ¾Ð¿": 3081,
      "ĠÐºÐ°ÑĤ": 3082,
      "Ġflow": 3083,
      "ĠÐºÑĢÐ°Ñģ": 3084,
      "ended": 3085,
      "Ð¸Ð»Ð¾ÑģÑĮ": 3086,
      "ĠÐ¸Ð·Ð±": 3087,
      "Ġeducation": 3088,
      "Ġcreate": 3089,
      "ĠÐ´Ð°Ð²": 3090,
      "Ġpress": 3091,
      "Ġeffective": 3092,
      "ÑģÑĤÐ²Ñĥ": 3093,
      "Ð°Ð½Ð¸Ñİ": 3094,
      "ĠÐ´Ð¾Ð»Ð¶ÐµÐ½": 3095,
      "Ð°Ð½Ð½ÑĭÐµ": 3096,
      "Ġtru": 3097,
      "arc": 3098,
      "ĠÑĢÐµÐ±": 3099,
      "ĠÑģÐ¾Ð±Ð¾Ð¹": 3100,
      "ĠÐ´Ð¾Ð²": 3101,
      "Ġcomput": 3102,
      "ĠÐ²ÑģÑĤÑĢÐµ": 3103,
      "Ġvol": 3104,
      "Ġview": 3105,
      "Ġens": 3106,
      "ĠÐŀÐ´Ð½Ð°ÐºÐ¾": 3107,
      "Ġareas": 3108,
      "ĠÑĩÐ°Ñģ": 3109,
      "Ġlet": 3110,
      "ĠÑĩÐ°ÑģÑĤÑĮ": 3111,
      "ĠÐ´Ð²ÑĥÑħ": 3112,
      "ĠÐ´ÑĢÑĥÐ³Ð¸Ðµ": 3113,
      "ÑģÐºÐ¾Ðµ": 3114,
      "Ð°Ð»ÑĮÐ½Ð¾Ð¹": 3115,
      "Ġproblem": 3116,
      "ĠÐ²Ð¸Ð´Ðµ": 3117,
      "Ġi": 3118,
      "rid": 3119,
      "Ġapplic": 3120,
      ".)": 3121,
      "Ġsystems": 3122,
      "Ġcountry": 3123,
      "Ġtext": 3124,
      "Ġdeterm": 3125,
      "oint": 3126,
      "ĠÑģÐ¸Ð¼": 3127,
      "Ġshort": 3128,
      "ĠÑĤÐµÐº": 3129,
      "ĠÐ»ÑİÐ´Ð¸": 3130,
      "ĠÑģÐ²Ð¾ÐµÐ³Ð¾": 3131,
      "Ġ50": 3132,
      "ek": 3133,
      "ĠÐ°ÐºÑĤÐ¸Ð²": 3134,
      "Ġcrit": 3135,
      "ĠÐ²Ð°ÑĪ": 3136,
      "ÑģÑĤÐµ": 3137,
      "Ð½Ð¾Ñģ": 3138,
      "ique": 3139,
      "Ġpost": 3140,
      "Ġsince": 3141,
      "of": 3142,
      "ĠÑįÐ»ÐµÐºÑĤ": 3143,
      "Ð²Ð¸Ð´": 3144,
      "ĠÐŀÐ½Ð¸": 3145,
      "ÑĩÐµÑĤ": 3146,
      "ĠÐļÐ¾Ð½": 3147,
      "ret": 3148,
      "Ġ25": 3149,
      "Ġnatural": 3150,
      "Ġsuccess": 3151,
      "Ġtypes": 3152,
      "erc": 3153,
      "Ġlevels": 3154,
      "ĠÐ¿ÑĢÐ¾Ñģ": 3155,
      "Ð²Ð¾Ð·": 3156,
      "Ð´Ð¶": 3157,
      "resent": 3158,
      "Ð°ÑĤÐµÐ»Ñı": 3159,
      "ÑĢÐ¾Ð²Ð°ÑĤÑĮ": 3160,
      "Ġvir": 3161,
      "osp": 3162,
      "Ġ197": 3163,
      "ones": 3164,
      "ĠÑĥÐºÐ°Ð·": 3165,
      "cle": 3166,
      "Ġtechnology": 3167,
      "ĠÐ½Ð°ÑģÑĤÐ¾Ñı": 3168,
      "etic": 3169,
      "ĠÐ±ÑĥÐ´ÑĥÑĤ": 3170,
      "uture": 3171,
      "ĠÑĢÐ°Ð±Ð¾ÑĤÑĭ": 3172,
      "Ġamount": 3173,
      "Ġsay": 3174,
      "Ġcells": 3175,
      "ĠÐ¼Ð¾Ð¶ÐµÑĤÐµ": 3176,
      "omm": 3177,
      "ÐµÑĢÐ¾Ð²": 3178,
      "ĠÐ¾ÑĢÐ³Ð°Ð½Ð¸Ð·": 3179,
      "Ġtimes": 3180,
      "une": 3181,
      "icult": 3182,
      "Ð°Ð¹ÑĤÐµ": 3183,
      "ĠÐ²ÑģÐµÐ¼": 3184,
      "ĠÐ¿Ð¾ÑĤÑĢÐµÐ±": 3185,
      "Ð¾Ð»Ð": 3186,
      "Ġthink": 3187,
      "Ð¾Ð»Ð¾": 3188,
      "Ð½Ñİ": 3189,
      "22": 3190,
      "Ġtool": 3191,
      "mit": 3192,
      "atory": 3193,
      "Ð»Ð¾ÑĤ": 3194,
      "Ġexperience": 3195,
      "Ġfour": 3196,
      "St": 3197,
      "Ð¸ÑĤÐµÐ»Ñı": 3198,
      "ĠUS": 3199,
      "ĠÑĨÐ²ÐµÑĤ": 3200,
      "ĠÑĪÐº": 3201,
      "ĠÐ¸Ð³ÑĢÐ°": 3202,
      "Ġcome": 3203,
      "abor": 3204,
      "Ð¸ÑĤÑĥÐ°": 3205,
      "urope": 3206,
      "ĠÐ³Ð¾Ð»Ð¾Ð²": 3207,
      "ĠÑĤÐ¾ÑĤ": 3208,
      "Ġcirc": 3209,
      "Ġfil": 3210,
      "Ġmonth": 3211,
      "Ġscient": 3212,
      "Ġmen": 3213,
      "Ġimprove": 3214,
      "Ġprofess": 3215,
      "ĠOn": 3216,
      "ĠÐ¸Ð¼ÐµÐ½Ð½Ð¾": 3217,
      "ĠÐµÑĳ": 3218,
      "We": 3219,
      "face": 3220,
      "Ġtemper": 3221,
      "though": 3222,
      "Ġcy": 3223,
      "Ġhard": 3224,
      "ÑģÐ¸": 3225,
      "ÑĤÐ¸Ñı": 3226,
      "ĠBe": 3227,
      "Ġresults": 3228,
      "put": 3229,
      "If": 3230,
      "ÑĥÐ»": 3231,
      "Ð¼Ð¾ÑĤÑĢÐµ": 3232,
      "ÑħÐ°": 3233,
      "Ġkey": 3234,
      "Ð¾ÑĢÑĤ": 3235,
      "ÑĢÐ°Ð»ÑĮ": 3236,
      "Ġrun": 3237,
      "ĠÐ·Ð°ÑıÐ²": 3238,
      "Ġconsum": 3239,
      "ĠÐ½ÐµÑģ": 3240,
      "ĠÐ¿ÑĢÐµÐ´Ð»Ð¾Ð¶": 3241,
      "ÐķÑģÐ»Ð¸": 3242,
      "Ġhead": 3243,
      "Ð°Ð½Ñĭ": 3244,
      "ĠÐ¿ÑĢÐ¸Ð¼ÐµÑĢ": 3245,
      "ĠÐ¾Ð´Ð½Ð¾Ð¹": 3246,
      "Ð°Ð½Ð¸ÐµÐ¼": 3247,
      "Ġneeds": 3248,
      "ÐºÐ¾Ð²Ð¾Ð´": 3249,
      "ĠÐºÐ¾ÑĤÐ¾ÑĢÐ¾Ðµ": 3250,
      "Ġrole": 3251,
      "ÑģÑĥÑĤÑģÑĤÐ²": 3252,
      "ĠÐ±ÐµÑģÐ¿": 3253,
      "Ð°Ð½Ð¾": 3254,
      "ĠÐ¾ÑĩÐµ": 3255,
      "ĠÐ¼ÐµÑģÑĤÐ": 3256,
      "ĠÐ¼ÐµÑģÑĤÐ¾": 3257,
      "ope": 3258,
      "Ġopt": 3259,
      "ĠÐ½ÐµÐ±": 3260,
      "Ð¸Ð½Ð¸": 3261,
      "Ġincrease": 3262,
      "Ġrece": 3263,
      "ode": 3264,
      "Ġsw": 3265,
      "ĠStates": 3266,
      "ĠÑģÑĤÐ¾ÑĢÐ¾Ð½Ñĭ": 3267,
      "Ð»Ð¾ÑģÑĮ": 3268,
      "ĠÐ³Ð¾ÑĤÐ¾Ð²": 3269,
      "ape": 3270,
      "ĠBl": 3271,
      "Ð´Ð¾Ð²": 3272,
      "ĠÐ´Ð¾Ð±Ð°Ð²": 3273,
      "ÑģÑıÑĤ": 3274,
      "ĠÐ¼Ð°ÑģÑģ": 3275,
      "Ð¾Ð´Ð½Ñı": 3276,
      "Ġcomb": 3277,
      "Ġdiscuss": 3278,
      "Ð°Ð½Ð½ÑĭÑħ": 3279,
      "ortun": 3280,
      "cul": 3281,
      "Ġanalysis": 3282,
      "ĠÐºÐ»Ð°ÑģÑģ": 3283,
      "ĠOr": 3284,
      "ĠÐ´ÐµÐ²": 3285,
      "ised": 3286,
      "ĠÐºÑĥÐ»ÑĮ": 3287,
      "ĠÐ´ÐµÑıÑĤÐµÐ»ÑĮ": 3288,
      "Ð½ÑĥÑĤÑĮ": 3289,
      "ĠÑģÐ¸ÑĤÑĥÐ°": 3290,
      "ĠÐ¼ÐµÑĤÐ¾Ð´": 3291,
      "Ġnear": 3292,
      "ggest": 3293,
      "ĠÐĶÐ»Ñı": 3294,
      "ÑĩÑĮ": 3295,
      "af": 3296,
      "ĠÐ½Ð¾ÑĢ": 3297,
      "Ġdra": 3298,
      "ĠÐ°Ð¼ÐµÑĢÐ¸ÐºÐ°Ð½": 3299,
      "ird": 3300,
      "ÑİÑīÐ¸Ð¹": 3301,
      "Ð¾Ð¼Ð¸Ð½Ð°": 3302,
      "ending": 3303,
      "ĠAt": 3304,
      "Ġ196": 3305,
      "ĠÑĢÐ°ÑģÐ¿Ð¾Ð»": 3306,
      "Ġcourse": 3307,
      "ÑĢÐ¸Ð¼ÐµÑĢ": 3308,
      "Ð¾ÑıÐ½": 3309,
      "ĠÐ»Ð¸Ñĩ": 3310,
      "iation": 3311,
      "Ġconditions": 3312,
      "Ð¸ÑĩÐµÑģÐºÐ¸Ð¹": 3313,
      "ĠÐ¿Ð¾ÑıÐ²": 3314,
      "ĠÐ¿ÑĢÐ¾ÑĦ": 3315,
      "ĠÑģÑĤÐ¾Ð»": 3316,
      "pr": 3317,
      "Ġbro": 3318,
      "ĠÐ²ÑĢÐ°": 3319,
      "ument": 3320,
      "ĠÐºÐ°Ð¼": 3321,
      "Ð²Ð°Ð½Ð¸Ñı": 3322,
      "ĠÐ²ÑģÑĳ": 3323,
      "obal": 3324,
      "utions": 3325,
      "ething": 3326,
      "Ġnet": 3327,
      "Ġput": 3328,
      "ĠÑģÐ¾Ð»": 3329,
      "Ð¸Ð²Ð°ÑĤÑĮ": 3330,
      "Ġhtt": 3331,
      "ÐµÑĪÑĮ": 3332,
      "Ġyoung": 3333,
      "let": 3334,
      "ĠÐ½Ð°Ð¿ÑĢÐ¸Ð¼ÐµÑĢ": 3335,
      "Ð¾ÑĢÐ¾Ð´": 3336,
      "ĠÐ°Ð»": 3337,
      "ptoms": 3338,
      "ĠÑĤÐ°ÐºÐ¾Ð¹": 3339,
      "ÑģÑĤÐ¾Ð²": 3340,
      "not": 3341,
      "ĠÐ¿Ð¾ÐºÐ°": 3342,
      "Ð²Ð°ÐµÑĤ": 3343,
      "over": 3344,
      "Ġspecial": 3345,
      "ĠÑģÐ¼ÐµÑĢ": 3346,
      "oring": 3347,
      "Ð¸Ð²Ð°ÐµÑĤ": 3348,
      "ĠÑĤÐ¾Ð³Ð´Ð°": 3349,
      "Ġterm": 3350,
      "Ð¸Ñī": 3351,
      "ĠÑģÐ¾Ñģ": 3352,
      "Ð²ÑĢÐ°Ñī": 3353,
      "pos": 3354,
      "Ġstep": 3355,
      "Ð»ÐµÐºÑģ": 3356,
      "ÐµÐ³Ð¾Ð´Ð½Ñı": 3357,
      "aster": 3358,
      "ÑĥÐµÑĤÑģÑı": 3359,
      "ĠÑģÐ¾Ð²ÐµÑĤ": 3360,
      "Ġunt": 3361,
      "Ġteac": 3362,
      "ĠÑħÐ¾Ð´": 3363,
      "ured": 3364,
      "ilities": 3365,
      "Ġobs": 3366,
      "Ġrelations": 3367,
      "Ġusually": 3368,
      "ĠÐºÐ¾Ð½ÑĨÐµ": 3369,
      "Ġsing": 3370,
      "Ġrele": 3371,
      "Ġwhy": 3372,
      "asing": 3373,
      "ĠÑĩÐ°ÑģÑĤÐ": 3374,
      "ĠÑĩÐ°ÑģÑĤÐ¾": 3375,
      "ÑıÐµÑĤ": 3376,
      "ĠSy": 3377,
      "ÑģÑĤÑĢÐ¾": 3378,
      "Ġrad": 3379,
      "Ġheart": 3380,
      "nal": 3381,
      "ĠÐ¼Ð¾Ð¼ÐµÐ½ÑĤ": 3382,
      "ĠGo": 3383,
      "ĠAll": 3384,
      "Ġgiven": 3385,
      "21": 3386,
      "Ġeffects": 3387,
      "ĠÑģÐ¾Ñħ": 3388,
      "ÑģÐºÐ°": 3389,
      "ĠAf": 3390,
      "Ġmot": 3391,
      "Ġdescrib": 3392,
      "ĠEnglish": 3393,
      "ware": 3394,
      "ÑıÐ±ÑĢÑı": 3395,
      "ĠÐ¾Ð¿ÐµÑĢÐ°": 3396,
      "ably": 3397,
      "Ġsuggest": 3398,
      "Ġcr": 3399,
      "ĠÐ´Ð¾ÑĢ": 3400,
      "Ġer": 3401,
      "alk": 3402,
      "Ð¼Ð": 3403,
      "Ð¼Ð¾": 3404,
      "ee": 3405,
      "ĠÑģÐ¾ÑĤ": 3406,
      "As": 3407,
      "ĠÐºÐ¾ÑĤÐ¾ÑĢÐ¾Ð³Ð¾": 3408,
      "ĠSo": 3409,
      "ĠÐ¿ÑĥÑĤ": 3410,
      "Ġz": 3411,
      "ĠÐ¿ÐµÑĢÐ¸Ð¾Ð´": 3412,
      "Ð¾Ð²Ð°Ð½Ð¸Ðµ": 3413,
      "Ġinflu": 3414,
      "Ġcolle": 3415,
      "Ð¼ÐµÐ½ÑĤÐ°": 3416,
      "ems": 3417,
      "25": 3418,
      "ÐºÐ¸Ðµ": 3419,
      "ĠÑģÐ¸ÑģÑĤÐµÐ¼Ñĭ": 3420,
      "Ð°Ñī": 3421,
      "Ð¸Ð»Ð°ÑģÑĮ": 3422,
      "ĠÐ³ÐµÐ½": 3423,
      "ont": 3424,
      "Ġkind": 3425,
      "Ġskills": 3426,
      "Ġalways": 3427,
      "ĠÐ¿ÑĢÐ¾Ð²Ð¾Ð´": 3428,
      "Ġenc": 3429,
      "Ġdifficult": 3430,
      "Ġpolit": 3431,
      "ĠÑĤÐµÑĩÐµÐ½Ð¸Ðµ": 3432,
      "ÑĮÐµ": 3433,
      "Ġnecess": 3434,
      "Ġhigher": 3435,
      "Ġchall": 3436,
      "Ġlocal": 3437,
      "Ġfuture": 3438,
      "Ð½Ð¾ÑģÑĤÐµÐ¹": 3439,
      "Ġdig": 3440,
      "ables": 3441,
      "ĠÐ¾ÑĤÐ½Ð¾Ñģ": 3442,
      "Ð°Ð»ÑĮÐ½ÑĭÑħ": 3443,
      "Ġplants": 3444,
      "Ð»Ð°ÑĤ": 3445,
      "Ġline": 3446,
      "Ġill": 3447,
      "Ġauthor": 3448,
      "Ġlittle": 3449,
      "Ġchanges": 3450,
      "Ġsimilar": 3451,
      "ĠÐºÐ¾Ð½ÑĤÑĢ": 3452,
      "Ġgive": 3453,
      "ĠÐ³ÐµÑĢ": 3454,
      "ĠÑĢÐ°ÑģÑģÐºÐ°Ð·": 3455,
      "ĠÐ½Ð°ÑĩÐ¸Ð½Ð°": 3456,
      "ĠÐĶÐ°": 3457,
      "ĠÑģÐ¾ÑĨÐ¸Ð°Ð»ÑĮ": 3458,
      "Ð»Ð°Ð±": 3459,
      "oney": 3460,
      "Ġrespons": 3461,
      "Ð»ÐµÐ½Ð¸Ð¸": 3462,
      "ĠÐ²ÑĭÑģÑĤÑĥÐ¿": 3463,
      "ĠÐ²Ð¾ÑĤ": 3464,
      "Ġcontain": 3465,
      "ately": 3466,
      "ĠEurope": 3467,
      "Ð°ÑĢÑı": 3468,
      "ĠÐ·Ð°ÑĤÐµÐ¼": 3469,
      "ĠÐ¿Ð¾Ð´Ð¾Ð±": 3470,
      "Ġknowledge": 3471,
      "ĠÐĴÑģÐµ": 3472,
      "Ð¾Ð½Ñĥ": 3473,
      "Ð»Ð¾Ðº": 3474,
      "ÑĢÐ°Ð¼": 3475,
      "Ð¾Ð»ÑĮÐºÑĥ": 3476,
      "sych": 3477,
      "atch": 3478,
      "ĠÑģÑĤÐ°Ð½Ð¾Ð²": 3479,
      "ĠÐŀÐ½Ð°": 3480,
      "ĠÐ¿Ð¸Ñģ": 3481,
      "Ġdays": 3482,
      "ours": 3483,
      "app": 3484,
      "ators": 3485,
      "duct": 3486,
      "ÑĢÑĥÐºÑĤ": 3487,
      "Ġprim": 3488,
      "ĠÐ¼Ð¾ÑĢ": 3489,
      "Ð´Ð¾ÑĢÐ¾Ð²": 3490,
      "ĠÑĦÐ¸Ð·": 3491,
      "Ġ...": 3492,
      "ler": 3493,
      "ĠÐ¾Ð±ÑıÐ·": 3494,
      "ged": 3495,
      "ĠÐ¾Ð¿Ð¸Ñģ": 3496,
      "ruction": 3497,
      "ann": 3498,
      "Ġsomething": 3499,
      "ĠÑģÑĤÑĢÐ°Ð½": 3500,
      "sel": 3501,
      "Ġphysical": 3502,
      "ÑīÑĳ": 3503,
      "ER": 3504,
      "pecially": 3505,
      "Ġconsider": 3506,
      "Ð¼ÐµÐ½ÑĤ": 3507,
      "lement": 3508,
      "Ð»Ð¾Ð³": 3509,
      "Ġquality": 3510,
      "ĠÐ»ÑĥÑĩÑĪÐµ": 3511,
      "ĠÐľÑĭ": 3512,
      "ÐµÐ²ÐµÑĢ": 3513,
      "Ð²Ð°Ð½Ð¸Ðµ": 3514,
      "Ġturn": 3515,
      "Ð³Ðµ": 3516,
      "ĠÐ¼Ð¸Ð»": 3517,
      "):": 3518,
      "¾ÑıÑĤ": 3519,
      "Ð¾ÑıÑĤ": 3520,
      "Ġstrong": 3521,
      "chie": 3522,
      "ember": 3523,
      "Ð°Ð»ÑĮÐ½ÑĭÐµ": 3524,
      "Ġcommunity": 3525,
      "idd": 3526,
      "ĠÑĢÐ°ÑģÑĤ": 3527,
      "ĠÐ¿Ð°ÑĢÐ°": 3528,
      "Ð¿Ð¸Ñģ": 3529,
      "ÐµÐ½Ð½ÑĭÐ¼": 3530,
      "stit": 3531,
      "ĠÐ´ÑĢÑĥÐ³Ð¾Ð¹": 3532,
      "Ġbegin": 3533,
      "ĠMed": 3534,
      "Ġsens": 3535,
      "ĠÑĥÐ²ÐµÐ»Ð¸": 3536,
      "Ġsubject": 3537,
      "min": 3538,
      "orts": 3539,
      "ĠÐ¿ÑĢÐµÐ·": 3540,
      "ĠÐ¼ÐµÐ½ÐµÐµ": 3541,
      "ĠÐºÐ»Ð¸": 3542,
      "Ġcomplete": 3543,
      "Ġways": 3544,
      "Ġclear": 3545,
      "ĠÐ¿Ð¾Ð¼Ð¾ÑīÑĮÑİ": 3546,
      "ĠÐ¿Ð¾ÑįÑĤÐ¾Ð¼Ñĥ": 3547,
      "ĠÑħÐ¾ÑĤÑı": 3548,
      "Ġ24": 3549,
      "Ġpercent": 3550,
      "ĠÂ": 3551,
      "ĠCent": 3552,
      "Ġaccount": 3553,
      "Ġsum": 3554,
      "Ð°ÑĤÐ¾ÑĩÐ½Ð¾": 3555,
      "ÑĨÐ¸Ð¿": 3556,
      "Ġintrodu": 3557,
      "ĠComm": 3558,
      "Ġpast": 3559,
      "aching": 3560,
      "ĠGod": 3561,
      "ĠÐ¾Ñħ": 3562,
      "Ġprev": 3563,
      "Ġessential": 3564,
      "ĠÐ¶Ð¸Ð·Ð½ÑĮ": 3565,
      "ung": 3566,
      "ĠÑĥÐ¼": 3567,
      "NA": 3568,
      "].": 3569,
      "ĠÐĲÑĢ": 3570,
      "ĠWith": 3571,
      "ĠÑĤÑĢÐ°Ð½": 3572,
      "Ġappear": 3573,
      "atures": 3574,
      "ification": 3575,
      "Ġalong": 3576,
      "ither": 3577,
      "Ð´Ð": 3578,
      "ĠÐ¿ÑĢÐ¸ÑĪ": 3579,
      "Ġparent": 3580,
      "Ð´Ð¾": 3581,
      "ires": 3582,
      "inking": 3583,
      "ĠÐ²Ð¾Ð¹Ð½Ñĭ": 3584,
      "ĠÐ±ÐµÐ»": 3585,
      "ÑĨÐ¸Ð°Ð»Ð¸": 3586,
      "ĠÐ¾ÑĤÐ»Ð¸Ñĩ": 3587,
      "ĠÐ¼ÐµÑģÑı": 3588,
      "Ġdam": 3589,
      "ĠÐºÐ°ÑĩÐµÑģÑĤÐ²Ðµ": 3590,
      "Ġspace": 3591,
      "Ð²Ð¾Ð¹": 3592,
      "aken": 3593,
      "aves": 3594,
      "ÑģÐºÑĥÑİ": 3595,
      "Ð´Ð°Ð²": 3596,
      "ĠÑģÐ²Ð¾Ð±Ð¾Ð´": 3597,
      "ÑĩÐ°ÐµÑĤ": 3598,
      "Ġgr": 3599,
      "Ð¾Ð¾ÑĢ": 3600,
      "Ġchem": 3601,
      "An": 3602,
      "Ġey": 3603,
      "ĠÑģÐºÐ¾ÑĢ": 3604,
      "iple": 3605,
      "Ġmodel": 3606,
      "ĠÐ¸ÑģÐ¿Ð¾Ð»ÑĮÐ·Ð¾Ð²Ð°ÑĤÑĮ": 3607,
      "Ġactivities": 3608,
      "Ġtoget": 3609,
      "use": 3610,
      "Ġtogether": 3611,
      "Ġgrowth": 3612,
      "by": 3613,
      "ĠÐ¼Ð¸ÑĢÐ°": 3614,
      "Ġansw": 3615,
      "ĠÐ²ÑĢÐµÐ¼ÐµÐ½": 3616,
      "Ð²Ð°Ð½": 3617,
      "Ġvalue": 3618,
      "oot": 3619,
      "There": 3620,
      "Ġself": 3621,
      "Ġlikely": 3622,
      "ÐµÑĩÐ½Ð¾": 3623,
      "Ġarticle": 3624,
      "Ġcountries": 3625,
      "ĠBy": 3626,
      "rug": 3627,
      "aps": 3628,
      "ÑĤÐ¸Ð½": 3629,
      "Ð¸ÑĤÐµÐ»Ð¸": 3630,
      "ĠÐºÐ¾Ð¼Ð°Ð½Ð´": 3631,
      "Ġworking": 3632,
      "âĢ¢": 3633,
      "ĠIm": 3634,
      "ales": 3635,
      "ÑĢÐ°Ð·Ñĥ": 3636,
      "ried": 3637,
      "Ð»Ð¾Ð½": 3638,
      "ÑĢÐ°Ð±": 3639,
      "ÑĢÐ¾Ð·": 3640,
      "istic": 3641,
      "Ġtry": 3642,
      "bon": 3643,
      "Ġtoday": 3644,
      "Ġacross": 3645,
      "ored": 3646,
      "Ġword": 3647,
      "ĠÐ²Ð»Ð¸Ñı": 3648,
      "Ġnut": 3649,
      "Ġrange": 3650,
      "ÑıÑģÑĮ": 3651,
      "ĠÐ¼ÐµÐ½ÑĮ": 3652,
      "amm": 3653,
      "ÑĩÐµÐ½Ð¸Ñı": 3654,
      "Ġcontrib": 3655,
      "ĠÐ°Ð²ÑĤÐ¾Ð¼": 3656,
      "ush": 3657,
      "ane": 3658,
      "Ð´Ð°ÐµÑĤ": 3659,
      "ÐºÐ¾Ð½": 3660,
      "ÑĤÐ¸Ð¹": 3661,
      "Ġdeath": 3662,
      "Ð°ÑĤÐ¸Ð²": 3663,
      "ĠÐ¼Ð¸Ð½ÑĥÑĤ": 3664,
      "ĠÐ¿ÑĢÐ¾Ð¿": 3665,
      "ĠÑģÐµÐ¹ÑĩÐ°Ñģ": 3666,
      "Ð½Ð¸Ð·": 3667,
      "ray": 3668,
      "Ð¿ÑĢÐ¸Ð¼ÐµÑĢ": 3669,
      "Ġpatients": 3670,
      "Ġsymptoms": 3671,
      "Ġquestions": 3672,
      "ÐµÑģÑĤÐ¸": 3673,
      "ĠÐµÐ´Ð¸Ð½": 3674,
      "for": 3675,
      "fact": 3676,
      "ĠÐ²ÐºÐ»ÑİÑĩÐ°": 3677,
      "ired": 3678,
      "ĠÑĢÑĥÐºÐ¾Ð²Ð¾Ð´": 3679,
      "Ġfar": 3680,
      "ĠÐ¿Ð¾ÑģÑĤÐ¾ÑıÐ½": 3681,
      "ĠÐ¸Ñİ": 3682,
      "Ġstudies": 3683,
      "Ġlot": 3684,
      "ĠÐ¾Ð±Ð½Ð°": 3685,
      "Ġexist": 3686,
      "ÑģÑĤÐ²ÐµÐ½Ð½Ð¾Ð¹": 3687,
      "Ð»ÐµÐ¶": 3688,
      "ĠÑĩÐµÑĢ": 3689,
      "Ġpopulation": 3690,
      "ĠÐ¿Ð¾Ð¶": 3691,
      "¾ÑĦÐ¸": 3692,
      "Ð¾ÑĦÐ¸": 3693,
      "ÑĢÐ°ÑĤÑĮ": 3694,
      "iting": 3695,
      "ĠÐ·Ð°Ð½": 3696,
      "ÑĭÑĤÐ°": 3697,
      "Ġconcept": 3698,
      "ÐĻ": 3699,
      "ÑĢÐµÐ½Ð¸Ñı": 3700,
      "ĠÐ²Ð¼ÐµÑģÑĤÐµ": 3701,
      "ĠÐºÑĥÑĢ": 3702,
      "Ð½Ð°ÑĤÑĮ": 3703,
      "Ġproduction": 3704,
      "Ġmind": 3705,
      "ĠÑĢÑıÐ´": 3706,
      "aces": 3707,
      "ÑĢÐ¸Ð¸": 3708,
      "ĠÑĤÑĥ": 3709,
      "self": 3710,
      "ĠÐ´Ð°Ð»ÑĮ": 3711,
      "Ġgre": 3712,
      "ency": 3713,
      "Ġfull": 3714,
      "Ġgeneral": 3715,
      "ÐŁÐ": 3716,
      "ÑĩÐ¸Ð²": 3717,
      "ĠÑĤÐ°ÐºÐ¸Ðµ": 3718,
      "ĠÐ½Ð¸Ð¼": 3719,
      "ĠÑħÐ¾ÑĢÐ¾ÑĪÐ": 3720,
      "ĠÑħÐ¾ÑĢÐ¾ÑĪÐ¾": 3721,
      "ĠÑĨÐµÐ½": 3722,
      "Ġteam": 3723,
      "Ġ:": 3724,
      "Ð¾ÑĩÑĮ": 3725,
      "ĠÑĥÑģÐ»Ð¾Ð²Ð¸Ñı": 3726,
      "Ġmarket": 3727,
      "ivity": 3728,
      "Ð´ÐµÐ»Ð¸": 3729,
      "Ġresources": 3730,
      "Ġunderstanding": 3731,
      "ĠÐ½ÐµÐ¾Ð±ÑħÐ¾Ð´Ð¸Ð¼Ð": 3732,
      "ĠÐ½ÐµÐ¾Ð±ÑħÐ¾Ð´Ð¸Ð¼Ð¾": 3733,
      "ÐµÐ½ÑĤÑĭ": 3734,
      "Ð²ÐµÑģÑĤÐ¸": 3735,
      "ĠÑıÐ²Ð»ÑıÑİÑĤÑģÑı": 3736,
      "23": 3737,
      "ĠÐºÑĢÐ¸": 3738,
      "ĠÐ¾Ð³ÑĢÐ°": 3739,
      "Ġproducts": 3740,
      "Ġuntil": 3741,
      "ÐŁÐ¾": 3742,
      "ĠNational": 3743,
      "ĠÑģÑĤÑĢÐ°Ð½Ñĭ": 3744,
      "ĠChrist": 3745,
      "ae": 3746,
      "¾Ñİ": 3747,
      "Ð¾Ñİ": 3748,
      "ĠÐ¿Ð»Ð°Ð½": 3749,
      "ÑĥÐ³": 3750,
      "Ġissues": 3751,
      "Ġlower": 3752,
      "ÑĭÐ²Ð°ÑİÑĤ": 3753,
      "Ð»ÐµÐ¹": 3754,
      "Ġemploy": 3755,
      "ohn": 3756,
      "Ð»Ð°Ð½": 3757,
      "ĠÑģÐ¾Ð·Ð´": 3758,
      "ĠÐ¾ÐºÐ¾Ð»Ð¾": 3759,
      "ĠÑģÐ¼Ðµ": 3760,
      "ĠÐ°ÑĢÐ¼Ð¸": 3761,
      "Ġdiet": 3762,
      "ĠÑĤÐ¾Ð¶Ðµ": 3763,
      "ĠAfric": 3764,
      "Ġstory": 3765,
      "ĠÐ¿Ð¾Ñħ": 3766,
      "ÑģÐµÐ¼": 3767,
      "ĠÐ±Ð¾Ð³": 3768,
      "Ġrecord": 3769,
      "ÑĤÐ°Ðº": 3770,
      "omes": 3771,
      "Ð¸ÐºÐµ": 3772,
      "Ġespecially": 3773,
      "ĠÐ½Ð°ÑĥÑĩ": 3774,
      "Ġnorm": 3775,
      "Ġbrain": 3776,
      "ĠÐ¿ÑĢÑıÐ¼": 3777,
      "ĠÑĩÐµÐ³Ð¾": 3778,
      "ĠÑĤÑĭÑģÑı": 3779,
      "urity": 3780,
      "Ð»ÑİÐ´": 3781,
      "erence": 3782,
      "Ġsure": 3783,
      "ĠÑģÐ»ÐµÐ´ÑĥÐµÑĤ": 3784,
      "Ġ40": 3785,
      "ÐµÐ»Ð": 3786,
      "ÐµÐ»Ð¾": 3787,
      "ĠÑĤÐµÑĢÑĢÐ¸ÑĤ": 3788,
      "ibility": 3789,
      "ĠÐ·Ð°Ð³": 3790,
      "Ġmakes": 3791,
      "Ġachie": 3792,
      "ĠStud": 3793,
      "ÐºÐ¾Ð³Ð¾": 3794,
      "¾Ð½Ð¾": 3795,
      "Ð¾Ð½Ð¾": 3796,
      "ÐµÐ»ÐµÐ¼": 3797,
      "ows": 3798,
      "uation": 3799,
      "ĠÐºÑĢÑĥÐ¿": 3800,
      "ĠÑĤÐ°ÐºÐ¸Ñħ": 3801,
      "ĠÐ¸Ð½ÑĤÐµÑĢÐµÑģ": 3802,
      "aring": 3803,
      "ĠÐ½Ð¸ÑĩÐµÐ³Ð¾": 3804,
      "ĠÐ½Ð°Ð¿Ð¸Ñģ": 3805,
      "Ġactivity": 3806,
      "Ġestab": 3807,
      "str": 3808,
      "ĠÐĵÐµÑĢ": 3809,
      "ĠÐ¼Ð°Ñģ": 3810,
      "ĠÑįÐ»ÐµÐ¼": 3811,
      "Ð¶Ð´ÐµÐ½Ð¸Ñı": 3812,
      "ÑģÑĤÐ°Ð½Ð¾Ð²": 3813,
      "Ġindividuals": 3814,
      "Ġlater": 3815,
      "ĠÐ¾Ð±Ð»Ð°ÑģÑĤÐ¸": 3816,
      "ĠÐ½Ð¸ÐºÐ°Ðº": 3817,
      "ÑģÐºÐ¾Ð»ÑĮÐºÑĥ": 3818,
      "Ġmov": 3819,
      "Ġstrateg": 3820,
      "ĠÑĥÐ²Ð¸Ð´": 3821,
      "ÐµÑĢÐ¾Ð¼": 3822,
      "org": 3823,
      "Ġfactors": 3824,
      ");": 3825,
      "ÑĢÐ°ÑĤÐ¸": 3826,
      "Ġindic": 3827,
      "ĠÐ·Ð°Ð±Ð¾Ð»Ðµ": 3828,
      "ĠLe": 3829,
      "ÐµÑĢÐº": 3830,
      "ĠÐ²ÑĭÑħÐ¾Ð´": 3831,
      "Ġsays": 3832,
      "Ġonline": 3833,
      "Ġhaving": 3834,
      "ÑĪÐ¸Ð¼": 3835,
      "Ġscience": 3836,
      "Ð½Ð¸ÐµÐ¼": 3837,
      "Ð½Ð¾Ð²Ð°": 3838,
      "Ð¼ÐµÑĩ": 3839,
      "ĠEar": 3840,
      "Ġabove": 3841,
      "ĠÐ¿Ð¾Ð¼Ð¾Ð³": 3842,
      "aut": 3843,
      "à¤": 3844,
      "Ġliter": 3845,
      "Ð°ÐµÐ¼": 3846,
      "ipp": 3847,
      "Ġcentury": 3848,
      "ĠÐ¾Ð´Ð½Ð¾Ð³Ð¾": 3849,
      "ĠÑįÑĤÑĥ": 3850,
      "Ġquestion": 3851,
      "osis": 3852,
      "Ġprotect": 3853,
      "thing": 3854,
      "ĠÐ¿Ð¾ÑĩÑĤÐ¸": 3855,
      "Ġside": 3856,
      "Ð¸Ð±Ð¾Ð»ÐµÐµ": 3857,
      "Ġcancer": 3858,
      "ĠÐ³Ð°Ð·": 3859,
      "Ð»ÑıÑĤÑĮ": 3860,
      "ÑĢÐ°Ð²Ð°": 3861,
      "ĠÐ²Ð°ÑĢÐ¸": 3862,
      "ĠÐ¿Ð¾ÑĤÐ¾Ð¼": 3863,
      "Ð²Ð¸Ð³": 3864,
      "ÑģÑĤÑĭ": 3865,
      "Ġrepresent": 3866,
      "Ġnext": 3867,
      "Ð´Ð°ÑĢ": 3868,
      "ĠÐ»Ð¸ÑĨ": 3869,
      "Ġcases": 3870,
      "Ð½ÐµÑĤ": 3871,
      "Ġreduce": 3872,
      "Ð¾Ð¿Ð°Ñģ": 3873,
      "ream": 3874,
      "Ð¿Ð°ÑĢÐ°": 3875,
      "Ð¾Ð»Ð¾Ð³Ð¸Ð¸": 3876,
      "ÑĤÑĥÑĢ": 3877,
      "Ð²ÐµÑĢÑģ": 3878,
      "Ð½Ð°ÑĢÐ¾Ð´": 3879,
      "ÐºÐ°Ð½": 3880,
      "ĠÐ¿ÑĢÐ°Ð²Ð¸ÑĤÐµÐ»ÑĮ": 3881,
      "emic": 3882,
      "ĠÐľÐ°ÑĢ": 3883,
      "¾ÑĪÐ¸": 3884,
      "Ġmanagement": 3885,
      "Ð¾ÑĪÐ¸": 3886,
      "....": 3887,
      "Ð¼Ð°ÑĤÑĢÐ¸": 3888,
      "ĠÐ¸Ð½Ð´": 3889,
      "Ġneg": 3890,
      "ĠÑĢÐ°ÑģÐ¿ÑĢÐ¾ÑģÑĤ": 3891,
      "24": 3892,
      "ÐµÐ½Ð½Ð¾Ðµ": 3893,
      "ÑĤÑĥÑĢÑĭ": 3894,
      "ĠÑĢÐ°Ð¹": 3895,
      "oman": 3896,
      "Ð³Ð»ÑıÐ´": 3897,
      "ĠÐ¾ÑĤÐ¿ÑĢÐ°Ð²": 3898,
      "ĠÑĤÑĢ": 3899,
      "Ð¾Ð²ÑĭÑħ": 3900,
      "ĠÑģÐ¾Ð²ÑĢÐµÐ¼ÐµÐ½": 3901,
      "Ġconcer": 3902,
      "ĠÑģÑĤÑĢÐ¾": 3903,
      "Ġrelationship": 3904,
      "Ġmaterials": 3905,
      "ĠÐ¾ÑģÑĥÑīÐµÑģÑĤÐ²": 3906,
      "Ð¸Ð½Ð¾Ð¹": 3907,
      "ĠÐ²Ð¾Ð·ÑĢÐ°": 3908,
      "ok": 3909,
      "ĠSome": 3910,
      "Ġpractice": 3911,
      "ÑĥÐ´ÑĮ": 3912,
      "Ġver": 3913,
      "ips": 3914,
      "ĠÐµÑīÑĳ": 3915,
      "Ð°ÑĤÐµÐ»ÐµÐ¹": 3916,
      "----": 3917,
      "ĠÐ¿ÑĢÐ¾Ð¼": 3918,
      "ery": 3919,
      "ĠÐºÐ°ÐºÐ¾Ð¹": 3920,
      "Ġleast": 3921,
      "Ð¸ÑĢÐ¾Ð²Ð°ÑĤÑĮ": 3922,
      "Ġpred": 3923,
      "Î¿": 3924,
      "fficient": 3925,
      "ĠPr": 3926,
      "ÑĩÐ¸Ñģ": 3927,
      "ID": 3928,
      "Ð°Ð»ÑĮÐ½Ð¾Ð³Ð¾": 3929,
      "ĠÐļÐ¾Ð³Ð´Ð°": 3930,
      "ÐµÐ½ÑĤÐ¸": 3931,
      "eds": 3932,
      "earch": 3933,
      "Ġgoing": 3934,
      "ĠÑıÐ²": 3935,
      "Ġhowever": 3936,
      "Ð°Ñİ": 3937,
      "Ġsam": 3938,
      "ĠÐ¿Ð¾Ð»ÑĮÐ·Ð¾Ð²": 3939,
      "ÑĢÐµÐº": 3940,
      "rel": 3941,
      "ĠÑģÐ»Ð¾Ð²Ð°": 3942,
      "ÑĦÐµÑĢ": 3943,
      "Ð»ÐµÐ½Ñĭ": 3944,
      "ĠÐķÐ²ÑĢÐ¾Ð¿": 3945,
      "Ġloss": 3946,
      "ĠWorld": 3947,
      "Ġfield": 3948,
      "Ġmillion": 3949,
      "Ð½Ð¸ÑĨ": 3950,
      "ĠÑĦÐ¸Ð½Ð°": 3951,
      "ĠÐ¾Ð±Ð¾ÑĢ": 3952,
      "Ġtoward": 3953,
      "ÐµÐ½Ð½Ð°Ñı": 3954,
      "Ġwhether": 3955,
      "Ġaddress": 3956,
      "fer": 3957,
      "ym": 3958,
      "verage": 3959,
      "ÑĢÐ¾Ð²Ð°Ð½Ð¸Ñı": 3960,
      "Ġfurther": 3961,
      "ites": 3962,
      "ĠOne": 3963,
      "izing": 3964,
      "ĠÐ¡Ð¾Ð²": 3965,
      "ĠÐ½ÐµÐ·": 3966,
      "ÑĤÐµÑĢÐ°": 3967,
      "most": 3968,
      "ges": 3969,
      "ooking": 3970,
      "Ð²Ð¸Ð½": 3971,
      "Ġlive": 3972,
      "Ġaway": 3973,
      "usion": 3974,
      "omet": 3975,
      "ĠÑĢÐ°Ð·Ð²Ð¸ÑĤÐ¸Ñı": 3976,
      "ĠÐ¼Ð¸ÑĢ": 3977,
      "aging": 3978,
      "Ġpolic": 3979,
      "ĠÐŁÐ¾ÑģÐ»Ðµ": 3980,
      "ĠMan": 3981,
      "ĠÑģÐ²ÑıÐ·Ð¸": 3982,
      "Ġstat": 3983,
      "Ð¸Ð½Ð¾": 3984,
      "Ġstress": 3985,
      "Ġsent": 3986,
      "Ġreason": 3987,
      "ĠIntern": 3988,
      "ĠÐ±ÐµÑĢÐµ": 3989,
      "ĠÑįÑĤÐ¸Ð¼": 3990,
      "Ġcho": 3991,
      "ĠÑĢÐµÐ·ÑĥÐ»ÑĮÑĤÐ°ÑĤÐµ": 3992,
      "Ð¹Ð´": 3993,
      "ĠAm": 3994,
      "ĠÐ²Ð¾ÑģÐ¿": 3995,
      "Ġbr": 3996,
      "Ġmedical": 3997,
      "Ġsoil": 3998,
      "Ġdetail": 3999,
      "Ġrate": 4000,
      "ĠÑħÐ¾Ñĩ": 4001,
      "ĠBrit": 4002,
      "Ð¸ÐµÐ¼": 4003,
      "Ġassociated": 4004,
      "ĠÐ´Ð¾Ð¿Ð¾Ð»": 4005,
      "utes": 4006,
      "Ð¶Ð¸Ð¼": 4007,
      "Ð²Ð¾Ð»Ñİ": 4008,
      "acy": 4009,
      "Ð»ÑĥÑĩ": 4010,
      "Ġsource": 4011,
      "Ġsize": 4012,
      "ĠHealth": 4013,
      "ĠÐ¾Ð¶": 4014,
      "Ġfund": 4015,
      "Ð»Ð¸ÑĪ": 4016,
      "Ġbig": 4017,
      "ĠÑĤÐµÐ¿ÐµÑĢÑĮ": 4018,
      "Ð³Ð»Ð°": 4019,
      "ÑĥÐ·": 4020,
      "ĠÑģÐ²ÐµÑĤ": 4021,
      "ĠÑģÐºÐ°": 4022,
      "Ð¾ÐºÐ": 4023,
      "Ð¾ÐºÐ¾": 4024,
      "¾ÑıÑĤÐµÐ»ÑĮ": 4025,
      "Ð¾ÑıÑĤÐµÐ»ÑĮ": 4026,
      "Ġhouse": 4027,
      "ĠÐ²ÐµÑģ": 4028,
      "Ġrecogn": 4029,
      "ĠÑĢÐ°Ð·ÑĢÐ°Ð±Ð¾ÑĤ": 4030,
      "Ð»ÐµÑĢ": 4031,
      "iol": 4032,
      "Ð¾ÐµÐ²": 4033,
      "ÐµÐ½Ð´": 4034,
      "ĠÐ´Ð°Ð»": 4035,
      "ĠÐ´ÐµÐ¼": 4036,
      "Ġenough": 4037,
      "ĠÐ¿Ð¾ÑģÑĤÐ°Ð²": 4038,
      "rect": 4039,
      "Ġweight": 4040,
      "Ġrelated": 4041,
      "ÑĥÐºÑĤ": 4042,
      "ĠÐ¿ÑĢÐ¾ÑĨ": 4043,
      "edi": 4044,
      "ĠÐ¾Ð±Ð½Ð°ÑĢÑĥÐ¶": 4045,
      "ĠÐ§ÑĤÐ¾": 4046,
      "ÑĢÑĭÐ²": 4047,
      "ask": 4048,
      "ÑįÐ½": 4049,
      "ĠâĢ¦": 4050,
      "ĠÐ¼Ð¾Ð»Ð¾Ð´": 4051,
      "ety": 4052,
      "ĠÑĥÐ·": 4053,
      "selves": 4054,
      "Ch": 4055,
      "Ð½Ð¸Ð¶": 4056,
      "Ġmaintain": 4057,
      "ĠÑĢÐµÐ±ÐµÐ½": 4058,
      "Ġpersonal": 4059,
      "ott": 4060,
      "ĠÑĢÐ°Ð±": 4061,
      "ĠÐ²ÐµÑģÑĮ": 4062,
      "ÑĢÐ¾Ñĩ": 4063,
      "yle": 4064,
      "Ġleft": 4065,
      "leep": 4066,
      "Ġhealthy": 4067,
      "Ġfrequ": 4068,
      "ÑĥÑĢÐ°": 4069,
      "ĠWar": 4070,
      "side": 4071,
      "ournal": 4072,
      "Ð¡Ð¡": 4073,
      "Ġabs": 4074,
      "Ġpressure": 4075,
      "ÐµÐ½Ñģ": 4076,
      "ĠÐ¼Ð°Ð³": 4077,
      "ĠGen": 4078,
      "ley": 4079,
      "ĠÐ²Ð¾Ð·Ð´Ñĥ": 4080,
      "Ġwide": 4081,
      "ĠÐ´ÐµÑĢÐµ": 4082,
      "Ġtradition": 4083,
      "Ġnever": 4084,
      "ÑĢÑĮ": 4085,
      "ĠÐ´ÐµÑĤÐµÐ¹": 4086,
      "ĠÐ°Ð²ÑĤÐ¾ÑĢ": 4087,
      "oura": 4088,
      "Ð½ÑĥÐ»": 4089,
      "ĠÐ¿Ð¾Ð±ÐµÐ´": 4090,
      "Ġcomplex": 4091,
      "Ġut": 4092,
      "Ð¢Ð°Ðº": 4093,
      "Ġsingle": 4094,
      "iction": 4095,
      "Ġdeg": 4096,
      "Ġbelow": 4097,
      "ĠÐºÐ¾ÑĤÐ¾ÑĢÐ¾Ð¼": 4098,
      "Ġcontent": 4099,
      "ÐµÑĦ": 4100,
      "Ġservices": 4101,
      "ĠÐŁÐ¾Ð´": 4102,
      "ÑĩÐ¸Ð²Ð°": 4103,
      "rams": 4104,
      "Ġprovides": 4105,
      "ĠÐ´ÑĥÑħ": 4106,
      "ĠÐ·Ð´Ð¾ÑĢÐ¾Ð²": 4107,
      "ĠMar": 4108,
      "ÑĭÐ²Ð°ÐµÑĤÑģÑı": 4109,
      "Ġbir": 4110,
      "ĠÐ¿ÑĢÐ¾Ð³": 4111,
      "ĠCO": 4112,
      "plic": 4113,
      "ĠAss": 4114,
      "ĠÐľÐ¾ÑģÐº": 4115,
      "icial": 4116,
      "ĠÑĤÑĢÑĥ": 4117,
      "Ġparticip": 4118,
      "ĠNe": 4119,
      "ences": 4120,
      "ĠÐ²ÑĭÑĢÐ°Ð¶": 4121,
      "Ġbat": 4122,
      "ĠÐºÐ¾Ð»Ð¸ÑĩÐµÑģÑĤÐ²Ð¾": 4123,
      "ĠÑģÑĤÐµÐ¿": 4124,
      "ÑĪÐµÐµ": 4125,
      "Ġarg": 4126,
      "ĠÐ³Ð»ÑĥÐ±": 4127,
      "Ġsurface": 4128,
      "ĠÐ´ÐµÐ¹ÑģÑĤÐ²Ð¸Ñı": 4129,
      "ÐµÐºÑĤÐ°": 4130,
      "alf": 4131,
      "Ġur": 4132,
      "Ġphot": 4133,
      "Ġtot": 4134,
      "ÐĴÑĭ": 4135,
      "Ġconsidered": 4136,
      "ilt": 4137,
      "ĠÐ²Ð½ÑĥÑĤÑĢÐµÐ½": 4138,
      "Ġmass": 4139,
      "Ð¸ÑĩÐµÑģÐºÐ¸": 4140,
      "Ð½ÐµÐ½Ð¸Ðµ": 4141,
      "When": 4142,
      "ĠÐ´ÑĥÐ¼Ð°": 4143,
      "pro": 4144,
      "acc": 4145,
      "Ð½Ð¸ÑĤ": 4146,
      "Ġaccording": 4147,
      "aim": 4148,
      "ÑĤÐ¸ÑĩÐµÑģÐºÐ¸": 4149,
      "ned": 4150,
      "ĠÑĢÐµÐ´": 4151,
      "Ð°ÑĤÐ¸": 4152,
      "Ð²Ð°ÐµÑĤÑģÑı": 4153,
      "Ð½Ð¸ÑĨÑĭ": 4154,
      "ĠGerm": 4155,
      "ÑģÑĤÐ°Ð½": 4156,
      "ĠÑģÐ¾Ð±Ñĭ": 4157,
      "Ð¸ÑĩÐµÑģÐºÐ°Ñı": 4158,
      "ÑģÑĤÐ²ÐµÐ½Ð½ÑĭÑħ": 4159,
      "Ð½Ð¸Ð²ÐµÑĢÑģ": 4160,
      ",\"": 4161,
      "Ġpay": 4162,
      "Ġgroups": 4163,
      "ĠÑĢÐ°ÑģÐ¿Ð¾Ð»Ð¾Ð¶": 4164,
      "Ð¸Ð½Ð¾Ð²": 4165,
      "Ġresearc": 4166,
      "Ð·Ð°Ð¸Ð¼": 4167,
      "ĠÐ²ÑĭÑĪÐµ": 4168,
      "Ð°Ð½Ð½ÑĭÐ¹": 4169,
      "Ġsimple": 4170,
      "yn": 4171,
      "ĠÐ¾ÑĦÐ¸": 4172,
      "oose": 4173,
      "AT": 4174,
      "Ġobserv": 4175,
      "Ġinit": 4176,
      "light": 4177,
      "ÑĭÐ²Ð°ÑĤÑĮ": 4178,
      "hern": 4179,
      "ĠÐ¾Ð´Ð½Ð°ÐºÐ¾": 4180,
      "Ġexperien": 4181,
      "nces": 4182,
      "ĠÐºÐ¾Ð¼Ð°Ð½": 4183,
      "Ġrecomm": 4184,
      "ĠÑĩÐµÑĤÑĭ": 4185,
      "ĠÐ¿ÑĢÐµÐ·Ð¸Ð´": 4186,
      "ĠÑĤÐ¾Ð²": 4187,
      "Ð¾Ð»Ð°": 4188,
      "ĠÑĤÐ¾Ð¼Ñĥ": 4189,
      "ĠÐ¤ÑĢÐ°Ð½": 4190,
      "Ġflu": 4191,
      "ĠÐ½Ð°Ð´Ð": 4192,
      "ĠÐ½Ð°Ð´Ð¾": 4193,
      "Ġdom": 4194,
      "AS": 4195,
      "ison": 4196,
      "¾ÑĨÐµÐ½": 4197,
      "Ġlay": 4198,
      "Ġsoft": 4199,
      "ĠÐ¿ÑĢÐµÐº": 4200,
      "Ġassess": 4201,
      "ÑĤÑĢÐ°": 4202,
      "Ð¶Ð´Ðµ": 4203,
      "ĠÐ²ÐµÑī": 4204,
      "ĠÐ¾ÑĤÐ´ÐµÐ»ÑĮ": 4205,
      "ĠÐ½Ð¾Ñģ": 4206,
      "ustom": 4207,
      "ule": 4208,
      "ES": 4209,
      "ĠÐºÐ°Ð·": 4210,
      "ĠÐ¼Ð¸Ð»Ð»Ð¸": 4211,
      "chan": 4212,
      "Ġfri": 4213,
      "roll": 4214,
      "ĠÐĳÐ¾Ð³": 4215,
      "Ð¾Ð·Ñı": 4216,
      "For": 4217,
      "ival": 4218,
      "Ġreally": 4219,
      "Ġdeveloped": 4220,
      "Ġwind": 4221,
      "ĠÐ¾Ð·Ð½Ð°": 4222,
      "ĠÐ²Ð¾Ð·Ð½Ð¸Ðº": 4223,
      "Wh": 4224,
      "ÐĿÐ": 4225,
      "urs": 4226,
      "ney": 4227,
      "ÑĩÑĥ": 4228,
      "ches": 4229,
      "ĠÐ¿Ð¾Ð»ÑĥÑĩÐ°": 4230,
      "Ð½Ð¸ÐºÐ¾Ð¼": 4231,
      "ÑħÐ²Ð°ÑĤ": 4232,
      "ĠÐ´Ð¾ÑģÑĤÑĥÐ¿": 4233,
      "ĠAb": 4234,
      "ĠÐ¼Ð¸ÑĢÐ¾Ð²": 4235,
      "ĠÐ³Ð¾Ð²Ð¾ÑĢÐ¸ÑĤ": 4236,
      "ĠÐ¿Ð¾Ð²ÑĭÑĪ": 4237,
      "Ġability": 4238,
      "Ġprote": 4239,
      "Ð°ÐºÑģ": 4240,
      "Ð¾Ð»Ñı": 4241,
      "oph": 4242,
      "Ð°Ð»ÑĮÐ½ÑĭÐ¹": 4243,
      "Ġmicro": 4244,
      "ĠÐ´Ð¾ÑģÑĤÐ°ÑĤÐ¾ÑĩÐ½Ð¾": 4245,
      "ĠÑĥÑĤÐ²ÐµÑĢ": 4246,
      "Ð¾ÑĤÑĭ": 4247,
      "ĠÑĥÐº": 4248,
      "epend": 4249,
      "anced": 4250,
      "ĠÐ²ÑģÑı": 4251,
      "ĠÐ°Ð³": 4252,
      "Ġwrite": 4253,
      "Ġcollect": 4254,
      "Ð¿Ð°": 4255,
      "Ġnature": 4256,
      "Ġstructure": 4257,
      "ĠÐ¿ÑĢÐ°Ð²Ð¸Ð»ÑĮ": 4258,
      "ĠTr": 4259,
      "ĠÐ¾Ð¿Ð°Ñģ": 4260,
      "Ġapproach": 4261,
      "ĠÑģÐ¼Ñĭ": 4262,
      "ĠÐ±Ð°Ð·": 4263,
      "ĠÐºÐ°Ð¶Ð´ÑĭÐ¹": 4264,
      "ĠÐ¶Ð¸Ð²Ð¾ÑĤ": 4265,
      "ĠÐºÐ¾Ð½ÑĨ": 4266,
      "Ġground": 4267,
      "Ġreading": 4268,
      "iam": 4269,
      "Ġinteract": 4270,
      "ĠÐ½ÐµÐºÐ¾ÑĤÐ¾ÑĢÑĭÐµ": 4271,
      "ĠÐ´ÐµÐ»Ð°ÑĤÑĮ": 4272,
      "ÑıÐ»": 4273,
      "ÐºÐ°Ð¼": 4274,
      "Ġ+": 4275,
      "Ġdone": 4276,
      "ĠÐ¾Ð³ÑĢÐ°Ð½Ð¸Ñĩ": 4277,
      "40": 4278,
      "ĠÐ·Ð°Ð¼": 4279,
      "ĠÐ¾Ð±ÑĬÑıÑģ": 4280,
      "ĠÑĥÑģÑĤÑĢÐ¾Ð¹": 4281,
      "ready": 4282,
      "Ġcity": 4283,
      "Ġopportun": 4284,
      "ĠÐ²Ð¾Ð·Ð¼Ð¾Ð¶Ð½Ð¾ÑģÑĤÑĮ": 4285,
      "Ġdoc": 4286,
      "ĠÐ¾Ð´Ð½Ð°": 4287,
      "ĠÐ¿ÐµÑĢÐµÐ´Ð°": 4288,
      "ĠApp": 4289,
      "ĠÐŀÑģ": 4290,
      "ĠCar": 4291,
      "Ġengine": 4292,
      "ĠÐ¸ÑģÑĤÐ¾ÑĢÐ¸Ð¸": 4293,
      "Ð½ÑıÑı": 4294,
      "Ġcondition": 4295,
      "Ġglobal": 4296,
      "Ġfall": 4297,
      "ĠÐ½Ð¸ÐºÐ¾Ð³Ð´Ð°": 4298,
      "ĠÐ¸ÑģÐ¿Ð¾Ð»": 4299,
      "rad": 4300,
      "ĠÐ±Ð¾Ð»ÐµÐ·": 4301,
      "Ġ193": 4302,
      "ĠÑĪÐ¸ÑĢ": 4303,
      "AR": 4304,
      "ĠÑģÐ¿ÐµÑĨÐ¸Ð°Ð»ÑĮ": 4305,
      "Ġstates": 4306,
      "Ð°ÑİÑĤÑģÑı": 4307,
      "Ġexerc": 4308,
      "ĠÐ»Ð¸Ð±Ð¾": 4309,
      "Ð¾Ð»ÐµÑĤ": 4310,
      "amin": 4311,
      "ĠÐ¸ÑģÑĤÐ¾Ñĩ": 4312,
      "Ġclimate": 4313,
      "ĠÐ±Ð¾Ð»ÑĮÑĪÐ¸Ð½": 4314,
      "Ġeff": 4315,
      "ĠÐ¿ÑĢÐ¾Ð²ÐµÐ´": 4316,
      "Ġreact": 4317,
      "ĠÐµÐ¹": 4318,
      "ÑĪÐ°Ñı": 4319,
      "ĠDo": 4320,
      "sh": 4321,
      "elling": 4322,
      "Ð³Ð¾Ð´": 4323,
      "ĠÐ´Ð»Ð¸": 4324,
      "Ġcut": 4325,
      "ĠÑĨÐµÐ»ÑĮ": 4326,
      "ĠÑĦÐ¾ÑĤ": 4327,
      "Ġmethods": 4328,
      "ĠÑħÐ¾Ð»": 4329,
      "ĠÑģÑĤÐ°Ð»Ð¸": 4330,
      "ĠÑįÑĦÑĦÐµÐºÑĤÐ¸Ð²": 4331,
      "Ð½Ð¾Ðº": 4332,
      "Ð¾Ð»Ð¾Ð²": 4333,
      "ĠÐ¼ÑĥÐ·Ñĭ": 4334,
      "Ġskin": 4335,
      "ibr": 4336,
      "ĠÑģÐ¾ÑħÑĢÐ°": 4337,
      "ĠÑģÐµÐ³Ð¾Ð´Ð½Ñı": 4338,
      "ĠII": 4339,
      "yl": 4340,
      "Ð¾ÑĢÐ¸Ñı": 4341,
      "Ġ21": 4342,
      "ĠÐ²Ð´": 4343,
      "ĠÐ¾ÐºÑĢÑĥÐ¶": 4344,
      "ÑīÐµÑģÑĤÐ²Ð°": 4345,
      "ÑĭÐ²": 4346,
      "Ġincreased": 4347,
      "Ġpopular": 4348,
      "ands": 4349,
      "ĠCont": 4350,
      "ĠÐ²Ð½ÐµÑĪ": 4351,
      "Ġseen": 4352,
      "Ġdog": 4353,
      "ounds": 4354,
      "ĠÐ±ÐµÐ·Ð¾Ð¿Ð°Ñģ": 4355,
      "ĠÑģÐµÑĤ": 4356,
      "ÑĢÐ¸Ð¹": 4357,
      "Ġeconomic": 4358,
      "Ġred": 4359,
      "Ġsociety": 4360,
      "ivil": 4361,
      "ÐµÑĢÐ±": 4362,
      "ĠÐ¾ÑĩÐµÑĢÐµÐ´": 4363,
      "Ġdrug": 4364,
      "Ġmach": 4365,
      "Ġavoid": 4366,
      "Ġmoney": 4367,
      "ĠÐ²Ð·Ð°Ð¸Ð¼": 4368,
      "itud": 4369,
      "Ġcompany": 4370,
      "ÑĮÑĤÐµ": 4371,
      "ÑıÐ³": 4372,
      "Ġnecessary": 4373,
      "Ġreview": 4374,
      "ĠÑģÑĢÐ°Ð²": 4375,
      "Ġevent": 4376,
      "Ġensure": 4377,
      "reg": 4378,
      "ÑĢÐµÑģ": 4379,
      "Ġrequired": 4380,
      "ĠÐ´Ð¾ÑĢÐ¾Ð³": 4381,
      "istics": 4382,
      "Ġquick": 4383,
      "Ġcomes": 4384,
      "ĠÑģÑĤÑĢÑĥÐºÑĤ": 4385,
      "Ð¾Ð¶Ð´ÐµÐ½Ð¸Ñı": 4386,
      "Ð½Ð¸ÑģÑĤ": 4387,
      "ĠÑĤÐ°ÐºÐ¸Ð¼": 4388,
      "Ġoil": 4389,
      "sequ": 4390,
      "Ð»Ð¸Ð±Ð¾": 4391,
      "Ġclose": 4392,
      "augh": 4393,
      "You": 4394,
      "ained": 4395,
      "ancial": 4396,
      "ively": 4397,
      "ĠÑĤÑıÐ¶": 4398,
      "Ġsal": 4399,
      "ĠÐºÐ¾ÑĤÐ¾ÑĢÑĥÑİ": 4400,
      "Ġge": 4401,
      "Ġvari": 4402,
      "Ġmodern": 4403,
      "Ġvers": 4404,
      "ĠÐ¿ÑĢÐ¾Ð´ÑĥÐºÑĤ": 4405,
      "ĠShe": 4406,
      "ening": 4407,
      "ĠÑģÐ¸Ð½": 4408,
      "rict": 4409,
      "ĠÐ½Ð°ÑģÐµÐ»": 4410,
      "oll": 4411,
      "Ġparts": 4412,
      "ÑģÑĤÐ²ÐµÐ½Ð½Ð¾Ð³Ð¾": 4413,
      "ÐŀÑĤ": 4414,
      "bo": 4415,
      "ĠÐ¿ÑĢÐ¾ÑĦÐµÑģÑģ": 4416,
      "Ġbenefits": 4417,
      "ĠQu": 4418,
      "Ð¾Ð²ÑĭÐµ": 4419,
      "Ġbuilding": 4420,
      "ai": 4421,
      "ĠÑģÐ°Ð¼Ð¾Ð¼": 4422,
      "ĠÐ½Ð°Ð´Ðµ": 4423,
      "ĠÑĢÐ°Ð´Ð¸": 4424,
      "ĠÑĤÐ°ÐºÐ¾Ðµ": 4425,
      "ĠÐ´Ð°Ð½Ð½ÑĭÑħ": 4426,
      "Ġfive": 4427,
      "Ð¶Ð´Ð°Ð½": 4428,
      "ĠÐ¿ÑĢÐ¸Ð²Ð¾Ð´": 4429,
      "60": 4430,
      "ĠÐ²Ð¾Ð¾Ð±": 4431,
      "Ġcreated": 4432,
      "Ġeither": 4433,
      "Ð·Ð°Ð´": 4434,
      "ĠÐ¿Ð°ÑĤ": 4435,
      "way": 4436,
      "ĠÐ´Ð¾ÐºÑĥ": 4437,
      "ĠThat": 4438,
      "ript": 4439,
      "based": 4440,
      "ublic": 4441,
      "reme": 4442,
      "ÐŃÑĤÐ¾": 4443,
      "ĠÐ¿Ð¾ÑģÐºÐ¾Ð»ÑĮÐºÑĥ": 4444,
      "Ã©": 4445,
      "ĠÐ°Ð±": 4446,
      "Ġalready": 4447,
      "Ġtemperature": 4448,
      "ĠÐ¾ÑĪÐ¸": 4449,
      "lying": 4450,
      "ued": 4451,
      "ĠÐ³Ð¾ÑĢÐ¾Ð´Ð°": 4452,
      "Ġstudent": 4453,
      "ĠGu": 4454,
      "ĠÑģÐ²Ð¾Ð¸Ð¼": 4455,
      "ĠÐ¿ÑĢÐµÐ´Ð¿Ð¾Ð»": 4456,
      "Ġask": 4457,
      "ĠÐķÐ³Ð¾": 4458,
      "Ð¾ÑĨÐµÐ½": 4459,
      "Ġ23": 4460,
      "ÑĳÑĢ": 4461,
      "Ġbehavior": 4462,
      "mber": 4463,
      "ump": 4464,
      "Ġanimals": 4465,
      "Al": 4466,
      "Ġ22": 4467,
      "Ġhelps": 4468,
      "ÐµÐ·Ð´": 4469,
      "overed": 4470,
      "Ð¾Ð½Ð´": 4471,
      "ĠÐ²Ð½Ð¸Ð¼Ð°Ð½Ð¸Ðµ": 4472,
      "ĠÐ³Ð»Ð°Ð·Ð°": 4473,
      "Ð»ÐµÐ³": 4474,
      "ĠÐ¿Ð°Ð¼": 4475,
      "Ġsun": 4476,
      "ĠÐ¸ÑģÐºÐ»ÑİÑĩ": 4477,
      "ĠGe": 4478,
      "Ġjob": 4479,
      "ĠÐ¿ÑĢÐ¸Ð±": 4480,
      "Ġmeet": 4481,
      "Ġwhole": 4482,
      "Ġmeasure": 4483,
      "ĠÐ¸Ð¼Ð¿": 4484,
      "ĠÐĿÐ¸Ðº": 4485,
      "Ð³Ð»Ð¸Ð¹": 4486,
      "ÑģÐºÐ¸": 4487,
      "abet": 4488,
      "ÐĿÐµ": 4489,
      "Ġpath": 4490,
      "80": 4491,
      "Ġcomputer": 4492,
      "Ġport": 4493,
      "ÐºÐ¸Ð¼": 4494,
      "oles": 4495,
      "Ġrelig": 4496,
      "ĠÐ¼Ð¸ÑĢÐµ": 4497,
      "Ġwhite": 4498,
      "Ð°ÑĤÐµÐ»Ð¸": 4499,
      "Ð¸ÑĨÐ¸": 4500,
      "ĠÐ¾ÑģÐ¾Ð±ÐµÐ½Ð½Ð¾": 4501,
      "ume": 4502,
      "ĠÐ¿ÑĢÐµÐ²": 4503,
      "Ð°ÑĤÐ¾ÑĢ": 4504,
      "ĠÑĥÑĩÐ°": 4505,
      "Ġpositive": 4506,
      "ÑĩÐ½Ð¾Ð¹": 4507,
      "icles": 4508,
      "ĠÐ¿ÑĢÐµÐ´Ð¿ÑĢÐ¸": 4509,
      "ĠJohn": 4510,
      "âĢĿ.": 4511,
      "Ð¾Ð¾Ð±ÑĢÐ°Ð·": 4512,
      "Ð¸ÑĩÐµÑģÐºÐ¾Ðµ": 4513,
      "reng": 4514,
      "ĠÑģÐ¾Ðº": 4515,
      "ĠÐ±Ð¾ÑĢÑĮ": 4516,
      "ĠÑģÑĢÐµÐ´Ð¸": 4517,
      "ĠInt": 4518,
      "ĠÐ½Ð¾Ð³": 4519,
      "Ġprob": 4520,
      "ÑĮÑİÑĤ": 4521,
      "ĠAct": 4522,
      "To": 4523,
      "Ð´ÐµÑĢ": 4524,
      "ections": 4525,
      "Ġrather": 4526,
      "Ġsite": 4527,
      "Ġliving": 4528,
      "ĠÐ¼ÐµÑĢÐµ": 4529,
      "ĠÑģÐºÐ°Ð·Ð°ÑĤÑĮ": 4530,
      "go": 4531,
      "ĠÐ¡Ð¿": 4532,
      "Ġnational": 4533,
      "ĠSoc": 4534,
      "Ġhistor": 4535,
      "ĠÐ¿ÑĢÐ¸ÑĢÐ¾Ð´": 4536,
      "Ġfru": 4537,
      "Ġfat": 4538,
      "ĠÐ¿ÑĢÐ¾Ñĩ": 4539,
      "ĠÐ¾Ð½Ð¾": 4540,
      "Ġcoll": 4541,
      "Ġmor": 4542,
      "ĠÑĩÐµÑĤ": 4543,
      "Ð»Ð¸ÑĪÐºÐ¾Ð¼": 4544,
      "Ð¼ÐµÑī": 4545,
      "Ġchalleng": 4546,
      "Ð¸ÑĨÐ¸Ð¸": 4547,
      "sp": 4548,
      "Ġpattern": 4549,
      "acks": 4550,
      "ĠÑģÑĤÐ°Ð²": 4551,
      "ĠÐ°Ð½ÑĤÐ¸": 4552,
      "Ð¾Ð»ÑĮÐ½Ð¾": 4553,
      "ĠSu": 4554,
      "ĠÐ¾ÑĪÐ¸Ð±": 4555,
      "Ġhold": 4556,
      "Ġevidence": 4557,
      "Ġfail": 4558,
      "ĠÑģÑĤÐ¾Ð¸ÑĤ": 4559,
      "ĠÐ¸ÑĤ": 4560,
      "Ġpolitical": 4561,
      "itation": 4562,
      "Ġweek": 4563,
      "Ġprop": 4564,
      "Ġ--": 4565,
      "Ġactually": 4566,
      "Ġpsych": 4567,
      "ÑĤÐ¸Ð¸": 4568,
      "IN": 4569,
      "Ġbecame": 4570,
      "ĠÐ½Ð°ÑħÐ¾Ð´Ð¸ÑĤÑģÑı": 4571,
      "ĠÑĥÐ¶": 4572,
      "Ġcompon": 4573,
      "Ġadult": 4574,
      "Ġ60": 4575,
      "ze": 4576,
      "ÑıÐ·Ð°": 4577,
      "ging": 4578,
      "ĠÐ¾Ð±ÑĢÐ°Ñī": 4579,
      "Ġindustry": 4580,
      "ÑĤÐ¾ÑĤ": 4581,
      "Ġconduct": 4582,
      "Ð·Ñı": 4583,
      "ĠÑģÑĤÐ°ÑĤ": 4584,
      "ĠÑĢÐ°Ð·Ð´ÐµÐ»": 4585,
      "cies": 4586,
      "Ġste": 4587,
      "Ġidea": 4588,
      "olic": 4589,
      "Ġeasy": 4590,
      "Ġcat": 4591,
      "Ġann": 4592,
      "ma": 4593,
      "ĠAmerica": 4594,
      "ÑģÑĤÐ²Ð¸Ñı": 4595,
      "Ġonce": 4596,
      "ĠÐ¾Ð±ÑĢÐ°ÑĤ": 4597,
      "Ġvide": 4598,
      "ns": 4599,
      "ĠÐĴÐ": 4600,
      "ĠÐ¿Ð¾Ð´ÑħÐ¾Ð´": 4601,
      "Ð³Ð¾Ð²Ð¾ÑĢ": 4602,
      "ÑĥÑĢÐ½Ð°": 4603,
      "Ġblack": 4604,
      "Ð¸ÐºÑĥ": 4605,
      "Ġmeaning": 4606,
      "ĠCal": 4607,
      "ÑĢÐ¾ÑĦ": 4608,
      "gest": 4609,
      "Ġinteg": 4610,
      "Ġincludes": 4611,
      "Ð»ÐµÐ½Ð¸ÐµÐ¼": 4612,
      "Ð°Ð»Ñĥ": 4613,
      "Ġterms": 4614,
      "ĠÐ¿ÑĢÐ°Ð²Ð°": 4615,
      "Ð½Ð¸ÑĤÐµ": 4616,
      "onse": 4617,
      "ÑģÑĤÐ²Ð¸Ðµ": 4618,
      "ĠÑĩÐ¸ÑĤ": 4619,
      "rast": 4620,
      "Ġtraining": 4621,
      "Ġdoct": 4622,
      "ĠÐ½Ð°Ð¸Ð±Ð¾Ð»ÐµÐµ": 4623,
      "ĠÐ´Ð¾Ð³": 4624,
      "Ġtaken": 4625,
      "Ġprinc": 4626,
      "Ġcolor": 4627,
      "ĠÐ²Ð»Ð°ÑģÑĤÐ¸": 4628,
      "ĠÐºÐ": 4629,
      "ĠÐºÐ¾": 4630,
      "Ġcannot": 4631,
      "Ġcru": 4632,
      "ĠÐ¿ÑĢÐ¸Ð·": 4633,
      "Ð½Ð°Ñħ": 4634,
      "ĠÐĴÐµÐ»Ð¸": 4635,
      "Ð½Ð¸Ñİ": 4636,
      "ÑģÑĤÑĢÑĥÐº": 4637,
      "ĠÐ³ÑĢÑĥÐ¿Ð¿Ñĭ": 4638,
      "oon": 4639,
      "ĠÐ´ÐµÐ»Ðµ": 4640,
      "Ð°Ð»Ð¸Ð·": 4641,
      "Ð½ÑıÑĤÑĮ": 4642,
      "ĠSouth": 4643,
      "ÑĦÐ¸ÐºÐ°": 4644,
      "ĠÑĩÐ»ÐµÐ½": 4645,
      "ĠEm": 4646,
      "ĠÐ³Ð¾Ð»Ð¾Ñģ": 4647,
      "ÑĥÐ»ÑıÑĢ": 4648,
      "ĠÐ·Ð°Ð¼ÐµÑĤ": 4649,
      "rapy": 4650,
      "ĠÐ¿ÑĢÐ¾Ð¸ÑģÑħÐ¾Ð´Ð¸ÑĤ": 4651,
      "isc": 4652,
      "Ġsuper": 4653,
      "erous": 4654,
      "ĠÐ¾Ð±ÑĭÑĩÐ½Ð¾": 4655,
      "Ð¶Ð´Ñĭ": 4656,
      "ĠÐºÑĥÐ¿": 4657,
      "Ġmembers": 4658,
      "Ġservice": 4659,
      "Ġregard": 4660,
      "Ġbar": 4661,
      "ĠÐ¸Ð¼ÐµÑİÑĤ": 4662,
      "ÐºÐ°Ñı": 4663,
      "ĠâĢ¢": 4664,
      "ĠÐ¿Ð¾Ð²ÐµÑĢÑħ": 4665,
      "mon": 4666,
      "Ġtar": 4667,
      "Ġchemical": 4668,
      "Ġneeded": 4669,
      "ĠÐ¸ÑģÐºÑĥÑģ": 4670,
      "astic": 4671,
      "hib": 4672,
      "ĠÐ½ÐµÐ´Ð¾ÑģÑĤ": 4673,
      "ĠÐ²ÑģÐ¿": 4674,
      "ĠÐ¼Ð°": 4675,
      "ores": 4676,
      "Ð°Ð½Ð½Ð¾Ð¹": 4677,
      "Ð¶Ð´Ð°": 4678,
      "Ġfeed": 4679,
      "ĠÐ¼Ð°ÑĤÐµÑĢÐ¸Ð°Ð»": 4680,
      "lex": 4681,
      "ĠÐ¿Ð¾ÑĩÐµÐ¼Ñĥ": 4682,
      "ÑĳÐ»": 4683,
      "aily": 4684,
      "ĠÑĢÐ¾Ð»ÑĮ": 4685,
      "Ġla": 4686,
      "Ð°Ð½ÑĤÐ°": 4687,
      "ÑĢÐ¸ÑģÑĤ": 4688,
      "Ġgas": 4689,
      "ĠÐ¾ÑĨÐµÐ½": 4690,
      "ÑıÑĤÐ¸Ñı": 4691,
      "Ġculture": 4692,
      "Ġthroughout": 4693,
      "Ġgreen": 4694,
      "ÐŀÐ±": 4695,
      "eter": 4696,
      "Ġdisord": 4697,
      "ĠÐ¿Ð¸ÑĤ": 4698,
      "Ġmedic": 4699,
      "ufact": 4700,
      "ĠÐ¼Ð¾Ð·": 4701,
      "Ġrev": 4702,
      "ĠÑī": 4703,
      "eb": 4704,
      "ĠÐ·Ð°ÐºÐ¾Ð½": 4705,
      "ĠÐ¿ÑĢÐµÐ´Ð¾ÑģÑĤÐ°Ð²": 4706,
      "ĠÐ¿Ð¾Ð»Ð½Ð¾ÑģÑĤÑĮÑİ": 4707,
      "cient": 4708,
      "Ð¸Ð¼Ð": 4709,
      "Ð¸Ð¼Ð¾": 4710,
      "enn": 4711,
      "ĠÐ¾ÑĤÐ½Ð¾ÑĪÐµÐ½Ð¸Ñı": 4712,
      "Ð°ÑĢÑĮ": 4713,
      "Ġcauses": 4714,
      "Ġidentify": 4715,
      "Ġcop": 4716,
      "Ð±ÑĥÐ´ÑĮ": 4717,
      "Ġemot": 4718,
      "Ġvariety": 4719,
      "Ð¸ÑĪ": 4720,
      "ĠRep": 4721,
      "ĠÐ¾ÑĤÐºÐ°Ð·": 4722,
      "ĠÐ²Ð¾Ð·Ð¼Ð¾Ð¶Ð½Ð¾": 4723,
      "Ġfish": 4724,
      "ĠÑĤÐ¾Ð»": 4725,
      "Ġclean": 4726,
      "Ð°Ð³Ð°": 4727,
      "ĠMay": 4728,
      "iddle": 4729,
      "ÑİÑīÐµÐ¹": 4730,
      "ming": 4731,
      "Ð¸ÐµÐ¹": 4732,
      "ĠIndia": 4733,
      "ÑĪÐ¸ÑģÑĮ": 4734,
      "ĠÐ´Ð¾Ð»Ð¶Ð½Ð°": 4735,
      "vere": 4736,
      "27": 4737,
      "Ġarch": 4738,
      "ĠÑģÐ»Ð¸ÑĪÐºÐ¾Ð¼": 4739,
      "like": 4740,
      "ĠÐ¿Ð¾Ð²ÐµÐ´": 4741,
      "Ð¸Ð¼Ñĥ": 4742,
      "Ð¼Ð¾ÑĤÑĢ": 4743,
      "ising": 4744,
      "Ð¶ÐµÐ½Ð¸Ñı": 4745,
      "ĠÐ¿Ð¾ÑĢÑıÐ´": 4746,
      "Ġemer": 4747,
      "erve": 4748,
      "Ġdefin": 4749,
      "ĠÐ½Ð°Ð·Ð°Ð´": 4750,
      "ene": 4751,
      "ĠÐĴÐ¾": 4752,
      "ĠÐ²Ð¾Ð´Ñĭ": 4753,
      "ĠÐ¿ÐµÑĢÐ²ÑĭÐ¹": 4754,
      "Ġheat": 4755,
      "ĠÑĦÑĢÐ°Ð½": 4756,
      "ĠÐ¾Ð´Ð½Ð¾": 4757,
      "ĠÑģÐµÑĢÐ´": 4758,
      "Ð¸Ð½Ð³": 4759,
      "ĠDr": 4760,
      "Ġtotal": 4761,
      "ĠÑģÑĢÐ°Ð·Ñĥ": 4762,
      "26": 4763,
      "Ġrights": 4764,
      "ĠÐ±Ð»Ð°Ð³Ð¾Ð´": 4765,
      "Ġpage": 4766,
      "ÑĩÐ¸Ð½Ñĭ": 4767,
      "ÐºÐ»Ð°": 4768,
      "ĠÐµÐ²": 4769,
      "Ġworkshe": 4770,
      "ĠÑģÐ±": 4771,
      "Ġbal": 4772,
      "Ġproduce": 4773,
      "ĠÐºÐ¾Ð¼Ð¿Ð°Ð½Ð¸Ð¸": 4774,
      "verse": 4775,
      "ĠÐºÐ¾Ð¶": 4776,
      "ules": 4777,
      "ĠÑĢÐ¾ÑģÑĤ": 4778,
      "ĠÐłÐ°Ð·": 4779,
      "illed": 4780,
      "Ð¼Ð¾ÑĤÑĢÑı": 4781,
      "ĠAust": 4782,
      "ĠÐºÐ»ÐµÑĤ": 4783,
      "ĠÑģÐ¾Ñĩ": 4784,
      "ĠÐ·Ð°ÑīÐ¸ÑĤ": 4785,
      "ÐµÐ½Ð½Ð¾ÑģÑĤÐ¸": 4786,
      "ĠÐ°Ð»ÑĮ": 4787,
      "br": 4788,
      "Ġentire": 4789,
      "ÐµÑĩÐ°ÑĤ": 4790,
      "ÑĢÑıÐ´": 4791,
      "hing": 4792,
      "ront": 4793,
      "Ð¾Ð¹Ð´": 4794,
      "Ð¾Ð²Ð¾Ð³Ð¾": 4795,
      "ronic": 4796,
      "ÐµÑģÑĤÑĮ": 4797,
      "Ġprint": 4798,
      "Ð»ÑıÑİÑĤ": 4799,
      "Ġupon": 4800,
      "Ġwritten": 4801,
      "Ġfamil": 4802,
      "Ġlab": 4803,
      "ÐµÐ¼ÑĭÑħ": 4804,
      "val": 4805,
      "Ġregular": 4806,
      "Ġincreasing": 4807,
      "ĠÑĢÐµÐ°Ðº": 4808,
      "istance": 4809,
      "Ġenvironmental": 4810,
      "ĠÐ½Ð¸Ð·": 4811,
      "Ġetc": 4812,
      "ĠMe": 4813,
      "ĠÑĤÐ¾ÑĢÐ³Ð¾Ð²": 4814,
      "ĠÐ¼Ð½Ð¾Ð³Ð¸Ðµ": 4815,
      "ĠÐ·Ð°ÐºÐ»ÑİÑĩ": 4816,
      "Ġlove": 4817,
      "Ġshows": 4818,
      "ĠÐ¸Ð½ÑĦÐ¾ÑĢÐ¼Ð°ÑĨÐ¸Ð¸": 4819,
      "ĠÐ±ÑĭÑģÑĤÑĢÐ¾": 4820,
      "www": 4821,
      "Ġsleep": 4822,
      "Ġthemselves": 4823,
      "ÐĶÐ»Ñı": 4824,
      "ĠÐ½Ð°ÑĩÐ°Ð»Ð°": 4825,
      "Ġsepar": 4826,
      "Ġce": 4827,
      "pose": 4828,
      "Ð¼Ð¾Ð¶Ð½Ð¾": 4829,
      "ender": 4830,
      "Ġcustom": 4831,
      "Ġthought": 4832,
      "aced": 4833,
      "aged": 4834,
      "igure": 4835,
      "Ġaction": 4836,
      "Ð·Ð°ÑĨÐ¸Ñı": 4837,
      "ĠÑĢÐ°Ð½": 4838,
      "ĠÐ·Ð°Ð´": 4839,
      "ĠÐ¿Ð¾ÑģÑĤÑĥÐ¿": 4840,
      "ĠÑģÐ¾ÑĤÑĢÑĥÐ´": 4841,
      "Ġmusic": 4842,
      "ĠÐ½ÐµÑģÐºÐ¾Ð»ÑĮ": 4843,
      "ensive": 4844,
      "ĠDes": 4845,
      "Ġ195": 4846,
      "Ð¾Ð¾ÑĢÑĥÐ¶": 4847,
      "het": 4848,
      "ĠÐŁÐ¾ÑįÑĤÐ¾Ð¼Ñĥ": 4849,
      "Ġdest": 4850,
      "ext": 4851,
      "ĠNorth": 4852,
      "urch": 4853,
      "ĠÐ¿ÑĢÐ¸ÑħÐ¾Ð´": 4854,
      "ÑĪÐµÐ»": 4855,
      "ÑĢÑĥÐµÑĤ": 4856,
      "IS": 4857,
      "ĠÑĥÐ²ÐµÑĢ": 4858,
      "ography": 4859,
      "Ð¾ÑĤÑĢÐµÐ±": 4860,
      "ĠÐ²ÑĤÐ¾ÑĢÐ¾Ð¹": 4861,
      "Ġtaking": 4862,
      "Ġmonths": 4863,
      "inter": 4864,
      "ĠÐ¸Ð·ÑĥÑĩ": 4865,
      "ĠÑģÐµÑĢÑĮ": 4866,
      "Ð¾ÑģÑģÐ¸Ð¹": 4867,
      "ply": 4868,
      "Ġanaly": 4869,
      "ĠÐ»Ð°": 4870,
      "ĠÑįÐ½ÐµÑĢÐ³": 4871,
      "Ġhab": 4872,
      "Ġstreng": 4873,
      "ĠÐ¸Ð½ÑĤÐµÑĢ": 4874,
      "29": 4875,
      "ĠÐ¸ÑģÑģÐ»ÐµÐ´Ð¾Ð²Ð°Ð½Ð¸Ñı": 4876,
      "Ġreturn": 4877,
      "ÑĪÐµÐ½Ð¸Ðµ": 4878,
      "Ð¾ÐºÐ¾Ð¹": 4879,
      "lor": 4880,
      "rand": 4881,
      "28": 4882,
      "Ð¾Ð¿ÑĢÐ¸": 4883,
      "ĠÐºÑĢÐµ": 4884,
      "ĠÐ´Ð²Ðµ": 4885,
      "Ġbreak": 4886,
      "iment": 4887,
      "Ġmechan": 4888,
      "gar": 4889,
      "ÑĢÐ°Ð¶ÐµÐ½Ð¸Ñı": 4890,
      "ĠÐ²ÐµÐºÐ°": 4891,
      "Ð½Ð¸ÑĨÐ°": 4892,
      "aff": 4893,
      "Ġcarbon": 4894,
      "Ġpriv": 4895,
      "ĠCo": 4896,
      "Ð¾Ð»Ð¾ÑĤ": 4897,
      "ĠÐ¿Ð¾Ð»ÑĥÑĩÐ¸ÑĤÑĮ": 4898,
      "ĠÐ·Ð°Ð½Ð¸Ð¼Ð°": 4899,
      "Ð½Ð¸Ð±ÑĥÐ´ÑĮ": 4900,
      "ĠÐ²ÑħÐ¾Ð´": 4901,
      "ĠÑįÐ¿": 4902,
      "ccording": 4903,
      "ĠÐ¿ÑĢÐ¸Ð½ÑĨÐ¸Ð¿": 4904,
      "Ġsat": 4905,
      "Ð±Ð¸": 4906,
      "ĠÐ¿ÑĢÐ¾Ð±Ð»ÐµÐ¼Ñĭ": 4907,
      "Ġsources": 4908,
      "ĠÐ´ÐµÐ»Ð": 4909,
      "ĠÐ´ÐµÐ»Ð¾": 4910,
      "ĠÐĲÐ²": 4911,
      "ctions": 4912,
      "Ġselect": 4913,
      "ĠÑĩÐµÑĤÑĭÑĢÐµ": 4914,
      "Ġsafe": 4915,
      "uel": 4916,
      "ĠHist": 4917,
      "ĠWhile": 4918,
      "ights": 4919,
      "ĠÐ½Ð°Ð¹ÑĤÐ¸": 4920,
      "ĠOf": 4921,
      "ÐµÐ¼Ð°": 4922,
      "ĠÐºÑĢÐ°Ð¹": 4923,
      "ober": 4924,
      "ĠÐ¿Ð¾Ð´Ð³Ð¾ÑĤÐ¾Ð²": 4925,
      "Ġmental": 4926,
      "Ð½Ð¸Ð²ÐµÑĢÑģÐ¸ÑĤ": 4927,
      "Ġsense": 4928,
      "ĠÐ¾Ð¿ÑĢÐµÐ´ÐµÐ»Ñı": 4929,
      "ĠÐ´Ð½Ñı": 4930,
      "ĠÐ¼Ð½Ð¾Ð³Ð¸Ñħ": 4931,
      "Ġconc": 4932,
      "pid": 4933,
      "ĠÑģÐ½Ð¾Ð²Ð°": 4934,
      "Ġsex": 4935,
      "Ġdiagn": 4936,
      "Ġpublished": 4937,
      "Ġcheck": 4938,
      "ÑĥÑĢÑĭ": 4939,
      "Ġx": 4940,
      "Ġparents": 4941,
      "ĠÐ¾Ð³ÑĢÐ¾Ð¼": 4942,
      "ĠÑĢÐ°Ð±Ð¾ÑĤÑĥ": 4943,
      "Ġresearchers": 4944,
      "ĠÑĦÐ¸Ð½Ð°Ð½": 4945,
      "Ġperformance": 4946,
      "hold": 4947,
      "Ġdeb": 4948,
      "ÐºÑģ": 4949,
      "duc": 4950,
      "ÐµÐ»ÐµÐ½": 4951,
      "Ġelectric": 4952,
      "Ġdesigned": 4953,
      "Ġfinancial": 4954,
      "ĠÐ½Ð°ÑĢÑĥÑĪ": 4955,
      "load": 4956,
      "ÑİÑīÐµÐ³Ð¾": 4957,
      "Ġideas": 4958,
      "Ġsust": 4959,
      "Ð»Ð¸Ð¶": 4960,
      "ĠÑģÑĢÐµÐ´ÑģÑĤÐ²Ð°": 4961,
      "Ġposition": 4962,
      "ĠÐ¿Ð¾ÑĤÐµÑĢ": 4963,
      "Ð°Ð²Ð¸ÑģÐ¸Ð¼": 4964,
      "ese": 4965,
      "place": 4966,
      "Ġlink": 4967,
      "ĠEarth": 4968,
      "Ġlives": 4969,
      "itary": 4970,
      "inary": 4971,
      "Ġbasic": 4972,
      "Ð¾ÐºÑģ": 4973,
      "Ð°Ð»ÑĮÐ½Ð¾Ðµ": 4974,
      "ÑĤÑĥÑĢÐ°": 4975,
      "Ġshown": 4976,
      "ĠÐ¿Ð¾Ð´ÑĤ": 4977,
      "ÑģÑĤÐ²ÐµÐ½Ð½ÑĭÐ¹": 4978,
      "apan": 4979,
      "ĠÐŁÐ¾Ð»": 4980,
      "ÑĩÐ¸Ð½": 4981,
      "Ġcaused": 4982,
      "ĠÐ°ÑĢÑħ": 4983,
      "ulations": 4984,
      "Ð±Ñı": 4985,
      "ĠÐ¼ÑĭÑĪ": 4986,
      "Ġ27": 4987,
      "Ġregion": 4988,
      "Ġprec": 4989,
      "ĠÐ¼Ð¾Ð³Ñĥ": 4990,
      "ĠÐ´Ð½ÐµÐ¹": 4991,
      "ĠÐ¿Ð¾Ð¿ÑĭÑĤ": 4992,
      "Ð½Ð¾Ð³": 4993,
      "ĠÐ½Ð°ÑĨÐ¸Ð¾Ð½Ð°Ð»ÑĮ": 4994,
      "ĠÐ¿Ð¾ÑģÑĤÑĢÐ¾": 4995,
      "ĠÐ´ÐµÑıÑĤÐµÐ»ÑĮÐ½Ð¾ÑģÑĤÐ¸": 4996,
      "ĠÐĹÐ°": 4997,
      "ĠÑĩÐ¸ÑģÐ»Ðµ": 4998,
      "Ġever": 4999,
      "ĠÐĲÐ»ÐµÐºÑģ": 5000,
      "asc": 5001,
      "Ġsubst": 5002,
      "ĠResearch": 5003,
      "ĠÐ³Ð¾Ð´Ñĭ": 5004,
      "Ġlif": 5005,
      "Ġwebs": 5006,
      "ĠÐ³ÑĢÐ°Ð¶Ð´Ð°Ð½": 5007,
      "ĠÐ´ÐµÑĢÐ¶": 5008,
      "Ġprevious": 5009,
      "ĠÑĢÐµÐ³Ñĥ": 5010,
      "ĠPe": 5011,
      "ength": 5012,
      "ĠÐ¿Ð¾Ð½Ð¸Ð¼": 5013,
      "artment": 5014,
      "ÑĩÐµÑģÐºÐ¸Ñħ": 5015,
      "ÑĢÐ¾ÑĤÐ¸Ð²": 5016,
      "ĠÑĢÐ°Ð±Ð¾Ñĩ": 5017,
      "Ġrespect": 5018,
      "Ġstop": 5019,
      "Ð»ÑıÐµÑĤÑģÑı": 5020,
      "Ġmedia": 5021,
      "Ġcritical": 5022,
      "Ġcompet": 5023,
      "Ġhyd": 5024,
      "ÐµÑĢÐ°Ð»ÑĮ": 5025,
      "ÑĨÑĥÐ·": 5026,
      "Ġsuff": 5027,
      "ĠÐ¾ÐºÐ¾Ð½Ñĩ": 5028,
      "ĠÐ°Ð½Ð³Ð»Ð¸Ð¹": 5029,
      "Ð¾ÑģÑĤÑĮÑİ": 5030,
      "rior": 5031,
      "iques": 5032,
      "ened": 5033,
      "ĠÐ±Ð°Ð½": 5034,
      "Ġ26": 5035,
      "Ð½Ð³": 5036,
      "ĠÐ¼Ð½Ð¾Ð¶Ðµ": 5037,
      "uted": 5038,
      "Ð¼Ð¾ÑĤÑĢÐµÑĤÑĮ": 5039,
      "ĠÑģÐ¿ÑĢÐ¾Ñģ": 5040,
      "ĠÑģÐ°Ð¼Ð¸": 5041,
      "Ġuses": 5042,
      "ties": 5043,
      "Ġstandard": 5044,
      "Ġ2012": 5045,
      "ĠÐ±Ð»Ð¸Ð·": 5046,
      "ĠÑĩÐ¸ÑģÑĤ": 5047,
      "ĠÑĤÐµÐ¼Ð¿ÐµÑĢÐ°": 5048,
      "ÐºÐ»ÑİÑĩ": 5049,
      "wor": 5050,
      "ĠÐºÐ¾Ð½ÑĦ": 5051,
      "ON": 5052,
      "Ġresponse": 5053,
      "ĠÐ´ÐµÑĢÐµÐ²": 5054,
      "ĠÐ¿Ð¾Ð²ÑĤÐ¾ÑĢ": 5055,
      "Ġpie": 5056,
      "ĠÐ¼Ð°ÑĪ": 5057,
      "Ġarr": 5058,
      "Ġcompan": 5059,
      "ĠÑĢÐ°Ð·Ð»Ð¸ÑĩÐ½ÑĭÑħ": 5060,
      "Ġ28": 5061,
      "Ġtell": 5062,
      "Ġhours": 5063,
      "ĠNo": 5064,
      "ĠÐļÐ°ÑĢ": 5065,
      "Ð¿ÑĤÐ¾Ð¼": 5066,
      "ĠÐ¼ÐµÑħ": 5067,
      "ÐºÐ°ÑĢ": 5068,
      "ĠÐĽÑİ": 5069,
      "ĠYour": 5070,
      "ĠÐ¼Ð»": 5071,
      "ĠÑģÑĥÐ±": 5072,
      "Ġfem": 5073,
      "ĠÑĦÐ°Ð¹": 5074,
      "aling": 5075,
      "Ġunique": 5076,
      "ĠÑħÑĥÐ´": 5077,
      "Ġeth": 5078,
      "mb": 5079,
      "ĠÐ²ÑĭÐ±Ð¾ÑĢ": 5080,
      "uck": 5081,
      "ĠÑĤÐµÐ±Ñı": 5082,
      "ĠÑĢÐµÐºÐ¾Ð¼": 5083,
      "ĠÐ¼ÐµÐ¶Ð´ÑĥÐ½Ð°ÑĢÐ¾Ð´": 5084,
      "ÑģÐ»ÑĥÐ¶": 5085,
      "ĠÐºÐ¾Ñģ": 5086,
      "ĠÑĤÑĭÑģÑıÑĩ": 5087,
      "Ġconsist": 5088,
      "Ġdistrib": 5089,
      "ĠÑįÑĤÐ¾Ð¼Ñĥ": 5090,
      "ĠÐºÑĢÐ¸ÑĤ": 5091,
      "ils": 5092,
      "ĠÐ¾Ð´Ð½Ð¸Ð¼": 5093,
      "Ġcontact": 5094,
      "Ġmatter": 5095,
      "ĠAfter": 5096,
      "AN": 5097,
      "Ġalmost": 5098,
      "ÑĥÑģÐ°": 5099,
      "Ġ2010": 5100,
      "Ð»ÐµÐ½Ð¸Ð¹": 5101,
      "Ġtarget": 5102,
      "ogle": 5103,
      "ster": 5104,
      "Ġprovided": 5105,
      "ĠÑĤÑĢÐ°Ð´Ð¸": 5106,
      "Ġox": 5107,
      "Ð½Ð°ÑĤ": 5108,
      "ĠÑĥÑģÐ¸Ð»Ð¸": 5109,
      "Ġtools": 5110,
      "Ġ2014": 5111,
      "ĠÐ¼Ð¾Ð³Ð»Ð¸": 5112,
      "ĠÐ¿ÑĢÐ¸Ñģ": 5113,
      "ĠPre": 5114,
      "ĠÑģÐ¿Ð¾ÑĢ": 5115,
      "ĠÑĤÐµÑħÐ½": 5116,
      "fully": 5117,
      "Ġspread": 5118,
      "vant": 5119,
      "ĠÐ£ÐºÑĢÐ°": 5120,
      "ĠÑĤÐ°Ð½": 5121,
      "iency": 5122,
      "ÐĿÐ¾": 5123,
      "Ġevents": 5124,
      "ĠÐ¶ÑĥÑĢÐ½Ð°": 5125,
      "Ð¿Ð¾Ñĩ": 5126,
      "vey": 5127,
      "ÑģÑĤÐ¾Ñı": 5128,
      "ĠÐ¿Ð¸ÑģÑĮ": 5129,
      "Ġitself": 5130,
      "ĠÐŁÐµÑĤ": 5131,
      "ĠÐ´Ð¾Ð¼Ð°": 5132,
      "Ġimplement": 5133,
      "Ġeval": 5134,
      "ĠÐ³Ð¸Ð¿": 5135,
      "Ġyet": 5136,
      "ĠComp": 5137,
      "Ġmanufact": 5138,
      "itor": 5139,
      "ĠÐ´Ð¾Ð»Ð¶Ð½Ð¾": 5140,
      "ĠÐ¸Ð½ÑĦ": 5141,
      "ĠÐ¿Ð¾Ð»Ð¾Ð²": 5142,
      "Ġhalf": 5143,
      "Ð°ÑĢÐ¾Ð²": 5144,
      "ises": 5145,
      "ĠÐ¾Ñī": 5146,
      "ĠÑģÐ°Ð¼ÑĭÑħ": 5147,
      "ĠÐ¿Ð»Ð°ÑĤ": 5148,
      "Ġoffer": 5149,
      "Ġface": 5150,
      "ĠÐ³Ð¾ÑģÑĥÐ´Ð°ÑĢÑģÑĤÐ²Ð°": 5151,
      "Ġharm": 5152,
      "fect": 5153,
      "199": 5154,
      "ÑģÐ¾Ð½Ð°": 5155,
      "ÑģÑĤÐ²ÐµÐ½Ð½ÑĭÐµ": 5156,
      "ĠPar": 5157,
      "rown": 5158,
      "Ġcorrect": 5159,
      "ĠÐºÑĢÑĥÐ³": 5160,
      "ÑĢÐµÐ»": 5161,
      "Ġlog": 5162,
      "amb": 5163,
      "oor": 5164,
      "Ġallows": 5165,
      "ĠÐ½ÐµÐµ": 5166,
      "Ġbacter": 5167,
      "Ġdeep": 5168,
      "ĠDep": 5169,
      "ÐºÐ¾ÑĢ": 5170,
      "Ġrecent": 5171,
      "eration": 5172,
      "ĠÑħÐ¾Ð·Ñı": 5173,
      "ÑĩÐµÑģÐºÐ¾Ð¹": 5174,
      "lease": 5175,
      "ÑĥÑİÑīÐ¸Ñħ": 5176,
      "Ġcame": 5177,
      "hood": 5178,
      "irm": 5179,
      "ĠÐºÐ¾Ð¼Ð¿ÑĮÑİÑĤ": 5180,
      "ĠÐ¿Ð¾Ð½Ð¸Ð¼Ð°": 5181,
      "Ġdifference": 5182,
      "Ð»ÐµÐ½Ð°": 5183,
      "ĠÐ²Ð¾Ð¾Ð±ÑīÐµ": 5184,
      "mar": 5185,
      "Ġemb": 5186,
      "ĠÐ´ÐµÐ¹ÑģÑĤÐ²Ð¸ÑĤÐµÐ»ÑĮÐ½Ð¾": 5187,
      "ĠÐ¸ÑģÐ¿Ð¾Ð»ÑĮÐ·Ñĥ": 5188,
      "Ġthing": 5189,
      "Ġlonger": 5190,
      "ĠÐ¡Ð°Ð¼": 5191,
      "Ġeat": 5192,
      "ĠÐ¿ÑĢÐµÐ¶Ð´Ðµ": 5193,
      "ÑģÐºÐ¸Ð¼Ð¸": 5194,
      "Ġsafety": 5195,
      "Ġanswer": 5196,
      "Ð¡Ð¡Ðł": 5197,
      "aches": 5198,
      "Ġtheory": 5199,
      "Ġ2013": 5200,
      "Ð¼ÐµÐ½ÑĮ": 5201,
      "ners": 5202,
      "ĠÐ²Ð¾Ðº": 5203,
      "Ġprimary": 5204,
      "ĠÐ¾ÑĤÑģÑĥÑĤÑģÑĤÐ²": 5205,
      "Ð»Ð¸Ð²Ð°": 5206,
      "Ġ2015": 5207,
      "ĠÐ¿ÑĢÐ¾Ð²ÐµÑĢ": 5208,
      "ĠÐ²ÐµÑĢÐ¾ÑıÑĤ": 5209,
      "minist": 5210,
      "ĠÑĩÑĥÐ²ÑģÑĤÐ²": 5211,
      "Ġaspect": 5212,
      "Ġdamage": 5213,
      "ĠÐĵÐ¾Ñģ": 5214,
      "Ġinj": 5215,
      "ĠÑĢÐ°ÑģÐº": 5216,
      "ÑģÐºÐ¾Ð¼Ñĥ": 5217,
      "ada": 5218,
      "Ð³ÑĥÑģÑĤ": 5219,
      "ĠÐ²ÐºÐ»ÑİÑĩ": 5220,
      "aving": 5221,
      "ĠÐ´Ð¾Ð¿Ð¾Ð»Ð½Ð¸ÑĤÐµÐ»ÑĮ": 5222,
      "Ġtravel": 5223,
      "ĠÐºÐ¸Ñģ": 5224,
      "Ġdraw": 5225,
      "ĠÐ¸Ð¼ÐµÑĤÑĮ": 5226,
      "ĠÑĥÐ»Ð¸": 5227,
      "ĠÐºÐ°Ð¿Ð¸ÑĤ": 5228,
      "new": 5229,
      "Ġ2016": 5230,
      "ĠÑģÐ°Ð¹": 5231,
      "ĠÐ¿ÑĢÐµÐ´Ð¼ÐµÑĤ": 5232,
      "ĠMore": 5233,
      "ĠÐ¾ÑĢÐ³Ð°Ð½Ð¸Ð·Ð°ÑĨÐ¸Ð¸": 5234,
      "Ġ2011": 5235,
      "ĠScience": 5236,
      "Ġap": 5237,
      "ura": 5238,
      "Ġattention": 5239,
      "ĠÐĵÐµÑĢÐ¼": 5240,
      "estern": 5241,
      "ĠÐļÐ¾Ð¼": 5242,
      "ĠÑģÑĥÐ¼": 5243,
      "empt": 5244,
      "ÐµÐ½Ð½ÑĥÑİ": 5245,
      "Ð¶Ð´ÐµÐ½Ð¸Ðµ": 5246,
      "ĠPer": 5247,
      "room": 5248,
      "Ġfire": 5249,
      "Ġfarm": 5250,
      "ĠYork": 5251,
      "cell": 5252,
      "atives": 5253,
      "Ġclaim": 5254,
      "Ġbur": 5255,
      "Ð¾ÑģÑĤÐ¾Ñĩ": 5256,
      "ĠÑįÐºÑģÐ¿ÐµÑĢ": 5257,
      "ĠÐ´ÑĢÐµÐ²": 5258,
      "Ð¾ÑĢÐ¾ÑĤ": 5259,
      "Ġvirus": 5260,
      "Ġpoll": 5261,
      "ĠÑĦÐ¾ÑĢÐ¼Ñĥ": 5262,
      "Ġbring": 5263,
      "ĠÑģÐ¼Ð¾Ð³": 5264,
      "ĠÐ²ÐµÑĤ": 5265,
      "ĠÑĦÐ¾ÑĢÐ¼Ð¸": 5266,
      "Ð¾ÑģÐ»ÐµÐ´": 5267,
      "arr": 5268,
      "ĠÐ²ÐµÑĢÑħ": 5269,
      "ricult": 5270,
      "Ġaverage": 5271,
      "Ġissue": 5272,
      "ĠÑģÑĤÐ°Ð»Ð°": 5273,
      "ĠÐ¿ÑĢÐ¾Ð¸Ð·Ð¾ÑĪ": 5274,
      "Ð»ÐµÐ½Ð½ÑĭÑħ": 5275,
      "ĠÐ¿ÑĭÑĤÐ°": 5276,
      "ÐµÐ´Ð°": 5277,
      "ĠÐ·Ð°Ð²Ð¸ÑģÐ¸Ð¼": 5278,
      "Ġrefer": 5279,
      "ĠÐ½ÐµÐºÐ¾ÑĤÐ¾ÑĢÑĭÑħ": 5280,
      "Ġmultiple": 5281,
      "ĠÐ¿ÑĢÐ¸Ð»Ð¾Ð¶": 5282,
      "ÑīÐ°Ð´": 5283,
      "ĠÐ¼ÐµÑħÐ°Ð½Ð¸": 5284,
      "Ġshare": 5285,
      "Ġbooks": 5286,
      "Ġrelative": 5287,
      "Ġforms": 5288,
      "ĠÐ¿ÐµÑĢÐµÐ²Ð¾Ð´": 5289,
      "ĠÑĢÐ°Ð·ÑĢÐµ": 5290,
      "ĠState": 5291,
      "ĠÐļÑĢÐ¾Ð¼Ðµ": 5292,
      "ÐºÐ¾Ðµ": 5293,
      "Ð¶Ñĥ": 5294,
      "ĠÐ¼Ð¾Ñī": 5295,
      "ÑĩÐ½ÑĭÑħ": 5296,
      "ana": 5297,
      "rim": 5298,
      "ĠÑĤÑĥÑĤ": 5299,
      "ĠÑĢÐ°ÑģÐ¿ÑĢÐ¾ÑģÑĤÑĢÐ°Ð½": 5300,
      "ĠÑģÐ¾Ð±Ð¸ÑĢÐ°": 5301,
      "Ð¸Ð»Ð¾Ñģ": 5302,
      "Ð·Ð¼": 5303,
      "OR": 5304,
      "abetes": 5305,
      "ĠÐ¾ÑĤÐ¼ÐµÑĤ": 5306,
      "ÑĤÐµÐ½": 5307,
      "ĠÐ²Ð¾Ð·Ð½Ð¸ÐºÐ°": 5308,
      "Ð»ÐµÐ½Ð½ÑĭÐµ": 5309,
      "ĠÑĤÐ²Ð¾ÑĢ": 5310,
      "yp": 5311,
      "ĠSchool": 5312,
      "dom": 5313,
      "Ġsix": 5314,
      "Ð¼Ð¸Ð½Ð¸": 5315,
      "na": 5316,
      "Ġmagn": 5317,
      "ÑĢÐ°Ñħ": 5318,
      "ĠÑģÐ½Ð¸Ð¶": 5319,
      "Ġexpress": 5320,
      "Ġcommunication": 5321,
      "ĠÐ¶ÐµÐ»ÐµÐ·": 5322,
      "Ġkids": 5323,
      "ĠÐ½ÐµÐ¼Ð½Ð¾Ð³Ð¾": 5324,
      "Ġenh": 5325,
      "ĠÐ±Ð¸": 5326,
      "Ġnormal": 5327,
      "ĠÐºÐ°ÐºÐ¸Ðµ": 5328,
      "ÐµÑĢÑĥ": 5329,
      "Ġfoods": 5330,
      "ĠUs": 5331,
      "ĠÐ¾ÑģÑĤÑĢÐ¾Ð²": 5332,
      "book": 5333,
      "nov": 5334,
      "Ġsurv": 5335,
      "Ð¸ÑĨ": 5336,
      "Ġnetwork": 5337,
      "Ġdemon": 5338,
      "ĠÐ¼ÐµÑģÑĤÐµ": 5339,
      "my": 5340,
      "umb": 5341,
      "ÑıÑİÑĤ": 5342,
      "Â°": 5343,
      "ĠÐ¿ÑĢÐ°ÐºÑĤÐ¸": 5344,
      "ched": 5345,
      "Ð¾ÑĢÐ¾Ð¶": 5346,
      "Ġexc": 5347,
      "Ġtrue": 5348,
      "ĠÐ¾ÑģÐ½Ð¾Ð²Ðµ": 5349,
      "ÑĦÐ¸ÑĨÐ¸": 5350,
      "hens": 5351,
      "Ġorigin": 5352,
      "Ġhttp": 5353,
      "ÑģÑĭÐ»": 5354,
      "ĠÑģÐ¾ÐµÐ´Ð¸Ð½": 5355,
      "Ð¸ÑĩÐµÑģÐºÐ¸Ð¼": 5356,
      "ÑĩÐµÐ¹": 5357,
      "Ġnegative": 5358,
      "Ġexamples": 5359,
      "ĠÐ¾ÑĤÐ´ÐµÐ»": 5360,
      "rench": 5361,
      "Ġnumbers": 5362,
      "ĠÐ½Ð¾ÑĢÐ¼": 5363,
      "Ġaccept": 5364,
      "know": 5365,
      "ĠÐ¿ÑĢÐ¾Ð´ÑĥÐº": 5366,
      "Ð»Ð¸ÑĩÐ°": 5367,
      "Ġconcent": 5368,
      "Ġviol": 5369,
      "aries": 5370,
      "ĠÑģÐ¸Ð»Ñĭ": 5371,
      "isions": 5372,
      "ĠÐ·Ð½Ð°ÑĩÐµÐ½Ð¸Ðµ": 5373,
      "Ġappl": 5374,
      "Ð¾Ð¶ÐµÑĤ": 5375,
      "Ġgreater": 5376,
      "ÑĨÐµÐ¿": 5377,
      "Ġachieve": 5378,
      "ĠÐ·Ð°Ð²ÐµÑĢ": 5379,
      "ÐµÑĢÐ²ÑĭÐµ": 5380,
      "Ġencoura": 5381,
      "Ð¸ÑĤÐ°Ð¹": 5382,
      "imately": 5383,
      "ĠÑģÐ¿ÑĢÐ°Ð²": 5384,
      "ground": 5385,
      "Ġlat": 5386,
      "ister": 5387,
      "ĠÐ²Ð¾Ð¿ÑĢÐ¾ÑģÑĭ": 5388,
      "ucle": 5389,
      "Ġheav": 5390,
      "Ġ80": 5391,
      "Ġschools": 5392,
      "imum": 5393,
      "erson": 5394,
      "Ġvacc": 5395,
      "Ġquant": 5396,
      "âĢĿ,": 5397,
      "ÑĪÐµÐ¼": 5398,
      "Ġvalues": 5399,
      "ĠÑĢÐµÑĪÐµÐ½Ð¸Ðµ": 5400,
      "Ġprograms": 5401,
      "ĠÐĹÐ°Ð¿": 5402,
      "ĠÐºÐ¾ÑĢÐ°": 5403,
      "pri": 5404,
      "ĠÐ¸Ð·Ð¼ÐµÐ½ÐµÐ½Ð¸Ñı": 5405,
      "Ġtax": 5406,
      "Ð´ÐµÐ¹ÑģÑĤÐ²": 5407,
      "ĠÐ¡Ð¡Ð¡Ðł": 5408,
      "ĠÐ¿Ð¾Ð¸ÑģÐº": 5409,
      "ÐŀÐ´": 5410,
      "ino": 5411,
      "Ð¾ÑĤÐµ": 5412,
      "Ġmovement": 5413,
      "ĠÑģÐµÐ¼ÑĮ": 5414,
      "ĠÑĢÐµÐ»Ð¸": 5415,
      "ĠÐºÐ¾Ð½Ðº": 5416,
      "Ġsoftware": 5417,
      "Ġsimply": 5418,
      "Ġsomet": 5419,
      "Ġpatient": 5420,
      "Ġsecurity": 5421,
      "ĠÑĤÐµÑģÑĤ": 5422,
      "ĠÐ²ÑģÐµÐ¹": 5423,
      "ĠÐ¾Ð±ÑĢÐ°Ð·Ð¾Ð²": 5424,
      "Ð¾Ð´ÐµÐ¹ÑģÑĤÐ²": 5425,
      "ĠBritish": 5426,
      "Ġaud": 5427,
      "Ġtraditional": 5428,
      "Ġelements": 5429,
      "apter": 5430,
      "ĠÐ½Ð°ÑĩÐ°Ð»Ðµ": 5431,
      "ĠÐ¿Ð°ÑĨÐ¸": 5432,
      "ĠÐ½Ð°Ð³": 5433,
      "IC": 5434,
      "Ð°Ð»ÑĮÐ½Ð°Ñı": 5435,
      "Ġaware": 5436,
      "Ġfeatures": 5437,
      "ĠÑģÐ¿ÐµÑĨÐ¸Ð°Ð»Ð¸": 5438,
      "ĠÐ´Ð¾ÐºÐ°Ð·": 5439,
      "ÐµÐ½Ð½ÑĭÐ¼Ð¸": 5440,
      "Ġpict": 5441,
      "ĠÐ¿ÐµÑģ": 5442,
      "Ġgenerally": 5443,
      "Ð¸Ð½Ð°Ð¼Ð¸": 5444,
      "ĠÐ¿ÑĢÐ¸Ð¾Ð±": 5445,
      "Ġremain": 5446,
      "Ġdeveloping": 5447,
      "Ġsustain": 5448,
      "Ġdetermine": 5449,
      "ĠÑĤÐ¾Ð½": 5450,
      "ÐĺÐ·": 5451,
      "Ġaim": 5452,
      "ĠÑĪÐºÐ¾Ð»": 5453,
      "Ġbill": 5454,
      "Ð¼ÐµÐ½Ð¸": 5455,
      "ĠÑĢÑĭÐ½": 5456,
      "ĠÐ½Ð°Ð¿ÑĢÑı": 5457,
      "Ġthreat": 5458,
      "70": 5459,
      "Ġec": 5460,
      "Ġearth": 5461,
      "Ð¾Ð¹ÑĤÐ¸": 5462,
      "ĠÑĥÐ´Ð¾Ð²": 5463,
      "Ð»ÐµÐ½Ð¸Ñİ": 5464,
      "Ð¾Ð»ÐµÐ²": 5465,
      "Ġacid": 5466,
      "Ð½Ð°Ð´Ð»ÐµÐ¶": 5467,
      "ĠÑĢÐµÐ²Ð¾Ð»Ñİ": 5468,
      "Ġwild": 5469,
      "ĠÑħÐ¾ÑĤÐµÐ»": 5470,
      "Ġled": 5471,
      "ĠJapan": 5472,
      "ÑĪÐ¸Ð¼Ð¸": 5473,
      "ÑĤÐ¾Ð½": 5474,
      "ĠÑĥÐ»ÑĥÑĩ": 5475,
      "ony": 5476,
      "Ġdoing": 5477,
      "Ġlack": 5478,
      "Ġdaily": 5479,
      "ÑİÑīÐ°Ñı": 5480,
      "Ġlooking": 5481,
      "Ð¾Ð±ÑĢÐ°Ð·": 5482,
      "ĠÐ²ÑĭÐ²Ð¾Ð´": 5483,
      "ĠÐ¿Ð¾Ð¼Ð¾ÑīÐ¸": 5484,
      "ĠÐļÐ¾ÑĢ": 5485,
      "arily": 5486,
      "ĠÐ±Ð¸Ð·": 5487,
      "ĠÐ¼Ð°Ð»ÐµÐ½ÑĮ": 5488,
      "ĠÑĢÐ°ÑģÑģÐ¼Ð°ÑĤÑĢÐ¸": 5489,
      "ades": 5490,
      "ÑİÑīÐ¸Ð¼": 5491,
      "ĠÑģÑĤÐ¾Ñı": 5492,
      "Ġimage": 5493,
      "EN": 5494,
      "Ġir": 5495,
      "Ġdecre": 5496,
      "Ġbelieve": 5497,
      "ÐµÐ¼ÑĭÐµ": 5498,
      "ÑİÑģÑĮ": 5499,
      "Ġinvolved": 5500,
      "Ð½ÑĥÐ»ÑģÑı": 5501,
      "ĠÑģÐ²ÑıÐ·Ð°": 5502,
      "Ġbegan": 5503,
      "ĠHis": 5504,
      "Ġvit": 5505,
      "ÑĢÑİ": 5506,
      "olar": 5507,
      "Ġpoints": 5508,
      "Ġtook": 5509,
      "ĠChina": 5510,
      "Ġinvestig": 5511,
      "osing": 5512,
      "Ġ2020": 5513,
      "ror": 5514,
      "oes": 5515,
      "ĠÑĤÐµÐ±Ðµ": 5516,
      "45": 5517,
      "ension": 5518,
      "ĠÐ±Ð¾Ð»ÑĮÑĪÐ¾Ð¹": 5519,
      "ĠÐ¿ÐµÑĩ": 5520,
      "ÑĩÐ¸Ðº": 5521,
      "ĠÐ¿ÑĢÐ¸Ð´": 5522,
      "Ġparticularly": 5523,
      "Ð½Ð°Ð¼Ð¸": 5524,
      "Ġextreme": 5525,
      "ĠÐ½ÐµÐ±Ð¾Ð»ÑĮÑĪ": 5526,
      "ÐµÐ»ÑĮÐ·Ñı": 5527,
      "35": 5528,
      "ĠÐĴÐ¾Ð·": 5529,
      "Ġguid": 5530,
      "Ġgrowing": 5531,
      "ÑĤÐ¾Ñĩ": 5532,
      "Ġappropri": 5533,
      "ĠÑĢÐµÐ¶Ð¸Ð¼": 5534,
      "Ġpan": 5535,
      "Ġtechniques": 5536,
      "ĠÐ½ÐµÐ¿ÑĢÐ¸": 5537,
      "Ġdiseases": 5538,
      "Ġteachers": 5539,
      "asons": 5540,
      "Ġsomeone": 5541,
      "Ġprep": 5542,
      "ĠÑĢÐ¾ÑģÑģÐ¸Ð¹": 5543,
      "Ġremov": 5544,
      "ĠÐ¿Ð¾Ð»ÐµÐ·": 5545,
      "Ð´Ð°Ð½Ð¸Ñı": 5546,
      "Ġindepend": 5547,
      "ĠÐ½Ð°ÑģÑĤÐ¾ÑıÑī": 5548,
      "ĠÑģÑĤÐ°Ð»Ð¾": 5549,
      "ĠÐ±ÑĥÐ´Ñĥ": 5550,
      "ĠÐ¿ÑĢÐµÑģÑĤÑĥÐ¿": 5551,
      "¾Ð¸ÑĤ": 5552,
      "Ð¾Ð¸ÑĤ": 5553,
      "ban": 5554,
      "hel": 5555,
      "ÑģÑĤÑĢÐ¸": 5556,
      "Ġslow": 5557,
      "ĠEduc": 5558,
      "ĠÑģÐ¾Ð³Ð»Ð°Ñģ": 5559,
      "ĠÐ²ÐµÐº": 5560,
      "ĠÑĢÐ°ÑģÑĪÐ¸": 5561,
      "ĠÐ²ÐµÐ´ÑĮ": 5562,
      "ĠÑĥÑģÐ¿ÐµÑħ": 5563,
      "ÑĥÑİÑĤÑģÑı": 5564,
      "ĠÑĤÐ°ÐºÐ¾Ð³Ð¾": 5565,
      "ĠÑĢÐ°Ð·Ð±": 5566,
      "Ġseries": 5567,
      "ĠÐ¿ÑĢÐ¸Ð½Ð°Ð´Ð»ÐµÐ¶": 5568,
      "Ð¼Ð¿": 5569,
      "ÑĤÐ¸ÑĢÐ¾Ð²": 5570,
      "ĠMin": 5571,
      "joy": 5572,
      "Ġgetting": 5573,
      "Ġcover": 5574,
      "ĠÐºÐ¾ÑĢÐ¿": 5575,
      "Ġwood": 5576,
      "Ġpurpose": 5577,
      "ĠÐºÐ°Ñģ": 5578,
      "Ð¼ÐµÑĪ": 5579,
      "¾ÑĨÐ¸": 5580,
      "Ġsometimes": 5581,
      "Ð°Ð²Ð°": 5582,
      "Ð¾ÑĨÐ¸": 5583,
      "Ġtakes": 5584,
      "Ð°ÐºÑģÐ¸Ð¼": 5585,
      "ĠÐ·Ð°Ð¿Ð¸Ñģ": 5586,
      "ĠÐ´Ð²Ð¸Ð³": 5587,
      "Ġsmo": 5588,
      "Ġbuilt": 5589,
      "Ð³Ð¾ÑĢ": 5590,
      "ĠÐ²ÐµÑĢÑģ": 5591,
      "Ġ2017": 5592,
      "Ġcompared": 5593,
      "ĠÑģÐ¼ÐµÑĢÑĤÐ¸": 5594,
      "ĠÑģÑĤÐ°Ð½Ð¾Ð²Ð¸ÑĤÑģÑı": 5595,
      "ĠÐ¿Ð¾ÐºÑĥÐ¿": 5596,
      "ĠLear": 5597,
      "imal": 5598,
      "Ġveget": 5599,
      "Ġimportance": 5600,
      "Ġaff": 5601,
      "ĠÑĥÑĢÐ¾Ð²ÐµÐ½ÑĮ": 5602,
      "ĠÐ¿ÑĢÐ¾ÑħÐ¾Ð´": 5603,
      "ĠÑĤÐµÑĢÑĢÐ¸ÑĤÐ¾ÑĢÐ¸Ð¸": 5604,
      "ÑĩÐµÑģÐºÐ¾Ð³Ð¾": 5605,
      "ĠÐºÐ¾Ð½ÐºÑĢÐµÑĤ": 5606,
      "iot": 5607,
      "Ġeasily": 5608,
      "Ġanimal": 5609,
      "ĠÐ½Ð°Ð±Ð»ÑİÐ´": 5610,
      "AC": 5611,
      "ĠÐ¿Ð¾Ð·Ð²Ð¾Ð»ÑıÐµÑĤ": 5612,
      "ĠÐ¿Ð¾Ð´ÑĤÐ²ÐµÑĢ": 5613,
      "ĠÐ½Ð°ÑĩÐ°Ð»": 5614,
      "lands": 5615,
      "ĠÐ´Ñĥ": 5616,
      "ĠÐ½ÐµÐ¼ÐµÑĨ": 5617,
      "Ġtowards": 5618,
      "ĠÑģÐ±Ð¾ÑĢ": 5619,
      "Ġvideo": 5620,
      "ÑĢÐµÐ¼ÐµÐ½Ð½Ð¾": 5621,
      "Ġextra": 5622,
      "play": 5623,
      "Ð¾Ð²Ð°Ð»": 5624,
      "ĠÑģÐ¾Ð²ÐµÑĢÑĪÐµÐ½Ð½Ð¾": 5625,
      "ĠÑĤÐ°Ð±": 5626,
      "ĠÐ½ÐµÐ¸Ð·": 5627,
      "ĠÐ´Ð¾Ð²Ð¾Ð»ÑĮÐ½Ð¾": 5628,
      "raft": 5629,
      "Ġbab": 5630,
      "term": 5631,
      "ĠÐºÐ¾ÑĤÐ¾ÑĢÑĭÐ¼": 5632,
      "ÑĤÐ¾Ð¶": 5633,
      "ari": 5634,
      "ÑĤÑĢÐ¸": 5635,
      "ĠKing": 5636,
      "ĠAc": 5637,
      "ĠÑĢÐµÑĪÐµÐ½Ð¸Ñı": 5638,
      "ÑĤÐµÑĢÐµ": 5639,
      "ĠÐ°Ð²ÑĤÐ¾Ð¼Ð¾Ð±": 5640,
      "Ġaltern": 5641,
      "Ġreflect": 5642,
      "Ġ2008": 5643,
      "ĠÐ±ÑĢÐ°": 5644,
      "ĠÑĤÑĢÐµÑħ": 5645,
      "Ð¸Ð²Ð°ÑİÑĤ": 5646,
      "ÐĺÐ½": 5647,
      "ÑĩÐ°ÑĤ": 5648,
      "ĠÑĥÐ¿ÑĢÐ°Ð²Ð»ÐµÐ½Ð¸Ñı": 5649,
      "ĠÐºÐ¾Ð½Ñģ": 5650,
      "ĠÐ¼Ð¾Ð½": 5651,
      "ĠÑĥÑĢÐ¾Ð²Ð½Ñı": 5652,
      "Ġreported": 5653,
      "ĠÐ³Ð»": 5654,
      "ÑĥÑİÑīÐ¸Ðµ": 5655,
      "Ġmess": 5656,
      "lection": 5657,
      "wh": 5658,
      "Ġproduced": 5659,
      "Ġ29": 5660,
      "ĠÐ²Ð½ÑĥÑĤÑĢÐ¸": 5661,
      "aly": 5662,
      "ĠÐ¿ÑıÑĤ": 5663,
      "ĠÐ²ÑĭÐ´ÐµÐ»": 5664,
      "ĠÐºÑĢÑĭ": 5665,
      "ĠÑĤÐµÐ»Ð°": 5666,
      "ĠÐ½ÐµÑģÐºÐ¾Ð»ÑĮÐºÐ¸Ñħ": 5667,
      "Ġobtain": 5668,
      "Ð°Ð½Ñģ": 5669,
      "Ġproced": 5670,
      "Ð§ÑĤÐ¾": 5671,
      "Ġprocesses": 5672,
      "Ġapplication": 5673,
      "ĠÐ²Ð¾ÑģÐ¿ÑĢÐ¸": 5674,
      "Ġdigital": 5675,
      "ĠAustral": 5676,
      "rs": 5677,
      "ÑĩÐµÐ½": 5678,
      "ĠÑģÐ¾Ð²ÑģÐµÐ¼": 5679,
      "att": 5680,
      "ĠArt": 5681,
      "ĠÐ¿ÐµÑĢÐ²Ð¾Ð¹": 5682,
      "Ġcompanies": 5683,
      "Ġforce": 5684,
      "Ġoriginal": 5685,
      "ĠÐ¿ÑĢÐ¾ÑģÑĤÑĢÐ°Ð½": 5686,
      "ĠÐ¡Ð²": 5687,
      "Ġincluded": 5688,
      "ĠÐ¿Ð¸ÑĪ": 5689,
      "Ġ2009": 5690,
      "Ġapplications": 5691,
      "ĠÐºÐ¾ÑĢÐ°Ð±": 5692,
      "ÑģÑģÐµ": 5693,
      "Ġsound": 5694,
      "ĠGl": 5695,
      "Ġinternational": 5696,
      "ĠÐ·Ð°ÑģÑĤÐ°Ð²": 5697,
      "Ġsqu": 5698,
      "Ġsymb": 5699,
      "ĠÐ¼Ð¾Ð¹": 5700,
      "ĠÐ½Ð°Ð»Ð¸Ñĩ": 5701,
      "ÑĨÐ¾Ð²": 5702,
      "ĠAg": 5703,
      "ĠÐ¿ÑĢÐ¾Ð¸Ð·Ð²ÐµÐ´": 5704,
      "Ð°Ð½Ðµ": 5705,
      "ĠCons": 5706,
      "Ð¸Ð»Ð¾ÑģÐ¾ÑĦ": 5707,
      "Ġsil": 5708,
      "ĠÐ¿ÑĢÐ¸Ð½Ð¸Ð¼Ð°": 5709,
      "rated": 5710,
      "ĠRuss": 5711,
      "ĠPart": 5712,
      "Ġ2019": 5713,
      "eed": 5714,
      "ĠÐ²Ð¾ÑģÑģÑĤÐ°Ð½Ð¾Ð²": 5715,
      "ÐºÐ°Ð±": 5716,
      "Ð¾ÑĤÑı": 5717,
      "ĠÐļÐ°": 5718,
      "amed": 5719,
      "ĠDis": 5720,
      "ĠÑĤÑĢÐµÑĤÑĮ": 5721,
      "Ġadvant": 5722,
      "ÑĢÐ°Ð¶ÐµÐ½Ð¸Ðµ": 5723,
      "ĠÐ¾ÑģÐ²": 5724,
      "ÑĤÐµÐ³": 5725,
      "ĠÐ²Ð¾Ð·Ð¼Ð¾Ð¶Ð½Ð¾ÑģÑĤÐ¸": 5726,
      "ĠÑĥÐºÑĢÐ°": 5727,
      "ĠÑĥÐ¼ÐµÐ½ÑĮ": 5728,
      "Ġleading": 5729,
      "ĠÐ¿Ð»Ð¾Ñħ": 5730,
      "ĠÐ¼ÐµÑĢ": 5731,
      "ĠÐ·ÑĢÐµÐ½Ð¸Ñı": 5732,
      "ĠEd": 5733,
      "Ġsection": 5734,
      "ĠÐ¸ÑģÐ¿ÑĭÑĤ": 5735,
      "ĠÐ´ÐµÐ½": 5736,
      "rought": 5737,
      "ederal": 5738,
      "ĠÑģÐµÑĢÑĮÐµÐ·": 5739,
      "ĠÐ¿Ð»Ð¾ÑīÐ°Ð´": 5740,
      "ĠÐ¾Ð²": 5741,
      "ĠÐ½Ð°ÑĪÐµÐ¹": 5742,
      "ĠÐ´Ð¾Ð»Ð»Ð°": 5743,
      "Ġinfection": 5744,
      "Ħĸ": 5745,
      "ancy": 5746,
      "ĠÐ´Ð¾Ð¿": 5747,
      "Ġful": 5748,
      "Ð»ÐµÐ½Ð": 5749,
      "Ð»ÐµÐ½Ð¾": 5750,
      "uk": 5751,
      "Ð¸ÑĤÐµÑģÑĮ": 5752,
      "ÑĢÑĭÐ²Ð°": 5753,
      "ĠÐ¿ÑĢÐ¾Ðº": 5754,
      "ÐµÑĤÐµÐ»ÑĮ": 5755,
      "ĠHere": 5756,
      "ĠÑģÑĤÐµÐ½": 5757,
      "Ð»ÑİÐ´Ð°": 5758,
      "Ġ2018": 5759,
      "Ġseem": 5760,
      "Ð¶ÐµÐ½": 5761,
      "ift": 5762,
      "Ġcoun": 5763,
      "Ġ70": 5764,
      "Ġfram": 5765,
      "ÑĥÑĢÐ¸": 5766,
      "ĠÑģÑĩÐµÑĤ": 5767,
      "itude": 5768,
      "Ð¿Ð¾Ð½": 5769,
      "isms": 5770,
      "ÑĨÐ°Ð¼Ð¸": 5771,
      "ĠÐºÐ¾Ð½ÐµÑĩÐ½Ð¾": 5772,
      "Ġoutside": 5773,
      "Ġcontinue": 5774,
      "ls": 5775,
      "ĠÐ¾ÑĢÑĥÐ¶": 5776,
      "ĠÐ²ÐµÑĩ": 5777,
      "Ġprofessional": 5778,
      "ÐºÐµÑĤ": 5779,
      "rial": 5780,
      "ĠÐ¼Ð¸Ðº": 5781,
      "ĠÐ¿Ð¾ÑģÐ»ÐµÐ´Ð¾Ð²": 5782,
      "Ġsearch": 5783,
      "ĠÐºÐ°Ð½Ð°": 5784,
      "Ġ190": 5785,
      "Ġdou": 5786,
      "Ġoverall": 5787,
      "Ġinfluence": 5788,
      "ĠÐ½ÐµÐ·Ð°Ð²Ð¸ÑģÐ¸Ð¼": 5789,
      "ÑĤÐ¾ÑĢÐ¾Ð²": 5790,
      "issions": 5791,
      "ĠÑĢÐµÐ³Ð¸": 5792,
      "uth": 5793,
      "ĠÐ´Ð²Ð¸Ð¶ÐµÐ½Ð¸Ñı": 5794,
      "hol": 5795,
      "ÑĩÐµÐ¼": 5796,
      "Ð»Ð°Ð½Ð´": 5797,
      "Ġteaching": 5798,
      "Ġessays": 5799,
      "Ġdocument": 5800,
      "Ġsupply": 5801,
      "ĠÐ·Ð½Ð°ÑĩÐ¸ÑĤÐµÐ»ÑĮ": 5802,
      "ĠÑıÐ½": 5803,
      "Ġdiv": 5804,
      "Ġserious": 5805,
      "ÑĮÐ¼Ð¸": 5806,
      "ĠMany": 5807,
      "ÑĪÐ»Ð¸": 5808,
      "ĠInstit": 5809,
      "Ġleaders": 5810,
      "IV": 5811,
      "Ġ90": 5812,
      "Ġtree": 5813,
      "ĠÐ±Ð°Ð»": 5814,
      "Ġgard": 5815,
      "ĠÑĢÐ¾Ð¼": 5816,
      "Ġthinking": 5817,
      "ĠÑģÐ²Ð¸Ð´": 5818,
      "ĠÑģÐ¼Ð¾Ð¶": 5819,
      "ĠÑĦÑĢÐ°Ð½ÑĨÑĥÐ·": 5820,
      "Ex": 5821,
      "ĠÑģÑĤÑĥÐ´": 5822,
      "ÑĤÐ¸Ðµ": 5823,
      "Ġpoor": 5824,
      "ĠÑĥÐ½Ð¸Ð²ÐµÑĢÑģÐ¸ÑĤ": 5825,
      "sis": 5826,
      "ĠÑĢÑĥÐ±": 5827,
      "ription": 5828,
      "ĠÑĤÐ¾Ð¹": 5829,
      "ĠÐ¿Ð¾Ð»ÑĥÑĩÐ¸Ð»": 5830,
      "Ġtypically": 5831,
      "ĠÑģÑĤÐµÐ¿ÐµÐ½Ð¸": 5832,
      "ĠÐĲÐ»ÐµÐºÑģÐ°Ð½Ð´": 5833,
      "ÐľÑĭ": 5834,
      "Ġprogress": 5835,
      "ĠÑĢÑĥÐºÐ¸": 5836,
      "Ð¸Ð³Ð½Ð°": 5837,
      "Ð¶Ð¸": 5838,
      "Ġstay": 5839,
      "90": 5840,
      "Ġ*": 5841,
      "Ð°ÑĨÐ¸Ð¸": 5842,
      "Ġdevices": 5843,
      "ĠÐ²Ð¾Ð¹ÑģÐº": 5844,
      "ologies": 5845,
      "Ġtur": 5846,
      "ech": 5847,
      "ĠÑĤÐ¾ÑĩÐºÐ¸": 5848,
      "ĠÐ´ÐµÑģÑı": 5849,
      "ĠÑĩÐµÐ¼Ð¿Ð¸": 5850,
      "ĠÑģÐ»ÑĥÑĩÐ°Ð¹": 5851,
      "Ġcit": 5852,
      "ĠÑģÐ°Ð¼Ð¾Ð³Ð¾": 5853,
      "Ġinstit": 5854,
      "Ð¸Ð±Ð»Ð¸": 5855,
      "ĠÑģÐ¸Ð´": 5856,
      "Ġnight": 5857,
      "ĠÐĴÐ¾ÑĤ": 5858,
      "ĠÑģÐµÐ½ÑĤ": 5859,
      "ĠÑĤÑĢÐ°Ð²": 5860,
      "ipl": 5861,
      "Ġprotein": 5862,
      "Ġcalcul": 5863,
      "Ġexercise": 5864,
      "Ð°ÐµÑĤÐµ": 5865,
      "ĠÑĢÐ°Ð·Ð½ÑĭÑħ": 5866,
      "oly": 5867,
      "Ġcivil": 5868,
      "ĠÐ¼ÐµÐ»": 5869,
      "Ġprior": 5870,
      "ĠÐ¶ÐµÑģÑĤ": 5871,
      "ÑıÐµÑĤÑģÑı": 5872,
      "ĠÐŃÑĤÐ¸": 5873,
      "Ġpolicy": 5874,
      "Ġreve": 5875,
      "ĠÐ²ÑģÑİ": 5876,
      "ĠRead": 5877,
      "ĠÐ¿ÑĥÑĤÐ¸": 5878,
      "Ġrout": 5879,
      "Ð°ÑĤÐµÐ¼": 5880,
      "ĠÑģÑĤÑĢÐµÐ¼": 5881,
      "ĠÐ¾ÐºÑĤ": 5882,
      "ĠÐ¼ÐµÐ½ÑĮÑĪÐµ": 5883,
      "Ġtopic": 5884,
      "Ġ#": 5885,
      "come": 5886,
      "apers": 5887,
      "Ġsolar": 5888,
      "Ð½Ð¸ÐºÐ°Ð¼Ð¸": 5889,
      "itch": 5890,
      "Ġsolution": 5891,
      "ĠÑĥÐ²ÐµÐ»Ð¸Ñĩ": 5892,
      "Ġclin": 5893,
      "ĠÐ¿ÑĢÐ°Ð²Ð¸Ð»Ð¾": 5894,
      "fort": 5895,
      "Ġdry": 5896,
      "ĠÐ³ÑĢÐµ": 5897,
      "Ð¸Ð²Ð°Ð½Ð¸Ñı": 5898,
      "ĠWill": 5899,
      "ĠÑĨÐµÐ»Ð¸": 5900,
      "ĠÑıÑĢ": 5901,
      "ha": 5902,
      "ÑģÐºÐ¾Ð»ÑĮÐºÐ¾": 5903,
      "right": 5904,
      "ĠÐ²Ð¾Ð·Ð²ÑĢÐ°Ñī": 5905,
      "Ġinside": 5906,
      "Ġdoesn": 5907,
      "ĠÑĤÐ¸Ð¿Ð°": 5908,
      "ĠÑģÐ¸Ð¼Ð¿ÑĤÐ¾Ð¼": 5909,
      "Ð²Ñĥ": 5910,
      "33": 5911,
      "Ð°ÑĢÑĤ": 5912,
      "ĠÐ¾Ð±ÑĥÑĩ": 5913,
      "Ð»ÐµÐ½Ð½Ð¾": 5914,
      "ĠÐŁÐ¾ÑĤ": 5915,
      "________": 5916,
      "Ġquickly": 5917,
      "ĠÑĥÑģÐ»Ð¾Ð²Ð¸ÑıÑħ": 5918,
      "istry": 5919,
      "ĠÐ´Ð°Ð½Ð½ÑĭÐµ": 5920,
      "Ġgame": 5921,
      "Ġstarted": 5922,
      "ĠWind": 5923,
      "ĠÑĥÑĩÐ¸ÑĤ": 5924,
      "ĠÐ±Ð»Ð¾Ðº": 5925,
      "ĠÐ¾ÑīÑĥÑī": 5926,
      "Ġcontains": 5927,
      "Ġdang": 5928,
      "ĠÑĢÐ°Ð´": 5929,
      "Ġcultural": 5930,
      "Ġcapt": 5931,
      "ĠÐ¾ÑĦÐ¸ÑĨÐ¸Ð°Ð»ÑĮ": 5932,
      "ĠÐ½Ð°Ðº": 5933,
      "ĠÐĿÐ°Ð¿ÑĢÐ¸Ð¼ÐµÑĢ": 5934,
      "Ġdemonstr": 5935,
      "Ġ2000": 5936,
      "ÑİÑīÐµÐµ": 5937,
      "Ġuseful": 5938,
      "Ġtiss": 5939,
      "ÑĩÐµÐ±": 5940,
      "ĠÐ»ÑİÐ±Ð¾Ð¹": 5941,
      "Ġtherefore": 5942,
      "Ð°Ð½Ð½Ð°Ñı": 5943,
      "ilos": 5944,
      "Ġhumans": 5945,
      "ĠÐ½Ð¸Ð¼Ð¸": 5946,
      "ÑģÑĤÐ¸ÑĤÑĥ": 5947,
      "itable": 5948,
      "ĠPres": 5949,
      "Ġcard": 5950,
      "Ġrequires": 5951,
      "ĠÐ²Ð¾Ð·Ð´ÐµÐ¹ÑģÑĤÐ²": 5952,
      "ÐµÐ»Ñİ": 5953,
      "Ġcommit": 5954,
      "ĠÑĩÐ°ÑģÐ¾Ð²": 5955,
      "ÑĭÐ²Ð°Ñı": 5956,
      "Ġhighly": 5957,
      "ervation": 5958,
      "ying": 5959,
      "Ġweb": 5960,
      "ĠÑģÑĤÑĢÐ°Ñħ": 5961,
      "Ġadditional": 5962,
      "Ġfa": 5963,
      "ĠÑĥÐ´Ð¸Ð²": 5964,
      "Ġtransport": 5965,
      "izes": 5966,
      "ÑĢÐ¾Ð¶": 5967,
      "ipment": 5968,
      "Ġcross": 5969,
      "ÑĩÐ°Ð¹": 5970,
      "ĠÐĺÑģÐ¿": 5971,
      "Ġvisit": 5972,
      "ÐµÐ¶Ð´Ñĥ": 5973,
      "Ð¼Ð¾Ð²": 5974,
      "uge": 5975,
      "Ð½Ð¸ÑĩÑĤÐ¾Ð¶": 5976,
      "ĠÐ°ÑĢÐ¼Ð¸Ð¸": 5977,
      "ĠÑģÐ¼ÑĭÑģ": 5978,
      "ĠÑģÐ°Ð¼ÑĭÐ¼": 5979,
      "vention": 5980,
      "ÑĭÐ»": 5981,
      "Ġmother": 5982,
      "Ġhttps": 5983,
      "Ġenjoy": 5984,
      "ĠÐ¼ÐµÑģÑĤÐ°": 5985,
      "Ġattempt": 5986,
      "iter": 5987,
      "Ġscientific": 5988,
      "ÑĢÐ°ÑĪ": 5989,
      "Ð°Ð½Ð½Ð¾Ð³Ð¾": 5990,
      "ulate": 5991,
      "Ð¾Ð½Ð¸Ð¸": 5992,
      "ED": 5993,
      "ÑĩÐµÑģÐºÐ¸Ðµ": 5994,
      "ĠEl": 5995,
      "ÐµÐ¿ÐµÑĢÑĮ": 5996,
      "ĠÐ½Ð°ÑģÑĤÑĥÐ¿": 5997,
      "Ġutil": 5998,
      "ÑĦÐ°": 5999,
      "irit": 6000,
      "Ð°Ð½Ð°Ð²": 6001,
      "Ð½Ð¸ÑĨÑĥ": 6002,
      "formation": 6003,
      "ĠÐ½Ð°Ð·Ð½Ð°Ñĩ": 6004,
      "Ð¸ÑĢÐ¸": 6005,
      "lation": 6006,
      "ĠÐ´Ð¾ÑģÑĤÐ¸Ð³": 6007,
      "ĠÐ¡Ð¾Ð²ÐµÑĤ": 6008,
      "Ġcontext": 6009,
      "Ð¾ÑĢÐ¾Ð½": 6010,
      "Ð¼Ð¸Ð½Ð¸ÑģÑĤÑĢÐ°": 6011,
      "Ð´Ð°Ð½Ð¸Ðµ": 6012,
      "ĠÐĿÐ¾Ð²": 6013,
      "ding": 6014,
      "izations": 6015,
      "bre": 6016,
      "Ġlate": 6017,
      "ĠÐ¿Ð°Ð»": 6018,
      "ĠÐ³ÑĢÑĥ": 6019,
      "Ġspeak": 6020,
      "inks": 6021,
      "Ġscientists": 6022,
      "Ð¾ÑģÑĢÐµÐ´": 6023,
      "ĠÐ±ÑĭÐ²": 6024,
      "ĠÐ´Ð¸ÑģÐº": 6025,
      "che": 6026,
      "Ġcamp": 6027,
      "ider": 6028,
      "ĠÐ¾ÑģÑĤÐ°Ð½Ð¾Ð²": 6029,
      "ÑĢÐµÐµ": 6030,
      "orpor": 6031,
      "ĠÐ´ÐµÐ¿": 6032,
      "rig": 6033,
      "ÐŁÐ¾ÑģÐ»Ðµ": 6034,
      "ÑĢÐ¸ÑģÑĤÐ¸": 6035,
      "Ð¹Ð½": 6036,
      "ĠTra": 6037,
      "Ġang": 6038,
      "ĠReg": 6039,
      "Ġcreating": 6040,
      "Ġforest": 6041,
      "ief": 6042,
      "Ġfav": 6043,
      "One": 6044,
      "Ġadapt": 6045,
      "ÑĩÐµÑģÑĤÐ²Ð°": 6046,
      "ĠÐ½Ð¾Ð²ÑĭÐµ": 6047,
      "ĠÐºÐ°Ð¶": 6048,
      "ÑģÐ¾Ð»": 6049,
      "He": 6050,
      "ÑĩÐ°Ð»Ð¸": 6051,
      "Ð°Ð»ÑĮÐ½ÑĭÐ¼": 6052,
      "ĠÑģÐ¾Ñİ": 6053,
      "Ġpack": 6054,
      "ĠÐ»ÐµÐ³ÐºÐ¾": 6055,
      "ÑĤÐ°Ð¼Ð¸": 6056,
      "Ġwall": 6057,
      "Ġlength": 6058,
      "ĠMy": 6059,
      "ĠÐµÑģÑĤÐµ": 6060,
      "ĠÐŁÑĢÐ°Ð²": 6061,
      "tery": 6062,
      "ĠNot": 6063,
      "ÐµÐ½ÑĨÐ¸Ð¸": 6064,
      "ÐµÐ´Ð¸": 6065,
      "ellow": 6066,
      "care": 6067,
      "ĠÐ¿ÐµÑĢÐµÑħÐ¾Ð´": 6068,
      "Ġwarm": 6069,
      "ĠÐ½Ð¾Ð²ÑĭÑħ": 6070,
      "ĠÐ°Ð²Ð³ÑĥÑģÑĤ": 6071,
      "ĠHar": 6072,
      "ĠÐ²Ð¾ÐºÑĢÑĥÐ³": 6073,
      "anks": 6074,
      "ĠÐ±ÑĥÐº": 6075,
      "ached": 6076,
      "rogen": 6077,
      "ĠÐ¿Ð¾ÑıÐ²Ð»Ñı": 6078,
      "Ġago": 6079,
      "ĠÐ½ÐµÐ²Ð¾Ð·": 6080,
      "oud": 6081,
      "ĠKe": 6082,
      "Ġthird": 6083,
      "ĠÐ¸Ð¼Ñı": 6084,
      "ĠTechn": 6085,
      "Ġofficial": 6086,
      "osure": 6087,
      "Ð¸ÑĩÐµÑģÐºÑĥÑİ": 6088,
      "ĠÑģÑĢÐ¾Ðº": 6089,
      "ĠTw": 6090,
      "Ġdirectly": 6091,
      "ĠÐºÐ¾Ð½ÐºÑĥ": 6092,
      "Ð»Ð°Ð³Ð°": 6093,
      "ĠÑĢÐ°Ð±Ð¾ÑĤÐ°ÑĤÑĮ": 6094,
      "Ġadded": 6095,
      "ÑģÑĤÐ²ÑĥÐµÑĤ": 6096,
      "ÑĢÐ¾Ð²Ð°Ð½Ð¸Ðµ": 6097,
      "Ġbit": 6098,
      "Ġactive": 6099,
      "ĠÃ": 6100,
      "ĊĊ": 6101,
      "Ġstra": 6102,
      "Ð¾Ð½ÑĤ": 6103,
      "ĠÐºÐ°ÑĢÑĤÐ¸": 6104,
      "Ġspeed": 6105,
      "ĠÑģÐ½Ð°": 6106,
      "Ġfast": 6107,
      "Ð¶Ð°": 6108,
      "ĠSch": 6109,
      "ius": 6110,
      "Ġdecision": 6111,
      "ecause": 6112,
      "ĠÐ³ÐµÐ½ÐµÑĢÐ°": 6113,
      "Ð¾ÑĢÑĭ": 6114,
      "ÐļÐ¾Ð³Ð´Ð°": 6115,
      "ĠÐ¾Ð·Ð½Ð°ÑĩÐ°ÐµÑĤ": 6116,
      "ĠÐºÑĢÐµÐ¿": 6117,
      "ĠFrom": 6118,
      "Ġcrucial": 6119,
      "Ġcentral": 6120,
      "¾ÑĨ": 6121,
      "ĠÑģÐ²Ð¾ÐµÐ¼": 6122,
      "ĠJan": 6123,
      "ĠÑĥÑĩÐµÐ½": 6124,
      "Ġpractices": 6125,
      "Ġthus": 6126,
      "Ġtable": 6127,
      "Ġ2007": 6128,
      "ĠÑįÐ¼Ð¾": 6129,
      "Ġproviding": 6130,
      "Ġestim": 6131,
      "Ġinstead": 6132,
      "ĠEss": 6133,
      "On": 6134,
      "Ġwebsite": 6135,
      "ellig": 6136,
      "Ġchoose": 6137,
      "rate": 6138,
      "¾ÑĢÐ°Ð·": 6139,
      "Ð¾ÑĢÐ°Ð·": 6140,
      "Ġsevere": 6141,
      "den": 6142,
      "ĠÑģÐµÐ²ÐµÑĢ": 6143,
      "vert": 6144,
      "Ð°ÐºÐ¸": 6145,
      "ĠÑĢÐµÐºÐ¾Ð¼ÐµÐ½": 6146,
      "ĠSystem": 6147,
      "Ġbroad": 6148,
      "ĠÐ·Ð°Ð±Ð¾Ð»ÐµÐ²Ð°Ð½Ð¸Ñı": 6149,
      "ĠÐ¿ÑĢÐ°Ð²Ð": 6150,
      "ĠÐ¸ÑĤÐ¾Ð³": 6151,
      "ĠEuropean": 6152,
      "Ð¾Ð»Ð¾Ð³Ð¸Ñı": 6153,
      "ĠSm": 6154,
      "ÑģÑĤÐ²ÐµÐ½Ð½Ð¾Ðµ": 6155,
      "ĠÐ¿Ð¾Ð¿ÑĥÐ»ÑıÑĢ": 6156,
      "OS": 6157,
      "ĠÐ´ÐµÐºÐ°Ð±": 6158,
      "ĠÐ¾Ð±ÑīÐµÑģÑĤÐ²Ð°": 6159,
      "ĠÐ¿ÑĢÐµÐ´Ð¿Ð¾Ñĩ": 6160,
      "Ġwaste": 6161,
      "Ġfoot": 6162,
      "ÑģÑĤÐ²ÐµÐ½Ð½ÑĭÐ¼": 6163,
      "Ġguide": 6164,
      "son": 6165,
      "Ġbad": 6166,
      "ĠInternational": 6167,
      "Ġquite": 6168,
      "ĠJew": 6169,
      "ĠÐŁÑĢÐµÐ´": 6170,
      "ĠÑģÐ¿Ð°Ñģ": 6171,
      "Ġeye": 6172,
      "ĠÐ¸Ð½Ð¾Ð³Ð´Ð°": 6173,
      "itis": 6174,
      "Ġcommunities": 6175,
      "ÑģÑĤÑĢ": 6176,
      "Ð¿Ðµ": 6177,
      "ĠCount": 6178,
      "ĠÐ´ÑĥÑħÐ¾Ð²": 6179,
      "Ġattack": 6180,
      "Ġmole": 6181,
      "ĠÐ·Ð°Ð½Ð¸Ð¼": 6182,
      "Ð½Ð¸Ð»": 6183,
      "ĠÐ¿ÑĢÐ°Ð²Ð¾": 6184,
      "Ġfit": 6185,
      "Ġhar": 6186,
      "ĠÑĥÐ¿Ð¾ÑĤÑĢÐµÐ±": 6187,
      "ĠÐ½ÑĢÐ°Ð²": 6188,
      "Ġtend": 6189,
      "ÐĺÑģÑĤ": 6190,
      "Ġautom": 6191,
      "ÑĩÐ½Ð¾Ð³Ð¾": 6192,
      "ÑģÑĥÑĢ": 6193,
      "back": 6194,
      "ĠMost": 6195,
      "ĠÐŃÑĤÐ¾ÑĤ": 6196,
      "inct": 6197,
      "ords": 6198,
      "Ð¾Ð¼ÐµÑĤ": 6199,
      "ĠÐ¾Ð´Ð½Ð¾Ð¼": 6200,
      "ÑģÐ¾Ð½": 6201,
      "Ġlo": 6202,
      "Ġgrade": 6203,
      "ĠÑģÑĥÑīÐµÑģÑĤÐ²ÑĥÐµÑĤ": 6204,
      "Ġleaves": 6205,
      "ĠÐ·Ð°ÐºÑĢÑĭ": 6206,
      "Ġtri": 6207,
      "Ð»Ð¸Ð½Ð°": 6208,
      "ĠÑĥÐ´Ð°Ð»Ð¾ÑģÑĮ": 6209,
      "ĠÑģÐ¸ÑģÑĤÐµÐ¼Ð°": 6210,
      "Ġlarger": 6211,
      "36": 6212,
      "ĠÐ·Ð½Ð°Ñİ": 6213,
      "Ġsituation": 6214,
      "ĠÑĦÐ¸Ð³": 6215,
      "ĠÐºÑĢÐ¾Ð²Ð¸": 6216,
      "Ġadj": 6217,
      "ĠÐ¸ÑģÑħÐ¾Ð´": 6218,
      "gn": 6219,
      "ĠÑģÐ¾Ð·Ð½Ð°": 6220,
      "ĠÐ½Ð¾Ð¼": 6221,
      "Ġexact": 6222,
      "IT": 6223,
      "ÑĥÑĢÐ³": 6224,
      "Ġcapac": 6225,
      "ĠÑĢÐ°Ð±Ð¾ÑĤÐµ": 6226,
      "ĠÐ´ÑĢÐ°": 6227,
      "Ġep": 6228,
      "Ġtit": 6229,
      "Ġacad": 6230,
      "ÑĥÐ±Ð»Ð¸ÐºÐ¾Ð²": 6231,
      "equ": 6232,
      "ĠÐ´ÑĢÑĥÐ³Ð¸Ð¼Ð¸": 6233,
      "Ð°ÐºÐ°": 6234,
      "ĠÑĥÐ½Ð¸ÑĩÑĤÐ¾Ð¶": 6235,
      "Ð·Ð¸Ð¸": 6236,
      "ÑıÐ»Ð¸": 6237,
      "ĠIndian": 6238,
      "Ġblock": 6239,
      "Ġder": 6240,
      "ogen": 6241,
      "ĠÐ¿ÑĢÐ¸Ð±Ñĭ": 6242,
      "ĠÐ±Ð¾Ñı": 6243,
      "ĠÐ´ÐµÐ²ÑĥÑĪ": 6244,
      "Ġfeet": 6245,
      "ceed": 6246,
      "ĠÐ¾Ð´Ð½Ñĥ": 6247,
      "Ġdemand": 6248,
      "elt": 6249,
      "Ġinterp": 6250,
      "iber": 6251,
      "ĠÐ½ÐµÐ»ÑĮÐ·Ñı": 6252,
      "ĠÐ¼ÐµÐ´Ð¸ÑĨÐ¸": 6253,
      "Ð»Ð¸Ðº": 6254,
      "But": 6255,
      "Ð¸Ð²Ð¸Ð´": 6256,
      "ĠÐ±ÐµÐ·Ð¾Ð¿Ð°ÑģÐ½Ð¾ÑģÑĤÐ¸": 6257,
      "ÐŁÐ¾Ð´": 6258,
      "ĠâĦĸ": 6259,
      "Ġappropriate": 6260,
      "ÐºÐ¸Ð¼Ð¸": 6261,
      "ĠÑĥÐ·Ð½Ð°": 6262,
      "where": 6263,
      "ÑĢÐ¸Ð´": 6264,
      "ĠÐ½Ð°Ñĥ": 6265,
      "Ġcosts": 6266,
      "ĠInc": 6267,
      "ĠÑģÑħ": 6268,
      "ĠÐ¾ÑĩÐµÑĢÐµÐ´ÑĮ": 6269,
      "Ġtrees": 6270,
      "Ġassign": 6271,
      "ĠÑģÑĤÐ¾ÑĢÐ¾Ð½": 6272,
      "Ð½Ð°ÑĩÐ°Ð»Ð°": 6273,
      "AL": 6274,
      "ĠÐ¿ÑĢÐµÐºÑĢÐ°Ñģ": 6275,
      "uous": 6276,
      "Ð¾Ð½Ð°Ñħ": 6277,
      "Ġlimited": 6278,
      "ĠÐ¸Ð½ÑģÑĤÑĢÑĥ": 6279,
      "Ġexpect": 6280,
      "Ġbase": 6281,
      "ÑģÐ¾Ð¼": 6282,
      "Ġbehavi": 6283,
      "ĠÑģÐ¸Ð³Ð½Ð°": 6284,
      "Ġdiabetes": 6285,
      "pite": 6286,
      "Ġbehind": 6287,
      "ĠÑģÑĬ": 6288,
      "ÑĩÐ½ÑĭÐ¹": 6289,
      "ÑĢÐµÐ´ÐµÐ»": 6290,
      "uman": 6291,
      "ula": 6292,
      "ÑĩÑĤÐ¾": 6293,
      "ÑĢÐ°Ð·Ð´": 6294,
      "osition": 6295,
      "Ð»Ð°Ð²Ð°": 6296,
      "ĠÐ¿ÑĢÐ¾Ð¸ÑģÑħÐ¾Ð´": 6297,
      "ÑıÑĤÐ¸Ðµ": 6298,
      "Ġones": 6299,
      "Ð¿Ð¾Ð»Ð½Ðµ": 6300,
      "Ð½Ð¾Ð·": 6301,
      "itect": 6302,
      "ĠÐ¿ÑĢÐ°ÐºÑĤÐ¸ÑĩÐµÑģÐºÐ¸": 6303,
      "Is": 6304,
      "ÑĦÐ¾ÑĢÐ¼Ð¸": 6305,
      "ĠMon": 6306,
      "ĠÐ¸Ð³ÑĢÑĭ": 6307,
      "Ġhor": 6308,
      "ops": 6309,
      "ĠÐĲÐ¼ÐµÑĢ": 6310,
      "Ð½Ð¾Ð¿": 6311,
      "ÐµÐºÑĤÐ¾Ð²": 6312,
      "ĠÑĦÐ¸Ð½Ð°Ð½ÑģÐ¾Ð²": 6313,
      "ÑĢÐ¸ÑĤÐ°Ð½": 6314,
      "Ð¾ÑĩÐºÐ¸": 6315,
      "Ġcred": 6316,
      "ĠÐºÐ¾Ð¿": 6317,
      "ĠFrench": 6318,
      "Ġmix": 6319,
      "ky": 6320,
      "Ġconnect": 6321,
      "eks": 6322,
      "ĠÐ»Ð¸ÑĪ": 6323,
      "ÑĢÐ°Ð³": 6324,
      "Ð¾Ð´Ñĥ": 6325,
      "Ð¡ÑĤ": 6326,
      "ĠÐ½Ð¾Ð²ÑĭÐ¹": 6327,
      "Ð²Ð°Ð¶": 6328,
      "ĠÑĥÐ¼ÐµÑĢ": 6329,
      "ĠÑģÑĤÑĢÐ°Ð½Ðµ": 6330,
      "!!": 6331,
      "rical": 6332,
      "ÑĥÑĤÑĮ": 6333,
      "ĠÐ¿ÑĢÐµÐ´ÑģÑĤÐ°Ð²Ð»ÑıÐµÑĤ": 6334,
      "uary": 6335,
      "ĠÐ½Ð¾Ñĩ": 6336,
      "ĠÑĪÐ¸ÑĢÐ¾Ðº": 6337,
      "Ġhost": 6338,
      "ĠÑĢÐ°Ð¼": 6339,
      "Ġyourself": 6340,
      "Ġbeaut": 6341,
      "ĠAfrica": 6342,
      "Ġmath": 6343,
      "ĠÐ¿Ð¾ÑģÑĤÐ¾ÑıÐ½Ð½Ð¾": 6344,
      "ĠÑģÐ¾Ð±ÑĢÐ°": 6345,
      "ÑīÐµÑģÑĤÐ²Ð¾": 6346,
      "ĠÐ±Ð»Ð°Ð³Ð¾Ð´Ð°ÑĢÑı": 6347,
      "Ġcapital": 6348,
      "wise": 6349,
      "ÑģÑĤÑĢÐ¾Ð¹": 6350,
      "Ġchallenges": 6351,
      "Ð°ÑīÐµ": 6352,
      "Ġancient": 6353,
      "ĠÑĤÑıÐ¶ÐµÐ»": 6354,
      "ĠChild": 6355,
      "Ġhot": 6356,
      "iers": 6357,
      "ĠÐ¿ÑĥÑģÑĤ": 6358,
      "ĠÑĥÑģÐ¿ÐµÑĪ": 6359,
      "Ġtherapy": 6360,
      "Ġmom": 6361,
      "rehens": 6362,
      "Ġbeginning": 6363,
      "ĠÐ¸Ð³ÑĢÐ¾Ðº": 6364,
      "ille": 6365,
      "ĠÑĤÐµÐ»ÐµÑĦ": 6366,
      "Ġstrength": 6367,
      "Ð½Ð¸ÑĨÐµ": 6368,
      "ĠÑĤÐ°": 6369,
      "ĠÑħÐ¾Ð»Ð¾Ð´": 6370,
      "ĠÐ¿ÑĢÐµÐ·Ð¸Ð´ÐµÐ½ÑĤ": 6371,
      "Ð½ÑİÑİ": 6372,
      "Ġcode": 6373,
      "Ġsea": 6374,
      "ÑĩÐ½ÑĭÐµ": 6375,
      "rag": 6376,
      "ĠÑģÐ»ÑĥÑĩÐ°ÑıÑħ": 6377,
      "Ð¼Ð¸Ð½": 6378,
      "ĠÐ¿ÑĢÐ¾ÑĪÐ»": 6379,
      "Ð¿ÑĢÐµ": 6380,
      "iles": 6381,
      "Ġimmedi": 6382,
      "ĠÐ·Ð°Ð²Ð¸Ñģ": 6383,
      "ÑĢÐ¾Ð¸Ð·": 6384,
      "ica": 6385,
      "ĠÐ¿ÑĢÐµÐ¿Ð°ÑĢÐ°": 6386,
      "Ġsn": 6387,
      "ĠÐ¿ÑĢÑıÐ¼Ð": 6388,
      "ĠÐ¿ÑĢÑıÐ¼Ð¾": 6389,
      "ĠHistory": 6390,
      "vest": 6391,
      "Ġearl": 6392,
      "Ð¾ÑĨ": 6393,
      "ĠÑģÐ¸ÑĤÑĥÐ°ÑĨÐ¸Ð¸": 6394,
      "Ġsteps": 6395,
      "Ġnews": 6396,
      "Ð·Ð½Ð°Ñĩ": 6397,
      "mission": 6398,
      "ĠÑģÐ»ÐµÐ´Ð¾Ð²": 6399,
      "oe": 6400,
      "Ð¼ÐµÐ½Ð½Ð¾": 6401,
      "Ġlabor": 6402,
      "ĠÐ¿Ð¾Ð·Ð´": 6403,
      "Pro": 6404,
      "ĠÐ»Ð¾Ð¶": 6405,
      "ĠÐĲÐ»": 6406,
      "ĠÐ±ÐµÐ´": 6407,
      "75": 6408,
      "ÑĩÐµÐ²": 6409,
      "ÑĪÐ°": 6410,
      "Ġdevice": 6411,
      "Ð°ÐºÐ¾Ð²": 6412,
      "yond": 6413,
      "ĠÐºÐ¾Ð¼Ð¼Ñĥ": 6414,
      "Ġcomponents": 6415,
      "ĠÑıÐ½Ð²Ð°": 6416,
      "ĠGoogle": 6417,
      "Ġdoctor": 6418,
      "ĠÐºÐ°Ð¿": 6419,
      "ĠÐ´ÑĢÑĥÐ·": 6420,
      "ĠÑĤÑĥÑĢ": 6421,
      "ĠJu": 6422,
      "Ġnation": 6423,
      "ĠÐ°Ð¿ÑĢÐµ": 6424,
      "78": 6425,
      "Ġsus": 6426,
      "ĠÐ¢Ñĭ": 6427,
      "Ġveh": 6428,
      "edia": 6429,
      "ĠÐ½Ð°ÑģÐµÐ»ÐµÐ½Ð¸Ñı": 6430,
      "ĠAug": 6431,
      "Ġdifferences": 6432,
      "ĠAnt": 6433,
      "38": 6434,
      "ĠÐ»Ð¾Ð³": 6435,
      "Ġsugar": 6436,
      "ĠÑģÑĢÐµÐ´ÑģÑĤÐ²": 6437,
      "Ġmodels": 6438,
      "ĠÐ½Ð¸Ð¶Ðµ": 6439,
      "Ġprobably": 6440,
      "ĠÑĨÐµÐ»ÑĮÑİ": 6441,
      "Ġast": 6442,
      "ĠÐ±ÑĥÐ´ÑĥÑī": 6443,
      "ÑĤÐ¾ÑĢÑĭ": 6444,
      "ÐµÐºÐ°": 6445,
      "ĠÐ·Ð°ÑıÐ²Ð¸Ð»": 6446,
      "ĠÑĦÐ¸Ð»Ð¾ÑģÐ¾ÑĦ": 6447,
      "Ġproperties": 6448,
      "rance": 6449,
      "Ġprotection": 6450,
      "ĠÐ¾Ð·": 6451,
      "ĠÎ": 6452,
      "Ġestablished": 6453,
      "ĠÐ²ÐºÑĥ": 6454,
      "ĠFirst": 6455,
      "Ġstrategies": 6456,
      "cean": 6457,
      "ĠÐ·Ð½Ð°ÐºÐ¾Ð¼": 6458,
      "Ð¾Ð´Ñĭ": 6459,
      "Ġinstall": 6460,
      "ĠÐ¿ÑĢÐ¸Ð¼ÐµÑĢÐ½Ð¾": 6461,
      "ube": 6462,
      "Ġroad": 6463,
      "Ð°ÑİÑīÐ¸Ñħ": 6464,
      "Ġbirth": 6465,
      "time": 6466,
      "ĠÑħÑĢÐ°": 6467,
      "Ġequipment": 6468,
      "ĠÐ¾ÑĤÐ»Ð¸ÑĩÐ°": 6469,
      "ÐŀÐ½": 6470,
      "ĠMod": 6471,
      "ÐµÑĢÐ¸Ð¸": 6472,
      "ĠÑģÑģÑĭÐ»": 6473,
      "Ġgoal": 6474,
      "ĠÐ´Ð°Ð»ÑĮÐ½ÐµÐ¹": 6475,
      "Ġworksheets": 6476,
      "ĠÐºÐ°Ð¶Ð´Ð¾Ð³Ð¾": 6477,
      "ÐµÐ½Ð½Ð¾ÑģÑĤÑĮ": 6478,
      "Ð³Ð¸ÑģÑĤ": 6479,
      "ÑĨÐ°ÑĤÑĮ": 6480,
      "ĠÑģÑĥÐ¿": 6481,
      "Ġorganization": 6482,
      "Ð²ÑĢÐ¾Ð¿ÐµÐ¹": 6483,
      "Ĥ¬": 6484,
      "ĠÐ³Ð¾Ð²Ð¾ÑĢÐ¸ÑĤÑĮ": 6485,
      "ÐºÐ¾ÑĢÐµÐµ": 6486,
      "Ð¸Ð³ÑĢÐ°": 6487,
      "ĠÐŁÐµÑĢÐ²": 6488,
      "ĠÑģÑİ": 6489,
      "ĠÐ¿ÑĢÐ¾ÑıÐ²": 6490,
      "ĠFran": 6491,
      "ĠÑĢÐµÐ±ÐµÐ½ÐºÐ°": 6492,
      "ĠÐ¼ÑĭÑģÐ»Ð¸": 6493,
      "Ġstyle": 6494,
      "ĠÑĢÐ°Ð·Ð¼ÐµÑĢ": 6495,
      "Ġstage": 6496,
      "ĠÑģÐ¾Ð¼": 6497,
      "Ð°Ð½Ð½Ð¾Ðµ": 6498,
      "Ġexplore": 6499,
      "Ġrates": 6500,
      "Ġminutes": 6501,
      "ĠÐ¸Ð½ÑĦÐ¾ÑĢÐ¼Ð°ÑĨÐ¸Ñİ": 6502,
      "Ġball": 6503,
      "ĠOther": 6504,
      "ĠÑģÐµÐ·": 6505,
      "ĠSw": 6506,
      "ÐµÐ²Ð°": 6507,
      "ĠÑĩÐ°ÑģÑĤÐ½Ð¾ÑģÑĤÐ¸": 6508,
      "Ð°Ð¼Ð°": 6509,
      "Ð´Ð°Ð»Ð¸": 6510,
      "cks": 6511,
      "ÐµÐ¼Ð°ÑĤ": 6512,
      "Ð°ÐºÐ¾Ð½": 6513,
      "cohol": 6514,
      "ĠÐĴÐ°ÑĪ": 6515,
      "Ġgain": 6516,
      "uries": 6517,
      "Ġinitial": 6518,
      "Ġmachine": 6519,
      "Ġliterature": 6520,
      "ridge": 6521,
      "Ð¾ÑģÑĤÐ¾ÑıÑĤÐµÐ»ÑĮ": 6522,
      "ĠÐ¼Ð¾ÑĤ": 6523,
      "Ġ35": 6524,
      "ĠÐ·Ð½Ð°ÑĩÐ¸ÑĤ": 6525,
      "ĠÑģÐ¾ÑģÑĤÐ¾ÑıÐ½Ð¸Ð¸": 6526,
      "resh": 6527,
      "head": 6528,
      "Ġagree": 6529,
      "ĠÐ¿ÑĢÐ¾Ð³ÑĢÐ°Ð¼Ð¼": 6530,
      "Ġund": 6531,
      "Ð½ÑĥÐ²": 6532,
      "bor": 6533,
      "ĠÐ¾ÑĤÐ½Ð¾ÑĪÐµÐ½Ð¸Ð¸": 6534,
      "gency": 6535,
      "omy": 6536,
      "Ð°ÑĤÐ¾Ð²": 6537,
      "Ġlargest": 6538,
      "ÐµÐ¼Ð¾Ð¹": 6539,
      "ĠÐ¿ÑıÑĤÑĮ": 6540,
      "34": 6541,
      "ĠÑģÐ°Ð¼Ð¾Ðµ": 6542,
      "ĠÐ°Ð½Ð°Ð»Ð¸Ð·": 6543,
      "uments": 6544,
      "Ð¸Ð·Ð¼": 6545,
      "Ġmemory": 6546,
      "set": 6547,
      "ĠÑģÐ¾ÑģÑĤÐ¾ÑıÐ½Ð¸Ðµ": 6548,
      "Ġfront": 6549,
      "Ġsymbol": 6550,
      "Ġprojects": 6551,
      "Ġnucle": 6552,
      "ĠÐ¾Ð¿ÑĭÑĤ": 6553,
      "Ġfriends": 6554,
      "Ġlegal": 6555,
      "Ġalthough": 6556,
      "ĠÐ²ÑģÑĤÑĢÐµÑĩÐ°": 6557,
      "Ġoffers": 6558,
      "Ad": 6559,
      "Ġmilitary": 6560,
      "ields": 6561,
      "ĠWrit": 6562,
      "ĠTrans": 6563,
      "ĠÐ¾Ð¿ÑĢÐµÐ´ÐµÐ»Ð¸": 6564,
      "oming": 6565,
      "ĠÐ²Ð¾Ð»Ð¾Ñģ": 6566,
      "Ġult": 6567,
      "ĠÐ¾Ð¶Ð¸Ð´Ð°": 6568,
      "ĠÐ·Ð°Ð¿Ð°Ð´": 6569,
      "ÐµÐ¼ÑĭÐ¹": 6570,
      "ĠÑĥÑĩÐ°ÑģÑĤÐ¸Ðµ": 6571,
      "'re": 6572,
      "Ġusers": 6573,
      "pper": 6574,
      "ĠÐ²Ð¾Ð¾ÑĢÑĥÐ¶": 6575,
      "imin": 6576,
      "ĠÐ±Ð¾ÐµÐ²": 6577,
      "Ġdat": 6578,
      "iples": 6579,
      "ulated": 6580,
      "ĠChar": 6581,
      "ÑĨÐ¸Ð¾Ð½Ð½Ð¾Ð¹": 6582,
      "Ð¸Ð¼Ð¾ÑģÑĤÑĮ": 6583,
      "Ġcry": 6584,
      "Ġpoly": 6585,
      "ĠÐ¾ÑĢÐ³": 6586,
      "Ġlines": 6587,
      "Ġthous": 6588,
      "uit": 6589,
      "Ġimages": 6590,
      "Ġvisual": 6591,
      "ĠÑĤÑĢÐµÐ½Ð¸": 6592,
      "omp": 6593,
      "ĠÑģÐ»Ð¾Ð²Ð": 6594,
      "ĠÑģÐ»Ð¾Ð²Ð¾": 6595,
      "Ġdark": 6596,
      "Ð¾ÑĩÐµÐ¼Ñĥ": 6597,
      "Ġuser": 6598,
      "Ð»Ð¸Ð¸": 6599,
      "Ð²ÐµÑĢÐ³": 6600,
      "Ġadop": 6601,
      "Ð°ÑĢÐ´": 6602,
      "ĠÐºÐ°Ð¶ÐµÑĤÑģÑı": 6603,
      "Ð¼Ð°Ñħ": 6604,
      "Ġmax": 6605,
      "Ġeffic": 6606,
      "Ġsequ": 6607,
      "ĠMus": 6608,
      "ĠÐ·Ð°Ð²Ð¸ÑģÐ¸Ð¼Ð¾ÑģÑĤÐ¸": 6609,
      "Ġexplain": 6610,
      "ÑĥÐ´Ð¾Ð²": 6611,
      "ÑĢÐ¾Ð³": 6612,
      "ĠGree": 6613,
      "Ġlocated": 6614,
      "iar": 6615,
      "ĠÐĹÐµÐ¼": 6616,
      "pril": 6617,
      "Ġreasons": 6618,
      "Ð¼ÐµÐ½ÑĤÑĭ": 6619,
      "Ð¼Ð¸ÑĤ": 6620,
      "ÐŀÑģ": 6621,
      "Ġsold": 6622,
      "Ġtesting": 6623,
      "ĠSim": 6624,
      "bl": 6625,
      "Ġanx": 6626,
      "ĠÑĤÑĢÐ°Ð½ÑģÐ¿": 6627,
      "odies": 6628,
      "Ġgot": 6629,
      "Ġcompar": 6630,
      "ĠÑģÐ¾Ð¾ÑĤÐ²ÐµÑĤÑģÑĤÐ²Ð¸Ð¸": 6631,
      "Ġseason": 6632,
      "gy": 6633,
      "Ġestablish": 6634,
      "Ġconstruction": 6635,
      "ĠÑĦÑĢÐ¾Ð½": 6636,
      "Ġadminist": 6637,
      "amic": 6638,
      "Ġteacher": 6639,
      "iring": 6640,
      "ĠAlthough": 6641,
      "ĠÐºÑĢÐ¾Ð¼Ðµ": 6642,
      "ĠAfrican": 6643,
      "Ġefficient": 6644,
      "inese": 6645,
      "Ġhyp": 6646,
      "ĠDay": 6647,
      "Ġcommonly": 6648,
      "ĠÐ¿ÑĢÐ¸ÐµÐ¼": 6649,
      "Ð°ÑĢÑĭ": 6650,
      "ensity": 6651,
      "ĠÑģÑĤÐ°Ð´": 6652,
      "Ġ)": 6653,
      "ĠÐºÐ¾Ð³Ð¾": 6654,
      "ample": 6655,
      "¾ÐµÐ´Ð¸Ð½": 6656,
      "Ð¾ÐµÐ´Ð¸Ð½": 6657,
      "ÑĪÑĥÑİ": 6658,
      "ĠÐ´ÑĢÑĥÐ³Ð¸Ð¼": 6659,
      "Ġtests": 6660,
      "Ġjo": 6661,
      "Ġadults": 6662,
      "ÐµÐ¹Ð½": 6663,
      "ÑįÐ¹": 6664,
      "Ġegg": 6665,
      "ÐµÑĪÐµ": 6666,
      "EC": 6667,
      "ĠHer": 6668,
      "Ġfamilies": 6669,
      "ĠÐ¿ÑĢÐ¾Ð¼ÑĭÑĪ": 6670,
      "Ġbreat": 6671,
      "ĠÑģÑĦ": 6672,
      "Ð»Ð¸ÑĤ": 6673,
      "Ġdescribed": 6674,
      "Ġcateg": 6675,
      "Ġsample": 6676,
      "Ġnovel": 6677,
      "ĠÐ¿ÑĢÐ¸ÑģÑĥÑĤÑģÑĤÐ²": 6678,
      "Ġreach": 6679,
      "rie": 6680,
      "Ġcool": 6681,
      "Ġcolon": 6682,
      "ĠÐĲÑĦ": 6683,
      "Ġmeasures": 6684,
      "Ġdepend": 6685,
      "Ð³Ð¾Ðµ": 6686,
      "Ð±Ð¾Ð»": 6687,
      "Ð°ÐºÑĤ": 6688,
      "ĠAre": 6689,
      "ĠEducation": 6690,
      "ĠÑģÐ¸Ð»ÑĮÐ½Ð¾": 6691,
      "ĠÑĥÑģÐ»Ñĥ": 6692,
      "ĠÑĢÐµÐ¿": 6693,
      "ĠÐ¿Ð¾Ð½ÑıÑĤÑĮ": 6694,
      "Ġconflic": 6695,
      "Ġsoon": 6696,
      "ĠÑģÑĤÐ°Ð½Ð´Ð°ÑĢ": 6697,
      "Ġ2006": 6698,
      "alking": 6699,
      "lamm": 6700,
      "ĠÐ¾Ð±ÑĬÑıÐ²": 6701,
      "ĠÑģÐ²Ð¾Ð¸Ð¼Ð¸": 6702,
      "cil": 6703,
      "ĠÐ´ÐµÐ½ÑĮÐ³Ð¸": 6704,
      "ĠÐ±Ð¾Ð³Ð°ÑĤ": 6705,
      "ĠÐ½Ð°Ð¹Ð´": 6706,
      "ĠÑģÐ°Ð¼Ð¾Ð¹": 6707,
      "ÑĢÐµÐ´Ð¸": 6708,
      "39": 6709,
      "Ġshape": 6710,
      "ÑĢÐ¾ÑĢ": 6711,
      "ÑĨÐ¸Ð¾Ð½Ð½ÑĭÑħ": 6712,
      "ĠÐ¼Ð°ÐºÑģÐ¸Ð¼": 6713,
      "ashing": 6714,
      "Ġhabit": 6715,
      "Ġeating": 6716,
      "ÑĤÐ°Ñħ": 6717,
      "ÑĨÐ¸ÑıÑħ": 6718,
      "ĠÑĢÐµÑģÑĥÑĢ": 6719,
      "Ġgives": 6720,
      "Ġtalk": 6721,
      "ĠÐĴÐ°Ñģ": 6722,
      "Ġbecomes": 6723,
      "Ġteeth": 6724,
      "ÐµÑĢÐºÐ¾Ð²": 6725,
      "ĠÑĦÐµÐ²": 6726,
      "ĠÐ´Ð¾Ð»Ð³": 6727,
      "ĠÑĢÑıÐ´Ð¾Ð¼": 6728,
      "ĠÐ¿ÑĢÐ¾Ð³ÑĢÐ°Ð¼Ð¼Ñĭ": 6729,
      "ception": 6730,
      "bit": 6731,
      "Ġhands": 6732,
      "ibrary": 6733,
      "osy": 6734,
      "So": 6735,
      "Ġstru": 6736,
      "Ġcold": 6737,
      "ĠCenter": 6738,
      "ĠÐ¸ÑģÐ¿Ð¾Ð»ÑĮÐ·Ð¾Ð²Ð°Ð½Ð¸Ñı": 6739,
      "hemat": 6740,
      "Ġagricult": 6741,
      "Ġdeal": 6742,
      "ĠOct": 6743,
      "Ġwa": 6744,
      "Ð½Ð¸Ð¼Ð°ÑĤÑĮ": 6745,
      "ĠÐ°Ð²Ð¸": 6746,
      "ĠÑĤÐµÐºÑģÑĤ": 6747,
      "Ġunit": 6748,
      "Ð¸Ð²Ð°Ð»": 6749,
      "ÑĩÐ¸Ð½Ð°": 6750,
      "ĠÑĢÐ°Ð·Ð²Ð¸ÑĤÐ¸Ðµ": 6751,
      "ĠÐ¾ÑĤÐ½Ð¾ÑģÐ¸ÑĤÐµÐ»ÑĮÐ½Ð¾": 6752,
      "Ġbacteria": 6753,
      "Ġproperty": 6754,
      "ĠÐ´Ð¸Ð²": 6755,
      "Ġfinal": 6756,
      "ĠÐ¶Ð¸Ð´": 6757,
      "Ġperfect": 6758,
      "ĠGerman": 6759,
      "Ġweeks": 6760,
      "ĠJournal": 6761,
      "ĠÐ²Ð¿Ð¾Ð»Ð½Ðµ": 6762,
      "Ġchoice": 6763,
      "100": 6764,
      "ĠÑģÑĤÐ¾ÑĢÐ¾Ð½Ñĥ": 6765,
      "Ġheld": 6766,
      "overy": 6767,
      "Ġcarry": 6768,
      "ĠInst": 6769,
      "ĠÑĢÐ°Ð±Ð¾ÑĤÐ°ÐµÑĤ": 6770,
      "Ġcra": 6771,
      "44": 6772,
      "ĠÑĤÐ°Ð¹": 6773,
      "ĠÐ¡ÐµÐ²ÐµÑĢ": 6774,
      "Ð¹ÑĤÐµÑģÑĮ": 6775,
      "ĠÐ¿ÑĢÐ¾ÑĦÐµÑģÑģÐ¸": 6776,
      "ĠÑĦÐ¾ÑĢÐ¼Ñĭ": 6777,
      "ĠÐ³Ð³": 6778,
      "ĠÐ¤ÐµÐ´": 6779,
      "ĠÐ»ÐµÐ¶": 6780,
      "Ġinnov": 6781,
      "ĠÑĦÐ¾ÑĢÐ¼": 6782,
      "Ð·Ð°Ð¿": 6783,
      "Ð¸Ð»Ðµ": 6784,
      "sect": 6785,
      "ĠÐ´Ð¾Ð»Ð»Ð°ÑĢÐ¾Ð²": 6786,
      "cles": 6787,
      "ĠÑĥÐ´Ð°Ð»": 6788,
      "ĠUse": 6789,
      "ĠServ": 6790,
      "Ġpromot": 6791,
      "ÐµÐºÑģ": 6792,
      "ĠÑĢÐ¸ÑģÐº": 6793,
      "ÐĴÐ": 6794,
      "ĠDevelop": 6795,
      "iforn": 6796,
      "ĠInstitute": 6797,
      "ĠÐ½Ð°Ð·Ð²Ð°Ð½Ð¸Ðµ": 6798,
      "ĠÐ½Ð°ÑģÑĤÐ¾ÑıÑīÐµÐµ": 6799,
      "Ġcommunic": 6800,
      "ÐµÐ»Ðµ": 6801,
      "ĠÐ¿Ð°ÑĢÑĤÐ¸Ð¸": 6802,
      "anish": 6803,
      "Ġmiddle": 6804,
      "Ġtown": 6805,
      "Ġpurch": 6806,
      "ĠÐ¾ÑĤÐ²": 6807,
      "ĠÐ¶ÐµÐ½ÑīÐ¸Ð½": 6808,
      "Ġ<": 6809,
      "Ġfile": 6810,
      "Ð½Ð¾Ð²ÑĢÐµÐ¼ÐµÐ½Ð½Ð¾": 6811,
      "Ġresponsible": 6812,
      "Ġemp": 6813,
      "ĠÐ²ÑģÑĤÑĥÐ¿": 6814,
      "ĠÐ¼ÐµÑĩ": 6815,
      "65": 6816,
      "ÐĴÑģÐµ": 6817,
      "ĠBar": 6818,
      "Ġrapid": 6819,
      "Ġjud": 6820,
      "Ġsurround": 6821,
      "ĠÐ³ÑĥÐ±": 6822,
      "ĠIS": 6823,
      "ĠÑģÐ»Ð°Ð±": 6824,
      "Ġeconomy": 6825,
      "ÐµÐ½Ð½Ð¾Ð¼": 6826,
      "Ð¾ÑĤÐ¾ÑĢÑĭÐµ": 6827,
      "ĠÐºÐ¾Ð´": 6828,
      "ĠWindows": 6829,
      "Ġmis": 6830,
      "ĠÐ·Ð°Ð»": 6831,
      "ET": 6832,
      "Ġconsequ": 6833,
      "ste": 6834,
      "ĠÐ¿Ð¾Ð¼Ð¾ÑĩÑĮ": 6835,
      "unt": 6836,
      "ĠÐºÐ¾Ð»Ð»ÐµÐº": 6837,
      ".:": 6838,
      "Ġcele": 6839,
      "ÑģÐµÐ´": 6840,
      "Ġfight": 6841,
      "Ġcollection": 6842,
      "Ġprice": 6843,
      "undred": 6844,
      "Ġaffected": 6845,
      "Ġrespond": 6846,
      "ĠÐ´ÐµÐ»Ð°ÐµÑĤ": 6847,
      "Ġfunctions": 6848,
      "32": 6849,
      "ĠAI": 6850,
      "Ġdecl": 6851,
      "ĠÐ·Ð°ÑħÐ²Ð°ÑĤ": 6852,
      "Ġdate": 6853,
      "ĠÑĦÑĥÑĤ": 6854,
      "ĠÐłÐ°": 6855,
      "Ġcou": 6856,
      "ĠÐ¸Ð½Ð´Ð¸Ð²Ð¸Ð´": 6857,
      "Ġnutri": 6858,
      "ÑģÑĤÐµÑĢ": 6859,
      "Ġconstant": 6860,
      "Ð¸Ð»Ñı": 6861,
      "estic": 6862,
      "Ġ2005": 6863,
      "ĠÑģÐ²Ð¸Ð´ÐµÑĤÐµÐ»ÑĮ": 6864,
      "ĠÐºÐ°ÑĤÐµÐ³": 6865,
      "ĠÐ¿ÑĥÑĤÑĮ": 6866,
      "ĠBi": 6867,
      "ĠÐºÐ½Ñı": 6868,
      "ĠÑģÐ¸Ð»Ð°": 6869,
      "ĠÑģÑĤÐ°ÑĢÐ°": 6870,
      "ĠÑģÐ»ÑĭÑĪ": 6871,
      "asks": 6872,
      "ÑĢÐ°Ð¼Ð¸": 6873,
      "Ġeyes": 6874,
      "¾Ñĥ": 6875,
      "haps": 6876,
      "Ġprivate": 6877,
      "ÐºÐ¾Ð±": 6878,
      "Ð¾Ñĥ": 6879,
      "ĠWest": 6880,
      "ĠMarch": 6881,
      "Ð»ÐµÑĩ": 6882,
      "Ġeverything": 6883,
      ".).": 6884,
      "ÐºÐ¸Ð½": 6885,
      "iable": 6886,
      "ĠÑĪÐ°Ð³": 6887,
      "Ð±ÐµÑĢ": 6888,
      "Ġpen": 6889,
      "ĠÐ´Ð²ÐµÑĢ": 6890,
      "ira": 6891,
      "Ġmention": 6892,
      "Ġrob": 6893,
      "ĠÐ·Ð°ÐºÐ¾Ð½Ñĩ": 6894,
      "ÐµÐºÑĤÑĭ": 6895,
      "ĠÑģÐ¸Ð»Ñĥ": 6896,
      "Ġvia": 6897,
      "ided": 6898,
      "ÑģÑĤÐ²Ð¾Ð²Ð°ÑĤÑĮ": 6899,
      "ĠÑıÐ·ÑĭÐºÐ°": 6900,
      "lim": 6901,
      "ÑĢÐ°ÑĤÐ¸ÑĤÑĮ": 6902,
      "ĠOur": 6903,
      "ĠÐ²ÐµÑģÑĮÐ¼Ð°": 6904,
      "ĠÐ¿ÐµÑĢÐ²Ð¾Ð³Ð¾": 6905,
      "These": 6906,
      "ĠÐĿÑĥ": 6907,
      "Ġcontroll": 6908,
      "ĠÑģÐ¾ÑģÑĤÐ¾Ð¸ÑĤ": 6909,
      "Ð¾ÑģÐ¿": 6910,
      "48": 6911,
      "Ġtrade": 6912,
      "ĠÑĪÑĤÐ°ÑĤ": 6913,
      "ĠFin": 6914,
      "Ð´ÑĥÐ¼": 6915,
      "Ġstatement": 6916,
      "ÑĤÐ°Ð±": 6917,
      "Ð²Ð°ÑİÑĤ": 6918,
      "ĠÐ·Ð°Ð¼ÐµÐ½": 6919,
      "hest": 6920,
      "Ġrules": 6921,
      "med": 6922,
      "atur": 6923,
      "rome": 6924,
      "37": 6925,
      "ĠRed": 6926,
      "ĠÐ²Ð°Ð¶Ð½Ð¾": 6927,
      "ests": 6928,
      "ÐĿÐĺ": 6929,
      "ĠÐ´ÑĢÑĥÐ³Ð°": 6930,
      "Ġbasis": 6931,
      "ĠÐ¿Ð¾Ð¼ÐµÑī": 6932,
      "ĠÐ´Ð¸Ð°Ð³": 6933,
      "AM": 6934,
      "ĠÐ¸Ð·Ð¾Ð±ÑĢÐµÑĤ": 6935,
      "ĠÐ»ÑİÐ±Ð¾Ð²": 6936,
      "ĠÐºÐ½Ð¸Ð³Ð¸": 6937,
      "ÑĩÐµÑģÐºÐ¸Ð¹": 6938,
      "Ð¸ÑĤÐµÐ»ÑĮÐ½ÑĭÐµ": 6939,
      "Ġrat": 6940,
      "ÑıÑĤÑĮÑģÑı": 6941,
      "Ð°Ð½Ð³": 6942,
      "ĠÐ¿Ð»Ð°Ð½Ð¸": 6943,
      "ĠÐ²ÑĭÐ¿ÑĥÑģÐº": 6944,
      "Ġroom": 6945,
      "ÑĪÐµÐ²": 6946,
      "Ð¸ÑĤÐµÑĤ": 6947,
      "Ġmount": 6948,
      "ÑĭÐ½Ðµ": 6949,
      "ĠÐ¢Ð°ÐºÐ¸Ð¼": 6950,
      "ĠÐµÐ´Ð¸": 6951,
      "Ġinsp": 6952,
      "ĠÐ¿ÑĢÐ¾Ð¸Ð·Ð²Ð¾Ð´ÑģÑĤÐ²Ð°": 6953,
      "ĠÐ²Ð¾Ð²": 6954,
      "And": 6955,
      "ÑĥÑģÐ»Ð¾Ð²": 6956,
      "Ġdegree": 6957,
      "ĠÑĩÐ¸ÑģÐ»Ð¾": 6958,
      "Ġrecommend": 6959,
      "ifornia": 6960,
      "ĠÐ²Ð¸Ð·": 6961,
      "Ġremains": 6962,
      "Ġlocation": 6963,
      "ĠÐ²Ð°ÑĢÐ¸Ð°Ð½": 6964,
      "Ġplat": 6965,
      "99": 6966,
      "ĠÐ¼Ð°Ð»Ð¾": 6967,
      "Ġpregn": 6968,
      "Ġpatterns": 6969,
      "Ð»ÑıÑĢ": 6970,
      "Ġgold": 6971,
      "ĠAut": 6972,
      "ĠÐ½ÐµÐ¿Ð¾ÑģÑĢÐµÐ´": 6973,
      "Ġplaces": 6974,
      "ÐµÐ¼Ð¾Ð³Ð¾": 6975,
      "Ġevalu": 6976,
      "By": 6977,
      "more": 6978,
      "ĠFl": 6979,
      "Ġscreen": 6980,
      "Ð½Ð¾ÑģÑĤÑĢÐ°Ð½": 6981,
      "ĠÐºÐ²Ð°ÑĢ": 6982,
      "ĠÑĤÐ¾ÑĩÐ½Ð¾": 6983,
      "Ġstri": 6984,
      "ĠÑıÐ·ÑĭÐº": 6985,
      "ĠÑħÐ¾ÑĤÐ¸ÑĤÐµ": 6986,
      "ÑĤÑĥÑĢÐµ": 6987,
      "Ġmob": 6988,
      "Ġworkers": 6989,
      "Ð¸Ð²Ð°ÐµÑĤÑģÑı": 6990,
      "ĠÑģÐ¸Ð¼Ð²Ð¾Ð»": 6991,
      "Ġsignificantly": 6992,
      "Ġpages": 6993,
      "illing": 6994,
      "Ġoccurs": 6995,
      "ĠÐ·Ð½Ð°Ð¼ÐµÐ½": 6996,
      "ĠÐ¼Ð°Ñı": 6997,
      "Ð¸ÑĤÐµÐ»ÑĮÐ½Ð¾ÑģÑĤÐ¸": 6998,
      "Ġrich": 6999,
      "Ġsch": 7000,
      "ĠÑĥÐ¼ÐµÐ½ÑĮÑĪ": 7001,
      "ĠÐ¶Ð¸Ð·Ð½": 7002,
      "Ð°ÐºÑĥ": 7003,
      "ÑĩÐµÑģÑĤÐ²Ð¾": 7004,
      "ĠÐ·Ð°Ð¿ÑĢÐµ": 7005,
      "Ġlaws": 7006,
      "ÑĢÐµÐ½Ð¸Ðµ": 7007,
      "PA": 7008,
      "ĠÐ´ÐµÐ»Ð°": 7009,
      "Ġreceive": 7010,
      "ĠÐ¢ÐµÐ¼": 7011,
      "arian": 7012,
      "ĠÑĦÐ¾ÑĢÐ¼Ðµ": 7013,
      "Ð°Ð½ÑĮ": 7014,
      "ĠÑģÐ°Ð¼Ð¾ÑģÑĤÐ¾ÑıÑĤÐµÐ»ÑĮ": 7015,
      "Ġassist": 7016,
      "outhern": 7017,
      "Ġanti": 7018,
      "gram": 7019,
      "ÑģÐ¾Ð»ÑİÑĤ": 7020,
      "Ð¸ÑĤÐ¾Ð²": 7021,
      "ĠÐ½Ð¸ÐºÑĤÐ¾": 7022,
      "Ġshall": 7023,
      "Ð»Ð¸ÑģÑĤ": 7024,
      "ĠÑĥÑĢÐ¾Ð²Ð½Ðµ": 7025,
      "ĠÐ³Ð¾ÑĢÐ¾Ð´Ðµ": 7026,
      "ĠÐ·Ð¾Ð»Ð¾ÑĤ": 7027,
      "ĠÑģÐ¾Ð²Ð¼ÐµÑģÑĤ": 7028,
      "Ġsigns": 7029,
      "esus": 7030,
      "ptember": 7031,
      "Ġbenefit": 7032,
      "ĠÑĦÐ¸Ð»ÑĮÐ¼": 7033,
      "ĠÐ¸Ð´ÐµÑĤ": 7034,
      "Ġelement": 7035,
      "Ð»Ð¾ÑĢ": 7036,
      "water": 7037,
      "ÑĢÐ°Ð¿": 7038,
      "ĠÐ±ÑĢÐ¾Ñģ": 7039,
      "ĠÐ¶Ð´": 7040,
      "rong": 7041,
      "ĠÐ»Ð¸ÑĨÐ°": 7042,
      "idents": 7043,
      "ĠÐĵÐµÑĢÐ¼Ð°Ð½Ð¸Ð¸": 7044,
      "ÑĢÐ¸Ð½": 7045,
      "clusion": 7046,
      "Ð°Ð»Ð¾Ð²": 7047,
      "ĠÑħÐ¾Ð·ÑıÐ¹": 7048,
      "ĠÐ²Ð»Ð°Ð´": 7049,
      "Ġrock": 7050,
      "do": 7051,
      "ĠÐ´ÐµÐ¹ÑģÑĤÐ²Ð¸Ð¹": 7052,
      "ĠÐ¼Ð°ÑģÑĤ": 7053,
      "Ġobjects": 7054,
      "Ġoptions": 7055,
      "Ph": 7056,
      "Ġexpected": 7057,
      "ĠÐºÐ»ÑĥÐ±": 7058,
      "Ġeveryone": 7059,
      "Ġsuccessful": 7060,
      "ĠÐ¶ÐµÑĢÑĤ": 7061,
      "ii": 7062,
      "ĠÐĳÐµÐ»": 7063,
      "ÑĢÐ¾ÑĪ": 7064,
      "cont": 7065,
      "%.": 7066,
      "Ð¸ÑĤÐµÐ»ÑĮÐ½Ð¾Ð¹": 7067,
      "ev": 7068,
      "ĠÐ¿ÑĥÐ±Ð»Ð¸": 7069,
      "Ġborn": 7070,
      "ĠÐ¿ÑĢÐ¾ÑıÐ²Ð»Ñı": 7071,
      "Ġnutrit": 7072,
      "ĠGra": 7073,
      "ĠÐ¾Ð±ÑĬÐµÐ´Ð¸Ð½": 7074,
      "ĠÑģÐºÐ¾Ð»ÑĮÐºÐ¾": 7075,
      "Ġbul": 7076,
      "Ġqual": 7077,
      "ĠÐ¿ÑĢÐ¸Ðº": 7078,
      "ĠÐ¿ÑĢÐµÐ´ÐµÐ»": 7079,
      "Ġweather": 7080,
      "ingu": 7081,
      "ĠÐ»Ð¸ÑĤÐµÑĢÐ°": 7082,
      "Ġpow": 7083,
      "ĠÐ´ÑĥÐ¼": 7084,
      "inf": 7085,
      "ĠÐ¾ÑĤÐºÑĢÑĭÑĤ": 7086,
      "ĠBlack": 7087,
      "Ġfactor": 7088,
      "Ġrare": 7089,
      "Ð¼Ð¸ÑĢÐ°": 7090,
      "Ð¾Ð¶Ð´ÐµÐ½Ð¸Ðµ": 7091,
      "Ġimag": 7092,
      "Ġpredict": 7093,
      "ĠÐºÐ¾ÑĢÐ¾ÑĤ": 7094,
      "ÑģÑĤÐ²Ð¾Ð²Ð°Ð»": 7095,
      "Ġlost": 7096,
      "Ġacqu": 7097,
      "Ġcenter": 7098,
      "ĠÐ½Ð¾Ð²Ð¾Ð³Ð¾": 7099,
      "ĠÑģÐ°Ð¼ÑĭÐ¹": 7100,
      "Ð°ÑĤÐµÐ»ÑĮÑģÑĤÐ²Ð°": 7101,
      "Ġwhose": 7102,
      "lin": 7103,
      "ÐµÐºÐ": 7104,
      "ÐµÐºÐ¾": 7105,
      "ux": 7106,
      "ĠÐ¾ÑģÐ½Ð¾Ð²Ð½Ð¾Ð¼": 7107,
      "Ð°Ð½Ð½ÑĭÐ¼": 7108,
      "Ġdead": 7109,
      "Ð°ÑĤÐµÐ»ÑĮÐ½ÑĭÑħ": 7110,
      "ĠÑĢÐ°Ð·Ð´": 7111,
      "Sh": 7112,
      "Ġgradu": 7113,
      "ĠHigh": 7114,
      "Ġsitu": 7115,
      "ĠÐºÐ¾ÑģÑĤ": 7116,
      "ÐłÐ°Ð·": 7117,
      "ĠÑĦÐµÐ²ÑĢÐ°": 7118,
      "ĠÐ¢Ð°ÐºÐ¶Ðµ": 7119,
      "ÑĥÑİÑīÐµÐ³Ð¾": 7120,
      "year": 7121,
      "ĠÐ¿Ð¾Ð»Ñĥ": 7122,
      "Ġhistorical": 7123,
      "ĠCommun": 7124,
      "--------": 7125,
      "ĠÐºÐ¾Ð»Ðµ": 7126,
      "ÑĪÐ»Ð°": 7127,
      "Ġcollege": 7128,
      "ĠÐ¿Ð¾ÑĤÐµÐ½": 7129,
      "Ð¸ÑĤÑĭ": 7130,
      "Ġscale": 7131,
      "Ġitems": 7132,
      "Ð¾Ð¶Ð½Ð¾": 7133,
      "ĠÑģÐ¾Ð¿ÑĢÐ¾Ð²": 7134,
      "Ġgoals": 7135,
      "ĠÐ²Ð»Ð°ÑģÑĤÑĮ": 7136,
      "Ġbalance": 7137,
      "Ð°Ð»ÑĥÐ¹": 7138,
      "ĠÐ»ÐµÑĩÐµÐ½Ð¸Ñı": 7139,
      "ĠÐ±ÐµÑģ": 7140,
      "Ġphilos": 7141,
      "Ġsect": 7142,
      "ĠMc": 7143,
      "ĠÑĢÐ°Ð½ÐµÐµ": 7144,
      "Ġopportunity": 7145,
      "ÑĤÐ¸Ð»": 7146,
      "Ġpowerful": 7147,
      "Ġfather": 7148,
      "ĠÑĢÑı": 7149,
      "US": 7150,
      "ÑĥÑĢÑĥ": 7151,
      "ĠÐ½Ñĥ": 7152,
      "Ġroot": 7153,
      "ĠPress": 7154,
      "Ð¼Ð¸ÑĤÐµ": 7155,
      "ÐµÐ´ÑĮ": 7156,
      "Ġord": 7157,
      "Ġreceived": 7158,
      "Ġelse": 7159,
      "PS": 7160,
      "ÑĦÐ¸Ðº": 7161,
      "ĠÐ¿ÐµÑĢÐµÐ½": 7162,
      "Ð¼Ð¾Ñģ": 7163,
      "ĠÐĽÑĥ": 7164,
      "Ġking": 7165,
      "Ġtask": 7166,
      "Ð¬": 7167,
      "ĠPol": 7168,
      "Ġapplied": 7169,
      "wide": 7170,
      "ĠÐ¿ÐµÑĢÑģÐ¾Ð½Ð°": 7171,
      "ĠÑģÑĥÑħ": 7172,
      "enge": 7173,
      "Ð»Ð¾Ð¿": 7174,
      "ĠAssoci": 7175,
      "oses": 7176,
      "orthern": 7177,
      "Ġsites": 7178,
      "ĠÐ¾Ð¿ÑĥÐ±Ð»Ð¸ÐºÐ¾Ð²": 7179,
      "ĠÐľÐ°Ðº": 7180,
      "Ð½ÑĥÑĤÑĮÑģÑı": 7181,
      "life": 7182,
      "Ð½ÑıÐµÑĤ": 7183,
      "phas": 7184,
      "ĠÑĨÐµÐ»Ð¾Ð¼": 7185,
      "Ġiron": 7186,
      "Ġenter": 7187,
      "ĠÐĳÐµÑĢ": 7188,
      "ĠÑħÐ¾Ð´Ðµ": 7189,
      "ĠÐ¿Ð¾ÑģÐ²": 7190,
      "ĠÐ¼Ð½Ð¾Ð¶ÐµÑģÑĤÐ²Ð¾": 7191,
      "ĠÐĹÐ°ÑĤÐµÐ¼": 7192,
      "ÐµÐ½Ð¸ÑıÑħ": 7193,
      "Ġfuel": 7194,
      "abilities": 7195,
      "Ġseems": 7196,
      "Ġcommer": 7197,
      "Ġvirt": 7198,
      "ĠÐ±ÑĥÐ¼Ð°": 7199,
      "Ð¸ÑĪÑĮ": 7200,
      "ÑĢÑĥÑĪÐµÐ½Ð¸Ñı": 7201,
      "Ð¸Ð¼Ð¾ÑģÑĤÐ¸": 7202,
      "Ġefforts": 7203,
      "ĠÐ´Ð²ÑĥÐ¼": 7204,
      "Ġexperiences": 7205,
      "ĠÐ¾ÑĤÐ²ÐµÑĤÑģÑĤÐ²ÐµÐ½": 7206,
      "Ġ45": 7207,
      "Ġrequirements": 7208,
      "ÑįÐº": 7209,
      "Ġsolutions": 7210,
      "EM": 7211,
      "While": 7212,
      "ĠÐ¡ÑĤÐ°": 7213,
      "ĠÐ½Ð°Ð·Ð²Ð°": 7214,
      "ĠÐ¿ÑĢÐ¸Ð²Ñĭ": 7215,
      "ĠÐ¿ÑĥÑĤÐµÐ¼": 7216,
      "ĠÐ½Ð°ÑĪÐ¸": 7217,
      "ĠÑįÐºÑģÐ¿ÐµÑĢÐ¸Ð¼": 7218,
      "Ð¸ÑģÐ°": 7219,
      "ĠÐ²ÑģÐº": 7220,
      "ero": 7221,
      "ĠÐºÐ¾Ð½ÐµÑĩ": 7222,
      "ĠÐ³Ð¾Ð´Ð¾Ð²": 7223,
      "rec": 7224,
      "ĠÐŃÑĤÐ°": 7225,
      "Ġinvolves": 7226,
      "Ð¾ÑĢÐ°Ð·Ð´Ð¾": 7227,
      "Ð¡Ð¢": 7228,
      "Ð»ÑĥÑĪ": 7229,
      "ĠÑģÐ¾ÑİÐ·": 7230,
      "Ġeducational": 7231,
      "tical": 7232,
      "VID": 7233,
      "ĠÐ³Ðµ": 7234,
      "Ð¸ÑĩÐµÑģÐºÐ¾Ð¼": 7235,
      "mosp": 7236,
      "ĠDepartment": 7237,
      "ĠAccording": 7238,
      "aul": 7239,
      "Ð½ÑıÐµÑĤÑģÑı": 7240,
      "ĠÐ¿ÐµÑĢÐµÐ¶": 7241,
      "ĠÑĢÐµÑģÐ¿": 7242,
      "ĠÐŀÑĢ": 7243,
      "Ġconvers": 7244,
      "ÑĨÐµÐ¼": 7245,
      "ĠÐ¼Ð¸Ð½Ð¸Ð¼": 7246,
      "Ġsummer": 7247,
      "ĠJune": 7248,
      "ĠÐ¸Ð·Ð²ÐµÑģÑĤÐ½Ð¾": 7249,
      "Ġtopics": 7250,
      "ĠÑĢÐ¸Ñģ": 7251,
      "Ð¶ÐµÐ½Ð¸Ðµ": 7252,
      "ĠÑģÐ¾Ð»Ð´": 7253,
      "ĠÐ¾ÑĤÐ¿": 7254,
      "Ġopportunities": 7255,
      "ÑıÑĩ": 7256,
      "ĠÑģÐ»Ð¾Ð²Ð°Ð¼": 7257,
      "used": 7258,
      "ÑıÑīÐ¸Ñħ": 7259,
      "ĠÐ¿ÑĢÐ¸Ð²ÐµÐ´": 7260,
      "odes": 7261,
      "Ġwent": 7262,
      "Ð¾ÑĢÐ¸": 7263,
      "ÑĢÐ°ÑģÑĤ": 7264,
      "Ġreligious": 7265,
      "Ġcharacteristics": 7266,
      "Ġrise": 7267,
      "Ġlimit": 7268,
      "ĠÐ·Ð½Ð°ÑĤÑĮ": 7269,
      "aught": 7270,
      "ĠÐĲÐ»ÑĮ": 7271,
      "Ð¼ÐµÐ½ÑĤÐ¾Ð²": 7272,
      "ĠÑĢÐ°Ð·Ð»Ð¸ÑĩÐ½ÑĭÐµ": 7273,
      "ĠÐ´Ð¾ÑħÐ¾Ð´": 7274,
      "ĠÑĢÐ°Ð·ÑĢÑĥÑĪ": 7275,
      "ocks": 7276,
      "Ġcontrast": 7277,
      "ĠÐ½Ð°ÑģÑĤÑĢÐ¾": 7278,
      "ĠÐ½ÐµÐ´ÐµÐ»": 7279,
      "ÐµÐ½Ð¸ÑıÐ¼Ð¸": 7280,
      "With": 7281,
      "ternal": 7282,
      "Ġ500": 7283,
      "Ð·Ð¼Ð°": 7284,
      "rees": 7285,
      "Ð½Ð¾Ð²ÑĮ": 7286,
      "ĠÐ´ÑĥÐ¼Ð°Ñİ": 7287,
      "Ġreduced": 7288,
      "Ð²Ð°Ð´": 7289,
      "Ġaspects": 7290,
      "Ġdetails": 7291,
      "Ġactions": 7292,
      "ĠÐ¿Ð°Ð»ÑĮ": 7293,
      "eal": 7294,
      "aid": 7295,
      "ĠMicro": 7296,
      "ocol": 7297,
      "Ġacademic": 7298,
      "Ġillust": 7299,
      "Ġexec": 7300,
      "Ġswe": 7301,
      "Ġstandards": 7302,
      "ĠAugust": 7303,
      "irection": 7304,
      "ÑĭÐ²Ð°Ð»Ð¸": 7305,
      "ching": 7306,
      "Ġbott": 7307,
      "ĠÐºÑĥÐ´Ð°": 7308,
      "Ġbeyond": 7309,
      "âĤ¬": 7310,
      "95": 7311,
      "**": 7312,
      "ĠÑĥÐ»ÑĥÑĩÑĪ": 7313,
      "que": 7314,
      "urg": 7315,
      "Ġpet": 7316,
      "Ġcomprehens": 7317,
      "At": 7318,
      "Ð»ÐµÑĤÐ²Ð¾ÑĢ": 7319,
      "Ġsett": 7320,
      "Ìģ": 7321,
      "Ġgames": 7322,
      "ĠÐ¿Ð¾ÑģÐ»ÐµÐ´Ð½Ð¸Ðµ": 7323,
      "ĠÑĢÐ°Ð±Ð¾ÑĤÐ°": 7324,
      "Why": 7325,
      "Ġpresence": 7326,
      "ĠÐ¿ÑĢÐ°Ð²Ð¸Ð»Ð°": 7327,
      "05": 7328,
      "Ġanything": 7329,
      "Ġmal": 7330,
      "ĠÐ¿Ð¾Ð¼Ð¾ÑīÑĮ": 7331,
      "ara": 7332,
      "ĠÑĥÐ´Ð¾Ð±": 7333,
      "Ġimmune": 7334,
      "Ġexposure": 7335,
      "Ġfear": 7336,
      "Ġdefined": 7337,
      "Ġcapacity": 7338,
      "Ġbrought": 7339,
      "Ġvict": 7340,
      "Ġinstru": 7341,
      "ĠÐ¼Ð¾Ðµ": 7342,
      "ÑĢÐµÑģÑĤ": 7343,
      "Ġhundred": 7344,
      "Ġaccur": 7345,
      "ĠÑģÐºÐ¾ÑĢÐµÐµ": 7346,
      "Ð½Ð¸ÐºÑĥ": 7347,
      "ĠCanada": 7348,
      "ĠÑĢÐ°Ð½ÑĮ": 7349,
      "mitted": 7350,
      "Ġgraph": 7351,
      "Ġsmaller": 7352,
      "Ð½Ð°Ð¼": 7353,
      "Ġolder": 7354,
      "Ġdisplay": 7355,
      "ĠÐ¸Ð½Ð¾ÑģÑĤÑĢÐ°Ð½": 7356,
      "Ð¾ÑģÑĤÐ¾Ðº": 7357,
      "Ġcam": 7358,
      "Ġcompletely": 7359,
      "ĠÐ¿ÐµÑĢÐ²ÑĥÑİ": 7360,
      "roid": 7361,
      "omb": 7362,
      "ĠÑħÐ¾ÑĩÑĥ": 7363,
      "Ġconstit": 7364,
      "ĠÑĢÐ°Ð½ÑĮÑĪÐµ": 7365,
      "ĠÐ¾ÑĢÐ³Ð°Ð½Ð¸Ð·Ð°": 7366,
      "ico": 7367,
      "ĠChinese": 7368,
      "ĠÐ´ÑĢÑĥÐ³Ð¾Ð¼": 7369,
      "iences": 7370,
      "hesis": 7371,
      "ĠÐ°ÑģÑģ": 7372,
      "ĠÐ¿ÑģÐ¸ÑħÐ¾Ð»Ð¾Ð³": 7373,
      "ÑģÐµÐ»": 7374,
      "Ġcitiz": 7375,
      "Ġspirit": 7376,
      "oration": 7377,
      "ĠÑĥÐ±Ð¸Ð¹": 7378,
      "Ð´ÑĥÑī": 7379,
      "Ġfollowed": 7380,
      "ĠÐ²Ð²ÐµÐ´": 7381,
      "31": 7382,
      "Ġstim": 7383,
      "aste": 7384,
      "ondon": 7385,
      "ÑĢÐ°Ð½ÐµÐ½Ð¸Ñı": 7386,
      "related": 7387,
      "ĠÐ¸Ð¼ÐµÐ½Ð¸": 7388,
      "Ġequal": 7389,
      "ĠWorks": 7390,
      "rew": 7391,
      "ĠÐ¿Ð¾Ð»Ð¾Ð¶ÐµÐ½Ð¸Ðµ": 7392,
      "orage": 7393,
      "pective": 7394,
      "Ġhope": 7395,
      "ĠÑĩÐ°ÑīÐµ": 7396,
      "ĠÐ´ÑĢ": 7397,
      "ĠÐĴÐ»Ð°": 7398,
      "ÑĢÑĥÑİÑĤ": 7399,
      "ĠÐºÐ¾Ð¼Ð°Ð½Ð´Ñĭ": 7400,
      "ama": 7401,
      "01": 7402,
      "ĠÑģÑĤÑĢÐµ": 7403,
      "Ġgenetic": 7404,
      "Ð¸ÑĤÐµÐ»ÑĮÐ½ÑĭÑħ": 7405,
      "ĠÐ²Ð°ÑĪÐµÐ³Ð¾": 7406,
      "ĠÐ½ÐµÑĦ": 7407,
      "ament": 7408,
      "ÐŀÐĿ": 7409,
      "ĠCalifornia": 7410,
      "ĠApril": 7411,
      "ĠÐ²Ð·Ð³Ð»ÑıÐ´": 7412,
      "ĠÑĤÐ¾Ð¿": 7413,
      "ĠEngland": 7414,
      "Ġ2004": 7415,
      "ĠÐ¿ÑĢÐ¸Ð²Ð¾Ð´Ð¸ÑĤ": 7416,
      "airs": 7417,
      "Ġnote": 7418,
      "ĠÐ¿ÑĢÐ¸Ð³Ð¾ÑĤÐ¾Ð²": 7419,
      "iate": 7420,
      "Ð½ÐµÐ¼Ñĥ": 7421,
      "ĠGreat": 7422,
      "can": 7423,
      "ĠBu": 7424,
      "ĠÐ¿Ð°ÑĢÑĤ": 7425,
      "AD": 7426,
      "ĠÐ½Ð°ÑĪÐ¸Ñħ": 7427,
      "Ġbelief": 7428,
      "Ð¾Ð²Ð°Ñı": 7429,
      "Ġintroduction": 7430,
      "Ð²ÐµÑī": 7431,
      "ĠVal": 7432,
      "ford": 7433,
      "ĠÐµÐ²ÑĢÐ¾Ð¿ÐµÐ¹": 7434,
      "Ġalcohol": 7435,
      "ĠÐ°Ð´Ð¼Ð¸Ð½Ð¸ÑģÑĤÑĢÐ°": 7436,
      "ĠÐ¸Ð·Ð¼ÐµÑĢ": 7437,
      "Ġbaby": 7438,
      "Ġinstruct": 7439,
      "Ð½ÐµÐ½Ð¸Ñİ": 7440,
      "Ð°Ð»ÑĮÐ½ÑĥÑİ": 7441,
      "Ġidentified": 7442,
      "Ġ31": 7443,
      "oice": 7444,
      "ĠÑĦÑĥÐ½ÐºÑĨÐ¸Ð¸": 7445,
      "Ġarchitect": 7446,
      "Ð´ÐµÐ½": 7447,
      "ype": 7448,
      "Ġjoint": 7449,
      "ÑĩÐµÑĢ": 7450,
      "Un": 7451,
      "ĠÐ¿Ð¾Ð´Ð¿Ð¸Ñģ": 7452,
      "ĠÐ½ÐµÐ½": 7453,
      "Ġillness": 7454,
      "ĠÑħÐ¸Ð¼Ð¸": 7455,
      "Ð·Ð¸": 7456,
      "ÐºÐ¾ÑĤ": 7457,
      "ĠÑģÑĤÑĢÐ°ÑĤÐµÐ³": 7458,
      "ÑĢÐ¸ÑĨ": 7459,
      "ĠÐ¼Ð¾Ð´ÐµÐ»Ð¸": 7460,
      "ĠÐ·Ð°ÐºÐ»ÑİÑĩÐ°": 7461,
      "ÐµÐ¼ÑģÑı": 7462,
      "ĠBo": 7463,
      "Ġtrial": 7464,
      "ĠÐĿÐµÑĤ": 7465,
      "ees": 7466,
      "Ġstatus": 7467,
      "resp": 7468,
      "ĠÐ¿ÑĢÐ¾ÑĤÑıÐ¶": 7469,
      "Ð¾ÑģÐ½Ð¾Ð²": 7470,
      "ĠÐ¼ÐµÑģÑıÑĨÐµÐ²": 7471,
      "ĠÑģÐ¾ÑģÑĤÐ°Ð²Ð»ÑıÐµÑĤ": 7472,
      "ĠÐ¼ÐµÑĤÐ°Ð»": 7473,
      "ÑĢÐ¸Ñı": 7474,
      "ĠÑĢÐ°Ð·Ð²Ð¸": 7475,
      "ÐĴÐ¾": 7476,
      "ĠÐ²Ð¼ÐµÑģÑĤÐ": 7477,
      "ĠÐ²Ð¼ÐµÑģÑĤÐ¾": 7478,
      "Ð¿Ð": 7479,
      "ĠÐ°Ð½Ð°Ð»Ð¸": 7480,
      "Ð¿Ð¾": 7481,
      "ham": 7482,
      "ÐºÐ¾ÑģÑĤÐ¸": 7483,
      "ĠÐ½ÐµÑĢÐ²": 7484,
      "Ð¾Ð¶Ð´Ð°": 7485,
      "ĠÐ±Ð¾Ð»ÑĮÑĪÐ¸Ð½ÑģÑĤÐ²Ð¾": 7486,
      "Ġhair": 7487,
      "Ð¶Ð½Ð¾Ð¹": 7488,
      "Ġtrying": 7489,
      "Ġanxiety": 7490,
      "ĠÑĢÐµÐºÐ»Ð°": 7491,
      "Ð¸ÑģÑĮ": 7492,
      "Ġhosp": 7493,
      "Ð°ÐºÑĤÐ¸": 7494,
      "ĠLet": 7495,
      "Ð¸ÑĩÐµÑģÐºÐ¸Ð¼Ð¸": 7496,
      "Ġtransfer": 7497,
      "Ġformat": 7498,
      "ĠÑģÐ¸ÑģÑĤÐµÐ¼Ñĥ": 7499,
      "RE": 7500,
      "ĠÐ¾Ð±ÑĢÐ°Ð±Ð¾ÑĤ": 7501,
      "ygen": 7502,
      "ĠÐ·Ð²Ñĥ": 7503,
      "cember": 7504,
      "Ġconsumption": 7505,
      "ĠÐ³Ð¾ÑĢÐ°Ð·Ð´Ð¾": 7506,
      "Ġbra": 7507,
      "Ġload": 7508,
      "Ġfruit": 7509,
      "ĠÐľÐ°Ð¹": 7510,
      "ĠÐ¼ÑĭÑģ": 7511,
      "Ġwon": 7512,
      "ĠÐ¤ÑĢÐ°Ð½ÑĨÐ¸Ð¸": 7513,
      "Ð»Ð°Ð¼": 7514,
      "ĠÐ½ÐµÐ²": 7515,
      "Ġsouth": 7516,
      "ÑĢÐ¸ÑģÑĤÐ¸Ð°Ð½": 7517,
      "ĠÑįÐ»ÐµÐºÑĤÑĢÐ¾Ð½": 7518,
      "Ġresource": 7519,
      "Ġresistance": 7520,
      "III": 7521,
      "rote": 7522,
      "Ð¸ÑĤÐµÐ»ÑĮÐ½Ð¾Ð³Ð¾": 7523,
      "Ġplanning": 7524,
      "rief": 7525,
      "Ġteach": 7526,
      "Ġcurrently": 7527,
      "Ġstories": 7528,
      "ĠÐ¿Ð»Ð¾ÑĤ": 7529,
      "ÑģÐºÐ": 7530,
      "Ġdyn": 7531,
      "ÑģÐºÐ¾": 7532,
      "Ġapprox": 7533,
      "ĠÐ¿Ð¾Ð»Ñı": 7534,
      "ĠÑģÐ´ÐµÐ»Ð°Ð»": 7535,
      "ĠÐ½Ð°Ð²": 7536,
      "Ð¾ÑĢÑĤÐ°": 7537,
      "ĠÑĩÐµÑĤÐ²ÐµÑĢ": 7538,
      "ÑĨÐ¸Ð¾Ð½Ð°": 7539,
      "Ġwoman": 7540,
      "ĠÐ¿Ð¸Ñī": 7541,
      "Ġintellig": 7542,
      "ĠPat": 7543,
      "ĠÐ·Ð°Ð²Ð¸ÑģÐ¸ÑĤ": 7544,
      "ĠÐ²Ð¿ÐµÑĢÐ²ÑĭÐµ": 7545,
      "ĠÐ¾Ð±Ñģ": 7546,
      "Ġing": 7547,
      "ĠÐ³Ð°": 7548,
      "Ġnorth": 7549,
      "ĠÐ²ÑĭÐ´": 7550,
      "ĠÐ·Ð°Ñħ": 7551,
      "ĠÐ¿Ð¾Ð´ÑĢÐ¾Ð±": 7552,
      "Ġson": 7553,
      "ken": 7554,
      "Ġdefinition": 7555,
      "Ġincreases": 7556,
      "ĠCor": 7557,
      "raction": 7558,
      "ÑĥÑİÑīÐ¸Ð¹": 7559,
      "Ġisn": 7560,
      "Ġdrugs": 7561,
      "ĠÐļÑĢÐ°Ñģ": 7562,
      "ĠÐ¿ÑĢÐ°Ð·Ð´": 7563,
      "ĠÐ³Ð¾Ð²Ð¾ÑĢÑıÑĤ": 7564,
      "Ġgoes": 7565,
      "ĠÑģÐ¾Ð·Ð´Ð°Ð½Ð¸Ñı": 7566,
      "Ġinstance": 7567,
      "ĠDNA": 7568,
      "ĠÐºÐ¼": 7569,
      "Ġbox": 7570,
      "ĠÐ¸Ð½Ð´Ð¸Ð²Ð¸Ð´Ñĥ": 7571,
      "Ð½ÑĥÐ»Ð°": 7572,
      "change": 7573,
      "Ġinteresting": 7574,
      "Ġmiss": 7575,
      "ĠÑĢÐµÑĩÑĮ": 7576,
      "zz": 7577,
      "ĠÐ¿Ð¾Ð·Ð½Ð°": 7578,
      "ÑĥÐ½Ð´": 7579,
      "ĠÑģÐµÐ½ÑĤÑıÐ±ÑĢÑı": 7580,
      "Ġobserved": 7581,
      "Ð·Ðµ": 7582,
      "ĠÐºÑĥÐ»ÑĮÑĤÑĥÑĢ": 7583,
      "ĠÐŁÐµÑĢÐµ": 7584,
      "ovember": 7585,
      "Ġbeg": 7586,
      "Ġdisorder": 7587,
      "Ġ2003": 7588,
      "ĠÐ¿Ð¾Ð·Ð¸": 7589,
      "Ð¾Ð³ÑĢÐ°ÑĦÐ¸Ð¸": 7590,
      "Ð¸ÑĤÐµÐ»ÑĮÐ½ÑĭÐ¹": 7591,
      "ÐµÑĢÐºÐ²Ð¸": 7592,
      "ĠRiver": 7593,
      "off": 7594,
      "ĠJesus": 7595,
      "Ġwond": 7596,
      "ĠJuly": 7597,
      "Ġremember": 7598,
      "ÑĤÐ¾ÑĢÐ¾Ð¼": 7599,
      "ĠÑĩÐµÐ¼Ð¿Ð¸Ð¾Ð½": 7600,
      "ĠÐ½Ð¾Ð²Ð¾Ð¹": 7601,
      "ĠÐ¿ÑĢÐµÐ´ÑģÑĤÐ°Ð²Ð»Ñı": 7602,
      "Ġtou": 7603,
      "ÑįÑĢ": 7604,
      "Ġcontract": 7605,
      "ĠÐºÐ¾Ð¼Ð¿Ð°Ð½Ð¸Ñı": 7606,
      "see": 7607,
      "ĠÑģÐ°Ð¼Ð": 7608,
      "ĠÑģÐ°Ð¼Ð¾": 7609,
      "Ð³ÐµÐ½": 7610,
      "ĠÐºÐ¾Ð½ÑĨÐ°": 7611,
      "ĠRoman": 7612,
      "ĠÑģÐ¾Ð¾Ð±ÑīÐ°ÐµÑĤ": 7613,
      "Ġten": 7614,
      "aled": 7615,
      "ĠÐ²Ð»Ð¸ÑıÐ½Ð¸Ðµ": 7616,
      "Ġfresh": 7617,
      "ÑıÑĤÐ½Ð¾": 7618,
      "ĠÐ¾Ð±ÑģÑĤ": 7619,
      "ĠInter": 7620,
      "ĠÑģÑĨ": 7621,
      "ĠAlso": 7622,
      "Ġpapers": 7623,
      "Ġbuy": 7624,
      "ĠÐ¸Ð½ÑĤÐµÑĢÐ²": 7625,
      "ĠÐ¾ÑĤÐ¼Ðµ": 7626,
      "ĠÐ²Ð°ÑĪÐµÐ¹": 7627,
      "ĠÐµÐ¶Ðµ": 7628,
      "Ġversion": 7629,
      "Ġstrugg": 7630,
      "ses": 7631,
      "ĠDav": 7632,
      "ĠÐ´Ð»Ð¸Ð½": 7633,
      "Ġden": 7634,
      "ĠNet": 7635,
      "Ð½Ð¾Ð³Ð¸Ðµ": 7636,
      "Ġgarden": 7637,
      "ÑĭÐ²Ð°Ð½Ð¸Ñı": 7638,
      "ĠÐ²ÑģÑĤ": 7639,
      "ĠWater": 7640,
      "Ñĸ": 7641,
      "ĠÐŁÑĥ": 7642,
      "Ġemail": 7643,
      "erences": 7644,
      "Ġfair": 7645,
      "Ġdecisions": 7646,
      "Ð²ÐµÑĢÑħ": 7647,
      "ĠÐĳÐ¾Ð»ÑĮÑĪ": 7648,
      "ĠÐ²Ð½Ð¾Ð²ÑĮ": 7649,
      "oma": 7650,
      "ĠÐ²Ð·Ð°Ð¸Ð¼Ð¾Ð´ÐµÐ¹ÑģÑĤÐ²": 7651,
      "ĠChristian": 7652,
      "force": 7653,
      "ÐµÐºÐ¾ÑĤÐ¾ÑĢÑĭÐµ": 7654,
      "ĠAmericans": 7655,
      "Ġvary": 7656,
      "ĠÐ²ÐµÑīÐ¸": 7657,
      "ĠÐ¿ÑĢÐ¾Ð¶": 7658,
      "ought": 7659,
      "Ð¾Ð»Ñİ": 7660,
      "Ġmetal": 7661,
      "Ġnearly": 7662,
      "ĠÐ¼Ð¾Ð½Ð°": 7663,
      "Ġalg": 7664,
      "ĠÐºÐ¾Ð¼Ð¿Ð¾Ð½": 7665,
      "Ġforces": 7666,
      "Ġfix": 7667,
      "ĠWhy": 7668,
      "Ġtechnologies": 7669,
      "Ġliqu": 7670,
      "ĠÑģÐ°Ñħ": 7671,
      "Ð°ÑĤÐµÐ»ÐµÐ¼": 7672,
      "46": 7673,
      "Ġworth": 7674,
      "Ġexcess": 7675,
      "ÑģÐ¸ÑĢÐ¾Ð²": 7676,
      "Ġcollabor": 7677,
      "ĠXV": 7678,
      "Ġlesson": 7679,
      "ÑĮÐµÑĢ": 7680,
      "Ġkid": 7681,
      "Ġgir": 7682,
      "Ġdivid": 7683,
      "ĠÐ¼Ð½ÐµÐ½Ð¸Ñİ": 7684,
      "ÑĨÐµÐ½ÑĤ": 7685,
      "Ġmid": 7686,
      "ĠÐ¿ÑĢÐ¸ÑĩÐ¸Ð½": 7687,
      "ĠÐ²Ð¾Ð·ÑĢÐ°ÑģÑĤ": 7688,
      "ros": 7689,
      "oday": 7690,
      "ibly": 7691,
      "ĠÑıÐ·ÑĭÐºÐµ": 7692,
      "Ġspeech": 7693,
      "ÑĥÑĢÐµ": 7694,
      "ĠÐ¿Ð°Ð¿": 7695,
      "ĠÐ²ÐºÐ»ÑİÑĩÐ°Ñı": 7696,
      "ĠUK": 7697,
      "Ð¾Ð²Ð°Ð»Ð¸": 7698,
      "Ð¾Ð¹ÑĩÐ¸Ð²": 7699,
      "ÑıÑĤÐ¸Ð¹": 7700,
      "vious": 7701,
      "Ġconstruct": 7702,
      "ĠÑĢÐµÐ°Ð»Ð¸": 7703,
      "55": 7704,
      "Ġ300": 7705,
      "ĠThen": 7706,
      "Ġformed": 7707,
      "ĠÑĩÑĤ": 7708,
      "ognitive": 7709,
      "ĠÐĴÐ°Ð¼": 7710,
      "Ð¾Ð·Ð°": 7711,
      "ÑģÑĤÐ²ÐµÐ½Ð½Ð°Ñı": 7712,
      "Ġwinter": 7713,
      "ĠÐ°Ð±ÑģÐ¾Ð»ÑİÑĤ": 7714,
      "known": 7715,
      "ĠÑĩÑĢÐµÐ·": 7716,
      "Ð°Ð»Ñĭ": 7717,
      "ĠÐ¼Ð¸ÑĢÐ¾Ð²Ð¾Ð¹": 7718,
      "iful": 7719,
      "ĠÑģÑĤÐ°ÑĤÑĮÐ¸": 7720,
      "Ġdetect": 7721,
      "ĠÐ¢Ð": 7722,
      "ĠÐ¿ÑĢÐµÐ´Ð½Ð°": 7723,
      "ĠPark": 7724,
      "ĠProf": 7725,
      "ĠÐŁÐµÑĢ": 7726,
      "ĠChe": 7727,
      "ĠVir": 7728,
      "Ð°Ð»ÑĮÐ½Ð¾Ð¼": 7729,
      "Ġsaw": 7730,
      "ÑĢÐµÐ¶Ð´": 7731,
      "ĠÐ¿Ð¾ÑĢÑĤ": 7732,
      "ĠÑĢÐ°Ð·Ð½": 7733,
      "Ġice": 7734,
      "Ġnames": 7735,
      "Ġexperim": 7736,
      "Ġclinical": 7737,
      "Ġ>": 7738,
      "Ġorganizations": 7739,
      "rab": 7740,
      "Ġrelationships": 7741,
      "ophy": 7742,
      "47": 7743,
      "Ġrule": 7744,
      "Ġhous": 7745,
      "Ġrot": 7746,
      "ÐĹÐ°": 7747,
      "Ġantib": 7748,
      "ares": 7749,
      "alt": 7750,
      "ĠÐ§ÑĤÐ¾Ð±Ñĭ": 7751,
      "ĠWilliam": 7752,
      "ĠÑĤÐµÐ»Ð": 7753,
      "ĠÑĤÐµÐ»Ð¾": 7754,
      "ĠÑģÐ¾Ð³Ð»Ð°ÑģÐ½Ð¾": 7755,
      "Ġmuscle": 7756,
      "ĠÑģÐµÑĤÐ¸": 7757,
      "ĠÑģÐ¾Ð·Ð´Ð°ÑĤÑĮ": 7758,
      "ĠÐ´Ð°ÑĤÑĮ": 7759,
      "Ġleave": 7760,
      "Ġstructures": 7761,
      "ĠÑĢÐµÐ·ÑĥÐ»ÑĮÑĤÐ°ÑĤÑĭ": 7762,
      "Ġshowed": 7763,
      "ĠÐºÐ°Ð±": 7764,
      "Ð»ÐµÐ½Ð½ÑĭÐ¹": 7765,
      "ĠÐ´Ð¾Ð³Ð¾Ð²Ð¾ÑĢ": 7766,
      "edom": 7767,
      "ĠÐ¿ÑĢÐ°Ð²Ð¸Ð»ÑĮÐ½Ð¾": 7768,
      "Ġrepl": 7769,
      "ĠÑģÐ»Ðµ": 7770,
      "ĠÐ¶ÐµÐ½ÑīÐ¸Ð½Ñĭ": 7771,
      "ĠÐ·Ð°Ð²ÐµÑĢÑĪ": 7772,
      "urance": 7773,
      "ĠÐ¾Ð±Ð²Ð¸Ð½": 7774,
      "ĠÑĢÐ°Ð²Ð½Ð¾": 7775,
      "ĠÐ²Ð·Ð³Ð»Ñı": 7776,
      "works": 7777,
      "iny": 7778,
      "Ð¾ÐºÑĢÐ°": 7779,
      "ĠÑĤÐµÑħÐ½Ð¸ÑĩÐµÑģÐº": 7780,
      "ĠÐ´Ð²Ð¾ÑĢ": 7781,
      "ÐºÑĥÑİ": 7782,
      "ÑĪÐ¸ÑħÑģÑı": 7783,
      "Ġabsor": 7784,
      "Ġplanet": 7785,
      "Ġnumerous": 7786,
      "Ġreducing": 7787,
      "ÑĥÐ¶Ðµ": 7788,
      "ÑĦÐ¾ÑĢÐ¼": 7789,
      "Ġcycle": 7790,
      "Ġalone": 7791,
      "ĠÐ¿Ð¸ÑĪÐµÑĤ": 7792,
      "ĠDi": 7793,
      "Ġphen": 7794,
      "Ġeffort": 7795,
      "ĠÐ¢Ð¾Ð³Ð´Ð°": 7796,
      "Ġplatform": 7797,
      "ĠÑģÐ¾ÑģÑĤÐ°Ð²Ð»Ñı": 7798,
      "Ð°ÑİÑīÐ¸Ðµ": 7799,
      "ancing": 7800,
      "Ġplans": 7801,
      "Ġhon": 7802,
      "ĠSpe": 7803,
      "Ð¡Ð¿": 7804,
      "Ð°Ð³Ð¸": 7805,
      "ĠÐ²Ð¾Ð·Ð´ÑĥÑħ": 7806,
      "ĠÑįÐ½ÐµÑĢÐ³Ð¸Ð¸": 7807,
      "Ġbirds": 7808,
      "Ġshap": 7809,
      "Ġfemale": 7810,
      "ĠÐ´ÑĢÑĥ": 7811,
      "ĠÐ¼Ð¾Ð¶ÐµÐ¼": 7812,
      "Ġasked": 7813,
      "Ġcoast": 7814,
      "standing": 7815,
      "ĠÑĥÐ±ÐµÐ´": 7816,
      "ĠÐ¾ÐºÑĤÑıÐ±ÑĢÑı": 7817,
      "ĠÑģÐ¸Ñħ": 7818,
      "Ġdistribution": 7819,
      "ĠÐĿÑĮÑİ": 7820,
      "Ġfriend": 7821,
      "Ġletter": 7822,
      "rupt": 7823,
      "ĠTherefore": 7824,
      "Ġmonit": 7825,
      "ÑĨÐ¸Ð¾Ð½Ð½ÑĭÐµ": 7826,
      "ĠÐ½Ð°Ð±Ð»ÑİÐ´Ð°": 7827,
      "ĠFeb": 7828,
      "ĠÐļÐ¾Ð»": 7829,
      "ĠÑĢÐµÐ»Ð¸Ð³Ð¸": 7830,
      "ĠÐ±Ð¾Ð¹": 7831,
      "era": 7832,
      "Ġcommand": 7833,
      "ĠÐ°Ð²ÑĤÐ¾Ð¼Ð°ÑĤ": 7834,
      "ĠÐ³Ð»Ð°Ð·": 7835,
      "ĠÐ¢Ð¾": 7836,
      "Äģ": 7837,
      "ĠÐ´Ð°Ð»ÑĮÑĪÐµ": 7838,
      "Ġmut": 7839,
      "AP": 7840,
      "Ġfully": 7841,
      "ĠÐ¾Ð´Ð½Ð¾Ð²ÑĢÐµÐ¼ÐµÐ½Ð½Ð¾": 7842,
      "ĠSeptember": 7843,
      "ĠÐ·Ð°Ð²Ð¾Ð´": 7844,
      "Ð¼Ð¾Ð½": 7845,
      "Ġattract": 7846,
      "ĠÑĤÑİ": 7847,
      "ĠÑģÑĥÐ´ÑĮ": 7848,
      "ÐºÐ¾ÑģÑĤÑĮ": 7849,
      "ĠÐ½Ð¸Ð¶": 7850,
      "Ġregions": 7851,
      "Ġdistance": 7852,
      "Ð°ÑĤÐµÐ»ÑĮÐ½Ð¾Ð¹": 7853,
      "ĠOver": 7854,
      "ĠÐ¼Ð°ÑĢÑĤÐ°": 7855,
      "Ġmember": 7856,
      "Ġpiece": 7857,
      "Ð¼Ð¸ÑĢ": 7858,
      "HE": 7859,
      "ĠGovern": 7860,
      "ĠNow": 7861,
      "ĠEven": 7862,
      "Ð½ÐµÑĢ": 7863,
      "Ð¼Ð¸Ð½Ð°": 7864,
      "roduction": 7865,
      "ĠÑħÐ¾ÑĩÐµÑĤ": 7866,
      "ÑĢÑĥÐµÑĤÑģÑı": 7867,
      "ĠÐ´Ð»Ð¸ÑĤÐµÐ»ÑĮ": 7868,
      "Ġtold": 7869,
      "ÑĥÐ½ÐºÑĤ": 7870,
      "Ð¸Ð²Ð°Ñı": 7871,
      "ocr": 7872,
      "su": 7873,
      "ĠÑĤÑĢÑĥÐ´Ð°": 7874,
      "ĠÐºÐ¾Ð½ÑģÑĤÑĢÑĥÐº": 7875,
      "ĠÑįÐºÐ·": 7876,
      "ĠÑĢÐ°Ð·Ð°": 7877,
      "ĠÑģÐ¾Ð´ÐµÑĢÐ¶Ð¸ÑĤ": 7878,
      "Ð¾Ð³Ð»Ð°ÑģÐ½Ð¾": 7879,
      "Ð»Ð¸ÑĤÑĮ": 7880,
      "part": 7881,
      "Ð¸ÑĩÐ½Ð¾": 7882,
      "ĠÐ¿ÑĢÐ¾ÑĨÐµÐ´": 7883,
      "Ġprocessing": 7884,
      "ĠÐ²Ð¸Ð´Ð°": 7885,
      "Ġcommercial": 7886,
      "ĠRel": 7887,
      "ĠÐ¾ÑĩÐµÐ²Ð¸Ð´": 7888,
      "Ġnothing": 7889,
      "ĠÐ¸ÑİÐ»Ñı": 7890,
      "Ġjour": 7891,
      "Ġemphas": 7892,
      "inding": 7893,
      "ĠÐ·ÑĥÐ±": 7894,
      "ĠÐ½ÐµÐ³": 7895,
      "ĠÐ¸ÑİÐ½Ñı": 7896,
      "Ġmoment": 7897,
      "ĠÐ¿Ð¾Ð´Ð½Ñı": 7898,
      "ĠSocial": 7899,
      "Ġincome": 7900,
      "Some": 7901,
      "ĠÐ¿Ð¾Ð³Ð¸Ð±": 7902,
      "Ġweak": 7903,
      "ĠÑģÑĤÐ¸Ñħ": 7904,
      "Ġeasier": 7905,
      "ĠÐ¿ÑĢÐ¾ÑĨÐµÑģÑģÐ°": 7906,
      "Ġtox": 7907,
      "ĠÐ¿ÑĢÐµÐ¸Ð¼Ñĥ": 7908,
      "Ð½Ð¸ÐºÐµ": 7909,
      "Ġprofession": 7910,
      "ĠÑģÐ¾Ð¶": 7911,
      "04": 7912,
      "ĠÐ¼Ð»Ð½": 7913,
      "ĠJanuary": 7914,
      "sec": 7915,
      "Ġrisks": 7916,
      "ĠDuring": 7917,
      "ĠCity": 7918,
      "ĠÑĤÑĢÐµÐ½Ð¸ÑĢÐ¾Ð²": 7919,
      "ĠÐ¸ÑģÐ¿Ð¾Ð»ÑĮÐ·ÑĥÐµÑĤÑģÑı": 7920,
      "atin": 7921,
      "Ġreference": 7922,
      "ructure": 7923,
      "iest": 7924,
      "ĠPhys": 7925,
      "Ġmo": 7926,
      "Ġconcepts": 7927,
      "ĠÐ²ÑĭÐ³Ð»ÑıÐ´": 7928,
      "ĠÑħÐ°ÑĢÐ°ÐºÑĤÐµÑĢÐ¸ÑģÑĤ": 7929,
      "ifically": 7930,
      "ĠÑĥÐ¿ÑĢÐ°Ð¶": 7931,
      "ĠÑģÑĥÑīÐµ": 7932,
      "Ġindustrial": 7933,
      "ĠÐºÐ¾ÑĪ": 7934,
      "ĠÐ´Ð°Ð½Ð½ÑĭÐ¼": 7935,
      "Ġfeature": 7936,
      "la": 7937,
      "plications": 7938,
      "Ġefficiency": 7939,
      "Ð¾Ð·Ð¸": 7940,
      "Ġatmosp": 7941,
      "Ġrecently": 7942,
      "Ð½Ð°ÑĩÐµ": 7943,
      "Ġtissue": 7944,
      "bal": 7945,
      "ĠÐ´Ð°Ð½Ð½Ð¾Ð¹": 7946,
      "ĠÐŁÐ¾Ð¼": 7947,
      "Ġmajority": 7948,
      "ashington": 7949,
      "iance": 7950,
      "ÐļÐ¾Ð½": 7951,
      "reet": 7952,
      "Ð²ÐµÐ¹": 7953,
      "ĠÐ°Ð²Ð³ÑĥÑģÑĤÐ°": 7954,
      "hab": 7955,
      "ĠPeople": 7956,
      "Ġevolution": 7957,
      "ulum": 7958,
      "ĠÐ¾Ð±ÑĬÐµÐ¼": 7959,
      "ÐļÐ¾Ð¼": 7960,
      "ĠÑıÐ½Ð²Ð°ÑĢÑı": 7961,
      "88": 7962,
      "ÐµÑģÐº": 7963,
      "ĠÑģÐ¾ÑģÑĤÐ¾ÑıÐ½Ð¸Ñı": 7964,
      "Ġdirection": 7965,
      "ĠÑĥÑĩÐµÐ±": 7966,
      "ÑĪÐ¸Ð½Ñĭ": 7967,
      "Ġeffectively": 7968,
      "ÐµÐ¶Ð°ÑĤÑĮ": 7969,
      "ĠÑĦÐ¾Ð½": 7970,
      "elines": 7971,
      "ĠUnder": 7972,
      "ĠÐ³Ð¸Ð±": 7973,
      "Ġexpand": 7974,
      "Ġ%": 7975,
      "Ġmouth": 7976,
      "ĠÐ·Ð½Ð°Ð¼ÐµÐ½Ð¸ÑĤ": 7977,
      "ĠMac": 7978,
      "ĠClass": 7979,
      "enty": 7980,
      "Ġ1990": 7981,
      "ĠÐ¾Ð±ÑĢÐ°Ð·Ð¾Ð²Ð°Ð½Ð¸Ñı": 7982,
      "ĠÐ½ÐµÐ¼Ñĥ": 7983,
      "ĠÐ±ÑĢÐ¸ÑĤÐ°Ð½": 7984,
      "unction": 7985,
      "ĠÑģÐ¸": 7986,
      "ĠÐ·Ð½Ð°ÑĩÐ¸ÑĤÐµÐ»ÑĮÐ½Ð¾": 7987,
      "ĠÐĹÐ´ÐµÑģÑĮ": 7988,
      "Ġassessment": 7989,
      "ÐµÐ·Ð´Ð°": 7990,
      "ĠÐµÐ´": 7991,
      "âĢ¦âĢ¦": 7992,
      "Ġspect": 7993,
      "Ð¾ÑĤÑĥ": 7994,
      "Ġplastic": 7995,
      "ĠÑĥÐºÑĢÐµÐ¿": 7996,
      "iveness": 7997,
      "ĠPresident": 7998,
      "ÑıÐ²Ð¸": 7999,
      "imens": 8000,
      "ÑĩÐ°ÑĤÑĮ": 8001,
      "ĠOctober": 8002,
      "ĠÐ¿ÑĢÐ¾ÑĨÐµÑģÑģÐµ": 8003,
      "Ġsave": 8004,
      "RO": 8005,
      "Ar": 8006,
      "Ġmig": 8007,
      "Ġjournal": 8008,
      "ĠÐ¸ÑģÑĩÐµ": 8009,
      "igen": 8010,
      "ĠSur": 8011,
      "ĠÐľÐ½Ðµ": 8012,
      "Ð´Ð°ÑİÑĤ": 8013,
      ".;": 8014,
      "Ġexisting": 8015,
      "Ġemotional": 8016,
      "ht": 8017,
      "ĠÐ´Ð°ÐµÑĤ": 8018,
      "Ġnamed": 8019,
      "roup": 8020,
      "icip": 8021,
      "Ġfert": 8022,
      "ĠÑĢÐ°Ð¼ÐºÐ°Ñħ": 8023,
      "ĠÐ¾ÑĢÐ³Ð°": 8024,
      "ĠNews": 8025,
      "ĠÐ¿ÑĢÐ¾ÑĦÐµÑģÑģÐ¸Ð¾Ð½Ð°Ð»ÑĮ": 8026,
      "Ð¼Ð¾ÑĢ": 8027,
      "ĠÐ¿ÑĭÑĤ": 8028,
      "ĠÐ¼Ð¾Ð·Ð³Ð°": 8029,
      "ĠÐ¸Ð¼Ð¿ÐµÑĢÐ°": 8030,
      "ĠÐ·ÐµÐ¼Ð»Ð¸": 8031,
      "Ġagg": 8032,
      "Ġlayer": 8033,
      "aur": 8034,
      "Ġclassroom": 8035,
      "ĠÐ¸Ð½ÑĤÐµÐ»": 8036,
      "ĠÐ´ÑĢÑĥÐ³Ð¾Ð³Ð¾": 8037,
      "Ġhimself": 8038,
      "ĠÐºÐ¾Ð¼Ð½Ð°ÑĤ": 8039,
      "ĠÐ¿ÑĢÐ¾Ð¼ÑĭÑĪÐ»ÐµÐ½": 8040,
      "ÑĢÐ¸Ð¿": 8041,
      "ĠSec": 8042,
      "ĠEach": 8043,
      "Ġapply": 8044,
      "ÑģÑĤÐ²Ð¾ÑĢ": 8045,
      "ĠÑĢÐ¾Ð´Ð°": 8046,
      "orial": 8047,
      "Ġsuppl": 8048,
      "ĠÐ²Ð¸Ð´ÐµÐ": 8049,
      "ĠÐ²Ð¸Ð´ÐµÐ¾": 8050,
      "Ġadjust": 8051,
      "Ð¸ÑĤÐµÐ»ÑĮÐ½Ð¾ÑģÑĤÑĮ": 8052,
      "ÑĢÐ°Ð±Ð°ÑĤ": 8053,
      "raw": 8054,
      "tes": 8055,
      "unch": 8056,
      "ĠWeb": 8057,
      "Ð¸Ð¹ÑģÐºÐ¾Ð¹": 8058,
      "rael": 8059,
      "hors": 8060,
      "ĠÐ¼Ð°Ð³Ð°Ð·": 8061,
      "ÑĥÐ»Ð¸": 8062,
      "ÑĥÐ¼Ðµ": 8063,
      "ĠÐ¸Ð·Ð¾Ð±ÑĢÐ°Ð¶": 8064,
      "ĠÐ¾Ð±Ð¾Ð·Ð½Ð°": 8065,
      "Ġchanged": 8066,
      "ÑĢÑħ": 8067,
      "ĠÐ±Ñİ": 8068,
      "ÑĩÐµÐº": 8069,
      "ĠÐ´Ð¸ÑĢÐµÐº": 8070,
      "Ġ2001": 8071,
      "Ġdiscovered": 8072,
      "Ð¾ÑģÐ»Ð¾Ð²": 8073,
      "house": 8074,
      "ĠÐ¿ÑĢÐ¸ÐºÐ°Ð·": 8075,
      "Ġfederal": 8076,
      "Ġallowed": 8077,
      "ĠÐ°Ð½Ð°Ð»Ð¾Ð³": 8078,
      "Ġ000": 8079,
      "ĠÐ¿Ð¾ÑħÐ¾Ð¶": 8080,
      "ĠCour": 8081,
      "ĠÐ¡Ð¾Ñİ": 8082,
      "ĠHel": 8083,
      "ĠÑĨÐµÐ½ÑĤÑĢÐ°Ð»ÑĮ": 8084,
      "Ġdepression": 8085,
      "Ġsetting": 8086,
      "ST": 8087,
      "ball": 8088,
      "ĠÐ²Ð·ÑĢÐ¾Ñģ": 8089,
      "Ġoccup": 8090,
      "ÐµÐ½Ðµ": 8091,
      "ĠÑģÑĤÑĢÐ°Ð½Ð°Ñħ": 8092,
      "Ð¸ÑĤÐµÐ»ÐµÐ¼": 8093,
      "ĠÐºÐ°Ð¶Ð´Ð¾Ð¹": 8094,
      "Ġbound": 8095,
      "isation": 8096,
      "Ġplaced": 8097,
      "ÑĭÐ²Ð°ÑİÑĤÑģÑı": 8098,
      "Ġearlier": 8099,
      "ĠÐ¼ÐµÐ´Ð¸ÑĨÐ¸Ð½": 8100,
      "ĠAv": 8101,
      "opy": 8102,
      "ĠÑģÐ¼ÐµÑĪ": 8103,
      "Ð½ÑĥÐ¶Ð´": 8104,
      "ĠÐ·Ð°ÑīÐ¸Ñī": 8105,
      "BC": 8106,
      "ĠÑģÐ»ÑĥÑĪ": 8107,
      "ĠÐ±Ð¸Ð·Ð½ÐµÑģ": 8108,
      "ÑİÑīÐ¸ÑħÑģÑı": 8109,
      "ĠÐ½Ð°ÐºÐ¾Ð½": 8110,
      "ĠÐ¿ÐµÑĢÐ²ÑĭÑħ": 8111,
      "ÑĢÐ°ÑĨÐ¸Ð¸": 8112,
      "ĠCOVID": 8113,
      "ĠPlan": 8114,
      "Ġgender": 8115,
      "Ð»Ð»": 8116,
      "Ġblue": 8117,
      "ĠÑģÑĤÐ¾Ð»Ð¸": 8118,
      "cast": 8119,
      "Ð¾Ð²ÐµÑĢ": 8120,
      "ĠÑĤÐµÐ°ÑĤ": 8121,
      "Ġalternative": 8122,
      "ĠÐ¿Ð¾Ð»Ðµ": 8123,
      "Ð´Ð¸Ð¸": 8124,
      "ĠÑĢÐ°Ð·ÑĢÐµÑĪ": 8125,
      "Ġrepe": 8126,
      "ĠÐ¢Ð°Ð¼": 8127,
      "ditionally": 8128,
      "ĠÑĥÐ³ÑĢÐ¾Ð·": 8129,
      "ĠÐ±Ð»Ð¸Ð¶": 8130,
      "Ġexcell": 8131,
      "ager": 8132,
      "ĠÐĵÐµÐ½": 8133,
      "ĠÑģÐµÐ¼ÐµÐ¹": 8134,
      "ĠLaw": 8135,
      "Ð°Ð½Ñĥ": 8136,
      "ĠÐ¿Ð¾Ð²ÐµÑĢÑħÐ½Ð¾ÑģÑĤÐ¸": 8137,
      "Ġupd": 8138,
      "ĠÐ²ÑĭÑģÐºÐ°Ð·": 8139,
      "men": 8140,
      "inated": 8141,
      "ĠÑĢÐ¾Ð»Ð¸": 8142,
      "ĠÑģÐµÑĢÐµÐ´": 8143,
      "Cl": 8144,
      "66": 8145,
      "Ġpresented": 8146,
      "ÑĨÐ¸Ð¾Ð½Ð½Ð¾Ð³Ð¾": 8147,
      "ĠÑĨÐ°ÑĢ": 8148,
      "Ð°ÑģÑĤÑĮ": 8149,
      "Â·": 8150,
      "ĠÑĤÐ°ÐºÐ°Ñı": 8151,
      "Ð°Ð»Ð¾Ð³": 8152,
      "85": 8153,
      "ĠÐ¾Ð±ÑģÑĤÐ¾ÑıÑĤÐµÐ»ÑĮ": 8154,
      "Ġcoming": 8155,
      "ĠLondon": 8156,
      "ĠÐ³Ð¾Ð½": 8157,
      "ĠÐ¿ÑıÑĤÐ¸": 8158,
      "Ġ?": 8159,
      "ĠEast": 8160,
      "ĠÐĳÑĭ": 8161,
      "Ġdisorders": 8162,
      "ĠAustralia": 8163,
      "Ġdivers": 8164,
      "ÑĨÐ¸Ð¾Ð½Ð¸": 8165,
      "ĠÐ½ÐµÑģÐ¼Ð¾ÑĤÑĢÑı": 8166,
      "49": 8167,
      "ĠAir": 8168,
      "Ð¾Ð²ÑĭÐ¹": 8169,
      "Con": 8170,
      "Ġemissions": 8171,
      "Ð±ÐµÐ¶": 8172,
      "ÑıÐ»Ð°": 8173,
      "ĠConf": 8174,
      "ĠÐ¾Ð±Ð¼ÐµÐ½": 8175,
      "htt": 8176,
      "ĠÐ¢ÐµÐ¿ÐµÑĢÑĮ": 8177,
      "Ġbillion": 8178,
      "ĠSer": 8179,
      "Ð½ÐµÐ½Ð¸Ð¹": 8180,
      "ÑĨÐ¸ÑıÐ¼Ð¸": 8181,
      "ĠCur": 8182,
      "Ġrelatively": 8183,
      "ĠÐ±Ð¾Ð»ÐµÐ·Ð½Ð¸": 8184,
      "Ġincorpor": 8185,
      "ÐŁÑĢÐµÐ´": 8186,
      "ĠÐ°Ð¿Ð¿Ð°ÑĢÐ°": 8187,
      "Ð¾Ð¿Ð¾Ð»Ð¾Ð¶": 8188,
      "ĠIII": 8189,
      "ĠVol": 8190,
      "ĠÐ»Ð¸Ð½Ð¸Ð¸": 8191,
      "Ġtechnique": 8192,
      "Ġsustainable": 8193,
      "Ġforward": 8194,
      "Ġcontribute": 8195,
      "ession": 8196,
      "ĠMat": 8197,
      "ĠÐ¿Ð¾Ñį": 8198,
      "ĠÑĥÐ´Ð¾Ð²Ð»ÐµÑĤÐ²Ð¾ÑĢ": 8199,
      "ĠÑĤÐµÐ¾ÑĢÐ¸Ð¸": 8200,
      "ĠÐ¼Ð¾ÐµÐ¹": 8201,
      "ÑıÐ±ÑĢÐµ": 8202,
      "ĠÐ»ÑİÐ±Ð¸Ð¼": 8203,
      "ĠÐ½ÑĭÐ½Ðµ": 8204,
      "Ġopin": 8205,
      "ij": 8206,
      "uff": 8207,
      "ĠÐ²ÑģÐ¿Ð¾Ð¼": 8208,
      "Ð¾ÑĢÐ¾ÑĪ": 8209,
      "Ġtele": 8210,
      "Ð°Ð½Ð´Ð¸Ð´": 8211,
      "mat": 8212,
      "encies": 8213,
      "Ð¾ÑĩÐºÐ°": 8214,
      "ĠÐ¾ÑĤÑģ": 8215,
      "acters": 8216,
      "Ġgiving": 8217,
      "semb": 8218,
      "Ġdied": 8219,
      "cular": 8220,
      "Ġmanage": 8221,
      "ĠÐºÐ»Ñİ": 8222,
      "ĠÐ¿ÑĥÑĤÐµÑĪÐµ": 8223,
      "ÐºÐ°ÑĤ": 8224,
      "ĠSince": 8225,
      "ĠJust": 8226,
      "Ð½Ð¸Ð»Ð¸": 8227,
      "ĠÑĥÑħÐ¾Ð´": 8228,
      "ĠRet": 8229,
      "ĠÐ·Ð°Ð¼ÐµÑĩ": 8230,
      "Ð°ÑĤÐµÐ»ÑĮÐ½ÑĭÐµ": 8231,
      "ruary": 8232,
      "Ð¸ÑĤÐ°Ð¼Ð¸": 8233,
      "char": 8234,
      "Ġconnected": 8235,
      "ĠÐ¿Ð¾ÐºÑĢÑĭ": 8236,
      "Ð¸Ð·Ð¼Ð°": 8237,
      "pen": 8238,
      "ĠÑģÐºÑĢÑĭ": 8239,
      "ĠÑĤÑĢÐ°Ð½Ñģ": 8240,
      "ĠÑģÐºÐ°Ð·Ð°Ð»Ð°": 8241,
      "Ġenhance": 8242,
      "hyd": 8243,
      "ĠÐľÐ°ÑĢÐ¸": 8244,
      "Ġglass": 8245,
      "Ġpicture": 8246,
      "ĠÑģÐ»ÑĥÑĩ": 8247,
      "ĠÐŀÐ¿": 8248,
      "ĠÐĲÐ½Ð´": 8249,
      "Ġrelevant": 8250,
      "ĠÐ·Ð½Ð°ÐµÑĤ": 8251,
      "ÑĢÐ¸Ñģ": 8252,
      "Ġcelebr": 8253,
      "Ġwidely": 8254,
      "Ġhealthcare": 8255,
      "ĠÐ·Ð°Ñģ": 8256,
      "ĠÐĿÐ¸": 8257,
      "Ġexpert": 8258,
      "met": 8259,
      "ÐºÐ¾Ð³": 8260,
      "uration": 8261,
      "ĠBecause": 8262,
      "Ġhom": 8263,
      "Ġvolume": 8264,
      "ĠProt": 8265,
      "ĠÑģÐ¿Ð¾ÐºÐ¾Ð¹": 8266,
      "Ġextremely": 8267,
      "Ġtransform": 8268,
      "ÑĩÐ°ÑģÑĤÑĮ": 8269,
      "ĠÐ³Ð¾Ð²Ð¾ÑĢÐ¸Ð»": 8270,
      "Ð»ÑĭÐ±": 8271,
      "Ġmap": 8272,
      "rops": 8273,
      "Ġfamous": 8274,
      "ĠÐ²Ð°ÑĪÐ¸": 8275,
      "Ġoxygen": 8276,
      "ĠÐºÑĥÐ»ÑĮÑĤÑĥÑĢÑĭ": 8277,
      "Ġdiss": 8278,
      "ilit": 8279,
      "iding": 8280,
      "Res": 8281,
      "ÑĨÐ°Ð¼": 8282,
      "Ġforeign": 8283,
      "ÑĥÑģÑĤÑı": 8284,
      "Ð¾ÑĩÐ½Ð¾Ð¹": 8285,
      "ĠÑģÐ»Ð°Ð²": 8286,
      "Ġtrend": 8287,
      "ĠÐ½Ð¾ÑıÐ±ÑĢÑı": 8288,
      "Ð¸ÑĤÐµÐ»ÑĮÐ½Ð¾Ðµ": 8289,
      "Ġrecommended": 8290,
      "ĠÐ²ÑĢÐµÐ´": 8291,
      "Ġgeneration": 8292,
      "Ġneigh": 8293,
      "ĠInternet": 8294,
      "ĠÐ¶ÐµÐ½ÑīÐ¸Ð½Ð°": 8295,
      "ÐºÐ¾Ð±ÑĢÐ¸ÑĤ": 8296,
      "ÑİÑīÐ¸Ð¼Ð¸": 8297,
      "ĠÑĦÐ¸ÑĢ": 8298,
      "ĠÐ³Ð¾Ð»Ð¾Ð²Ñĥ": 8299,
      "DF": 8300,
      "Ġtasks": 8301,
      "CO": 8302,
      "Ġnative": 8303,
      "Ð»ÑĭÑĪ": 8304,
      "Ġeight": 8305,
      "roph": 8306,
      "ĠÐĺÐ¼ÐµÐ½Ð½Ð¾": 8307,
      "Ġ2002": 8308,
      "ĠÐ½ÐµÐ´Ð°Ð²": 8309,
      "ographic": 8310,
      "ĠTheir": 8311,
      "ulf": 8312,
      "li": 8313,
      "Ġoperations": 8314,
      "Ġpeace": 8315,
      "Ġwatch": 8316,
      "ĠÐ¾Ð±Ð½Ð¾Ð²": 8317,
      "ĠÑĥÐ²Ð¸Ð´ÐµÑĤÑĮ": 8318,
      "Ġremove": 8319,
      "ĠÐ±Ð¾Ð»ÑĮÑĪÐ¾Ðµ": 8320,
      "Ð¾ÑĤÐ²Ð¾ÑĢ": 8321,
      "ĠÐ´Ð¾Ð¼Ð°ÑĪ": 8322,
      "Ġoption": 8323,
      "ĠÑģÐµÐ¼ÑĮÐ¸": 8324,
      "Ð¢Ðŀ": 8325,
      "They": 8326,
      "ĠÑĤÐµÑĢÐ°Ð¿": 8327,
      "being": 8328,
      "Ġfindings": 8329,
      "ĠÐ¿Ð»Ðµ": 8330,
      "ĠÐ¿Ð¾ÑģÑĢÐµÐ´": 8331,
      "ĠÑģÐ²Ð¾ÐµÐ¼Ñĥ": 8332,
      "ÑıÑīÐ¸Ðµ": 8333,
      "ĠGermany": 8334,
      "ĠÐ°Ð¿ÑĢÐµÐ»Ñı": 8335,
      "ĠÐ»ÐµÐºÐ°ÑĢ": 8336,
      "Ġstaff": 8337,
      "ÐĶÐ°": 8338,
      "Ġmoving": 8339,
      "anguages": 8340,
      "EL": 8341,
      "ĠÐ°Ð½Ð³": 8342,
      "Ġprinciples": 8343,
      "Ġelectricity": 8344,
      "ĠÐ¸ÑģÑĤÐ¾ÑĢÐ¸Ñı": 8345,
      "ĠÐ´ÐµÐ¼Ð¾Ð½": 8346,
      "Ġargument": 8347,
      "ÑĤÐµÑĢÐ½": 8348,
      "ÑĢÐµÐ¼Ñı": 8349,
      "ĠÐ»Ð¸ÑĨÐ": 8350,
      "ĠÐ»Ð¸ÑĨÐ¾": 8351,
      "Ð·ÑĭÐ²": 8352,
      "Ġfrequently": 8353,
      "Ġstorage": 8354,
      "Ġpromote": 8355,
      "],": 8356,
      "gypt": 8357,
      "Ġprefer": 8358,
      "orge": 8359,
      "Ġdepending": 8360,
      "ĠÐ½Ð°ÑģÐ»ÐµÐ´": 8361,
      "ĠÐ´Ð¾ÑģÑĤÐ°Ð²": 8362,
      "ĠÐ´ÐµÐºÐ°Ð±ÑĢÑı": 8363,
      "77": 8364,
      "Ġsynt": 8365,
      "Ġmiles": 8366,
      "cript": 8367,
      "Ġtips": 8368,
      "ĠÐłÑĥÑģ": 8369,
      "udd": 8370,
      "ĠÐ³ÑĢÑĥÐ¿Ð¿Ð°": 8371,
      "Ġpric": 8372,
      "ĠÐ¿ÑĢÐµÐ´Ð¿Ð¾Ð»Ð¾Ð¶": 8373,
      "Ġhighest": 8374,
      "Ð½Ð¾Ð²ÐµÐ½Ð¸Ñı": 8375,
      "Ġstar": 8376,
      "All": 8377,
      "oul": 8378,
      "ĠDecember": 8379,
      "ÑģÑĤÐ²Ð¸Ð¸": 8380,
      "Ġtrust": 8381,
      "Ġvital": 8382,
      "mal": 8383,
      "ĠÐ±ÐµÑģÑģ": 8384,
      "Ġreports": 8385,
      "ÑĪÐ¸ÐµÑģÑı": 8386,
      "Ġfilm": 8387,
      "ĠÐ½Ð°ÑĪÐµÐ³Ð¾": 8388,
      "ĠÐĶÐ¶Ð¾Ð½": 8389,
      "Ġorganic": 8390,
      "ĠEssay": 8391,
      "Ġtrig": 8392,
      "ĠRef": 8393,
      "ĠÐ½Ð°ÑĢ": 8394,
      "ĠÐ¿ÑĢÐµÐ´Ñĭ": 8395,
      "crib": 8396,
      "ĠÑĥÑģÑĤÑĢÐ¾Ð¹ÑģÑĤÐ²Ð°": 8397,
      "ĠÐ²ÑĭÐ¿Ð¾Ð»Ð½": 8398,
      "Ð´Ð¾Ð¼": 8399,
      "Ġpul": 8400,
      "ĠSub": 8401,
      "ĠÐ´Ð²ÑĥÐ¼Ñı": 8402,
      "uable": 8403,
      "ĠCong": 8404,
      "Ġcities": 8405,
      "poses": 8406,
      "gery": 8407,
      "Ð½Ð°Ð¿ÑĢÐ¸Ð¼ÐµÑĢ": 8408,
      "ĠÐºÐ°ÑĩÐµÑģÑĤÐ²Ð°": 8409,
      "ĠMex": 8410,
      "ĠÑĨÐ²ÐµÑĤÐ°": 8411,
      "ĠÐ¾ÑĤÑĢÐ°Ð¶": 8412,
      "Ð³Ð¸Ð¿": 8413,
      "ĠArch": 8414,
      "ĠAng": 8415,
      "Ð°ÑİÑīÐµÐ¹": 8416,
      "ĠÐ¶Ð¸Ð²Ð¾ÑĤÐ½ÑĭÑħ": 8417,
      "ĠÐ¿ÑĢÐ¾ÑĤÑıÐ¶ÐµÐ½Ð¸Ð¸": 8418,
      "ald": 8419,
      "ĠST": 8420,
      "ĠÑĩÐ°ÑģÑĤÑĮÑİ": 8421,
      "mary": 8422,
      "ĠÐ¿Ð¾ÑģÑĤÐµÐ¿": 8423,
      "ĠÐ±ÑĥÐ´ÑĤÐ¾": 8424,
      "ĠÐ½Ð°Ð³ÑĢÐ°": 8425,
      "ĠÐ¿Ð¾ÑģÐ²ÑıÑī": 8426,
      "Ð¸Ð²Ð°ÑĤÑĮÑģÑı": 8427,
      "ĠÐķÐ²ÑĢÐ¾Ð¿Ñĭ": 8428,
      "Ġchance": 8429,
      "ĠÐ´Ð¾Ð»Ð³Ð¾": 8430,
      "Ġfavor": 8431,
      "ĠÐ¸Ð½ÑĦÐµÐº": 8432,
      "Ġprepar": 8433,
      "rane": 8434,
      "ÑĤÑı": 8435,
      "Ġurban": 8436,
      "ĠRev": 8437,
      "ĠEnvironment": 8438,
      "ĠÑģÐ»ÐµÐ´ÑĥÑİÑīÐ¸Ðµ": 8439,
      "Ġdistinct": 8440,
      "wards": 8441,
      "Ġcombination": 8442,
      "Ġbackground": 8443,
      "ĠâĨ": 8444,
      "ĠÐ´ÑĭÑħ": 8445,
      "ĠÐºÐ¸ÑĤÐ°Ð¹": 8446,
      "Ġbran": 8447,
      "ĠÐ°ÑģÐ¿": 8448,
      "eding": 8449,
      "Ġadvanced": 8450,
      "Ġrunning": 8451,
      "ĠÐ´ÐµÑıÑĤÐµÐ»ÑĮÐ½Ð¾ÑģÑĤÑĮ": 8452,
      "comes": 8453,
      "ĠÑĢÐ°ÑģÑħÐ¾Ð´": 8454,
      "ĠÑģÑĤÐ°Ð½ÐµÑĤ": 8455,
      "Ġconnection": 8456,
      "89": 8457,
      "Ġregarding": 8458,
      "ĠÐ±Ð¸ÑĤ": 8459,
      "Ġ2021": 8460,
      "ĠWashington": 8461,
      "Ġdescribe": 8462,
      "Ġexpression": 8463,
      "ĠFrance": 8464,
      "Ġoutput": 8465,
      "ĠÑĤÐµÑħÐ½Ð¾Ð»Ð¾Ð³": 8466,
      "Ġwrong": 8467,
      "ĠTest": 8468,
      "ĠÐ¿ÐµÑĢÐ²ÑĭÐµ": 8469,
      "Ġstrategy": 8470,
      "ĠHouse": 8471,
      "ĠÐ¡Ð°Ð½": 8472,
      "ĠÑĥÐ¶Ð°Ñģ": 8473,
      "ĠÐ½Ð°Ð¶": 8474,
      "Ġformer": 8475,
      "ĠÐķÐ²": 8476,
      "ĠÐ»ÐµÐ²": 8477,
      "Ð»Ð¸ÐºÑĤ": 8478,
      "ĠÑĥÑħ": 8479,
      "clus": 8480,
      "ĠÐºÐ°ÐºÐ¸Ð¼": 8481,
      "ĠÐ»Ð¾Ðº": 8482,
      "ĠÐ¼Ð¾ÑĢÐµ": 8483,
      "Ġperformed": 8484,
      "ĠÐºÐ°ÐºÐ¸Ñħ": 8485,
      "Ġmilk": 8486,
      "Ġmale": 8487,
      "olid": 8488,
      "Ġexperiment": 8489,
      "ĠÑħÐ²Ð°ÑĤ": 8490,
      "ĠDef": 8491,
      "Ġdogs": 8492,
      "osystem": 8493,
      "ĠNovember": 8494,
      "Ġmedicine": 8495,
      "ĠÐ½Ð°ÐºÐ¾Ð½ÐµÑĨ": 8496,
      "Ġnotes": 8497,
      "ĠÐ¼Ð¾Ð³Ð»Ð°": 8498,
      "lege": 8499,
      "Ġinsect": 8500,
      "Ġsexual": 8501,
      "ĠÐ½ÐµÐ²Ð¾Ð·Ð¼Ð¾Ð¶Ð½Ð¾": 8502,
      "ĠÐ²Ð¸Ð½": 8503,
      "ĠÐ¼Ð°Ð»ÑĮ": 8504,
      "ĠÐ´Ð¸Ð²Ð¸Ð·": 8505,
      "76": 8506,
      "ĠÐ¾Ð¿ÐµÑĢÐ°ÑĨÐ¸Ð¸": 8507,
      "Ð¾Ð½Ð°Ñĩ": 8508,
      "ĠÐºÐ¾Ð»Ð¸ÑĩÐµÑģÑĤÐ²Ð°": 8509,
      "Ġhuge": 8510,
      "ÐµÐ´Ð»Ð¸Ð²": 8511,
      "ĠÐ¿Ð¸ÑģÐ°Ð»": 8512,
      "Ġwrote": 8513,
      "ÑıÑİÑĤÑģÑı": 8514,
      "ĠÐ·Ð°Ð´ÐµÑĢÐ¶": 8515,
      "ams": 8516,
      "Ġarticles": 8517,
      "Ð²Ð¸Ð»Ð¸": 8518,
      "ÐĲÐ½": 8519,
      "ĠData": 8520,
      "ĠMark": 8521,
      "Ġconducted": 8522,
      "Ġbed": 8523,
      "ĠÐ½Ð°Ð¼ÐµÑĢ": 8524,
      "Ġhighlight": 8525,
      "Ð¶ÐµÑĤ": 8526,
      "ĠÐ²ÑĭÑıÑģ": 8527,
      "antic": 8528,
      "Ġinternal": 8529,
      "ĠÐ»ÑİÐ´ÑıÐ¼": 8530,
      "ĠSan": 8531,
      "ĠÐ¥Ð¾ÑĤÑı": 8532,
      "ĠÐ´ÑĥÑĪ": 8533,
      "ta": 8534,
      "Ġboard": 8535,
      "ĠÐ»ÑİÐ´ÑĮÐ¼Ð¸": 8536,
      "ĠÐ²Ð¿ÐµÑĩÐ°ÑĤ": 8537,
      "ĠÑĨÐµÑĢÐºÐ¾Ð²": 8538,
      "Ġcharacters": 8539,
      "ĠÐ´ÐµÑĤÐ¸": 8540,
      "ĠÐ´ÐµÑģÑıÑĤÐ¸": 8541,
      "Ġassum": 8542,
      "Ġwin": 8543,
      "ĠÐ²Ð¾Ð·ÑĢÐ°ÑģÑĤÐµ": 8544,
      "Ġstore": 8545,
      "ÑĥÑı": 8546,
      "Ġinflamm": 8547,
      "Ð¾ÑĩÐ½Ð¸Ðº": 8548,
      "rete": 8549,
      "ios": 8550,
      "Ġcarried": 8551,
      "Ġvision": 8552,
      "amental": 8553,
      "ÐµÐºÑģÑĤ": 8554,
      "ÑĤÐ°ÑĨÐ¸Ð¸": 8555,
      "ÑĢÐ¸Ð¼": 8556,
      "ĠÐ²Ð¿ÐµÑĢÐµÐ´": 8557,
      "ĠÐºÐ¾Ð½ÐºÑĥÑĢ": 8558,
      "ĠÑģÐ½Ð°ÑĩÐ°Ð»Ð°": 8559,
      "roy": 8560,
      "Ġcore": 8561,
      "Ġbond": 8562,
      "des": 8563,
      "ras": 8564,
      "ĠÐ¸ÑģÐ¿Ð¾Ð»ÑĮÐ·Ð¾Ð²Ð°Ð½Ð¸Ðµ": 8565,
      "ĠDon": 8566,
      "Ð¾Ð»ÑĮÑĪÐµ": 8567,
      "spe": 8568,
      "Ġchallenge": 8569,
      "Ġreaction": 8570,
      "ĠÐ¿ÑĥÐ½ÐºÑĤ": 8571,
      "ĠÐ¿ÑĢÐ¾ÑĢ": 8572,
      "ÑĳÑĤÑģÑı": 8573,
      "Ð½Ð¸ÐºÐ°Ð¼": 8574,
      "Ġexhib": 8575,
      "Ġtour": 8576,
      "Ġinfections": 8577,
      "porary": 8578,
      "Ġsuggests": 8579,
      "agraph": 8580,
      "ÑĢÐµÐ·Ð¸Ð´": 8581,
      "Ġstarting": 8582,
      "ĠÐ¾Ð±ÑıÐ·Ð°ÑĤÐµÐ»ÑĮÐ½Ð¾": 8583,
      "Ġreality": 8584,
      "ĠÐºÑĢÐ°ÑģÐ¸Ð²": 8585,
      "Ġbecoming": 8586,
      "ĠÐºÐ¸Ð»": 8587,
      "Ġdiscover": 8588,
      "ĠÐ°Ñį": 8589,
      "net": 8590,
      "ĠÐ¿ÑĢÐ¾Ð±Ð»ÐµÐ¼Ð°": 8591,
      "ÑĥÑİÑīÐµÐµ": 8592,
      "ĠÐ³Ð»ÑĥÐ±Ð¾Ðº": 8593,
      "ĠDec": 8594,
      "Ġsurvey": 8595,
      "ava": 8596,
      "ĠÑģÑĤÐ¾Ð»ÑĮ": 8597,
      "ĠÑģÐ¾ÐºÑĢÐ°Ñī": 8598,
      "ĠDevelopment": 8599,
      "ĠÐºÐ¸ÑģÐ»Ð¾ÑĤ": 8600,
      "key": 8601,
      "Ġserve": 8602,
      "ĠÐŁÑĢÐ¾": 8603,
      "soft": 8604,
      "ĠInf": 8605,
      "ĠÑģÑĤÑĢÐ¾Ð¸ÑĤÐµÐ»ÑĮ": 8606,
      "omas": 8607,
      "bed": 8608,
      "Ġchronic": 8609,
      "ÑĭÑģ": 8610,
      "ĠÑģÐ¸ÑģÑĤÐµÐ¼Ðµ": 8611,
      "SA": 8612,
      "ÐŀÐ´Ð½Ð°ÐºÐ¾": 8613,
      "ION": 8614,
      "Ġseparate": 8615,
      "ÐµÐ´Ð¸Ð½Ð¸": 8616,
      "ĠOrgan": 8617,
      "ĠÐºÐ°ÑģÐ°ÐµÑĤÑģÑı": 8618,
      "ĠÐ¼Ð³": 8619,
      "ÑĩÐµÐ½ÑĮ": 8620,
      "ĠÐ¿Ð¾Ð´Ð°Ð²": 8621,
      "Ġmotiv": 8622,
      "Ġhappen": 8623,
      "ÐµÑĤÐµÑģÑĮ": 8624,
      "rum": 8625,
      "ĠÑĢÐµÑģÐ¿ÑĥÐ±Ð»Ð¸": 8626,
      "Ġbone": 8627,
      "lick": 8628,
      "Ð¾ÑĢÐ°Ñħ": 8629,
      "Ġmathemat": 8630,
      "Ġfigure": 8631,
      "ÑĦÐ¸ÐºÐ°ÑĨÐ¸Ð¸": 8632,
      "ĠÐ§ÐµÑĢ": 8633,
      "ÑģÐ¼": 8634,
      "ÐºÐ°Ðº": 8635,
      "ĠÐ±ÑĥÑĢ": 8636,
      "Ġbelieved": 8637,
      "ĠChurch": 8638,
      "ĠGeneral": 8639,
      "Ġtemperatures": 8640,
      "ĠÑĢÐ°Ð·Ð¼ÐµÑī": 8641,
      "ĠÐ¿ÑĢÐ¾Ð´Ð°Ð¶": 8642,
      "mp": 8643,
      "Ġproperly": 8644,
      "ĠÐ¾Ð±ÑīÐµÑģÑĤÐ²": 8645,
      "ĠÐ³Ð¾Ð²Ð¾ÑĢÑı": 8646,
      "ĠÐ¿ÑĢÐ¾Ð¸Ð·Ð¾ÑĪÐ»Ð¾": 8647,
      "ĠÐ·Ð½Ð°ÑĩÐµÐ½Ð¸Ñı": 8648,
      "ĠÐĶÐ¶Ðµ": 8649,
      "ĠÐ´Ð²Ð¸Ð¶ÐµÐ½Ð¸Ðµ": 8650,
      "ĠÑģÐµÐ»ÑĮ": 8651,
      "86": 8652,
      "ĠÐĲÐ½Ð³Ð»Ð¸": 8653,
      "ressive": 8654,
      "Ġded": 8655,
      "Ġpp": 8656,
      "ĠÐĴÐµÑĢ": 8657,
      "ya": 8658,
      "ĠÐ¿ÑĢÐ¸ÑĩÐ¸Ð½Ð°": 8659,
      "ĠÐ²Ð¾Ð·Ð½Ð¸ÐºÐ°ÐµÑĤ": 8660,
      "ĠÑģÐ°Ð¼ÑĭÐµ": 8661,
      "rick": 8662,
      "Ð°ÑĢÐµ": 8663,
      "ĠÐ¾ÑĤÐ½Ð¾ÑĪÐµÐ½Ð¸Ð¹": 8664,
      "ĠÐĴÐµÐ»Ð¸ÐºÐ¾Ð±ÑĢÐ¸ÑĤ": 8665,
      "ĠÑĨÐ¸ÑĦ": 8666,
      "Ġsolid": 8667,
      "ĠÑĢÑĥÐº": 8668,
      "ĠÐ¿ÐµÑĢÐ²ÑĭÐ¼": 8669,
      "ĠÐ¿Ð¾Ð»ÑĥÑĩÐµÐ½Ð¸Ñı": 8670,
      "emy": 8671,
      "ĠÐºÐ¾Ð½ÑĨÐµÐ½ÑĤ": 8672,
      "ĠÐłÑĥ": 8673,
      "DA": 8674,
      "nes": 8675,
      "ĠÐ¸Ð½ÑģÑĤ": 8676,
      "Ġrefers": 8677,
      "ĠÐ¾ÑģÐ²Ð¾Ð±": 8678,
      "Ġtim": 8679,
      "Ð¸Ð²Ð°Ð½Ð¸Ðµ": 8680,
      "Ð¾Ð·Ñĭ": 8681,
      "name": 8682,
      "Ġinput": 8683,
      "Ġelectrical": 8684,
      "Ð»Ð°Ð¹Ð½": 8685,
      "iant": 8686,
      "ĠÑĢÐ°Ð·Ð½ÑĭÐµ": 8687,
      "ĠÐ²ÑģÐµÐ¼Ñĥ": 8688,
      "Ġphase": 8689,
      "42": 8690,
      "Ġtreated": 8691,
      "Ġfig": 8692,
      "ĠÐ±ÑĢÐ¾Ð½": 8693,
      "ĠÐ¿ÑĢÐµÐ´Ð»Ð°Ð³": 8694,
      "ĠÐ²Ð·ÑĢÐ¾ÑģÐ»": 8695,
      "ĠÐ½ÐµÐ¾Ð±ÑħÐ¾Ð´Ð¸Ð¼Ð¾ÑģÑĤÐ¸": 8696,
      "ÐµÐºÐ¾Ð¼": 8697,
      "Ġappears": 8698,
      "ĠÐ¶Ð¸ÑĤÑĮ": 8699,
      "ĠÑĦÐ¾ÑĢÐ¼Ð°": 8700,
      "ĠÑģÐ»ÑĥÑĩÐ°ÐµÐ²": 8701,
      "Ġinfluen": 8702,
      "ĠÐ½Ð°ÑģÑĤÐ¾Ð»ÑĮÐºÐ¾": 8703,
      "ĠÑģÐ¿Ð¸Ñģ": 8704,
      "ĠÐºÐ¾ÑĤÐ¾ÑĢÐ¾Ð¼Ñĥ": 8705,
      "ĠBra": 8706,
      "Ġready": 8707,
      "Ð±Ð¾Ð¹": 8708,
      "Ġfields": 8709,
      "ĠÑĦÐ°ÐºÑĤ": 8710,
      "Ð¾Ð»ÑĮÐ·Ð¾Ð²": 8711,
      "Ð¾Ð¿Ð¸Ñģ": 8712,
      "Ð»ÑĥÐ¶": 8713,
      "Ġchanging": 8714,
      "board": 8715,
      "ĠÐºÐ¾Ð½ÑĨÐµÐ¿": 8716,
      "iated": 8717,
      "ĠÑĨÐµÐ¿": 8718,
      "Ð¸Ð½Ð°Ð»ÑĮ": 8719,
      "Ġresulting": 8720,
      "ÐłÐĲ": 8721,
      "ĠÐ±ÐµÑģÐ¿Ð»Ð°ÑĤ": 8722,
      "ĠÐ²ÑĭÐ´Ð°": 8723,
      "ĠÐ¸Ð¼ÐµÐ»": 8724,
      "ocal": 8725,
      "anging": 8726,
      "ĠÐ´ÐµÐ½ÐµÐ³": 8727,
      "aters": 8728,
      "ias": 8729,
      "Ð²ÑĤÐ¾ÑĢ": 8730,
      "Ð°ÑĤÐ¾Ð¼": 8731,
      "ĠÐ¼Ð°Ð½": 8732,
      "ĠÐ½Ð°ÑĩÐ°Ð»Ð¸": 8733,
      "merican": 8734,
      "agram": 8735,
      "ĠÑģÐ²ÐµÐ´": 8736,
      "ĠÑĤÐµÑĢÑĢÐ¾ÑĢ": 8737,
      "Ð¸Ð¾Ð½": 8738,
      "ĠÐ¦ÐµÐ½ÑĤ": 8739,
      "ĠÐ¿Ð°Ð¼ÑıÑĤÐ¸": 8740,
      "ĠÐ¿Ð°ÑĢÐ°Ð¼ÐµÑĤ": 8741,
      "Ġmag": 8742,
      "Ġheavy": 8743,
      "Ġnarr": 8744,
      "respond": 8745,
      "ĠÐ¾Ð±ÑıÐ·Ð°Ð½": 8746,
      "Ġtrack": 8747,
      "ĠÐ¿ÑĢÐµÐ¿": 8748,
      "Ġ32": 8749,
      "cel": 8750,
      "ÐŁÐ¾Ð»": 8751,
      "ificial": 8752,
      "riculum": 8753,
      "urt": 8754,
      "ĠÐ¿ÑĢÐ¾ÐµÐºÑĤÐ°": 8755,
      "ÐµÐ·Ð¶": 8756,
      "ĠÐ½Ð¸ÐºÐ°ÐºÐ¸Ñħ": 8757,
      "ĠIsrael": 8758,
      "ĠÐ¿ÑĢÐ°Ð²Ð¸ÑĤÐµÐ»ÑĮÑģÑĤÐ²Ð°": 8759,
      "ĠÐ²Ð°Ð»": 8760,
      "ĠÑĢÐµÑĪÐ¸Ð»": 8761,
      "ĠCoun": 8762,
      "ĠÑįÐ¿Ð¾Ñħ": 8763,
      "Ġmotor": 8764,
      "ĠÐ¾ÑĤÐ½Ð¾ÑģÐ¸ÑĤÑģÑı": 8765,
      "Ġther": 8766,
      "ĠÑģÐ°Ð¼Ð¾Ð»": 8767,
      "ĠÐ¼Ð¸ÑģÑģ": 8768,
      "hetic": 8769,
      "ÑĩÐºÐ¸": 8770,
      "ĠÑĢÐµÐ»Ð¸Ð³Ð¸Ð¾Ð·": 8771,
      "03": 8772,
      "rans": 8773,
      "ĠÑįÐ»ÐµÐ¼ÐµÐ½ÑĤ": 8774,
      "onic": 8775,
      "Ġexperts": 8776,
      "Ġinvolve": 8777,
      "Ġdatab": 8778,
      "However": 8779,
      "ĠÐ²Ð¸Ð´Ñĥ": 8780,
      "ĠThus": 8781,
      "och": 8782,
      "Ġdidn": 8783,
      "aign": 8784,
      "ĠElect": 8785,
      "Ð±Ð¾Ð¼": 8786,
      "ÑĢÐ¸Ðº": 8787,
      "Ġisol": 8788,
      "Ġrevolution": 8789,
      "Ġhappens": 8790,
      "Ã¡": 8791,
[...]
