{
  "version": "1.0",
  "truncation": null,
  "padding": null,
  "added_tokens": [
    {
      "id": 0,
      "content": "<|endoftext|>",
      "single_word": false,
      "lstrip": false,
      "rstrip": false,
      "normalized": false,
      "special": true
    }
  ],
  "normalizer": null,
  "pre_tokenizer": {
    "type": "ByteLevel",
    "add_prefix_space": false,
    "trim_offsets": true,
    "use_regex": true
  },
  "post_processor": {
    "type": "ByteLevel",
    "add_prefix_space": true,
    "trim_offsets": false,
    "use_regex": true
  },
  "decoder": null,
  "model": {
    "type": "BPE",
    "dropout": null,
    "unk_token": null,
    "continuing_subword_prefix": null,
    "end_of_word_suffix": null,
    "fuse_unk": false,
    "byte_fallback": false,
    "ignore_merges": false,
    "vocab": {
      "<|endoftext|>": 0,
      "!": 1,
      "\"": 2,
      "#": 3,
      "$": 4,
      "%": 5,
      "&": 6,
      "'": 7,
      "(": 8,
      ")": 9,
      "*": 10,
      "+": 11,
      ",": 12,
      "-": 13,
      ".": 14,
      "/": 15,
      "0": 16,
      "1": 17,
      "2": 18,
      "3": 19,
      "4": 20,
      "5": 21,
      "6": 22,
      "7": 23,
      "8": 24,
      "9": 25,
      ":": 26,
      ";": 27,
      "<": 28,
      "=": 29,
      ">": 30,
      "?": 31,
      "@": 32,
      "A": 33,
      "B": 34,
      "C": 35,
      "D": 36,
      "E": 37,
      "F": 38,
      "G": 39,
      "H": 40,
      "I": 41,
      "J": 42,
      "K": 43,
      "L": 44,
      "M": 45,
      "N": 46,
      "O": 47,
      "P": 48,
      "Q": 49,
      "R": 50,
      "S": 51,
      "T": 52,
      "U": 53,
      "V": 54,
      "W": 55,
      "X": 56,
      "Y": 57,
      "Z": 58,
      "[": 59,
      "\\": 60,
      "]": 61,
      "^": 62,
      "_": 63,
      "`": 64,
      "a": 65,
      "b": 66,
      "c": 67,
      "d": 68,
      "e": 69,
      "f": 70,
      "g": 71,
      "h": 72,
      "i": 73,
      "j": 74,
      "k": 75,
      "l": 76,
      "m": 77,
      "n": 78,
      "o": 79,
      "p": 80,
      "q": 81,
      "r": 82,
      "s": 83,
      "t": 84,
      "u": 85,
      "v": 86,
      "w": 87,
      "x": 88,
      "y": 89,
      "z": 90,
      "{": 91,
      "|": 92,
      "}": 93,
      "~": 94,
      "¡": 95,
      "¢": 96,
      "£": 97,
      "¤": 98,
      "¥": 99,
      "¦": 100,
      "§": 101,
      "¨": 102,
      "©": 103,
      "ª": 104,
      "«": 105,
      "¬": 106,
      "®": 107,
      "¯": 108,
      "°": 109,
      "±": 110,
      "²": 111,
      "³": 112,
      "´": 113,
      "µ": 114,
      "¶": 115,
      "·": 116,
      "¸": 117,
      "¹": 118,
      "º": 119,
      "»": 120,
      "¼": 121,
      "½": 122,
      "¾": 123,
      "¿": 124,
      "À": 125,
      "Á": 126,
      "Â": 127,
      "Ã": 128,
      "Ä": 129,
      "Å": 130,
      "Æ": 131,
      "Ç": 132,
      "È": 133,
      "É": 134,
      "Ê": 135,
      "Ë": 136,
      "Ì": 137,
      "Í": 138,
      "Î": 139,
      "Ï": 140,
      "Ð": 141,
      "Ñ": 142,
      "Ò": 143,
      "Ó": 144,
      "Ô": 145,
      "Õ": 146,
      "Ö": 147,
      "×": 148,
      "Ø": 149,
      "Ù": 150,
      "Ú": 151,
      "Û": 152,
      "Ü": 153,
      "Ý": 154,
      "Þ": 155,
      "ß": 156,
      "à": 157,
      "á": 158,
      "â": 159,
      "ã": 160,
      "ä": 161,
      "å": 162,
      "æ": 163,
      "ç": 164,
      "è": 165,
      "é": 166,
      "ê": 167,
      "ë": 168,
      "ì": 169,
      "í": 170,
      "î": 171,
      "ï": 172,
      "ð": 173,
      "ñ": 174,
      "ò": 175,
      "ó": 176,
      "ô": 177,
      "õ": 178,
      "ö": 179,
      "÷": 180,
      "ø": 181,
      "ù": 182,
      "ú": 183,
      "û": 184,
      "ü": 185,
      "ý": 186,
      "þ": 187,
      "ÿ": 188,
      "Ā": 189,
      "ā": 190,
      "Ă": 191,
      "ă": 192,
      "Ą": 193,
      "ą": 194,
      "Ć": 195,
      "ć": 196,
      "Ĉ": 197,
      "ĉ": 198,
      "Ċ": 199,
      "ċ": 200,
      "Č": 201,
      "č": 202,
      "Ď": 203,
      "ď": 204,
      "Đ": 205,
      "đ": 206,
      "Ē": 207,
      "ē": 208,
      "Ĕ": 209,
      "ĕ": 210,
      "Ė": 211,
      "ė": 212,
      "Ę": 213,
      "ę": 214,
      "Ě": 215,
      "ě": 216,
      "Ĝ": 217,
      "ĝ": 218,
      "Ğ": 219,
      "ğ": 220,
      "Ġ": 221,
      "ġ": 222,
      "Ģ": 223,
      "ģ": 224,
      "Ĥ": 225,
      "ĥ": 226,
      "Ħ": 227,
      "ħ": 228,
      "Ĩ": 229,
      "ĩ": 230,
      "Ī": 231,
      "ī": 232,
      "Ĭ": 233,
      "ĭ": 234,
      "Į": 235,
      "į": 236,
      "İ": 237,
      "ı": 238,
      "Ĳ": 239,
      "ĳ": 240,
      "Ĵ": 241,
      "ĵ": 242,
      "Ķ": 243,
      "ķ": 244,
      "ĸ": 245,
      "Ĺ": 246,
      "ĺ": 247,
      "Ļ": 248,
      "ļ": 249,
      "Ľ": 250,
      "ľ": 251,
      "Ŀ": 252,
      "ŀ": 253,
      "Ł": 254,
      "ł": 255,
      "Ń": 256,
      "ĠÙ": 257,
      "ÙĬ": 258,
      "ĦØ": 259,
      "ÙĦØ": 260,
      "Ġt": 261,
      "ÙĨ": 262,
      "Ùħ": 263,
      "§Ø": 264,
      "Ġa": 265,
      "§ÙĦØ": 266,
      "Ø§Ø": 267,
      "Ø§ÙĦØ": 268,
      "Ø±": 269,
      "in": 270,
      "ÙĪ": 271,
      "ĠØ§ÙĦØ": 272,
      "he": 273,
      "Øª": 274,
      "Ø©": 275,
      "Ø¨": 276,
      "Ø¹": 277,
      "re": 278,
      "Ø¯": 279,
      "on": 280,
      "er": 281,
      "Ġthe": 282,
      "Ùĩ": 283,
      "Ġs": 284,
      "at": 285,
      "ĠÙħ": 286,
      "ÙĤ": 287,
      "Ġo": 288,
      "Ġc": 289,
      "ĠÙĪ": 290,
      "Ġw": 291,
      "nd": 292,
      "Ùĥ": 293,
      "Ø³": 294,
      "it": 295,
      "es": 296,
      "ou": 297,
      "en": 298,
      "or": 299,
      "Ùģ": 300,
      "ing": 301,
      "Ø£": 302,
      "is": 303,
      "Ġp": 304,
      "Ġf": 305,
      "Ġb": 306,
      "ØŃ": 307,
      "ĦÙħ": 308,
      "an": 309,
      "al": 310,
      "ÙĦÙħ": 311,
      "Ġto": 312,
      "Ġm": 313,
      "ed": 314,
      "Ġand": 315,
      "ĠØ¨": 316,
      "Ġin": 317,
      "ar": 318,
      "ĠØ£": 319,
      "Ø¬": 320,
      "§ÙĦÙħ": 321,
      "Ø§ÙĦÙħ": 322,
      "Ġof": 323,
      "ĠÙģ": 324,
      "Ġd": 325,
      "ic": 326,
      "ĠØ¹": 327,
      "le": 328,
      "ØĮ": 329,
      "ÙĬØ©": 330,
      "ion": 331,
      "Ùī": 332,
      "ĠØª": 333,
      "ĠØ§ÙĦÙħ": 334,
      "om": 335,
      "Ø§Øª": 336,
      "Ġh": 337,
      "as": 338,
      "âĢ": 339,
      "Ġth": 340,
      "Øµ": 341,
      "Ø·": 342,
      "§ÙĨ": 343,
      "Ġy": 344,
      "Ø´": 345,
      "ent": 346,
      "ĠÙģÙĬ": 347,
      "Ø®": 348,
      "il": 349,
      "ĠÙħÙĨ": 350,
      "Ġe": 351,
      "Ø§ÙĨ": 352,
      "ĠÙĬ": 353,
      "ro": 354,
      "Ġyou": 355,
      "Ø§Ø±": 356,
      "Ġre": 357,
      "ve": 358,
      "Ġl": 359,
      "st": 360,
      "ct": 361,
      "ĦÙī": 362,
      "ÙĦÙī": 363,
      "Ø¥": 364,
      "Ġn": 365,
      "ÙĬÙĨ": 366,
      "Ø¶": 367,
      "et": 368,
      "Ġg": 369,
      "§Ùħ": 370,
      "Ø°": 371,
      "ly": 372,
      "ĠÙĦ": 373,
      "Ø²": 374,
      "Ġis": 375,
      "ĠØ¥": 376,
      "ĠT": 377,
      "id": 378,
      "Ġfor": 379,
      "ÙĩØ": 380,
      "Ġbe": 381,
      "ĦÙĬ": 382,
      "ÙĦÙĬ": 383,
      "ĠØ§ÙĦØª": 384,
      "Ø«": 385,
      "ÙĩØ§": 386,
      "ut": 387,
      "ur": 388,
      "ot": 389,
      "ĠI": 390,
      "Ø§Ùħ": 391,
      "ce": 392,
      "Ġon": 393,
      "ow": 394,
      "us": 395,
      "ÙĬØ±": 396,
      "im": 397,
      "ay": 398,
      "ĠÙĦØ": 399,
      "ig": 400,
      "ĠÙĥ": 401,
      "ĠS": 402,
      "ation": 403,
      "ol": 404,
      "ra": 405,
      "ĠA": 406,
      "ĠØ§ÙĦØ£": 407,
      "ch": 408,
      "ith": 409,
      "ver": 410,
      "Ġthat": 411,
      "ĠC": 412,
      "âĢĻ": 413,
      "el": 414,
      "ÙĪÙĨ": 415,
      "Ġst": 416,
      "Ùİ": 417,
      "ĠØŃ": 418,
      "Ġwith": 419,
      "ĦÙĥ": 420,
      "ÙĦÙĥ": 421,
      "am": 422,
      "ĠÙĩ": 423,
      "ĠØ¹ÙĦÙī": 424,
      "ir": 425,
      "ĠØ§ÙĦØ¹": 426,
      "ĠØ³": 427,
      "Ø§Ø¯": 428,
      "Ġit": 429,
      "Ø±ÙĬ": 430,
      "Ø§Ø¨": 431,
      "ad": 432,
      "Ġpro": 433,
      "Ø§Ø¡": 434,
      "ĠÙĤ": 435,
      "ers": 436,
      "ĠØ£ÙĨ": 437,
      "ul": 438,
      "Ø§Ø³": 439,
      "Ġal": 440,
      "ĠÙĪØ§ÙĦØ": 441,
      "ĠÙĨ": 442,
      "Ġan": 443,
      "Øº": 444,
      "Ġas": 445,
      "Ġhe": 446,
      "ÙħØ": 447,
      "Ġare": 448,
      "ess": 449,
      "if": 450,
      "se": 451,
      "ÙħØ§": 452,
      "ĦÙĤ": 453,
      "ÙĦÙĤ": 454,
      "Ùĭ": 455,
      "Ġcon": 456,
      "ĠM": 457,
      "ÙĪØ±": 458,
      "ill": 459,
      "ÙĦØ§": 460,
      "un": 461,
      "Ġyour": 462,
      "ÙĪÙ": 463,
      "ÙĪÙĦ": 464,
      "Ø§Ø¦": 465,
      "Ġwh": 466,
      "Ġor": 467,
      "ĠP": 468,
      "ke": 469,
      "Ø§Ø¹": 470,
      "ĦÙģ": 471,
      "ÙĦÙģ": 472,
      "ment": 473,
      "ge": 474,
      "Ġcom": 475,
      "ate": 476,
      "ÙĨØ": 477,
      "ĠB": 478,
      "pp": 479,
      "Ġha": 480,
      "Ġwe": 481,
      "ter": 482,
      "ĦÙĪ": 483,
      "ÙĦÙĪ": 484,
      "ĠØ¬": 485,
      "Ùĳ": 486,
      "ab": 487,
      "ÙĦØ§Ø": 488,
      "oo": 489,
      "Ġex": 490,
      "ÙĬØ¯": 491,
      "ĠØ§ÙĦØ³": 492,
      "est": 493,
      "her": 494,
      "Ġ(": 495,
      "Ġ2": 496,
      "ĠW": 497,
      "ĠâĢ": 498,
      "ĠØ§ÙĦØŃ": 499,
      "ore": 500,
      "Ġ1": 501,
      "ity": 502,
      "Ġcan": 503,
      "ĠThe": 504,
      "ort": 505,
      "ive": 506,
      "ÙĩÙħ": 507,
      "§Ùģ": 508,
      "ure": 509,
      "ac": 510,
      "ĦÙĨ": 511,
      "ÙĦÙĨ": 512,
      "igh": 513,
      "qu": 514,
      "Ġde": 515,
      "§ÙĦÙĤ": 516,
      "Ø§ÙĦÙĤ": 517,
      "Ġne": 518,
      "Ġv": 519,
      "rom": 520,
      "ant": 521,
      "ies": 522,
      "pe": 523,
      "Ġse": 524,
      "ĠØ¯": 525,
      "ĠØ®": 526,
      "Ø§Ùģ": 527,
      "ĠD": 528,
      "ĠH": 529,
      "ist": 530,
      "Ġat": 531,
      "Ø³Øª": 532,
      "ĠØ´": 533,
      "ÙĦØ©": 534,
      "ld": 535,
      "ĠF": 536,
      "ust": 537,
      "ĠØ±": 538,
      "ĠØ¹ÙĨ": 539,
      "ri": 540,
      "ÙĪÙħ": 541,
      "Ġsu": 542,
      "ĠØ¥ÙĦÙī": 543,
      "ain": 544,
      "§ÙĦÙĨ": 545,
      "Ø§ÙĦÙĨ": 546,
      "art": 547,
      "op": 548,
      "ÙĬØ": 549,
      "ĠÙħØ¹": 550,
      "§ÙĦÙģ": 551,
      "ÙĨØ§": 552,
      "Ø§ÙĦÙģ": 553,
      "ØªÙħ": 554,
      "ĠR": 555,
      "ĠØ§ÙĦÙĤ": 556,
      "Ġus": 557,
      "ĠØ§ÙĦØ¨": 558,
      "ĠÙĦÙĦØ": 559,
      "Ø¸": 560,
      "em": 561,
      "th": 562,
      "Ġhave": 563,
      "oc": 564,
      "ĠØ§ÙĦØ¥": 565,
      "Ùı": 566,
      "ĠØ§ÙĦØ¬": 567,
      "os": 568,
      "Ġch": 569,
      "Ġr": 570,
      "§ÙĤ": 571,
      "ĠØĮ": 572,
      "Ġfrom": 573,
      "Ø°Ø": 574,
      "um": 575,
      "ÙĲ": 576,
      "Ġsh": 577,
      "ĠØ§ÙĦØ´": 578,
      "Ø°Ø§": 579,
      "ĦÙĩ": 580,
      "ÙĦÙĩ": 581,
      "ĠL": 582,
      "ĠE": 583,
      "nt": 584,
      "and": 585,
      "ĠØ§ÙĦØ¯": 586,
      "Ġthis": 587,
      "ial": 588,
      "Ġnot": 589,
      "ight": 590,
      "ĠØ§ÙĦØ§Ø": 591,
      "ĠG": 592,
      "Ø±Ùĥ": 593,
      "Ġle": 594,
      "Ġwill": 595,
      "Ø±Ø©": 596,
      "ĠØ§ÙĦÙĨ": 597,
      "Ġby": 598,
      "§ÙĦÙĪ": 599,
      "res": 600,
      "Ø§ÙĦÙĪ": 601,
      "Ø§ØŃ": 602,
      "Ġu": 603,
      "ĠØ§ÙĦØ±": 604,
      "Ø±Ø¨": 605,
      "ÙĪØ¯": 606,
      "ect": 607,
      "iv": 608,
      "Ġwas": 609,
      "Ø¹Ø¯": 610,
      "§ÙĦÙĥ": 611,
      "ome": 612,
      "ĠØ§ÙĦÙģ": 613,
      "Ġpl": 614,
      "ud": 615,
      "per": 616,
      "âĢĿ": 617,
      "Ø§ÙĦÙĥ": 618,
      "Ø§ÙĤ": 619,
      "out": 620,
      "ĠN": 621,
      "ÙĬÙħ": 622,
      "ÙĤØ¯": 623,
      "ard": 624,
      "our": 625,
      "all": 626,
      "ide": 627,
      "Ø§Ø¬": 628,
      "Ġwor": 629,
      "ĠØ§ÙĦØ®": 630,
      "od": 631,
      "ÙĬÙ": 632,
      "Ġ20": 633,
      "Ġen": 634,
      "ine": 635,
      "ĠO": 636,
      "ÙĬÙĦ": 637,
      "ĠØ£ÙĪ": 638,
      "Ġab": 639,
      "ĠØµ": 640,
      "king": 641,
      "ost": 642,
      "ĠÙħØ": 643,
      "ÙħÙĨ": 644,
      "pt": 645,
      "Ġall": 646,
      "ĠØ§ÙĦÙĪ": 647,
      "ions": 648,
      "ĠØ§ÙĦØªÙĬ": 649,
      "ÙĬØ§": 650,
      "Ġad": 651,
      "are": 652,
      "ÙĥÙĨ": 653,
      "ÙĪÙĤ": 654,
      "rou": 655,
      "Ġcomp": 656,
      "Ġma": 657,
      "ĠØ¨Ø§ÙĦØ": 658,
      "§ÙĦÙĬ": 659,
      "ÙĬØ¹": 660,
      "ould": 661,
      "age": 662,
      "gh": 663,
      "ØŃØ¯": 664,
      "Ø§ÙĦÙĬ": 665,
      "ĠØ§ÙĦÙĥ": 666,
      "Ø¨Ø±": 667,
      "Ø§Øµ": 668,
      "able": 669,
      "Ġtheir": 670,
      "ff": 671,
      "ast": 672,
      "Ġdo": 673,
      "ally": 674,
      "ØªØ±": 675,
      "ÙħÙ": 676,
      "The": 677,
      "Ø¦": 678,
      "ther": 679,
      "Ġj": 680,
      "ÙħÙĦ": 681,
      "ere": 682,
      "ĠâĢľ": 683,
      "ip": 684,
      "ell": 685,
      "Ġint": 686,
      "ĠØ§ÙĦØµ": 687,
      "ag": 688,
      "ie": 689,
      "Ġwhe": 690,
      "ice": 691,
      "ÙĴ": 692,
      "cc": 693,
      "ÙħØ©": 694,
      "ĠØ§ÙĦØ°": 695,
      "Ġhas": 696,
      "iz": 697,
      "Ġim": 698,
      "Ø¹Ø©": 699,
      "ĠÙĪØª": 700,
      "00": 701,
      "ÙĬØ³": 702,
      "ÙĬÙĤ": 703,
      "ear": 704,
      "Ġk": 705,
      "ĠØ·": 706,
      "Ø±ÙĪ": 707,
      "orm": 708,
      "ance": 709,
      "Ġ\"": 710,
      "du": 711,
      "act": 712,
      "pl": 713,
      "Ġmore": 714,
      "ire": 715,
      "ks": 716,
      "ĠÙħØ§": 717,
      "Ġour": 718,
      "ÙģÙĬ": 719,
      "ind": 720,
      "Ġthey": 721,
      "Ġcont": 722,
      "Ġout": 723,
      "so": 724,
      "Ø°Ùĩ": 725,
      "ich": 726,
      "Ġ.": 727,
      "ry": 728,
      "ĠÙĦÙħ": 729,
      "ÙĪØ": 730,
      "one": 731,
      "og": 732,
      "ĠU": 733,
      "ime": 734,
      "Ġme": 735,
      "ated": 736,
      "ous": 737,
      "ans": 738,
      "Ġinc": 739,
      "very": 740,
      "Ø§Ø±Ø©": 741,
      "Ġso": 742,
      "Ġcl": 743,
      "ĠØ§ÙĨ": 744,
      "ĠTh": 745,
      "ong": 746,
      "Ø§Ø·": 747,
      "ib": 748,
      "Ġbut": 749,
      "Ġup": 750,
      "ign": 751,
      "ĠÙĦØ§": 752,
      "Ġte": 753,
      "ĠØ§Ø³": 754,
      "Ø³Ø¨": 755,
      "ations": 756,
      "ack": 757,
      "Ø¤": 758,
      "Ø°ÙĦÙĥ": 759,
      "ite": 760,
      "ail": 761,
      "Ġapp": 762,
      "Ø§Ø¶": 763,
      "ult": 764,
      "ÙĤØ©": 765,
      "Ġun": 766,
      "ood": 767,
      "Ġres": 768,
      "Ġman": 769,
      "ÙĢ": 770,
      "ĠJ": 771,
      "ĠIn": 772,
      "ru": 773,
      "ÙĪØ§": 774,
      "form": 775,
      "ÙĪÙĬ": 776,
      "ike": 777,
      "Ġalso": 778,
      "Ġoff": 779,
      "ÙĬÙģ": 780,
      "ĠØ§ÙĦØ·": 781,
      "ĠØº": 782,
      "ence": 783,
      "Ø¯Ø©": 784,
      "Ġfe": 785,
      "reat": 786,
      "ep": 787,
      "ĠY": 788,
      "Ġone": 789,
      "ÙĪØ¨": 790,
      "ĠÙĩØ°Ø§": 791,
      "ØªÙĩ": 792,
      "ace": 793,
      "Ġabout": 794,
      "vel": 795,
      "ĠÙĪØ£": 796,
      "Ġwhich": 797,
      "§Ùĩ": 798,
      "ÙħØ±": 799,
      "ase": 800,
      "Ø¹Ø±": 801,
      "ia": 802,
      "ical": 803,
      "ll": 804,
      "Ġother": 805,
      "erv": 806,
      "Ġimp": 807,
      "ame": 808,
      "ĠÙĥØ§ÙĨ": 809,
      "ĦÙĬØ©": 810,
      "ÙĦÙĬØ©": 811,
      "Ġqu": 812,
      "Ġper": 813,
      "ile": 814,
      "..": 815,
      "ÙĨØª": 816,
      "Ø®Ø±": 817,
      "Ġwho": 818,
      "Ġany": 819,
      "Ø¯Ùħ": 820,
      "Ø¯Ø": 821,
      "ĠØ¹ÙĦÙĬ": 822,
      "ach": 823,
      "Ġgo": 824,
      "ÙĥÙĪÙĨ": 825,
      "Ġsp": 826,
      "Ø§Ùĩ": 827,
      "ÙĪØ¬": 828,
      "ÙĨÙĬ": 829,
      "ition": 830,
      "Ġsa": 831,
      "Ġtime": 832,
      "ree": 833,
      "ÙĥÙ": 834,
      "ÙĥÙĦ": 835,
      "ØªÙĬ": 836,
      "Ø¢": 837,
      "ĠØ§ÙĦÙħØª": 838,
      "ÙĦØ¨": 839,
      "Ġ3": 840,
      "Ġdis": 841,
      "Ġev": 842,
      "ĠÙĩØ°Ùĩ": 843,
      "ount": 844,
      "Ġpart": 845,
      "Ø§Ø²": 846,
      "ÙĦØ§Ùħ": 847,
      "ary": 848,
      "ays": 849,
      "ĠIt": 850,
      "ap": 851,
      "Ġlike": 852,
      "ĠØ£ÙĬ": 853,
      "ĠØªØŃ": 854,
      "ĠÙĪÙħ": 855,
      "ÙĥØ±": 856,
      "ents": 857,
      "ÙĪØ³": 858,
      "ction": 859,
      "Ø¨ÙĬ": 860,
      "ass": 861,
      "Ø¯ÙĬØ¯": 862,
      "ress": 863,
      "ue": 864,
      "Ġthem": 865,
      "ĠÙħØŃ": 866,
      "Ġneed": 867,
      "ĠSt": 868,
      "Ġtra": 869,
      "end": 870,
      "'s": 871,
      "ors": 872,
      "now": 873,
      "Ø¯Ø§": 874,
      "Ġta": 875,
      "ĠÙĪØ§ÙĦÙħ": 876,
      "ber": 877,
      "ark": 878,
      "ĠâĢĵ": 879,
      "ÙĬØ«": 880,
      "Ġpre": 881,
      "ÙĪÙģ": 882,
      "Ġacc": 883,
      "Ġmy": 884,
      "ĠØ§ÙĦØ°ÙĬ": 885,
      "ÙĦØ§Ù": 886,
      "ÙĦØ§ÙĦ": 887,
      "Ġnew": 888,
      "Ø§Ø®": 889,
      "Ø§Ø¯Ø©": 890,
      "ĠK": 891,
      "ĠÙĪÙĩ": 892,
      "Ġsome": 893,
      "Ġget": 894,
      "av": 895,
      "ings": 896,
      "ÙĬØ§Øª": 897,
      "Ġ-": 898,
      "ØªØ¨": 899,
      "Ġprov": 900,
      "ĠØªØ¹": 901,
      "ÙĪØ¹": 902,
      "ub": 903,
      "ord": 904,
      "ook": 905,
      "ÙĨØ¸": 906,
      "ĠÙĪØ§ÙĦØª": 907,
      "Ø´Ø±": 908,
      "ÙĦØ³": 909,
      "ĠV": 910,
      "Ġspe": 911,
      "ĠØ«": 912,
      "Ġwhen": 913,
      "lp": 914,
      "Ġrec": 915,
      "Ġpe": 916,
      "Ġhis": 917,
      "ens": 918,
      "Ġover": 919,
      "Ġits": 920,
      "Ġcomm": 921,
      "ĠØ¨ÙĬÙĨ": 922,
      "ĠØ§ÙĦØ«": 923,
      "Ġif": 924,
      "Ġyear": 925,
      "Ġar": 926,
      "ĠØ¥ÙĨ": 927,
      "ose": 928,
      "Ġem": 929,
      "ĦÙĦÙĩ": 930,
      "ÙĦÙĦÙĩ": 931,
      "ick": 932,
      "Ġthere": 933,
      "Ġhelp": 934,
      "ove": 935,
      "ild": 936,
      "Ġsc": 937,
      "Ø³Ùħ": 938,
      "Ġwork": 939,
      "ne": 940,
      "ÙĬØ±Ø©": 941,
      "ÙİÙĳ": 942,
      "nder": 943,
      "Ø§Ø±Ø§Øª": 944,
      "ÙĬØª": 945,
      "Ø¨Ø©": 946,
      "Ġro": 947,
      "ĠÙĬÙħ": 948,
      "ĠÙĦØª": 949,
      "red": 950,
      "Ø¯Ø±": 951,
      "ĠØ§ÙĦÙĬ": 952,
      "ĠØ§Ø³Øª": 953,
      "low": 954,
      "anc": 955,
      "ĠThis": 956,
      "§Ùĥ": 957,
      "Ġinto": 958,
      "ĠÙĩÙĪ": 959,
      "§ÙĦÙĦÙĩ": 960,
      "Ø§ÙĦÙĦÙĩ": 961,
      "ĠCh": 962,
      "ĠÙħØ¬": 963,
      "Ø§ÙĨÙĬ": 964,
      "Ġhow": 965,
      "Ġwhat": 966,
      "ĠØ°ÙĦÙĥ": 967,
      "ual": 968,
      "oy": 969,
      "ck": 970,
      "ater": 971,
      "ÙĦØª": 972,
      "Ġag": 973,
      "Ġmay": 974,
      "Ġdes": 975,
      "ob": 976,
      "ments": 977,
      "Ø¨Ù": 978,
      "Ġbeen": 979,
      "Ø¨ÙĦ": 980,
      "rough": 981,
      "lud": 982,
      "Ġknow": 983,
      "§ÙĦÙĩ": 984,
      "Ġ201": 985,
      "Ø§ÙĦÙĩ": 986,
      "ond": 987,
      "ÙĥØ§ÙĨ": 988,
      "Ø«Ø±": 989,
      "ĠØ¨Ø¹Ø¯": 990,
      "ople": 991,
      "Ġind": 992,
      "ov": 993,
      "Ġadd": 994,
      "Ġbec": 995,
      "Ø§Ùĥ": 996,
      "int": 997,
      "ĠØ¶": 998,
      "Ġtr": 999,
      "ĠØ§ÙĦÙħÙĨ": 1000,
      "ish": 1001,
      "Ġthan": 1002,
      "ØµØ±": 1003,
      "ĠØ§ÙĦÙĦÙĩ": 1004,
      "Ġexper": 1005,
      "aus": 1006,
      "ĠÙĥÙ": 1007,
      "ĠÙĥÙĦ": 1008,
      "Ġmake": 1009,
      "ÙĩØ±": 1010,
      "ĠÙħØª": 1011,
      "ang": 1012,
      "ning": 1013,
      "ĠØ²": 1014,
      "ÙĨØ©": 1015,
      "vers": 1016,
      "ÙĬØ²": 1017,
      "ÙĦØ§Øª": 1018,
      "ĠØªÙħ": 1019,
      "Ġcons": 1020,
      "ak": 1021,
      "wn": 1022,
      "ÙĤØ": 1023,
      "ÙĤØ§": 1024,
      "ities": 1025,
      "Ø®Øµ": 1026,
      "ĠÙĪØ¨": 1027,
      "ĠWe": 1028,
      "Ø¹Ø¶": 1029,
      "ices": 1030,
      "ough": 1031,
      "ĠØ¢": 1032,
      "Ø§Ø´": 1033,
      "Ġprodu": 1034,
      "Ø±ÙĥØ©": 1035,
      "iff": 1036,
      "ful": 1037,
      "ÙĤØª": 1038,
      "ound": 1039,
      "ific": 1040,
      "ÙĪØª": 1041,
      "Ġher": 1042,
      "ĠØ¨ÙĨ": 1043,
      "Ġuse": 1044,
      "Ġserv": 1045,
      "Ġpeople": 1046,
      "Ġbet": 1047,
      "Ġjust": 1048,
      "ting": 1049,
      "ious": 1050,
      "Ġcol": 1051,
      "Ø³ÙĬ": 1052,
      "Ø±Ø§Ø¡": 1053,
      "Ġinclud": 1054,
      "ĠØ®ÙĦØ§ÙĦ": 1055,
      "lic": 1056,
      "pport": 1057,
      "ons": 1058,
      "ating": 1059,
      "Ġthese": 1060,
      "ory": 1061,
      "ility": 1062,
      "te": 1063,
      "ĠØ§ÙĦÙħØŃ": 1064,
      "ĠØ§ÙĦÙħØ¹": 1065,
      "iness": 1066,
      "own": 1067,
      "irst": 1068,
      "§ÙĪ": 1069,
      "Ġam": 1070,
      "Ġ5": 1071,
      "ÙħÙĪ": 1072,
      "enc": 1073,
      "cess": 1074,
      "Ø±Ø¶": 1075,
      "ise": 1076,
      "Ø¨Ø¯": 1077,
      "Ġ4": 1078,
      "ĠÙĦØ£": 1079,
      "Ġwere": 1080,
      "Ġact": 1081,
      "ates": 1082,
      "tern": 1083,
      "Ġmost": 1084,
      "ĠÙĬØª": 1085,
      "ram": 1086,
      "ÙĩØ¯": 1087,
      "ĠØ§ÙĦØ§Ø³": 1088,
      "Ø§Ø©": 1089,
      "Ġwould": 1090,
      "ÙĪØ§Øª": 1091,
      "ĠØ¨Ø£": 1092,
      "Ġthrough": 1093,
      "ĠØ£Ùĥ": 1094,
      "Ø§ÙĪ": 1095,
      "ØŃØ©": 1096,
      "Ø¦ÙĬØ³": 1097,
      "Ø¥ÙĨ": 1098,
      "ĠÙĬÙħÙĥÙĨ": 1099,
      "Ġno": 1100,
      "les": 1101,
      "ience": 1102,
      "Ø§ÙĦØ©": 1103,
      "Ġhad": 1104,
      "ÙĤØ±": 1105,
      "ÙģØ³": 1106,
      "Ġbu": 1107,
      "Ġunder": 1108,
      "ĠÙĬØ¹": 1109,
      "Ġwell": 1110,
      "ft": 1111,
      "Ġdiff": 1112,
      "Ġevery": 1113,
      "lect": 1114,
      "old": 1115,
      "fter": 1116,
      "usiness": 1117,
      "ĠØ§ÙĦÙĩ": 1118,
      "Ø±ÙĤ": 1119,
      "ÙĪØ±Ø©": 1120,
      "Ġsy": 1121,
      "Ø§Ø±ÙĬ": 1122,
      "Ġpr": 1123,
      "Ġinv": 1124,
      "Ø±Ùģ": 1125,
      "ĠÙĦÙĦÙħ": 1126,
      ").": 1127,
      "ØŁ": 1128,
      "Ġco": 1129,
      "ĠÙĪØ¬": 1130,
      "ause": 1131,
      "Ġrel": 1132,
      "ĠYou": 1133,
      "ĠÙĤØ¯": 1134,
      "hen": 1135,
      "Ġreg": 1136,
      "ĠØ§ÙĦØ£Ùħ": 1137,
      "Ġonly": 1138,
      "ĠØ£Ùħ": 1139,
      "ÙĨØ¯": 1140,
      "Ø·Ø©": 1141,
      "ÙĥÙħ": 1142,
      "cial": 1143,
      "Ø§ÙģØ©": 1144,
      "ures": 1145,
      "ĠÙħØ³": 1146,
      "erson": 1147,
      "Ġ19": 1148,
      "ØµÙ": 1149,
      "ØµÙĦ": 1150,
      "ject": 1151,
      "Ġrep": 1152,
      "line": 1153,
      "Ġeff": 1154,
      "Ø´Ø§Ø±": 1155,
      "round": 1156,
      "alth": 1157,
      "amp": 1158,
      "Ġbl": 1159,
      "ĠØ³ÙĬ": 1160,
      "Ġwant": 1161,
      "we": 1162,
      "Ġfirst": 1163,
      "ĠØ§ÙĦÙħØ³": 1164,
      "Ġke": 1165,
      "hed": 1166,
      "ric": 1167,
      "ian": 1168,
      "ÙĪØ¶": 1169,
      "bs": 1170,
      "ible": 1171,
      "ÙĤÙ": 1172,
      "ÙĤÙĦ": 1173,
      "row": 1174,
      "ert": 1175,
      "ÙĨØ³": 1176,
      "uring": 1177,
      "oth": 1178,
      "Ġ:": 1179,
      "ular": 1180,
      "ract": 1181,
      "ÙĤÙĬÙĤ": 1182,
      "ÙģØ¶": 1183,
      "ink": 1184,
      "ĠØ¨Ø´": 1185,
      "Ġplay": 1186,
      "Ø§ÙĨÙĬØ©": 1187,
      "ÙĪÙĦØ©": 1188,
      "ØªÙī": 1189,
      "Ø±ÙĬÙĤ": 1190,
      "Ġatt": 1191,
      "Ġtw": 1192,
      "Ġass": 1193,
      "ĠØ§ÙĦØº": 1194,
      "Ġsee": 1195,
      "ĠØ¹Ø§Ùħ": 1196,
      "Ġ202": 1197,
      "Ġpos": 1198,
      "rit": 1199,
      "ange": 1200,
      "§ÙĦÙī": 1201,
      "Ø§ÙĦÙī": 1202,
      "ÙħØ§Ù": 1203,
      "ÙħØ§ÙĦ": 1204,
      "als": 1205,
      "Ø¹Ùħ": 1206,
      "ĠØ¨Ùħ": 1207,
      "ÙĬØ¨": 1208,
      "fore": 1209,
      "ĠØ¬Ùħ": 1210,
      "ife": 1211,
      "ade": 1212,
      "ÙģØ¹": 1213,
      "ĠØ§ÙĦØ¹Ø§Ùħ": 1214,
      "Ġph": 1215,
      "Ø±Ø¯": 1216,
      "Ġbusiness": 1217,
      "Ġsuch": 1218,
      "its": 1219,
      "Ġmany": 1220,
      "iew": 1221,
      "ĠRe": 1222,
      "ĠØ§ÙĦÙħØ³Øª": 1223,
      "pect": 1224,
      "ĠÙħØ±": 1225,
      "Ø«Ù": 1226,
      "Ø«ÙĦ": 1227,
      "ĠÙĥÙħØ§": 1228,
      "Ġdec": 1229,
      "ily": 1230,
      "ĠØ§ÙĦØ£Ø³": 1231,
      "velop": 1232,
      "Ġshould": 1233,
      "Ġrem": 1234,
      "Ġway": 1235,
      "Ø®Øª": 1236,
      "any": 1237,
      "ĠØªÙĤ": 1238,
      "arket": 1239,
      "Ġ|": 1240,
      "ÙĪÙī": 1241,
      "ĠØ§ÙĦØ¢": 1242,
      "stem": 1243,
      "Ġinform": 1244,
      "ĠÙĪØ³": 1245,
      "mer": 1246,
      "olog": 1247,
      "ĠÙħØ¯": 1248,
      "ĠÙĦÙĩ": 1249,
      "ustom": 1250,
      "ĠØŃÙĬØ«": 1251,
      "get": 1252,
      "Ġwhere": 1253,
      "ĠØ§ÙĦÙħØ¬": 1254,
      "Ġra": 1255,
      "ĠØ§ÙĦÙħØ±": 1256,
      "ĠØ£Ø³": 1257,
      "Ġrequ": 1258,
      "Ġshe": 1259,
      "ĠHe": 1260,
      "Ġback": 1261,
      "xt": 1262,
      "hip": 1263,
      "ĠØªØ¬": 1264,
      "Ġhigh": 1265,
      "ased": 1266,
      "Ø«ÙĬØ±": 1267,
      "Ġac": 1268,
      "ĠØªØª": 1269,
      "Ġsm": 1270,
      "ĠÙĩÙĬ": 1271,
      "ØªÙĩØ§": 1272,
      "eth": 1273,
      "elf": 1274,
      "iss": 1275,
      "ph": 1276,
      "ÙĬØ§ÙĨ": 1277,
      "ĠØ§ÙĦØ²": 1278,
      "ĠÙħØ´": 1279,
      "ĠØ¨Øª": 1280,
      "Ġbest": 1281,
      "ÙĬØ¬": 1282,
      "ren": 1283,
      "Ġpo": 1284,
      "Ġeven": 1285,
      "ative": 1286,
      "ĠØ¹ÙĨØ¯": 1287,
      "Ġent": 1288,
      "aw": 1289,
      "Ø·Ø¨": 1290,
      "Ø§ÙĦØª": 1291,
      "hat": 1292,
      "ient": 1293,
      "Ġstud": 1294,
      "ĠÙħØ³Øª": 1295,
      "Ġloc": 1296,
      "ÙĪÙĤØ¹": 1297,
      "Ġins": 1298,
      "ts": 1299,
      "Ġsec": 1300,
      "ward": 1301,
      "ĠØ§ÙĦØ§ÙĨ": 1302,
      "Ġinst": 1303,
      "Ġperson": 1304,
      "com": 1305,
      "ational": 1306,
      "ĠØ°": 1307,
      "erm": 1308,
      "Ġfl": 1309,
      "urn": 1310,
      "ĠÙĬØ¬": 1311,
      "ÙĢÙĢ": 1312,
      "Ġdiffere": 1313,
      "ss": 1314,
      "ÙĦØ¯": 1315,
      "Ġsaid": 1316,
      "ident": 1317,
      "ÙħØ¯": 1318,
      "Ġright": 1319,
      "In": 1320,
      "Ø®Ø¯": 1321,
      "ÙĥØ³": 1322,
      "ĠÂ": 1323,
      "ÙĨÙĬØ©": 1324,
      "Ġfin": 1325,
      "ower": 1326,
      "ont": 1327,
      "ÙĬÙĪ": 1328,
      "Ġprovid": 1329,
      "ew": 1330,
      "ĠØ§ÙĦÙħÙĪ": 1331,
      "ĠØºÙĬØ±": 1332,
      "Ġproduct": 1333,
      "Ġgu": 1334,
      "ÙģØ±": 1335,
      "ĠÙĪØ¹": 1336,
      "chn": 1337,
      "Ġcould": 1338,
      "Ġown": 1339,
      "ĠÙĦØ¯": 1340,
      "Ġgood": 1341,
      "Ġtrans": 1342,
      "Ġvery": 1343,
      "ÙĪØ±ÙĬ": 1344,
      "Ġfind": 1345,
      "Ġyears": 1346,
      "Ø¶Ø": 1347,
      "Ø¶Ø§": 1348,
      "Ġstart": 1349,
      "Ġtwo": 1350,
      "§ÙĦÙĬØ©": 1351,
      "Ø§ÙĦÙĬØ©": 1352,
      "Ġset": 1353,
      "gan": 1354,
      "Ġ6": 1355,
      "Ġdesign": 1356,
      "uch": 1357,
      "Ø¯Ø¯": 1358,
      "ĠÙħÙĪ": 1359,
      "Ġtake": 1360,
      "ĠØ¨ØŃ": 1361,
      "day": 1362,
      "Ø§Ø°": 1363,
      "ĠØ¨Ø¹Ø¶": 1364,
      "Ġav": 1365,
      "ĠÙĤØ¨ÙĦ": 1366,
      "Ġdevelop": 1367,
      "ics": 1368,
      "ata": 1369,
      "Ø·Ø±": 1370,
      "ys": 1371,
      "Ġgreat": 1372,
      "ality": 1373,
      "ĠPro": 1374,
      "Ġcustom": 1375,
      "Ø§Ø¹Ø©": 1376,
      "ĠIf": 1377,
      "ÙĦÙĬÙħ": 1378,
      "ener": 1379,
      "Ø¨ØŃ": 1380,
      "Ġcre": 1381,
      "hes": 1382,
      "ec": 1383,
      "ĠØ¨Ø¯": 1384,
      "Ġlong": 1385,
      "Ġafter": 1386,
      ".âĢĿ": 1387,
      "ÙĦØ¹": 1388,
      "Ø±Ø¬": 1389,
      "ĠØ¨Ùĩ": 1390,
      "ef": 1391,
      "ÙĤØ·": 1392,
      "ĠØ§ÙĦØ³ÙĬ": 1393,
      "Ġinformation": 1394,
      "Ġthen": 1395,
      "Ġworld": 1396,
      "ĠØŃØªÙī": 1397,
      "ĠÙĬØŃ": 1398,
      "ĠÙĩÙĨØ§": 1399,
      "ÙĪÙĬØ©": 1400,
      "ble": 1401,
      "Ġsystem": 1402,
      "Ġsupport": 1403,
      "ØªØµ": 1404,
      "ever": 1405,
      "ces": 1406,
      "ied": 1407,
      "arch": 1408,
      "ĠØ§ÙĦØ¹Ø§ÙĦÙħ": 1409,
      "Ġmarket": 1410,
      "Ø¹Ø": 1411,
      "Ø¹Ø§": 1412,
      "Ġdisc": 1413,
      "Ġadv": 1414,
      "ĠÙĪÙĬ": 1415,
      "ÙĬÙĨØ©": 1416,
      "Ġstr": 1417,
      "âĢľ": 1418,
      "Ġprocess": 1419,
      "ten": 1420,
      "und": 1421,
      "Ø³Ø©": 1422,
      "ĠØ§ÙĦØ¹Ø±Ø¨": 1423,
      "ØµÙĪÙĦ": 1424,
      "Th": 1425,
      "ving": 1426,
      "Ġhome": 1427,
      "Ø§Ø«": 1428,
      "ÙĪØ©": 1429,
      "ize": 1430,
      "up": 1431,
      "ool": 1432,
      "Ġhealth": 1433,
      "ĠØ£ÙĨÙĩ": 1434,
      "ty": 1435,
      "Ġmed": 1436,
      "rib": 1437,
      "ven": 1438,
      "ÙģØ©": 1439,
      "Ø§Ø¨Ø©": 1440,
      "ÙĦØº": 1441,
      "Ø¹Ø¨": 1442,
      "Ġcar": 1443,
      "Ġdown": 1444,
      "air": 1445,
      "Ġopt": 1446,
      "Ġbecause": 1447,
      "ĠØ¹ÙĦÙĬÙĩ": 1448,
      "§Øª": 1449,
      "Ġimport": 1450,
      "Ġdon": 1451,
      "ĠAnd": 1452,
      "Ġsim": 1453,
      "ĠÙĦÙĦØª": 1454,
      "Ø®Ø¯Ø§Ùħ": 1455,
      "ĠØ§ÙĦÙĬÙĪÙħ": 1456,
      "Ġnow": 1457,
      "Ġvis": 1458,
      "ÙĥÙĬ": 1459,
      "ĠØ§ÙĦÙħØ´": 1460,
      "Ø§ÙĦØ¨": 1461,
      "Ø§ØµØ©": 1462,
      "ÙĦØŃ": 1463,
      "ĠØ§ÙĦÙī": 1464,
      "ath": 1465,
      "ness": 1466,
      "ĠØ§ÙĦÙħØ¯": 1467,
      "ĠUn": 1468,
      "ional": 1469,
      "ÙĤØ¯Ùħ": 1470,
      "Ġsk": 1471,
      "ĠØ¨Ø±": 1472,
      "Ø³Ø±": 1473,
      "ĠÙĥØ¨": 1474,
      "ited": 1475,
      "ock": 1476,
      "Ġmon": 1477,
      "Ġmod": 1478,
      "ĠCom": 1479,
      "20": 1480,
      "ĠÙĪØ§ÙĦØ£": 1481,
      "Ġprof": 1482,
      "Ġcommun": 1483,
      "itt": 1484,
      "ĠØ£Ø¹": 1485,
      "Ġbr": 1486,
      "Ġche": 1487,
      "Ġdifferent": 1488,
      "ĠÙĪÙĥ": 1489,
      "Ġdet": 1490,
      "Ġext": 1491,
      "ues": 1492,
      "Ġthose": 1493,
      "Ø¬Ù": 1494,
      "Ø¬ÙĦ": 1495,
      "Ġprog": 1496,
      "ĠÙħØµ": 1497,
      "Ġcare": 1498,
      "ash": 1499,
      "led": 1500,
      "Ġmuch": 1501,
      "iet": 1502,
      "Ġsign": 1503,
      "ÙģØª": 1504,
      "Ġsur": 1505,
      "Ø§ÙħÙ": 1506,
      "Ø§ÙħÙĦ": 1507,
      "ĠÙĬÙĤ": 1508,
      "Ġlife": 1509,
      "ollow": 1510,
      "ÙĦÙĥÙĨ": 1511,
      "ĠÙĪÙĦØ§": 1512,
      "ĠÙĪØ¥": 1513,
      "Ġlead": 1514,
      "ential": 1515,
      "Ġ10": 1516,
      "ĠÙĪÙħÙĨ": 1517,
      "Ġfam": 1518,
      "ner": 1519,
      "Ġbefore": 1520,
      "Ġtechn": 1521,
      "ĠØªÙĨ": 1522,
      "ĠØªØ´": 1523,
      "ually": 1524,
      "other": 1525,
      "olut": 1526,
      "ÙĬÙĬÙĨ": 1527,
      "Ġday": 1528,
      "Ġhand": 1529,
      "ĠÙĬØªÙħ": 1530,
      "Ġeas": 1531,
      "Ø§Ø¹Ø¯": 1532,
      "ÙĬØ¦": 1533,
      "ines": 1534,
      "Ġpres": 1535,
      "ĠØªØ³": 1536,
      "Ġexp": 1537,
      "ĠÙĪØŃ": 1538,
      "ÙĪØ²": 1539,
      "Ġ7": 1540,
      "Ø§Ø¦ÙĬØ©": 1541,
      "Ø®Ø±Ùī": 1542,
      "ÙĪØ£": 1543,
      "Ġdoes": 1544,
      "Ġexperience": 1545,
      "Ġused": 1546,
      "ives": 1547,
      "ork": 1548,
      "Ġcomple": 1549,
      "Ġbeing": 1550,
      "ÙĪÙħØ©": 1551,
      "Ġwhile": 1552,
      "Ġvar": 1553,
      "Ġart": 1554,
      "Ġ8": 1555,
      "ĠÙĪØ²": 1556,
      "Ø¶Ø¹": 1557,
      "Ġteam": 1558,
      "ng": 1559,
      "arm": 1560,
      "ĠÙĬÙĥÙĪÙĨ": 1561,
      "Ġinter": 1562,
      "Ġread": 1563,
      "ĠØ§ÙĦØ§Ø³Øª": 1564,
      "ĠÙĪÙĤ": 1565,
      "Ġmin": 1566,
      "ages": 1567,
      "ĠØ¨Ø§ÙĦÙħ": 1568,
      "ÙĪÙĦÙĬ": 1569,
      "ĠØ£ÙĥØ«Ø±": 1570,
      "Ġcle": 1571,
      "ake": 1572,
      "Ġmade": 1573,
      "ĠØ¥Ø°Ø§": 1574,
      "Ġdel": 1575,
      "Ġ&": 1576,
      "Â»": 1577,
      "Ø¬Ùħ": 1578,
      "Ġaut": 1579,
      "ĠØ¨Ø´ÙĥÙĦ": 1580,
      "We": 1581,
      "ital": 1582,
      "iqu": 1583,
      "Ġnum": 1584,
      "Ġshow": 1585,
      "ÙĥØª": 1586,
      "Ġonline": 1587,
      "ĠÙħØ¨": 1588,
      "ÙĦØ§ÙĤ": 1589,
      "Ġend": 1590,
      "Ġeach": 1591,
      "ØĽ": 1592,
      "ĠØ§ÙĦØ¹ÙħÙĦ": 1593,
      "kes": 1594,
      "ĠØ§ÙĦØ¶": 1595,
      "ĠÙģÙī": 1596,
      "ĠØ§ÙĦÙħØµ": 1597,
      "Ġdata": 1598,
      "arn": 1599,
      "ĠØªØµ": 1600,
      "ict": 1601,
      "ÙĬÙĩ": 1602,
      "io": 1603,
      "Ø¬Ø±": 1604,
      "der": 1605,
      "stand": 1606,
      "Ġpol": 1607,
      "ced": 1608,
      "Ġoffer": 1609,
      "Ġhere": 1610,
      "Ġref": 1611,
      "ĠØªØ±": 1612,
      "ix": 1613,
      "Ġallow": 1614,
      "ull": 1615,
      "ized": 1616,
      "Ø®Ø¯Ùħ": 1617,
      "ĠÙĦØ§Ø": 1618,
      "Ġty": 1619,
      "ÙĦÙĪÙħ": 1620,
      "cept": 1621,
      "Ġtoo": 1622,
      "Ġlook": 1623,
      "Ġpur": 1624,
      "ÙĤØ§Ù": 1625,
      "ÙĤØ§ÙĦ": 1626,
      "ered": 1627,
      "ÙĬØ´": 1628,
      "Ø§Ø¦ÙĬ": 1629,
      "ps": 1630,
      "Ġsub": 1631,
      "eg": 1632,
      "ÙĨØ§Ø¡": 1633,
      "Ġform": 1634,
      "Ġmem": 1635,
      "atch": 1636,
      "Ġcur": 1637,
      "Ġret": 1638,
      "ĠØ¹ÙħÙĦ": 1639,
      "ĠÙģØ¥ÙĨ": 1640,
      "Ùį": 1641,
      "ins": 1642,
      "ĠØ§ÙĦØ¬Ùħ": 1643,
      "ĠÙĥØ§ÙĨØª": 1644,
      "ĠØ¹Ùħ": 1645,
      "Ø®ØªÙĦÙģ": 1646,
      "Ø¹Ù": 1647,
      "Ø¹ÙĦ": 1648,
      "ÙĬÙĥ": 1649,
      "Ġagain": 1650,
      "ĠÙħØ¤": 1651,
      "Ġfollow": 1652,
      "ĠØ³Øª": 1653,
      "ling": 1654,
      "ØŃØ¯Ø©": 1655,
      "ĠØ«Ùħ": 1656,
      "ĠÂ«": 1657,
      "ĠAs": 1658,
      "ĠThey": 1659,
      "Ġop": 1660,
      "irect": 1661,
      "Ġimportant": 1662,
      "Ġcall": 1663,
      "Ø±Ø§Ø±": 1664,
      "ÙģØ¶Ù": 1665,
      "ÙģØ¶ÙĦ": 1666,
      "Ġfree": 1667,
      "ĠÙħØ«ÙĦ": 1668,
      "ĠÙħÙĤ": 1669,
      "ØªÙħØ§Ø¹": 1670,
      "Ġpay": 1671,
      "Ġfeel": 1672,
      "gy": 1673,
      "ØµØ©": 1674,
      "\".": 1675,
      "ĠÙĪÙĩÙĪ": 1676,
      "Ġprovide": 1677,
      "ØŃÙĬ": 1678,
      "ween": 1679,
      "Ġrequire": 1680,
      "Ø§ÙħØ¬": 1681,
      "ĠØ§ÙĦØ¹Ùħ": 1682,
      "ature": 1683,
      "Ġval": 1684,
      "Ø²Ø": 1685,
      "less": 1686,
      "ĠFor": 1687,
      "ple": 1688,
      "ĠØ¬ÙħÙĬØ¹": 1689,
      "Ġdid": 1690,
      "Ø§Ø³ÙĬØ©": 1691,
      "ØºÙĬØ±": 1692,
      "ÙĦØ§ØŃ": 1693,
      "ier": 1694,
      "ĠÙĪÙĨ": 1695,
      "Ġmain": 1696,
      "ÙģØ": 1697,
      "Ġhim": 1698,
      "Ġaround": 1699,
      "ason": 1700,
      "Ġed": 1701,
      "ĠÙĨØ¸": 1702,
      "'t": 1703,
      "Ø¹ÙĪØ¯": 1704,
      "Ġcount": 1705,
      "ĠØ£Ø¨": 1706,
      "ĠØ§Øª": 1707,
      "ĠØ§ÙĦØªØ¹": 1708,
      "ĠÙĪØ§ØŃ": 1709,
      "ĠÙĪÙĦÙĥÙĨ": 1710,
      "000": 1711,
      "Ġeffect": 1712,
      "ÙģØ§": 1713,
      "Ġboth": 1714,
      "chool": 1715,
      "ÙĪÙĥ": 1716,
      "ĠØŃØ¯": 1717,
      "Ġgam": 1718,
      "Ø¯ÙĬØ¯Ø©": 1719,
      "Ġusing": 1720,
      "ather": 1721,
      "Ġgl": 1722,
      "Ø§ÙĦØ§Øª": 1723,
      "rand": 1724,
      "ÙĨØ¨": 1725,
      "Ø§Ø³Øª": 1726,
      "Ġ$": 1727,
      "ĠÙĦØ£ÙĨ": 1728,
      "ÙĪØµ": 1729,
      "ĠØ§Ø®": 1730,
      "ee": 1731,
      "ĠØªØ£": 1732,
      "way": 1733,
      "Ġbetween": 1734,
      "ĠÙĬÙĪÙħ": 1735,
      "Ġens": 1736,
      "view": 1737,
      "Ġfun": 1738,
      "Ġinf": 1739,
      "Ġavail": 1740,
      "ĠÙĪØ§ÙĦØ¹": 1741,
      "Ø²Ø©": 1742,
      "nce": 1743,
      "ĠØ¨ÙĩØ§": 1744,
      "ĠØ§ÙĦØªØŃ": 1745,
      "ouse": 1746,
      "uc": 1747,
      "Ġkeep": 1748,
      "Ġchild": 1749,
      "Ġpub": 1750,
      "ÙĩØ©": 1751,
      "Ġappro": 1752,
      "ÙĥØ©": 1753,
      "ooking": 1754,
      "§ÙĬ": 1755,
      "Ġconf": 1756,
      "Ø§Ø³Ø©": 1757,
      "Ġincluding": 1758,
      "ved": 1759,
      "Ġ9": 1760,
      "ivers": 1761,
      "ĠØ¨Ø£ÙĨ": 1762,
      "Ġreal": 1763,
      "Ġprogram": 1764,
      "ĠAl": 1765,
      "ave": 1766,
      "ider": 1767,
      "Ġplace": 1768,
      "Ġchar": 1769,
      "ĠÙĪÙģ": 1770,
      "ÙĪØ§ÙĨ": 1771,
      "Ġcour": 1772,
      "ale": 1773,
      "imes": 1774,
      "Ġplan": 1775,
      "ways": 1776,
      "Ø§ÙĨÙĪÙĨ": 1777,
      "az": 1778,
      "ÙĦØ·": 1779,
      "ology": 1780,
      "read": 1781,
      "Ġ200": 1782,
      "ining": 1783,
      "riend": 1784,
      "ploy": 1785,
      "ØŃØ¯Ø«": 1786,
      "Ø§Ø¯ÙĬ": 1787,
      "),": 1788,
      "Ġdef": 1789,
      "ank": 1790,
      "ĠAd": 1791,
      "ware": 1792,
      "ince": 1793,
      "Ġresult": 1794,
      "This": 1795,
      "Ġposs": 1796,
      "ĦÙĨØ¸": 1797,
      "ÙĦÙĨØ¸": 1798,
      "ural": 1799,
      "ants": 1800,
      "Ġgener": 1801,
      "Ġservices": 1802,
      "Ġcas": 1803,
      "Ġorgan": 1804,
      "Ø¯ÙĬ": 1805,
      "Ġaccess": 1806,
      "ĠHow": 1807,
      "ĠSh": 1808,
      "ĠÙĦÙĬ": 1809,
      "ves": 1810,
      "Ġcompany": 1811,
      "orts": 1812,
      ",âĢĿ": 1813,
      "ody": 1814,
      "Ġsoc": 1815,
      "Ø§ÙĬ": 1816,
      "ÙĪØ¯Ø©": 1817,
      "Ġpartic": 1818,
      "Ġsom": 1819,
      "Ø§Ø±Ø¬": 1820,
      "Ġpri": 1821,
      "Ø·ÙĤØ©": 1822,
      "Ġser": 1823,
      "Ø§Ø¦Ù": 1824,
      "Ø§Ø¦ÙĦ": 1825,
      "Ġincre": 1826,
      "ĠÙĨÙģØ³": 1827,
      "Ġwee": 1828,
      "Ø±ÙĬØ¯": 1829,
      "ĠØ±Ø¦ÙĬØ³": 1830,
      "Ø±ÙĬØ¨": 1831,
      "Ġlot": 1832,
      "dition": 1833,
      "Ġtop": 1834,
      "Ġresp": 1835,
      "ĠØ§ÙĦÙħØ¤": 1836,
      "Ġbuild": 1837,
      "ĠAn": 1838,
      "ĠÙĦÙĥÙĨ": 1839,
      "--": 1840,
      "Ġwithout": 1841,
      "Ġinvest": 1842,
      "ĠØ§ØŃ": 1843,
      "Ø±ÙĥØ²": 1844,
      "erest": 1845,
      "ÙħØ§Ø±": 1846,
      "Ġwebs": 1847,
      "Ġduring": 1848,
      "ically": 1849,
      "ĠÙĦØ¹": 1850,
      "ĠØ§ÙĦØ§Øª": 1851,
      "over": 1852,
      "Ġprot": 1853,
      "ivid": 1854,
      "oad": 1855,
      "Ġsame": 1856,
      "ex": 1857,
      "Ġfact": 1858,
      "Ġwater": 1859,
      "Ġproject": 1860,
      "lease": 1861,
      "ÙĦØ§Ø«": 1862,
      "ĠØ§Ø¹": 1863,
      "ets": 1864,
      "ĠBut": 1865,
      "ØªÙģ": 1866,
      "Ġavailable": 1867,
      "Ġcost": 1868,
      "Ġspec": 1869,
      "ienc": 1870,
      "Ø§ÙĦØŃ": 1871,
      "Ġ,": 1872,
      "nect": 1873,
      "Ġiss": 1874,
      "§ÙĦÙĨØ¸": 1875,
      "Ø§ÙĦÙĨØ¸": 1876,
      "land": 1877,
      "ross": 1878,
      "Ġbo": 1879,
      "Ġlar": 1880,
      "Ø³Ø¨Ø¨": 1881,
      "els": 1882,
      "ÙĩÙ": 1883,
      "ÙĩÙĦ": 1884,
      "ccess": 1885,
      "gg": 1886,
      "Ġsl": 1887,
      "ability": 1888,
      "Ġob": 1889,
      "ÙĦØ§Ø¡": 1890,
      "Ø§Ø±ÙĬØ®": 1891,
      "Ġmust": 1892,
      "Ø·ÙĬÙĨ": 1893,
      "ars": 1894,
      "ĠÙĩÙĨØ§Ùĥ": 1895,
      "ĠØ§ÙĦÙħÙĤ": 1896,
      "Ġcontin": 1897,
      "Ġben": 1898,
      "ĠØ§ÙĦØ±Ø¦ÙĬØ³": 1899,
      "Ġfew": 1900,
      "ØªÙĥ": 1901,
      "Ġservice": 1902,
      "ĠØ§ÙĦØªØ¬": 1903,
      "Ġstill": 1904,
      "ĠÙģÙĬÙĩØ§": 1905,
      "Ġlast": 1906,
      "ÙĦØ§Ø¯": 1907,
      "Ø·Ø¨ÙĬÙĤ": 1908,
      "ĠØ¸": 1909,
      "ĠØªØ¯": 1910,
      "ĠØ£Øµ": 1911,
      "Ø£ÙĨ": 1912,
      "ĠØ¨Ø§ÙĦØª": 1913,
      "ĠØ³Ø¨": 1914,
      "ÙĪØ±ÙĬØ©": 1915,
      "Ġgrow": 1916,
      "ern": 1917,
      "Ġgoing": 1918,
      "ÙĦÙĬÙ": 1919,
      "rent": 1920,
      "ÙĦÙĬÙĦ": 1921,
      "Ġfound": 1922,
      "bers": 1923,
      "Ġexpl": 1924,
      "ĠCl": 1925,
      "Ġsaf": 1926,
      "ruct": 1927,
      "pr": 1928,
      "Ġlist": 1929,
      "oney": 1930,
      "Ġpat": 1931,
      "Ġcor": 1932,
      "ĠÙĦØ¥": 1933,
      "ÙĪØ§Ø±": 1934,
      "Ġreally": 1935,
      "Ø§Ø¯Ø±": 1936,
      "Ø§ØŃØ©": 1937,
      "ients": 1938,
      "eng": 1939,
      "Ø³Ø¨Ø©": 1940,
      "Ġeng": 1941,
      "Ġstand": 1942,
      "Ġperform": 1943,
      "Ġconc": 1944,
      "ĠØ§ÙĦÙħØ¨": 1945,
      "ĠØ§Ø¨": 1946,
      "If": 1947,
      "Ø±Ø§ÙĤ": 1948,
      "ĠNew": 1949,
      "Ø±ÙĥØ§Øª": 1950,
      "Ø§Ø¶ÙĬ": 1951,
      "ØªØŃ": 1952,
      "Ġthink": 1953,
      "Ġgame": 1954,
      "Ġproper": 1955,
      "Ġstate": 1956,
      "Ġthings": 1957,
      "iving": 1958,
      "Ġaddition": 1959,
      "ĠDe": 1960,
      "Ġhapp": 1961,
      "Ġunderstand": 1962,
      "ĠØ£Ø¯": 1963,
      "tt": 1964,
      "ĠØ£ØŃ": 1965,
      "Ø§Ø¨Ø§Øª": 1966,
      "self": 1967,
      "It": 1968,
      "Ġmight": 1969,
      "Ġlevel": 1970,
      "ms": 1971,
      "Ġsit": 1972,
      "Ø§Ø±ÙĬØ©": 1973,
      "vent": 1974,
      "Ø¬Ùĩ": 1975,
      "ĠÙĪÙģÙĬ": 1976,
      "Ġpoint": 1977,
      "Ġbetter": 1978,
      "ÙĬØ§Ø¯Ø©": 1979,
      "ĠWh": 1980,
      "ĠPl": 1981,
      "ertain": 1982,
      "ÙĥÙĬØ©": 1983,
      "ĠØªÙĥÙĪÙĨ": 1984,
      "oun": 1985,
      "ĠÙĤØ": 1986,
      "ĠÙĤØ§": 1987,
      "iel": 1988,
      "Ø¯Ø§ÙĪÙĦ": 1989,
      "Ġsmall": 1990,
      "ah": 1991,
      "ense": 1992,
      "ØµÙģ": 1993,
      "Ġimpro": 1994,
      "Ø¬Ø©": 1995,
      "ĠÙĦÙĩØ§": 1996,
      "Ġthough": 1997,
      "Ġwithin": 1998,
      "Ġide": 1999,
      "Ø±ÙĪØ¹": 2000,
      "Ġbel": 2001,
      "ists": 2002,
      "ĠThere": 2003,
      "Ġmonth": 2004,
      "ĠØªØŃØª": 2005,
      "ĠÙĨØŃ": 2006,
      "Ġsure": 2007,
      "Ġpower": 2008,
      "Ġmaking": 2009,
      "Ġrest": 2010,
      "Ġprofess": 2011,
      "Ġinterest": 2012,
      "ĠÙĤØ§Ù": 2013,
      "ĠÙĤØ§ÙĦ": 2014,
      "ĠØŃÙĪÙĦ": 2015,
      "Ġopen": 2016,
      "uss": 2017,
      "pend": 2018,
      "Ġlove": 2019,
      "ĠØ§ÙĦØŃÙĥ": 2020,
      "Ġalways": 2021,
      "ĠÙĬØ³Øª": 2022,
      "ify": 2023,
      "Ġprom": 2024,
      "Ġdist": 2025,
      "ĠØ¹Ø¨Ø±": 2026,
      "Ġcome": 2027,
      "ÙĦØ§ÙĨ": 2028,
      "ĠÙģÙĬÙĩ": 2029,
      "ĠØ¥ÙĦÙĬ": 2030,
      "ÙħØ¹": 2031,
      "ÙĪØ§Ø¬": 2032,
      "ĠÙģØ±": 2033,
      "iver": 2034,
      "Ġrece": 2035,
      "ĠØ§ÙĦØ°ÙĬÙĨ": 2036,
      "ined": 2037,
      "Ø§ÙĤØ¹": 2038,
      "Ø¶Ø§ÙģØ©": 2039,
      "Ø³ÙĦØ§Ùħ": 2040,
      "ĠØ¥ÙĦØ§": 2041,
      "ĠØ£ÙĬØ¶Ø§": 2042,
      "ĠÙĦØŃ": 2043,
      "agement": 2044,
      "ividual": 2045,
      "Ø§Ø³ÙĬ": 2046,
      "ĠEx": 2047,
      "ĠÙĬØ¬Ø¨": 2048,
      "ĠØ¯ÙĪÙĨ": 2049,
      "Ġrun": 2050,
      "ĠØŃØ³": 2051,
      "ĦÙ": 2052,
      "ÙĨÙī": 2053,
      "ĠØ§ÙĦÙĨØ¸": 2054,
      "ÙĨÙĬÙĨ": 2055,
      "ÙĦÙ": 2056,
      "arly": 2057,
      "Ġquest": 2058,
      "Ġindust": 2059,
      "ĠSo": 2060,
      "ĠAr": 2061,
      "Ġpass": 2062,
      "ÙĦÙĦ": 2063,
      "Ġbenef": 2064,
      "ino": 2065,
      "ĠØ¹Ø¯Ø¯": 2066,
      "ĠÙĪÙĤØ¯": 2067,
      "aut": 2068,
      "ĠØ®Ø·": 2069,
      "Ø¨Ø§Øª": 2070,
      "ÙĨØ¹": 2071,
      "ØµØ¯": 2072,
      "ĠÙĦÙĦØ£": 2073,
      "thing": 2074,
      "iron": 2075,
      "orth": 2076,
      "ration": 2077,
      "ĠØ§ÙĦØ¨Ø±": 2078,
      "ØªÙħØ¹": 2079,
      "Ġcent": 2080,
      "Ġpost": 2081,
      "Ġgra": 2082,
      "Ġve": 2083,
      "Ġable": 2084,
      "Ø£Ø³": 2085,
      "Ø¹Ø§Ø±": 2086,
      "ÙĦØ§Ø¬": 2087,
      "co": 2088,
      "con": 2089,
      "ample": 2090,
      "Ġpot": 2091,
      "Ġcreat": 2092,
      "Ġnumber": 2093,
      "Ġmus": 2094,
      "ÙĬØ¦Ø©": 2095,
      "ÙĬÙĨØ": 2096,
      "ÙĬÙĨØ§": 2097,
      "ately": 2098,
      "ĠØ£ØŃØ¯": 2099,
      "Ġfamily": 2100,
      "ared": 2101,
      "Ġoper": 2102,
      "ÙĦØ³Ø·ÙĬÙĨ": 2103,
      "ĠÙĦØ¨": 2104,
      "ĠØ§ÙĦØŃØ¯": 2105,
      "ĠâĢĺ": 2106,
      "Ø§ÙĨØ¨": 2107,
      "rol": 2108,
      "ĠØ§ÙĦÙħÙħ": 2109,
      "att": 2110,
      "ĠÙĦÙĥ": 2111,
      "ĠØ§ÙĦÙĪØ·": 2112,
      "ute": 2113,
      "ĠØ§ÙĦØ¨ØŃ": 2114,
      "ĠÙĬØ¯": 2115,
      "ÙĥØ¯": 2116,
      "tain": 2117,
      "ÙĬÙħØ©": 2118,
      "Ġaff": 2119,
      "Ġest": 2120,
      "oss": 2121,
      "Ġtest": 2122,
      "Ġthree": 2123,
      "ĠÙĨÙĤ": 2124,
      "ral": 2125,
      "ĠØ³ÙĨ": 2126,
      "ittle": 2127,
      "Ġpersonal": 2128,
      "Ø§ÙħØ©": 2129,
      "Ġpract": 2130,
      "ĠØ§ÙĦÙħØªØŃØ¯Ø©": 2131,
      "âĢ¦": 2132,
      "ething": 2133,
      "Ġfil": 2134,
      "Ø¨Øª": 2135,
      "ĠØ¨Ø¥": 2136,
      "Ġneeds": 2137,
      "Ġsay": 2138,
      "ique": 2139,
      "ĠØ§Ùħ": 2140,
      "Ġindividual": 2141,
      "Ġdirect": 2142,
      "ÙĪØŃ": 2143,
      "Ġrese": 2144,
      "10": 2145,
      "Ġpop": 2146,
      "ĠØ§ÙĦØ¹Ø±Ø¨ÙĬØ©": 2147,
      "ug": 2148,
      "ĠÙĪØ§ÙĦØ³": 2149,
      "Ġproducts": 2150,
      "ĠØ£Ø®Ø±Ùī": 2151,
      "Ġleg": 2152,
      "ÙħØ§ÙĨ": 2153,
      "ision": 2154,
      "Ø§ÙģØ¸": 2155,
      "ĠØªÙĦÙĥ": 2156,
      "Ġorder": 2157,
      "ÙĪÙĦÙĬØ©": 2158,
      "pos": 2159,
      "Ġspecial": 2160,
      "Ø±ÙĬØ©": 2161,
      "Ġwebsite": 2162,
      "ills": 2163,
      "de": 2164,
      "Ø¹Ø±Ùģ": 2165,
      "ĠÙĦÙĨ": 2166,
      "Ġemploy": 2167,
      "ØªØ§Ø¨": 2168,
      "ĠÙģÙĤØ·": 2169,
      "ĠØ§ÙĦØ§Ø¬": 2170,
      "ĠWith": 2171,
      "Ġ15": 2172,
      "Ġintern": 2173,
      "alk": 2174,
      "ĠØ´Ø±ÙĥØ©": 2175,
      "Ġaccount": 2176,
      "âĢĿ.": 2177,
      "ĠØ¨Ùĥ": 2178,
      "Ġ12": 2179,
      "Ġprotect": 2180,
      "ĠInd": 2181,
      "ØªØ¨Ø±": 2182,
      "Ø¨ÙĬØ¹": 2183,
      "19": 2184,
      "Ġcreate": 2185,
      "Ġsupp": 2186,
      "omm": 2187,
      "ĠTo": 2188,
      "ĠØªØ³Øª": 2189,
      "joy": 2190,
      "Ġapplic": 2191,
      "Ġproble": 2192,
      "ï»": 2193,
      "ĠÙĪØ§ÙĦØŃ": 2194,
      "ĠÙĪØ§ÙĦØ§Ø": 2195,
      "Ġconnect": 2196,
      "reen": 2197,
      "ÙĪØ§Ø¡": 2198,
      "ield": 2199,
      "ocus": 2200,
      "ĠØ§ÙĦØ£Ø®": 2201,
      "meric": 2202,
      "ards": 2203,
      "ØªØ¯": 2204,
      "Ġsuccess": 2205,
      "ĠØ§Ø±": 2206,
      "iety": 2207,
      "ĠØ¨ÙĤ": 2208,
      "ÙĦØ§Ø¨": 2209,
      "Ġsomething": 2210,
      "Ġgrou": 2211,
      "ization": 2212,
      "ÙĨØ§ÙĨ": 2213,
      "Ġoften": 2214,
      "Ġtry": 2215,
      "ĠQ": 2216,
      "itive": 2217,
      "Ġlaw": 2218,
      "Ġequ": 2219,
      "ger": 2220,
      "ÙĪÙĩ": 2221,
      "ÙĲÙĳ": 2222,
      "ĠØ¨Ø¹": 2223,
      "fect": 2224,
      "Ġmoney": 2225,
      "Ø²ÙĬØ¯": 2226,
      "ĠØ§Ø³ØªØ®Ø¯Ø§Ùħ": 2227,
      "Ġ0": 2228,
      "ĠØ¹ÙĦÙĬÙĩØ§": 2229,
      "ĠBe": 2230,
      "ÙĨØ§ÙħØ¬": 2231,
      "ĠØ¹Ø¨Ø¯": 2232,
      "Ġbig": 2233,
      "ĠÙĦÙĦØŃ": 2234,
      "Ø¶Ø§Ùģ": 2235,
      "ished": 2236,
      "Ø´Ùģ": 2237,
      "Ġbre": 2238,
      "Ġactiv": 2239,
      "ÙħÙĬØ©": 2240,
      "ĠÙĦÙĦØ¹": 2241,
      "ead": 2242,
      "Ġlight": 2243,
      "ÙĬØ¯Ø©": 2244,
      "Ġput": 2245,
      "ism": 2246,
      "itions": 2247,
      "Ø¯Ø§Ø±Ø©": 2248,
      "oot": 2249,
      "ĠÙĬÙĨ": 2250,
      "ØºÙĬ": 2251,
      "ĠÙħÙĦÙĬ": 2252,
      "ĠØŃÙĤ": 2253,
      "Ġschool": 2254,
      "the": 2255,
      "Ø·Ø§Ø¹": 2256,
      "ÙĪÙĬØ±": 2257,
      "Ġcap": 2258,
      "Ġgive": 2259,
      "Ġanother": 2260,
      "viron": 2261,
      "Ġquality": 2262,
      "âĢĶ": 2263,
      "atures": 2264,
      "ÙģØ§ÙĤ": 2265,
      "ĠÙĪÙĩÙĬ": 2266,
      "ĠÙĬØ³": 2267,
      "Ġfriend": 2268,
      "Ø¹Ø±Ø¶": 2269,
      "Ø§Ø¯ÙĬØ©": 2270,
      "ĠÙħÙħ": 2271,
      "Ġworking": 2272,
      "ĠÙģÙĩ": 2273,
      "Ġlittle": 2274,
      "to": 2275,
      "Ø¦Ø©": 2276,
      "ÙĦØ§Ø±": 2277,
      "ently": 2278,
      "Ġnext": 2279,
      "ÙħÙĪØ¹Ø©": 2280,
      "Ġdr": 2281,
      "ieve": 2282,
      "Ġfull": 2283,
      "ream": 2284,
      "ÙĪØ§Øµ": 2285,
      "ĠBl": 2286,
      "me": 2287,
      "Ġfac": 2288,
      "Ġvide": 2289,
      "Ġris": 2290,
      "Ø±Ø³": 2291,
      "ĠThese": 2292,
      "ton": 2293,
      "ĠÙĪØ§ÙĦØªÙĬ": 2294,
      "apt": 2295,
      "aterial": 2296,
      "ĠÙĪØ§ÙĦØ¥": 2297,
      "ior": 2298,
      "pportun": 2299,
      "pping": 2300,
      "ĠSp": 2301,
      "Ġclass": 2302,
      "be": 2303,
      "Ġdem": 2304,
      "Ġtreat": 2305,
      "Ġmeet": 2306,
      "ĠØ§ÙĦØ§ÙĤ": 2307,
      "ote": 2308,
      "Ġwom": 2309,
      "Ġless": 2310,
      "Ø£Ø©": 2311,
      "ĠØ§ÙĦØ³Ø¹ÙĪØ¯": 2312,
      "Ġpublic": 2313,
      "Ġfood": 2314,
      "Ġsocial": 2315,
      "ĠÙħØµØ±": 2316,
      "Ø±ÙĬÙĤØ©": 2317,
      "ÙĦÙĪÙħØ§Øª": 2318,
      "ention": 2319,
      "cl": 2320,
      "ĠÙħÙĨØ°": 2321,
      "Ø¯ÙħØ§Øª": 2322,
      "Ġlooking": 2323,
      "Ġwin": 2324,
      "ium": 2325,
      "ÙĬØ¡": 2326,
      "ĠÙħÙĨÙĩØ§": 2327,
      "urity": 2328,
      "Ġ/": 2329,
      "ĠÙħÙĥ": 2330,
      "Ġspecific": 2331,
      "Ø±Ø§Øª": 2332,
      "Ġel": 2333,
      "ÙĪØ·": 2334,
      "ĠÙĪØ°ÙĦÙĥ": 2335,
      "ours": 2336,
      "Ġwrit": 2337,
      "Ġdays": 2338,
      "man": 2339,
      "ney": 2340,
      "ÙĬØ§Ùħ": 2341,
      "Ġconsider": 2342,
      "au": 2343,
      "Ġhard": 2344,
      "ĠØ§ÙĦØ§ØŃ": 2345,
      "ÙĩÙħØ§": 2346,
      "ances": 2347,
      "Ġcr": 2348,
      "ÙĬØ§Ø©": 2349,
      "ĠAmeric": 2350,
      "Ø§Øº": 2351,
      "Ġcurrent": 2352,
      "ĠÙĪØ£ÙĨ": 2353,
      "ĠSc": 2354,
      "ØªØ¹": 2355,
      "What": 2356,
      "You": 2357,
      "ĠØ§ÙĦÙĪØ²": 2358,
      "Ø±ØŃ": 2359,
      "Ġenjoy": 2360,
      "Ġ18": 2361,
      "Ġhead": 2362,
      "ØªÙĤ": 2363,
      "Ġhum": 2364,
      "ĠÙħØŃÙħØ¯": 2365,
      "Ø²Ø§": 2366,
      "ĠÙĦØ¬": 2367,
      "Ġdev": 2368,
      "ÙħØ³": 2369,
      "ĠØ¨Ø·": 2370,
      "...": 2371,
      "ÙĩØ§Ø¨": 2372,
      "Ø®Ø·": 2373,
      "Ġtool": 2374,
      "ĠØªÙģ": 2375,
      "ted": 2376,
      "iversity": 2377,
      "ering": 2378,
      "Ġopportun": 2379,
      "Ġfocus": 2380,
      "ÙĦØ§Ùģ": 2381,
      "ĠØ§ÙĦØ£ÙħØ±": 2382,
      "iting": 2383,
      "ØªØ¬": 2384,
      "Ġlocal": 2385,
      "fort": 2386,
      "ĠÙĬØ´": 2387,
      "ĠÙħÙĪÙĤØ¹": 2388,
      "atter": 2389,
      "ax": 2390,
      "ÙģÙ": 2391,
      "ÙģÙĦ": 2392,
      "Ø§Ø¨Ø¹": 2393,
      "por": 2394,
      "ĠÙĪØ§ÙĦØ¨": 2395,
      "Ġlet": 2396,
      "ĠØ´Ø®Øµ": 2397,
      "Ġinclude": 2398,
      "ĠØ¢Ø®Ø±": 2399,
      "Ġchang": 2400,
      "Ġmet": 2401,
      "ĠÙħØ·": 2402,
      "Ø¨Ùĩ": 2403,
      "ĠØ£Ø´": 2404,
      "Ġbro": 2405,
      "ified": 2406,
      "Ġredu": 2407,
      "Ġlearn": 2408,
      "icle": 2409,
      "ÙĬØ§Ø±": 2410,
      "Ġarea": 2411,
      "Ø§Ø®Ù": 2412,
      "Ø§Ø®ÙĦ": 2413,
      "Ġsolut": 2414,
      "Ġsince": 2415,
      "ÙĤØ¯ÙĬÙħ": 2416,
      "Ġcommunity": 2417,
      "ĠZ": 2418,
      "Ø¨Ø¹": 2419,
      "ĠOn": 2420,
      "Ġtyp": 2421,
      "Ø±Ø¹": 2422,
      "ĠØ¯ÙĪ": 2423,
      "Ġconst": 2424,
      "ĠØ§ÙĦÙĪÙĤØª": 2425,
      "aking": 2426,
      "ĠØ§ÙĦØ¹Ø±Ø§ÙĤ": 2427,
      "ĠÙĥØ¨ÙĬØ±": 2428,
      "orn": 2429,
      "ination": 2430,
      "Ø¨Ø§Ø±": 2431,
      "Ġchange": 2432,
      "Ø§ÙĤØ©": 2433,
      "Ø§ÙĦØ¬": 2434,
      "atform": 2435,
      "Ø±Ùī": 2436,
      "med": 2437,
      "Ġoffers": 2438,
      "ateg": 2439,
      "Ġ30": 2440,
      "Ġcontent": 2441,
      "here": 2442,
      "Ġeasy": 2443,
      "Ġbeh": 2444,
      "Ġtri": 2445,
      "ØºØ·": 2446,
      "vironment": 2447,
      "Ø®Ø°": 2448,
      "ĠShe": 2449,
      "oose": 2450,
      "ĠØ§ÙĦØªÙĨ": 2451,
      "Ġmov": 2452,
      "ØºÙħ": 2453,
      "Ġensure": 2454,
      "ĠIs": 2455,
      "ĠAll": 2456,
      "Ø§Ø¯Ø§Øª": 2457,
      "ains": 2458,
      "Ġterm": 2459,
      "Ø®Ù": 2460,
      "Ø®ÙĦ": 2461,
      "ÙĬÙĪÙĨ": 2462,
      "ĠØ§ÙĦØ¥ÙĨ": 2463,
      "ĠØ§ÙĦØ¥Ø³ÙĦØ§Ùħ": 2464,
      "vern": 2465,
      "ÙĦÙĬØ§Øª": 2466,
      "of": 2467,
      "Ġbrand": 2468,
      "oint": 2469,
      "Ġtoday": 2470,
      "ĠØ§ÙĦØµØŃ": 2471,
      "ÙĬØ·": 2472,
      "Ġmaterial": 2473,
      "50": 2474,
      "ator": 2475,
      "Ø±Ø": 2476,
      "Ġcase": 2477,
      "ission": 2478,
      "As": 2479,
      "port": 2480,
      "Ġ[": 2481,
      "ĠØ§ÙĦØ®Ø§ØµØ©": 2482,
      "ĠØ£ÙģØ¶ÙĦ": 2483,
      "ots": 2484,
      "ĠÙĪØ§ÙĦØ¯": 2485,
      "ĠTe": 2486,
      "uture": 2487,
      "ĠØ°Ø§Øª": 2488,
      "lection": 2489,
      "ised": 2490,
      "ĠØ§ÙĦØªÙĤ": 2491,
      "Ġwhy": 2492,
      "ĠØ¨Ù": 2493,
      "ĠØ¨ÙĦ": 2494,
      "Ġgr": 2495,
      "Ø¬Ø±Ø§Ø¡": 2496,
      "Ġstudents": 2497,
      "ems": 2498,
      "Ġsoft": 2499,
      "illion": 2500,
      "Ġnever": 2501,
      "ĠØ¨Ø§ÙĦØ¥": 2502,
      "ÙĭØĮ": 2503,
      "inal": 2504,
      "lish": 2505,
      "ĠØ§ÙĦØ£ÙĪ": 2506,
      "Ġsal": 2507,
      "Ġbecome": 2508,
      "ency": 2509,
      "ĠÙĦÙĦØ¨": 2510,
      "ĠÙħÙħØ§": 2511,
      "ĠâĢĶ": 2512,
      "work": 2513,
      "ĠÙĦÙĬØ³": 2514,
      "ĠSe": 2515,
      "ÙĬÙģØ©": 2516,
      "Ġbody": 2517,
      "Ġreport": 2518,
      "Ġair": 2519,
      "ĠUS": 2520,
      "Ġess": 2521,
      "Ġpotential": 2522,
      "Ġpossible": 2523,
      "Ġsite": 2524,
      "Ġkey": 2525,
      "Ġtru": 2526,
      "ÙģØ§Ù": 2527,
      "ÙģØ§ÙĦ": 2528,
      "Ġperfect": 2529,
      "Ġresearch": 2530,
      "ĠÙĪÙĤØª": 2531,
      "ĠØ§ÙĦØ§Ø¬ØªÙħØ§Ø¹": 2532,
      "oice": 2533,
      "Ø¬Ø¯": 2534,
      "Ø§Ø¦Ø¯": 2535,
      "ĠÙĦØ°": 2536,
      "ÙĮ": 2537,
      "ÙĬØ±Ø§ÙĨ": 2538,
      "Ø±Ø§": 2539,
      "How": 2540,
      "Ġdetail": 2541,
      "ird": 2542,
      "Ġes": 2543,
      "Ġjob": 2544,
      "ries": 2545,
      "Ġindustry": 2546,
      "Ġhist": 2547,
      "Ġview": 2548,
      "ories": 2549,
      "ww": 2550,
      "ancial": 2551,
      "ïº": 2552,
      "Ġagainst": 2553,
      "Ġgovern": 2554,
      "ĠCon": 2555,
      "Ġcomplete": 2556,
      "ĠØ§ÙĪ": 2557,
      "ÙĪØ§Ù": 2558,
      "ÙĪØ§ÙĦ": 2559,
      "Ġold": 2560,
      "Ġchall": 2561,
      "Ġmult": 2562,
      "ĠÙģÙĤØ¯": 2563,
      "rist": 2564,
      "ĠØ¥Ø¹": 2565,
      "Ġbas": 2566,
      "ÙģÙĬØ°": 2567,
      "hor": 2568,
      "ron": 2569,
      "Ġbuy": 2570,
      "ĠÙĪØµ": 2571,
      "ØªØ±ÙĪÙĨ": 2572,
      "ands": 2573,
      "ĠØ¨ÙħØ§": 2574,
      "ĠØ§ÙĦØ¹Ø¯ÙĬØ¯": 2575,
      "||": 2576,
      "ann": 2577,
      "ĠHowever": 2578,
      "ÙĪØ«": 2579,
      "ÙħÙĬ": 2580,
      "ER": 2581,
      "ĠØªØ·": 2582,
      "Ġdevelopment": 2583,
      "Ġi": 2584,
      "Ġcomes": 2585,
      "Ġstep": 2586,
      "lement": 2587,
      "ats": 2588,
      "Ø¨Ø": 2589,
      "ording": 2590,
      "gin": 2591,
      "ĠØªÙĥ": 2592,
      "Ø²Ù": 2593,
      "Ø²ÙĦ": 2594,
      "gether": 2595,
      "Ġtogether": 2596,
      "Ġemail": 2597,
      "Ġpain": 2598,
      "Ġlarge": 2599,
      "Ġchildren": 2600,
      "Ġlim": 2601,
      "ĠØ§ÙĦØ¥ÙĨØ³": 2602,
      "Ġmeans": 2603,
      "Ġelect": 2604,
      "ĠÙĪØ§ÙĦÙĤ": 2605,
      "aring": 2606,
      "Ġplatform": 2607,
      "ĠWhen": 2608,
      "ember": 2609,
      "aster": 2610,
      "rap": 2611,
      "pecial": 2612,
      "Ġevent": 2613,
      "Ġbased": 2614,
      "Ġcustomers": 2615,
      "Ġbook": 2616,
      "ĠWhat": 2617,
      "Ġgames": 2618,
      "Ġmove": 2619,
      "ĠØ§ÙĦØ£ÙĪÙĦ": 2620,
      "Ġsecond": 2621,
      "ush": 2622,
      "ÙĦØ¬": 2623,
      "Ġident": 2624,
      "ĠØ¹ÙĨØ¯ÙħØ§": 2625,
      "ĠØ·Ø±ÙĬÙĤ": 2626,
      "ibility": 2627,
      "Ġacross": 2628,
      "ÙħÙĬÙĨ": 2629,
      "ÙĪØ§Ø¨": 2630,
      "ĠÙħØ®ØªÙĦÙģ": 2631,
      "Ġpresent": 2632,
      "Ġturn": 2633,
      "ury": 2634,
      "ØŃÙĨ": 2635,
      "Ġquick": 2636,
      "ribut": 2637,
      "ik": 2638,
      "ĠCol": 2639,
      "Ġexpect": 2640,
      "Ġmind": 2641,
      "Ġsever": 2642,
      "ÙĬØ§Ø±Ø§Øª": 2643,
      "ÙĥØ": 2644,
      "Ġcourse": 2645,
      "ÙĥØ§": 2646,
      "Ġcompan": 2647,
      "Ġvarious": 2648,
      "Ø±Ø¨ÙĬØ©": 2649,
      "ĠÙģØª": 2650,
      "ĠÙĪØ¯": 2651,
      "Ġaway": 2652,
      "Ġfeatures": 2653,
      "ising": 2654,
      "Ġclean": 2655,
      "ĠØ§ÙĦÙĤØ±": 2656,
      "ilities": 2657,
      "ĠØ§ÙĦÙĥØ«ÙĬØ±": 2658,
      "Ġcertain": 2659,
      "let": 2660,
      "Ø¨Ø§": 2661,
      "oci": 2662,
      "Ġtre": 2663,
      "urther": 2664,
      "iven": 2665,
      "ights": 2666,
      "bo": 2667,
      "ÙĪÙĤÙģ": 2668,
      "St": 2669,
      "Ġmakes": 2670,
      "Ġfund": 2671,
      "part": 2672,
      "Ġfuture": 2673,
      "Ġweek": 2674,
      "ired": 2675,
      "ooks": 2676,
      "ĠØ§ÙĦÙħÙĨØª": 2677,
      "Ġdig": 2678,
      "ĠØ§ÙĦØ§Ùħ": 2679,
      "Ø§Ø¹Ø§Øª": 2680,
      "Ġgot": 2681,
      "Ġlive": 2682,
      "ĠØ§ÙĦØ¢ÙĨ": 2683,
      "ĠØ§ÙĦÙħØ·": 2684,
      "ĠThat": 2685,
      "Ø¶Ø±": 2686,
      "ode": 2687,
      "yle": 2688,
      "oor": 2689,
      "Ġ14": 2690,
      "Ġenvironment": 2691,
      "ØªØ®": 2692,
      "Ġcontrol": 2693,
      "Ġ100": 2694,
      "ĠRes": 2695,
      "ÙĤÙĬÙĤØ©": 2696,
      "ÙĪÙģØ±": 2697,
      "Ġeduc": 2698,
      "Ġhaving": 2699,
      "Ġener": 2700,
      "ĠØ§Ø¬": 2701,
      "ably": 2702,
      "Ġanal": 2703,
      "Ø§Ø¦ÙĬÙĦ": 2704,
      "wards": 2705,
      "Ø§Ø±Ø³": 2706,
      "Ġask": 2707,
      "ĠPh": 2708,
      "Ø§Ø¹Ø¯Ø©": 2709,
      "ØŃØª": 2710,
      "ids": 2711,
      "Ġcheck": 2712,
      "Ġann": 2713,
      "ĠØ§ÙĦÙĤØ¯": 2714,
      "Ø¯ÙħØ©": 2715,
      "ĠØ§ÙĤ": 2716,
      "ethod": 2717,
      "Ġsignific": 2718,
      "Ġunique": 2719,
      "ĠØ¹Ø¨": 2720,
      "Ġmar": 2721,
      "ĠØ±Ø³": 2722,
      "Ø¶Ø§Ø¡": 2723,
      "Ø§Ø°Ø": 2724,
      "Ø§Ø°Ø§": 2725,
      "ĠYour": 2726,
      "ĠÙĪØ±": 2727,
      "Ġseveral": 2728,
      "Ġkind": 2729,
      "ĠØ¹ÙħÙĦÙĬØ©": 2730,
      "Ġrange": 2731,
      "ĠComm": 2732,
      "30": 2733,
      "Ø³Ø§Øª": 2734,
      "Ġinvol": 2735,
      "Ġcontact": 2736,
      "Ġalong": 2737,
      "ĠØ§ÙĦØ£ÙħØ±ÙĬ": 2738,
      "Ġvisit": 2739,
      "Ġimprove": 2740,
      "ĠØ£ÙĨÙĩØ§": 2741,
      "Ø°ÙĥØ±": 2742,
      "Ġdri": 2743,
      "ding": 2744,
      "ĠØ§ÙĦØ¹ÙĤ": 2745,
      "Ġtimes": 2746,
      "ĠØªØ±Ùĥ": 2747,
      "Ġspace": 2748,
      "ÙĦØ§Ø¹": 2749,
      "Ø¨ÙĬØ©": 2750,
      "ØªÙĬÙĨ": 2751,
      "ret": 2752,
      "ÙĪÙģÙĬ": 2753,
      "Ġfr": 2754,
      "ĠÙĪØ¶Ø¹": 2755,
      "arent": 2756,
      "Ø§Ø¦Ø±": 2757,
      "Ġnet": 2758,
      "Ġ11": 2759,
      "ĠØ§ÙĦÙħØ®": 2760,
      "ÙĪØ§ØµÙ": 2761,
      "ÙĪØ§ØµÙĦ": 2762,
      "Ġpast": 2763,
      "ĠLe": 2764,
      "Wh": 2765,
      "br": 2766,
      "ĠØ¹Ø¯Ùħ": 2767,
      "conom": 2768,
      "ĠØ§ÙĦØ¹ÙĦÙħ": 2769,
      "Ġsw": 2770,
      "âĢĵ": 2771,
      "ĠOr": 2772,
      "Ø¶Ø©": 2773,
      "aging": 2774,
      "Ġroom": 2775,
      "Ġmembers": 2776,
      "ĠØ§ÙĦØ£Ø¹": 2777,
      "Ġdra": 2778,
      "ental": 2779,
      "ĠØ¬Ùĩ": 2780,
      "Ġothers": 2781,
      "uro": 2782,
      "ĠOur": 2783,
      "Ġimpact": 2784,
      "ĠØ§ÙĦØ®Ø·": 2785,
      "Ġfollowing": 2786,
      "Ø³Ø§Ø±Ø©": 2787,
      "Ġ..": 2788,
      "ners": 2789,
      "aim": 2790,
      "outh": 2791,
      "inc": 2792,
      "ĠMan": 2793,
      "Ø§Ø¨ÙĤ": 2794,
      "ÙĬØ±Ø": 2795,
      "ÙĬØ±Ø§": 2796,
      "Ġeffective": 2797,
      "Ġtechnology": 2798,
      "ĠØ§ÙĦØ£ØŃ": 2799,
      "ĠØ§ÙĦÙĨØ§Ø³": 2800,
      "Ġbeaut": 2801,
      "ources": 2802,
      "side": 2803,
      "ina": 2804,
      "Ġ)": 2805,
      "ĠÙĦÙĤ": 2806,
      "pped": 2807,
      "Ġsing": 2808,
      "ĠØ§ÙĦØ¹Ø§ÙħØ©": 2809,
      "ĠÙĪØ´": 2810,
      "ĠØ§ÙĦØ§ÙĤØªØµ": 2811,
      "Ġvideo": 2812,
      "Ġexperienc": 2813,
      "ĠØ£ÙĩÙħ": 2814,
      "fact": 2815,
      "ÙĬØ§Ùĩ": 2816,
      "ott": 2817,
      "Ġname": 2818,
      "ĠÙĥÙĬÙģ": 2819,
      "Ġocc": 2820,
      "af": 2821,
      "Ġpa": 2822,
      "ĠÙĪØ®": 2823,
      "Ġparticular": 2824,
      "ÙĪØ§Ø¹": 2825,
      "ken": 2826,
      "Ġhig": 2827,
      "Ġpurch": 2828,
      "ĠApp": 2829,
      "ĠTr": 2830,
      "Ġreview": 2831,
      "Ġunt": 2832,
      "ption": 2833,
      "ÙĨÙĪØ¨": 2834,
      "Ġpar": 2835,
      "Ġrelations": 2836,
      "12": 2837,
      "ĠÙħØ¬ÙĦØ³": 2838,
      "Ø¸ÙĩØ±": 2839,
      "ĠØªØ¨": 2840,
      "ĠØ§ÙĦØ¯ÙĪÙĦØ©": 2841,
      "load": 2842,
      "Ġnat": 2843,
      "ĠØ¨Ø§ÙĦÙĨ": 2844,
      "Ġphot": 2845,
      "ĠÙĪØ¬ÙĪØ¯": 2846,
      "Ø§Ø¦Ùħ": 2847,
      "ĠÙĥØ¨ÙĬØ±Ø©": 2848,
      "Ø¸Ùħ": 2849,
      "ĠÙĥÙĨØª": 2850,
      "ÙĪØ¬Ø¯": 2851,
      "min": 2852,
      "Ø§ÙĦØ¯": 2853,
      "for": 2854,
      "Ġoptions": 2855,
      "Ġexample": 2856,
      "ĠØªÙĨØ¸": 2857,
      "§ÙĦÙĦ": 2858,
      "Ø§ÙĦÙĦ": 2859,
      "aff": 2860,
      "ĠÙĪØ§ÙĦÙĨ": 2861,
      "Ø³Ø§Ø¡": 2862,
      "Ø§ÙħØ¹Ø©": 2863,
      "ĠØ¨Ø³Ø¨Ø¨": 2864,
      "jor": 2865,
      "ĠØ£Ø¬ÙĦ": 2866,
      "Ġfinancial": 2867,
      "ĠØ§ÙĦÙģØ±": 2868,
      "ĠØ§ÙĦØ§Ø¹": 2869,
      "Ġcompanies": 2870,
      "ope": 2871,
      "For": 2872,
      "ips": 2873,
      "Ġsol": 2874,
      "ĠÙĬÙħÙĥÙĨÙĥ": 2875,
      "Ø¹ÙĬ": 2876,
      "Ø±Øª": 2877,
      "Ġhouse": 2878,
      "ready": 2879,
      "Ġworks": 2880,
      "ØŃÙĤ": 2881,
      "Ġcult": 2882,
      "ĠØ£Ø«": 2883,
      "Ġcompet": 2884,
      "Ġthing": 2885,
      "duct": 2886,
      "Ġshort": 2887,
      "Ġrespons": 2888,
      "ĠÙĪØ§ÙĦØ´": 2889,
      "ÙĩÙĪØ±": 2890,
      "Ġaddress": 2891,
      "ĠØ£ÙĤ": 2892,
      "ication": 2893,
      "Ġgroup": 2894,
      "Ġtem": 2895,
      "Ġcountry": 2896,
      "ØªØ±Ø§Øª": 2897,
      "ored": 2898,
      "Ġissues": 2899,
      "Ġnon": 2900,
      "cent": 2901,
      "When": 2902,
      "ØµØ": 2903,
      "ØµØ§": 2904,
      "ÙģÙĤ": 2905,
      "ÙħØ§Ùħ": 2906,
      "Ġenergy": 2907,
      "Ġprovides": 2908,
      "ĠØ§ÙĦØ£Ø´": 2909,
      "ĠØ¨ÙĪ": 2910,
      "acy": 2911,
      "lev": 2912,
      "ift": 2913,
      "sel": 2914,
      "Ġrecomm": 2915,
      "ĠÙħØ®": 2916,
      "ged": 2917,
      "fer": 2918,
      "ĠØ§ÙĦØ¥Ø¹": 2919,
      "ĠSu": 2920,
      "ĠØªØŃØ¯": 2921,
      "Ġrecommend": 2922,
      "ĠCan": 2923,
      "ery": 2924,
      "Ġmethod": 2925,
      "ÙĪÙĤØ": 2926,
      "ÙĪÙĤØ§": 2927,
      "raph": 2928,
      "ĠØ§ÙĦÙħÙĩ": 2929,
      "arning": 2930,
      "ĠØ§ÙĦØ®Ø§Øµ": 2931,
      "Ø¨Ø§Ø¨": 2932,
      "ĠÙħÙĨÙĩ": 2933,
      "ĠØ§ÙĦÙģÙĦØ³Ø·ÙĬÙĨ": 2934,
      "ĠÙĪÙĥØ§ÙĨ": 2935,
      "ĠInst": 2936,
      "ÙĬØ§Ø¶": 2937,
      "ĠÙĪØ§ÙĦÙģ": 2938,
      "Ġmanagement": 2939,
      "Ġmean": 2940,
      "Ø§Ø·ÙĤ": 2941,
      "ÙĪØ±ÙĪØ¨": 2942,
      "ffic": 2943,
      "ĠÙĦØ³": 2944,
      "Ġsignificant": 2945,
      "Ġcomb": 2946,
      "ÙĩØ§Ùħ": 2947,
      "Ġfore": 2948,
      "Ø²Ø¨": 2949,
      "ĠØ§ÙĦØ£Ø¯": 2950,
      "ÙĥØ±ÙĬ": 2951,
      "Ø²ÙĬØ²": 2952,
      "oh": 2953,
      "ĠØ§ÙĦØ´Ø®Øµ": 2954,
      "abor": 2955,
      "ĠÙĪØ§ÙĨ": 2956,
      "Ġlow": 2957,
      "Ġstrong": 2958,
      "ides": 2959,
      "ĠØ§ÙĦØ´Ø±ÙĥØ©": 2960,
      "Ġprofessional": 2961,
      "Ġside": 2962,
      "Ġaud": 2963,
      "mb": 2964,
      "ĠØ§ÙĦØ³Ø¹ÙĪØ¯ÙĬØ©": 2965,
      "ÙĪÙĬÙĦ": 2966,
      "ured": 2967,
      "ĠØ¯Ø§Ø®ÙĦ": 2968,
      "ĠØ§ÙĦØŃÙĥÙĪÙħØ©": 2969,
      "Ġbring": 2970,
      "Ġcustomer": 2971,
      "ape": 2972,
      "Ġenc": 2973,
      "Ø±ÙĪÙģ": 2974,
      "ĠFr": 2975,
      "ÙĬÙħÙĥÙĨ": 2976,
      "ĠØ§ÙĦØ®Ø§Ø±Ø¬": 2977,
      "rop": 2978,
      "cing": 2979,
      "Ġshare": 2980,
      "Ø¨Ø·": 2981,
      "Ø§Ø¸": 2982,
      "Ø§ÙĨÙĬØ§": 2983,
      "ÙĦØ§Ø³": 2984,
      "Ø§ÙĦØ«": 2985,
      "ÙĦÙĥØ©": 2986,
      "Ġvers": 2987,
      "li": 2988,
      "ump": 2989,
      "Ø§ÙĦØ£": 2990,
      "ĠÙĪÙĩØ°Ø§": 2991,
      "vious": 2992,
      "Ġalready": 2993,
      "ledge": 2994,
      "Ġgetting": 2995,
      "Ġpriv": 2996,
      "IN": 2997,
      "\"ØĮ": 2998,
      "ĠØŃØ§ÙĦØ©": 2999,
      "ĠØ®Ø§ØµØ©": 3000,
      "ØªØ±ÙĨØª": 3001,
      "11": 3002,
      "Ġcommon": 3003,
      "asing": 3004,
      "ĠÙħØ¬ÙħÙĪØ¹Ø©": 3005,
      "Ġwomen": 3006,
      "ĠØ§ÙĦØªØ³": 3007,
      "ĠÙĨØª": 3008,
      "ĠÙģØ¹": 3009,
      "ĠÙĬØ¤": 3010,
      "aces": 3011,
      "ĠØ§ÙĦØ£ÙħÙĨ": 3012,
      "ĠÙĪÙħØ§": 3013,
      "Ġreturn": 3014,
      "ĠÙĪØ§ÙĦØ¬": 3015,
      "Ġamount": 3016,
      "Ġla": 3017,
      "Ø±ÙĬÙĨ": 3018,
      "ĠØ§ÙĦØ¬Ùĩ": 3019,
      "Ġdeal": 3020,
      "Ġhold": 3021,
      "Ġfour": 3022,
      "ived": 3023,
      "imate": 3024,
      "avor": 3025,
      "oid": 3026,
      "ÙĢÙĢÙĢÙĢ": 3027,
      "ØŃÙĦØ©": 3028,
      "ÙĬØ®": 3029,
      "ÙģÙĥ": 3030,
      "There": 3031,
      ".\"": 3032,
      "Ġline": 3033,
      "ÙĪØ¡": 3034,
      "ĠØ¯ÙĪÙĦØ§Ø±": 3035,
      "Ġcred": 3036,
      "ĠØ¶Ø¯": 3037,
      "ĠÙĪØ§ÙĦØ±": 3038,
      "Ġdue": 3039,
      "ÙģØ§Ø¹": 3040,
      "ØªØ¨Ø§Ø±": 3041,
      "ases": 3042,
      "Ġactually": 3043,
      "ogn": 3044,
      "ĠØ«ÙĦØ§Ø«": 3045,
      "ĠÙģÙĬÙħØ§": 3046,
      "Ġtravel": 3047,
      "Ġvalue": 3048,
      "Ġuntil": 3049,
      "Ġmedia": 3050,
      "Ġknown": 3051,
      "cy": 3052,
      "ĠÙĦÙĪ": 3053,
      "ĠØ§ÙĦÙĤØ§ÙĨÙĪÙĨ": 3054,
      "cle": 3055,
      "Ġ24": 3056,
      "ÙĪÙĤØ§Ù": 3057,
      "ÙĪÙĤØ§ÙĦ": 3058,
      "ĠÙĪØ§ÙĦØ®": 3059,
      "ĠÙĪÙĦÙĬ": 3060,
      "Ġpopular": 3061,
      "//": 3062,
      "Ġrelationship": 3063,
      "Ø¹ÙĦÙĤ": 3064,
      "Ø§ÙĦØ³": 3065,
      "nov": 3066,
      "Ġword": 3067,
      "iod": 3068,
      "ĠÙĪØ·": 3069,
      "Ġessential": 3070,
      "Ġmajor": 3071,
      "Ø§Ø¦ÙĤ": 3072,
      "izing": 3073,
      "ĠØ§ÙĦÙħØ¬ØªÙħØ¹": 3074,
      "ĠÙĨØ¸Ø§Ùħ": 3075,
      "ÙĪØ±ÙĥØ³": 3076,
      "urs": 3077,
      "Ġenough": 3078,
      "by": 3079,
      "Ġcamp": 3080,
      "Ġsecurity": 3081,
      "Ġusers": 3082,
      "Ġcover": 3083,
      "Ġjour": 3084,
      "oring": 3085,
      "ĠØŃÙĬÙĨ": 3086,
      "Ø³ÙĬÙĨ": 3087,
      "pro": 3088,
      "Ġstay": 3089,
      "osp": 3090,
      "ĠØ±ÙĬ": 3091,
      "Ø·ÙģØ§ÙĦ": 3092,
      "ĠØ§ÙĦÙĨØ¸Ø§Ùħ": 3093,
      "ĠCent": 3094,
      "ĠEn": 3095,
      "ÙĤÙħ": 3096,
      "ĠÙĪØ§ÙĦØ°": 3097,
      "Ġperformance": 3098,
      "Ġdone": 3099,
      "ĠGod": 3100,
      "ety": 3101,
      "ĠÙħÙģ": 3102,
      "Ġexc": 3103,
      "ĠÙĦÙĦÙĤ": 3104,
      "Ġey": 3105,
      "Ø§ÙĦØ¹": 3106,
      "ĠTra": 3107,
      "atic": 3108,
      "Ø±Ø¨Ø©": 3109,
      "ĠØ§ÙĦØ£ÙĪÙĦÙī": 3110,
      "cell": 3111,
      "ĠAt": 3112,
      "Ġnecess": 3113,
      "ones": 3114,
      "Ġpolic": 3115,
      "gle": 3116,
      "Ġphys": 3117,
      "Ġresults": 3118,
      "ĠØ£ÙħØ§Ùħ": 3119,
      "Ġever": 3120,
      "Ġach": 3121,
      "ĠChrist": 3122,
      "ĠØ§Ùĥ": 3123,
      "Ø³Ø±Ø§Ø¦ÙĬÙĦ": 3124,
      "Ġweb": 3125,
      "ĠServ": 3126,
      "ĠØ¬Ø¯ÙĬØ¯Ø©": 3127,
      "Ġtype": 3128,
      "ource": 3129,
      "ĠØ§ÙĦØ¯Ø±": 3130,
      "ĠÙĪØ§ØŃØ¯": 3131,
      "ows": 3132,
      "ĠEng": 3133,
      "ĠØ§ÙĦØ§Ø®": 3134,
      "ĠX": 3135,
      "urance": 3136,
      "ÙĦØ§ÙĬØ§Øª": 3137,
      "Ġchoose": 3138,
      "ĠÙĪØºÙĬØ±": 3139,
      "ĠØªØ®": 3140,
      ")ØĮ": 3141,
      "Ġeconom": 3142,
      "Ġinstall": 3143,
      "Ġmen": 3144,
      "Ġheart": 3145,
      "pecially": 3146,
      "room": 3147,
      "ĠØ£Ø®": 3148,
      "Ġsays": 3149,
      "Ġgovernment": 3150,
      "ÙıÙĳ": 3151,
      "ĠØ§ÙĦÙħØ§Ø¶ÙĬ": 3152,
      "Ø¹Øª": 3153,
      "Ġmom": 3154,
      "ĠÙĪÙĦÙħ": 3155,
      "ai": 3156,
      "Ġwhether": 3157,
      "ĠCont": 3158,
      "ÙĥØ«Ø±": 3159,
      "Ġ16": 3160,
      "Ġbegin": 3161,
      "ane": 3162,
      "Ġrecord": 3163,
      "ĠØ§ÙĦØ¯ÙĬÙĨ": 3164,
      "elling": 3165,
      "ĠØµØŃ": 3166,
      "Ø¬ÙĬÙĦ": 3167,
      "Ġdoing": 3168,
      "://": 3169,
      "Ø§Ø³Ø¨": 3170,
      "To": 3171,
      "Ġdiscuss": 3172,
      "ulation": 3173,
      "Ø§Ø¨Ù": 3174,
      "Ø§Ø¨ÙĦ": 3175,
      "obal": 3176,
      "not": 3177,
      "Ø§Ø³Ùħ": 3178,
      "§ÙĪÙĦ": 3179,
      "Ġdam": 3180,
      "'re": 3181,
      "ØŃØ§Ø¯": 3182,
      "Ġrisk": 3183,
      "Ġseason": 3184,
      "Ġstory": 3185,
      "ĠØ¹ÙĦÙħ": 3186,
      "Ġprep": 3187,
      "irt": 3188,
      "Ġcond": 3189,
      "uck": 3190,
      "sw": 3191,
      "Ø·Ø§Ø±": 3192,
      "Ġtax": 3193,
      "ØŃÙħ": 3194,
      "Ġenh": 3195,
      "Ġhuman": 3196,
      "ĠØ§ÙĦØŃØ±": 3197,
      "ĠØ¹ÙĤ": 3198,
      "ÙĥÙħØ§": 3199,
      "Ø§ØªÙĩ": 3200,
      "Ġmusic": 3201,
      "ĠØ§ÙĦÙħÙģ": 3202,
      "ĠÙĨØŃÙĪ": 3203,
      "ÙĪØ§Ùģ": 3204,
      "ĠUniversity": 3205,
      "ÙĪØ¶ÙĪØ¹": 3206,
      "ÙĦØŃØ©": 3207,
      "Ġoffic": 3208,
      "ĠØ¯ÙĪØ±": 3209,
      "ES": 3210,
      "Ġcou": 3211,
      "ON": 3212,
      "Ġbenefits": 3213,
      "Ġ50": 3214,
      "Ġbit": 3215,
      "ocu": 3216,
      "Ġtraining": 3217,
      "ply": 3218,
      "Ġassist": 3219,
      "ÙĦÙĥØªØ±ÙĪÙĨ": 3220,
      "ĠØ§ÙĦØªØ¯": 3221,
      "ÙĬØ§ÙĨØ§Øª": 3222,
      "ÙĤÙĬ": 3223,
      "Ġpage": 3224,
      "AT": 3225,
      "ĠÙħØ«": 3226,
      "Ġconsum": 3227,
      "ÙĨØ§Ùģ": 3228,
      "Ġareas": 3229,
      "Ġfre": 3230,
      "ÙĪÙĦÙĩ": 3231,
      "Ġhours": 3232,
      "Ø§ÙħØ": 3233,
      "Ø§ÙħØ§": 3234,
      "ĠÙĪØ¥ÙĨ": 3235,
      "Ġcharact": 3236,
      "Ġsoftware": 3237,
      "utes": 3238,
      "Ġfurther": 3239,
      "Ø¨Ø¯Ø£": 3240,
      "Ġsearch": 3241,
      "Ġreason": 3242,
      "ÙĪØ±ÙĬØ": 3243,
      "ÙĪØ±ÙĬØ§": 3244,
      "Ġonce": 3245,
      "ÙĩÙħØ©": 3246,
      "ĠØ´ÙĬØ¡": 3247,
      "Ø¬Ø": 3248,
      "ĠBy": 3249,
      "Ø¬Ø§": 3250,
      "idence": 3251,
      "ees": 3252,
      "ĠØ¨Ø³": 3253,
      "ĠØªØ·Ø¨ÙĬÙĤ": 3254,
      "Ġeffic": 3255,
      "ges": 3256,
      "ĠAm": 3257,
      "ÙĦÙħØ©": 3258,
      "Ġleft": 3259,
      "Ġpress": 3260,
      "arr": 3261,
      "Ġ25": 3262,
      "Ø§Ø¦ÙħØ©": 3263,
      "ging": 3264,
      "ches": 3265,
      "Ġnatural": 3266,
      "resent": 3267,
      "ÙħØª": 3268,
      "Ġprice": 3269,
      "Ġquestions": 3270,
      "Ø¨ÙĬØ±": 3271,
      "ÙĩØ¯Ùģ": 3272,
      "ĠØ£ÙħØ±": 3273,
      "Ø§Ø¦Ø¨": 3274,
      "Ġcasino": 3275,
      "Ġstudy": 3276,
      "Ġcity": 3277,
      "ÙĨØªØ§Ø¬": 3278,
      "anced": 3279,
      "Ġyourself": 3280,
      "Ġ13": 3281,
      "Ġsafe": 3282,
      "Ġchalleng": 3283,
      "ĠNo": 3284,
      "ĠÙĦÙĦØ¬": 3285,
      "ĠCo": 3286,
      "Ġant": 3287,
      "Ġrole": 3288,
      "Ġcra": 3289,
      "ĠØ¨Øµ": 3290,
      "Ø±ÙģØ©": 3291,
      "Ġfar": 3292,
      "Ġyoung": 3293,
      "ither": 3294,
      "ley": 3295,
      "ĠØŃÙħ": 3296,
      "Ġcalled": 3297,
      "irm": 3298,
      "ites": 3299,
      "Ġcomfort": 3300,
      "Ġways": 3301,
      "app": 3302,
      "Ġdoesn": 3303,
      "Ġorig": 3304,
      "ĠØ§ÙĦØ³ÙĦØ·": 3305,
      "ĠÙĦÙĦØ´": 3306,
      "An": 3307,
      "ĠØ§ÙĦÙĦ": 3308,
      "Ġamong": 3309,
      "ĦÙĬÙĨ": 3310,
      "ĠComp": 3311,
      "ÙĦÙĬÙĨ": 3312,
      "Ġbuilding": 3313,
      "Ġdigital": 3314,
      "place": 3315,
      "Ġ2020": 3316,
      "alf": 3317,
      "ians": 3318,
      "Ø¬Ø²": 3319,
      "most": 3320,
      "Ġpack": 3321,
      "ĠMed": 3322,
      "ÙĩØ¨": 3323,
      "ĠØ§ÙĦØ¯ÙĪÙĦ": 3324,
      "ensive": 3325,
      "ĠØ§ÙĦÙħÙĨØ·ÙĤØ©": 3326,
      "Ġwr": 3327,
      "Ġstore": 3328,
      "osed": 3329,
      "ĠÙĦÙĦØ³": 3330,
      "ÙĪØ³Ø·": 3331,
      "ĠØ§ÙĦØ«Ø§ÙĨÙĬ": 3332,
      "ĠØ§ÙĨØª": 3333,
      "Ø·ÙĦØ¨": 3334,
      "Ġdesigned": 3335,
      "Ġport": 3336,
      "icult": 3337,
      "Ġmil": 3338,
      "obile": 3339,
      "crib": 3340,
      "ĠØ¨ÙĬ": 3341,
      "Ø§Ø¨Ø¹Ø©": 3342,
      "Ø®Ø§Øµ": 3343,
      "Ġmeas": 3344,
      "Ġnews": 3345,
      "ĠDo": 3346,
      "ÙħÙĬÙħ": 3347,
      "Ġeverything": 3348,
      "ĠÙĪØ²Ø§Ø±Ø©": 3349,
      "ĠØ¬Ø¯Ø§": 3350,
      "ĠÙĪÙħØ¹": 3351,
      "ĠØ£ÙĬØ¶": 3352,
      "Ø¯Ø§Ø¯": 3353,
      "Ġappear": 3354,
      "Ġinfl": 3355,
      "Ġdi": 3356,
      "ÙĥØªÙĪØ±": 3357,
      "Ġauthor": 3358,
      "Ġstarted": 3359,
      "ĠÙĪØ§ØŃØ¯Ø©": 3360,
      "Ø³ÙĨ": 3361,
      "ĠÙĦÙĦØ¥": 3362,
      "roll": 3363,
      "ĠØ§ÙĦØªØ¹ÙĦÙĬÙħ": 3364,
      "Ġsystems": 3365,
      "ĠØ¨Ø§ÙĦØ¹": 3366,
      "ĠØ§ÙĦØ¸": 3367,
      "ØºÙĬÙĬØ±": 3368,
      "ĠMar": 3369,
      "ister": 3370,
      "Ġcut": 3371,
      "sh": 3372,
      "ĠØ¨Ø§ÙĦØ£": 3373,
      "fully": 3374,
      "Ġcrit": 3375,
      "Ø¨ÙĬÙĨ": 3376,
      "ĠÙĬØµ": 3377,
      "ĠØ¨Ø§ÙĦÙĤ": 3378,
      "Ġmarketing": 3379,
      "ires": 3380,
      "Ġ199": 3381,
      "ÙĥÙĪ": 3382,
      "Ġsimple": 3383,
      "Ġcoll": 3384,
      "Ġincrease": 3385,
      "Ġcal": 3386,
      "ĠØ§ÙĦØ¥ÙĨØ³Ø§ÙĨ": 3387,
      "Ġfield": 3388,
      "ĠÙĨÙĪØ¹": 3389,
      "Ġmonths": 3390,
      "ĠOne": 3391,
      "Ġmaintain": 3392,
      "Ġallows": 3393,
      "ĠØ³ÙĪÙģ": 3394,
      "ilt": 3395,
      "ĠØ§ÙĦØ´Ø¹Ø¨": 3396,
      "Ø¶ÙħÙĨ": 3397,
      "ĠØ§ÙĦÙģØª": 3398,
      "Ġmot": 3399,
      "Ġ...": 3400,
      "Ø¹Ø¯Ø§Ø¯": 3401,
      "lex": 3402,
      "ograph": 3403,
      "Ġmach": 3404,
      "Ø·ÙĬØ¹": 3405,
      "Ġtaking": 3406,
      "Ġbelow": 3407,
      "ĠÙĤØ±": 3408,
      "Ġespecially": 3409,
      "Ø·Ø¹": 3410,
      "Ø´Ø§Ø±ÙĥØ©": 3411,
      "ĠÙħØ¯ÙĬÙĨØ©": 3412,
      "une": 3413,
      "Ġjo": 3414,
      "Ġfunction": 3415,
      "Ø§ÙĩØ¯": 3416,
      "ĠÙħØ¶": 3417,
      "ĠØ¬Ø§ÙĨØ¨": 3418,
      "Ġperiod": 3419,
      "Ø²Ø¡": 3420,
      "ØºØ±": 3421,
      "Ġproperty": 3422,
      "illed": 3423,
      "ched": 3424,
      "ĠÙĪØ§ÙĦØµ": 3425,
      "ĠÙħÙĥØ§ÙĨ": 3426,
      "Ġplayers": 3427,
      "ĠØ§Ùģ": 3428,
      "Ġclose": 3429,
      "Ø§Ø¹ÙĬ": 3430,
      "ĠØ§ÙĦØªØµ": 3431,
      "Ø±ÙĬÙģ": 3432,
      "Ġpie": 3433,
      "Ġrequired": 3434,
      "AR": 3435,
      "ĠØ¥Ø°": 3436,
      "ÙĨØ§ÙĪÙĦ": 3437,
      "mm": 3438,
      "resh": 3439,
      "err": 3440,
      "ĠPr": 3441,
      "Ø§ÙģÙĬØ©": 3442,
      "ÙĩØ§ÙĬØ©": 3443,
      "Ø§ÙħÙĦØ©": 3444,
      "Ġleast": 3445,
      "Ġproblem": 3446,
      "Ġmess": 3447,
      "Ø§Ø³Ø§Øª": 3448,
      "Ùĭ.": 3449,
      "iate": 3450,
      "Ġ17": 3451,
      "Ġnight": 3452,
      "Ġparticip": 3453,
      "ĠÙĦØ´": 3454,
      "ĠÙħÙĦÙĬÙĪÙĨ": 3455,
      "Ø¹Ø§ÙĪÙĨ": 3456,
      "Ġearly": 3457,
      "ĠØ§ÙĦØ£Ø®Ø±Ùī": 3458,
      "Ġself": 3459,
      "Ġselect": 3460,
      "lished": 3461,
      "ÙĪØ¨Ø©": 3462,
      "Ġce": 3463,
      "ĠÙĥØ³Ø§Ø±Ø©": 3464,
      "ĠØ§ÙĦÙħØ±ÙĥØ²": 3465,
      "Ġhot": 3466,
      "ĠWor": 3467,
      "nam": 3468,
      "ests": 3469,
      "Ġskin": 3470,
      "Ø§ÙģØ¸Ø©": 3471,
      "Ġdepend": 3472,
      "Ġknowledge": 3473,
      "Ø§ØµØ±": 3474,
      "Ġtal": 3475,
      "Ġgrowth": 3476,
      "Ġautom": 3477,
      "ĠØ¯Ø±": 3478,
      "iful": 3479,
      "ØªÙĬØ§Ø±": 3480,
      "selves": 3481,
      "Ø´Ø§Ø¡": 3482,
      "Ġface": 3483,
      "ĠØ§ÙĦØªØ£": 3484,
      "Ġage": 3485,
      "----": 3486,
      "Ġhappen": 3487,
      "Ġclaim": 3488,
      "Ġfriends": 3489,
      "Ġextra": 3490,
      "ĠÙĥØ«ÙĬØ±": 3491,
      "ĠØ§ÙĦØ¹Ø³": 3492,
      "ification": 3493,
      "ÙĦØµ": 3494,
      "15": 3495,
      "Ġwide": 3496,
      "ators": 3497,
      "ĠØ§ÙĦØ£ÙĨ": 3498,
      "Ø§Ø¬Ø©": 3499,
      "Ġsuper": 3500,
      "ÙģØ§Ø¡": 3501,
      "idd": 3502,
      "ÙĪÙĨØ©": 3503,
      "Ġupd": 3504,
      "ĠØ¨Ø±ÙĨØ§ÙħØ¬": 3505,
      "vert": 3506,
      "Ġprevent": 3507,
      "Ġapproach": 3508,
      "ØŃØ": 3509,
      "rict": 3510,
      "Ġinit": 3511,
      "come": 3512,
      "ĠØ¨Ø§Ø³Øª": 3513,
      "ĠØ§ÙĦÙħÙĥ": 3514,
      "Ø±Ùħ": 3515,
      "ĠEuro": 3516,
      "Ġmillion": 3517,
      "Ø±Ø¨Ø¹": 3518,
      "ony": 3519,
      "ief": 3520,
      "Ġskills": 3521,
      "ĠØ§ÙĦØ¨ÙĦØ¯": 3522,
      "ØµØ§Ù": 3523,
      "ØµØ§ÙĦ": 3524,
      "ÙĤØ¨ÙĦ": 3525,
      "Ġhistory": 3526,
      "ĠÙĦØ°ÙĦÙĥ": 3527,
      "Ø§Ø¯Ø±Ø©": 3528,
      "Ġuser": 3529,
      "cri": 3530,
      "ÙĪÙĬØª": 3531,
      "ĠAss": 3532,
      "ĠFl": 3533,
      "ĠØ§ÙĦØªØ´": 3534,
      "ĠÙĤØ§Ùħ": 3535,
      "Ġproviding": 3536,
      "ĠSy": 3537,
      "Ġinteg": 3538,
      "Ø¹ÙĬØ©": 3539,
      "ĠÙĦÙĩÙħ": 3540,
      "Ġdifficult": 3541,
      "Ġwind": 3542,
      "ÙĪÙĦÙĪØ¬": 3543,
      "Ġlearning": 3544,
      "Ġclear": 3545,
      "ctor": 3546,
      "Ø¶ÙĬ": 3547,
      "book": 3548,
      "ĠØ¬Ø¯ÙĬØ¯": 3549,
      "Ø·ÙĦÙĤ": 3550,
      "Ġsitu": 3551,
      "Ġcard": 3552,
      "ĠØ£ÙĥØ¨Ø±": 3553,
      "ĠÙħÙĨØ·ÙĤØ©": 3554,
      "omes": 3555,
      "ÙĬØ¯Ø": 3556,
      "ÙĬØ¯Ø§": 3557,
      "ÙĪØ¸": 3558,
      "ÙħØ§ÙĬØ©": 3559,
      "iple": 3560,
      "Ø§Ø±Ùĥ": 3561,
      "Ġestab": 3562,
      "ises": 3563,
      "Ġdocu": 3564,
      "ÙħØ§Ø±Ø§Øª": 3565,
      "oogle": 3566,
      "Ġwa": 3567,
      "ĠØµÙģ": 3568,
      "ĠØ£ÙĪÙĦ": 3569,
      "Ġindividuals": 3570,
      "Ø´Ø±Ø©": 3571,
      "irl": 3572,
      "Ġtools": 3573,
      "play": 3574,
      "Ġvol": 3575,
      "ĠÙħØ³ØªÙĪÙī": 3576,
      "ØªØ±Ø§ØªÙĬØ¬": 3577,
      "Ġoil": 3578,
      "Ġsomeone": 3579,
      "ĠMy": 3580,
      "Ø§ØªÙĩØ§": 3581,
      "unch": 3582,
      "Ġclients": 3583,
      "Ġdidn": 3584,
      "ĠCar": 3585,
      "ĠÙħØ±Ø©": 3586,
      "ĠØ§ÙĬ": 3587,
      "eral": 3588,
      "Ġhy": 3589,
      "ĠÙĪØ§Ø³": 3590,
      "Ø·ÙĦØ§ÙĤ": 3591,
      "Ø§ØªÙģ": 3592,
      "Ġut": 3593,
      "ufact": 3594,
      "rodu": 3595,
      "Ġwon": 3596,
      "Ġtreatment": 3597,
      "irc": 3598,
      "use": 3599,
      "Ġcollect": 3600,
      "ĠÙħØ¹Ø¯": 3601,
      "Ġ'": 3602,
      "Ø®ÙĪÙĦ": 3603,
      "ĠÙĪØªØ¹": 3604,
      "ler": 3605,
      "Ø§ÙģÙĬ": 3606,
      "rain": 3607,
      "ĠØ§ÙĦØŃÙĬØ§Ø©": 3608,
      "Ø§Ø¦Ø¬": 3609,
      "Ø²Ø§Ùħ": 3610,
      "Ġsound": 3611,
      "Ġyet": 3612,
      "Ġactivities": 3613,
      "Ø£Øª": 3614,
      "Ġsingle": 3615,
      "ĠØ§ÙĦØ¯ÙĪÙĦÙĬ": 3616,
      "Ġlikely": 3617,
      "ĦÙĦØº": 3618,
      "ÙĦÙĦØº": 3619,
      "Ġz": 3620,
      "ditional": 3621,
      "ĠÙĪØ§ÙĦÙĥ": 3622,
      "AN": 3623,
      "Ġdeterm": 3624,
      "ĠØ¨Ø¬": 3625,
      "aps": 3626,
      "Ø¥Ø°Ø§": 3627,
      "ĠÙĦØ¯Ùī": 3628,
      "arget": 3629,
      "ĠØ§ÙĦØ¹Ø±Ø¨ÙĬ": 3630,
      "ĠØ§ÙĦÙħØ¹ÙĦÙĪÙħØ§Øª": 3631,
      "Ġ2023": 3632,
      "Ġ2021": 3633,
      "ĠØ§ÙĦÙĨÙģ": 3634,
      "Ġgiven": 3635,
      "ØŃØ§Øª": 3636,
      "ĠØ§ÙĦÙĪÙĦØ§ÙĬØ§Øª": 3637,
      "Ġeveryone": 3638,
      "Ġentire": 3639,
      "aged": 3640,
      "Ø´Ø©": 3641,
      "§ÙĦÙĦØº": 3642,
      "Ø§ÙĦÙĦØº": 3643,
      "ued": 3644,
      "Ø§Ø¹ÙĬØ©": 3645,
      "itted": 3646,
      "ĠØªÙĤØ¯Ùħ": 3647,
      "go": 3648,
      "enn": 3649,
      "Ġabove": 3650,
      "Ġlo": 3651,
      "14": 3652,
      "Ø³Ø·": 3653,
      "hers": 3654,
      "ÙĪÙĨØ": 3655,
      "ÙĪÙĨØ§": 3656,
      "âĢ¢": 3657,
      "Ġstrateg": 3658,
      "Ø¯Ùģ": 3659,
      "Ø§ÙĨØ©": 3660,
      "OR": 3661,
      "Ġland": 3662,
      "ĠØ§ÙĦØŃÙĤ": 3663,
      "ÙĪÙģÙĬØ±": 3664,
      "ØªÙħØ±": 3665,
      "Ø¬ÙĩØ²Ø©": 3666,
      "Ġfit": 3667,
      "Ø±ÙĬØ·": 3668,
      "Ġtext": 3669,
      "ĠÙĨÙģØ³Ùĩ": 3670,
      "Ġsimply": 3671,
      "Ø§ÙĨØ§Øª": 3672,
      "ĠØŃØ": 3673,
      "ØŃØ§Ø¨": 3674,
      "Ġtot": 3675,
      "Ġregular": 3676,
      "ĠÙĢ": 3677,
      "Ġful": 3678,
      "ÙĥØ±Ø©": 3679,
      "Ġloss": 3680,
      "Ġ2018": 3681,
      "ĠGu": 3682,
      "18": 3683,
      "ĠUnited": 3684,
      "ĠAmerican": 3685,
      "Ø¹ÙĬØ¯": 3686,
      "ĠØ¶ÙħÙĨ": 3687,
      "ables": 3688,
      "Ġthought": 3689,
      "ĠØ§ÙĦÙħØ§ÙĦÙĬØ©": 3690,
      "ruction": 3691,
      "though": 3692,
      "Ġevents": 3693,
      "Ġansw": 3694,
      "ames": 3695,
      "ID": 3696,
      "new": 3697,
      "ilar": 3698,
      "Ġbusinesses": 3699,
      "angu": 3700,
      "Ġlegal": 3701,
      "ÙĥØ±ÙĬØ©": 3702,
      "Ġincludes": 3703,
      "Ġwhole": 3704,
      "ained": 3705,
      "Ġ2022": 3706,
      "Ġexist": 3707,
      "ĠØ®Øµ": 3708,
      "oll": 3709,
      "Ø§Ø³Ø¨Ø©": 3710,
      "Ø±Ø¬Ø©": 3711,
      "xim": 3712,
      "Ġplease": 3713,
      "Ø¹Ø§Øª": 3714,
      "Ġregard": 3715,
      "ĠØ¹ÙĨÙĩ": 3716,
      "Ġtell": 3717,
      "Ġreceive": 3718,
      "Ġprior": 3719,
      "Ġopportunity": 3720,
      "Ġoption": 3721,
      "Ġrecogn": 3722,
      "mber": 3723,
      "Ġneeded": 3724,
      "ØºÙĬØ±Ø©": 3725,
      "ene": 3726,
      "Ġconditions": 3727,
      "Ø¯Ø§ÙĬØ©": 3728,
      "ĠÙĪØ²ÙĬØ±": 3729,
      "ĠØ§ÙĦÙģÙĪØ±ÙĥØ³": 3730,
      "Ġexam": 3731,
      "Ø±ÙĬÙħ": 3732,
      "icro": 3733,
      "Ġste": 3734,
      "Ġchanges": 3735,
      "ÙĨÙĥ": 3736,
      "ĠÙĦÙĦØ¯": 3737,
      "Ġsat": 3738,
      "Ġvariety": 3739,
      "Ġsafety": 3740,
      "Ġcame": 3741,
      "time": 3742,
      "ĠØªÙĤØ¯ÙĬÙħ": 3743,
      "Ġchoice": 3744,
      "ĠØ£ÙĦÙģ": 3745,
      "Ġcontinue": 3746,
      "Ġapplication": 3747,
      "ĠØ·ÙĦØ¨": 3748,
      "ĠIntern": 3749,
      "ĠØ§ÙĦØŃØµÙĪÙĦ": 3750,
      "ĠØ§ÙĦØ£Ø¬": 3751,
      "istic": 3752,
      "ÙĦÙĪØ¨": 3753,
      "Ġhigher": 3754,
      "ĠØ§ÙĦØ¹Ø¯": 3755,
      "ÙħÙĥØ§ÙĨ": 3756,
      "ĠØ´ÙĩØ±": 3757,
      "Ġlater": 3758,
      "ĠØ£ÙħØ§": 3759,
      "ĠØ§ÙĦØ¯Ùħ": 3760,
      "ĠØ§ÙĦØŃØ¯ÙĬØ«": 3761,
      "Ġexpert": 3762,
      "ĦÙĦØ¬": 3763,
      "ÙĦÙĦØ¬": 3764,
      "Ø«ÙħØ§Ø±": 3765,
      "hing": 3766,
      "ĠÙĪØ§Ø³Øª": 3767,
      "ĠEurope": 3768,
      "ĠÙĬØŃØª": 3769,
      "Ø§ØŃÙĬØ©": 3770,
      "Ġmedical": 3771,
      "oud": 3772,
      "Our": 3773,
      "Ġprovided": 3774,
      "Ġlog": 3775,
      "ØªÙĩÙħ": 3776,
      "ĠØŁ": 3777,
      "ĠØ¥Ø¯Ø§Ø±Ø©": 3778,
      "Ġreach": 3779,
      "ÙħÙĬÙĦ": 3780,
      "Ġbeautiful": 3781,
      "Ġliving": 3782,
      "Ġhelps": 3783,
      "isc": 3784,
      "Ġaffect": 3785,
      "Ø¶Ùħ": 3786,
      "Ø§ÙĩØ±Ø©": 3787,
      "Ġtrust": 3788,
      "Ø¨ÙĤ": 3789,
      "Ġspend": 3790,
      "inking": 3791,
      "ÙĪØ¬Ùĩ": 3792,
      "ĠØ§ÙĦØ£Ø±Ø¶": 3793,
      "ĠMay": 3794,
      "ĠØ§ÙĦØªØ±Ùĥ": 3795,
      "Ġdog": 3796,
      "Ġbar": 3797,
      "Ġ2019": 3798,
      "Ġstaff": 3799,
      "ĠNe": 3800,
      "Ġet": 3801,
      "ĠÙĪØ§ÙĦÙĪ": 3802,
      "ĠØªÙĤÙĪÙħ": 3803,
      "Ġsize": 3804,
      "ĠØ§ÙĦØ£ÙħÙĬØ±": 3805,
      "Ø·ÙĨ": 3806,
      "Ġseen": 3807,
      "§ÙĬØ©": 3808,
      "ĠØªØ¹Ø¯": 3809,
      "ĠÙĥÙħ": 3810,
      "Ġcaus": 3811,
      "Ġquestion": 3812,
      "leg": 3813,
      "oura": 3814,
      "ĠÙĬÙĤÙĪÙħ": 3815,
      "ĠØ§Ø¨ÙĨ": 3816,
      "ĠØ§ÙĦØªØ¯Ø§ÙĪÙĦ": 3817,
      "Ġadditional": 3818,
      "erc": 3819,
      "Ġbelieve": 3820,
      "ĠØªØªÙħ": 3821,
      "Ġconcern": 3822,
      "Ġassoci": 3823,
      "Ġtou": 3824,
      "Ġcru": 3825,
      "§ÙĦÙĦØ¬": 3826,
      "Ø§ÙĦÙĦØ¬": 3827,
      "Ġfive": 3828,
      "ĠØ¨Ø§ÙĦØ¥Ø¶Ø§ÙģØ©": 3829,
      "Ġproblems": 3830,
      "Ġnecessary": 3831,
      "ĠØ§ÙĦØ§": 3832,
      "Ġthroughout": 3833,
      "ĠØªØŃÙĤÙĬÙĤ": 3834,
      "erence": 3835,
      "Ġflow": 3836,
      "Ø§ÙĬØ©": 3837,
      "sing": 3838,
      "ĠØ¬Ø¯": 3839,
      "Ġsolutions": 3840,
      "ĠRep": 3841,
      "onus": 3842,
      "ok": 3843,
      "Ch": 3844,
      "Ġengine": 3845,
      "ÙĦØ§ÙĤØ©": 3846,
      "Ø¹Ø§Ø¯Ø©": 3847,
      "face": 3848,
      "Ġability": 3849,
      "par": 3850,
      "Ġposition": 3851,
      "ĠØ§ÙĦØ¬Ø¯ÙĬØ¯Ø©": 3852,
      "Ġtypes": 3853,
      "ĠØ³ÙĨØ©": 3854,
      "ĠÙĦÙĦÙĨ": 3855,
      "ĠØ§ÙĦÙħØº": 3856,
      "ĠÙĩÙ": 3857,
      "17": 3858,
      "ĠÙĩÙĦ": 3859,
      "Ġveh": 3860,
      "ÙĥÙĦØ©": 3861,
      "ĠFe": 3862,
      "ĠØ§ÙĦØ¥ÙĦÙĥØªØ±ÙĪÙĨ": 3863,
      "ĠØ°ÙĥØ±": 3864,
      "acks": 3865,
      "ĠØ§ÙĦØ§Ø±": 3866,
      "Ġsle": 3867,
      "ox": 3868,
      "Ø§Ø±Ø¯": 3869,
      "Ø´Ø§Ø±Ùĥ": 3870,
      "ivity": 3871,
      "ĠØ£Ø¬": 3872,
      "Ø£ÙĬ": 3873,
      "Ġinnov": 3874,
      "Ġwatch": 3875,
      "Ġhowever": 3876,
      "ĠØ§ÙĦØ¨ØŃØ«": 3877,
      "Ġfeature": 3878,
      "augh": 3879,
      "16": 3880,
      "ĠØ§ÙĦÙħÙħÙĦÙĥØ©": 3881,
      "ĠChe": 3882,
      "ĠØ§ÙĦØ¹ÙĨ": 3883,
      "Ø´Ø±Ø§Øª": 3884,
      "ĠØ§ÙĦØ¬Ø²": 3885,
      "ĠØ§ÙĦÙħØ«": 3886,
      "Ġbreak": 3887,
      "!!": 3888,
      "ĠØ§ÙĦØ´Ø±": 3889,
      "Ġtook": 3890,
      "ĠØ£Ø«ÙĨØ§Ø¡": 3891,
      "ask": 3892,
      "ĠØªØ§Ø±ÙĬØ®": 3893,
      "ĠØ§ÙĦØ«ÙĦØ§Ø«": 3894,
      "ĠÙĪØ§ÙĦØ°ÙĬ": 3895,
      "val": 3896,
      "Ġemb": 3897,
      "Ø¬Ø§ØŃ": 3898,
      "Ġdetails": 3899,
      "ĠØ£Ùģ": 3900,
      "ĠØ§ÙĦÙħØµØ±": 3901,
      "ØªÙĬØ¬Ø©": 3902,
      "ructure": 3903,
      "based": 3904,
      "Ġsugg": 3905,
      "Ø¸Ø±": 3906,
      "Ġbal": 3907,
      "Ø³Ø¨ÙĪØ¹": 3908,
      "ĠØ¹Ø±Ø¶": 3909,
      "ĠâĢĿ": 3910,
      "§ÙĩÙħ": 3911,
      "Ġquickly": 3912,
      "Ġprob": 3913,
      "ĦÙĩØ§": 3914,
      "ÙĦÙĩØ§": 3915,
      "ules": 3916,
      "ĠÙħÙĩ": 3917,
      "Ġparent": 3918,
      "ĠØ³ÙĨÙĪØ§Øª": 3919,
      "ÙĪÙĬØ§Øª": 3920,
      "ĠSome": 3921,
      "ĠØ§ÙĦÙĪØ·ÙĨÙĬ": 3922,
      "Ġfall": 3923,
      "Ġaction": 3924,
      "gest": 3925,
      "ĠÙĪØ³ÙĬ": 3926,
      "ĠØ§ÙĦØ¯ÙĪÙĦÙĬØ©": 3927,
      "Ġarticle": 3928,
      "ĠAfter": 3929,
      "Ġrepresent": 3930,
      "ĦÙĦÙĬ": 3931,
      "ÙĦÙĦÙĬ": 3932,
      "Ġcontract": 3933,
      "ĠÙħØ¬Ø": 3934,
      "ĠÙħØ¬Ø§": 3935,
      "Ġcredit": 3936,
      "ended": 3937,
      "Ø§ÙĩÙħ": 3938,
      "ÙĦØ§Ø¦": 3939,
      "ze": 3940,
      "ĠAust": 3941,
      "ĠÙħØ¨Ø§Ø´": 3942,
      "ĠÙĪØ¹ÙĦÙī": 3943,
      "ĠØ§ÙĦØµÙĬÙĨ": 3944,
      "ÙĬØ§Ø¡": 3945,
      "rect": 3946,
      "ØªÙģØ§Ø¹": 3947,
      "ĠDes": 3948,
      "ĠØ§ÙĦØ±Ø³Ùħ": 3949,
      "ĠØ§ÙĦØ³ÙĦØ§Ùħ": 3950,
      "ĠØ§ÙĦØ¢Ø®Ø±": 3951,
      "ÙĩØ±Ø¨": 3952,
      "ager": 3953,
      "Ġfavor": 3954,
      "ĠØ§ÙĦØ±ÙĬØ§Ø¶": 3955,
      "ØŃØ§": 3956,
      "Ġidea": 3957,
      "ĠDr": 3958,
      "ĠÙĪØªØŃ": 3959,
      "uff": 3960,
      "sy": 3961,
      "**": 3962,
      "Ġeducation": 3963,
      "Ġmodel": 3964,
      "ĠSec": 3965,
      "Ø±ÙĩØ§Ø¨": 3966,
      "ED": 3967,
      "oved": 3968,
      "Ø±ÙĪØ·": 3969,
      "ĠÙĥØ§ÙģØ©": 3970,
      "ØªÙħØ§Ùħ": 3971,
      "Ã©": 3972,
      "astic": 3973,
      "Ġhost": 3974,
      "erg": 3975,
      "ÙĦÙħÙĬÙĨ": 3976,
      "ÙĪØ§ÙĤ": 3977,
      "ØªÙħØ¯": 3978,
      "Ġminutes": 3979,
      "Ø®Ø±Ø¬": 3980,
      "Ġtarget": 3981,
      "Ġaccept": 3982,
      "ĠÙĬØ±": 3983,
      "back": 3984,
      "ÙĪÙħÙĬØ©": 3985,
      "Ġcause": 3986,
      "ĠØŃØ³Ø§Ø¨": 3987,
      "ĠÙħØ´Ø±ÙĪØ¹": 3988,
      "Ø§Ø¦Ùģ": 3989,
      "ĠÙĦÙĥÙĦ": 3990,
      "Ø±ÙĬØ±": 3991,
      "ÛĮ": 3992,
      "reme": 3993,
      "With": 3994,
      "ĠØ§ÙĦØ¬Ø¯ÙĬØ¯": 3995,
      "ohn": 3996,
      "Ġmanufact": 3997,
      "Ġcosts": 3998,
      "ĠØ³Ø¹Ø±": 3999,
      "itut": 4000,
      "ibr": 4001,
      "Ġcommit": 4002,
      "ÙģØ§Øª": 4003,
      "Ø§Ø¨ÙĤØ©": 4004,
      "iable": 4005,
      "ĠØ§ÙĦÙĬÙħÙĨ": 4006,
      "Ø§ÙĦÙĬØ": 4007,
      "Ø§ÙĦÙĬØ§": 4008,
      "ĠMin": 4009,
      "Ġexcell": 4010,
      "Ø¹Ùī": 4011,
      "Ġmaterials": 4012,
      "ĠØ¥ÙĨÙĩ": 4013,
      "aily": 4014,
      "Ġstyle": 4015,
      "Ġready": 4016,
      "ÙģØ¸": 4017,
      "Ġeasily": 4018,
      "Ġavoid": 4019,
      "Ġdownload": 4020,
      "ux": 4021,
      "Ġusually": 4022,
      "ĠØ§ÙĦØ±Ø³": 4023,
      "olution": 4024,
      "Ġcomput": 4025,
      "ĠØ¹Ø¯Ø©": 4026,
      "ÙĬØ²Ø©": 4027,
      "ey": 4028,
      "ĠÙĪØ¬Ùĩ": 4029,
      "ĠÙĬÙĤÙĪÙĦ": 4030,
      "ĠØ¨Ø§ÙĦØŃ": 4031,
      "reng": 4032,
      "Ġabs": 4033,
      "Ġtalk": 4034,
      "ÙĨØ§Ø¦ÙĬØ©": 4035,
      "Ġmatter": 4036,
      "Ġmag": 4037,
      "ustain": 4038,
      "Ġsales": 4039,
      "Ø§Ø¦Ø¹": 4040,
      "Ø§Ø±Ø¨": 4041,
      "Ġcy": 4042,
      "dd": 4043,
      "ĠIm": 4044,
      "ĠWhile": 4045,
      "Ġdeb": 4046,
      "Ġsens": 4047,
      "Ġdeep": 4048,
      "ĠGoogle": 4049,
      "ĠØ§Ø³Ùħ": 4050,
      "ĠÙħØ¬Ø§Ù": 4051,
      "ĠÙħØ¬Ø§ÙĦ": 4052,
      "itor": 4053,
      "Ġseries": 4054,
      "emic": 4055,
      "Ġfamil": 4056,
      "ster": 4057,
      "Ø³Ø³Ø§Øª": 4058,
      "Ø¶ÙĬØ©": 4059,
      "Ġ#": 4060,
      "ĠÙĦØ§Ø³": 4061,
      "Ġ40": 4062,
      "ÙĨØ§Ùĥ": 4063,
      "ĠØ§ÙĦÙħÙĪÙĤØ¹": 4064,
      "Ġoffice": 4065,
      "ÙĬØŃ": 4066,
      "So": 4067,
      "ÙĦÙĪØ": 4068,
      "Ġ2017": 4069,
      "ØªØ´": 4070,
      "Ġeither": 4071,
      "imal": 4072,
      "ung": 4073,
      "Ġitems": 4074,
      "ĠÙĦØ±": 4075,
      "Ġterms": 4076,
      "Ġthird": 4077,
      "Ġlonger": 4078,
      "ĠØ¹Ø¯": 4079,
      "Ġlat": 4080,
      "AS": 4081,
      "Ġfoot": 4082,
      "ĠØ§ÙĦØ·Ø¨ÙĬØ¹": 4083,
      "ÙħØ§Øª": 4084,
      "Ġnear": 4085,
      "ĠØ¨ÙĦØ¯": 4086,
      "ĠØ§ÙĦØ´Ø±ÙĥØ§Øª": 4087,
      "Ġcreating": 4088,
      "ĠØ§ÙĦØ¯Ø§Ø®": 4089,
      "Ġneg": 4090,
      "ĠØ¯ÙĪÙĦØ©": 4091,
      "EO": 4092,
      "Ø¨ÙĬØ¨": 4093,
      "Ġimm": 4094,
      "ØŃÙĬØŃ": 4095,
      "ĠØ§ÙĦØ´Ø±ÙĤ": 4096,
      "Ġpers": 4097,
      "ĠCO": 4098,
      "13": 4099,
      "ipment": 4100,
      "Ġwond": 4101,
      "Ġtour": 4102,
      "ĠØ¨Ø§ÙĦÙģ": 4103,
      "aving": 4104,
      "Ġapply": 4105,
      "§ÙĦÙĦÙĬ": 4106,
      "Ø§ÙĦÙĦÙĬ": 4107,
      "ĠØªØ¤": 4108,
      "Ġtakes": 4109,
      "ĠØ§ÙĦØ¯ÙĥØªÙĪØ±": 4110,
      "org": 4111,
      "Ġresources": 4112,
      "cer": 4113,
      "lege": 4114,
      "Ø¬Ø§Ù": 4115,
      "Ø¬Ø§ÙĦ": 4116,
      "ĠØ§ÙĦØ¨ÙĦØ§Ø¯": 4117,
      "mit": 4118,
      "ĠØ§Ø´": 4119,
      "ĠÙĨØ´": 4120,
      "Ġpolit": 4121,
      "Ġlink": 4122,
      "Ġadded": 4123,
      "Ġleaders": 4124,
      "Ø®ØµØµ": 4125,
      "ĠØ¹Ø§ÙĦÙħ": 4126,
      "Ġweight": 4127,
      "Ġunderstanding": 4128,
      "ĠØ¨ÙĨØ§Ø¡": 4129,
      "ÙĤØ±ÙĬØ±": 4130,
      "ĠØ§ÙĦØ³ÙĪÙĤ": 4131,
      "Ġpractice": 4132,
      "ĠÙĪØ¹Ø¯": 4133,
      "25": 4134,
      "Ġcolor": 4135,
      "inks": 4136,
      "ÙĦÙĪØ§": 4137,
      "Ġlay": 4138,
      "EN": 4139,
      "IT": 4140,
      "Ġcreated": 4141,
      "Ġsend": 4142,
      "ĠÙĦØ¯ÙĬ": 4143,
      "IS": 4144,
      "ring": 4145,
      "oon": 4146,
      "Ġissue": 4147,
      "Ġforward": 4148,
      "ØŃØ¨": 4149,
      "just": 4150,
      "ĠÙĪØ³ÙĦÙħ": 4151,
      "Ø±ÙĪØ³": 4152,
      "elt": 4153,
      "atory": 4154,
      "Ġpercent": 4155,
      "Ġinsurance": 4156,
      "reet": 4157,
      "Ġdecision": 4158,
      "Ġlevels": 4159,
      "Ġglobal": 4160,
      "iday": 4161,
      "ØºÙĬÙĦ": 4162,
      "ÙĪØ±Ø¯": 4163,
      "Ġprojects": 4164,
      "ball": 4165,
      "ĠQu": 4166,
      "Ġfront": 4167,
      "Ġagree": 4168,
      "And": 4169,
      "Ġcharacter": 4170,
      "Ġhtt": 4171,
      "Ġfail": 4172,
      "Ġded": 4173,
      "Ġfast": 4174,
      "Ø·Ø§Ø¡": 4175,
      "ÙĤÙĤ": 4176,
      "ĠØ§ÙĦÙĦØ¬": 4177,
      "ĠØ®Ø§Ø±Ø¬": 4178,
      "Ġrequirements": 4179,
      "Ġproduction": 4180,
      "Ġdate": 4181,
      "ĠØªØ¹Ø§ÙĦÙī": 4182,
      "ÙĪÙĦØ§": 4183,
      "Ġanything": 4184,
      "ĠØ§ÙĦØ®Ø§Ø±Ø¬ÙĬØ©": 4185,
      "aur": 4186,
      ".,": 4187,
      "ĠPre": 4188,
      "ĠNot": 4189,
      "Ġstat": 4190,
      "ĠÙģØ£": 4191,
      "Ø¤ÙĬØ©": 4192,
      "Ġred": 4193,
      "ĠMe": 4194,
      "ÙĦÙĬØ": 4195,
      "Ġmiss": 4196,
      "ĠÙĦÙĦÙĪ": 4197,
      "ĠØ¨Ø§ÙĦÙĨØ³Ø¨Ø©": 4198,
      "Ġtaken": 4199,
      "ĠØŃÙĥ": 4200,
      "Ġsex": 4201,
      "Ġsubject": 4202,
      "ression": 4203,
      "ÙĬØµ": 4204,
      "Ġhope": 4205,
      "Ġjourney": 4206,
      "On": 4207,
      "ĠØ¥ÙĦÙĬÙĩ": 4208,
      "ĠØ§ÙĦØªØ·Ø¨ÙĬÙĤ": 4209,
      "ĠÙĨÙģ": 4210,
      "ĠØ´Ø±": 4211,
      "ĠÙĨØ³": 4212,
      "anks": 4213,
      "ĠØ¬Ø§Ø¡": 4214,
      "itch": 4215,
      "Ġwent": 4216,
      "Ġcirc": 4217,
      "ÙĦØ²": 4218,
      "Ġworth": 4219,
      "ÙĪØ§ÙĦÙĬ": 4220,
      "ĠÙĬØ£": 4221,
      "Ġsolution": 4222,
      "Ø²ÙħØ©": 4223,
      "Ġisn": 4224,
      "ÙĪØ¹Ø©": 4225,
      "Ġblack": 4226,
      "ÙĪØ¶Ø¹": 4227,
      "Ġregul": 4228,
      "Ø§ÙĦØ¥": 4229,
      "ĠØ§ÙĦØ³ÙĬØ§Ø³ÙĬØ©": 4230,
      "ĠÙĬØ¹ÙĨÙĬ": 4231,
      "light": 4232,
      "Ġaccording": 4233,
      "ĠØ§ÙĦØ£ÙħØ±ÙĬÙĥÙĬØ©": 4234,
      "ĠAg": 4235,
      "ĠØ§ÙĦÙħÙĦÙĥ": 4236,
      "urch": 4237,
      "Ø¬Ø§Ùĩ": 4238,
      "head": 4239,
      "ÙĪØ£Ø¶Ø§Ùģ": 4240,
      "ĠHealth": 4241,
      "Ġphone": 4242,
      "umb": 4243,
      "ĠØ§ÙĦØ³ÙĨ": 4244,
      "Ġcannot": 4245,
      "ĠØ§ÙĦØ¹Ø§ÙĦÙħÙĬØ©": 4246,
      "rew": 4247,
      "ÙĦÙĬØ§": 4248,
      "Ġalmost": 4249,
      "Ġpartners": 4250,
      "Ġobject": 4251,
      "Ġcell": 4252,
      "ĠØ§ÙĨÙĩ": 4253,
      "ĠÙĪÙĥØ°ÙĦÙĥ": 4254,
      "ĠState": 4255,
      "ĠÙĤØ§ÙĨÙĪÙĨ": 4256,
      "ÙĦØ§ÙĤØ§Øª": 4257,
      "ĠHere": 4258,
      "Ġattention": 4259,
      "Ġblog": 4260,
      "arl": 4261,
      "ĠØ§ÙĦØªØ±": 4262,
      "ÙĪØªØ±": 4263,
      "ĠCal": 4264,
      "eds": 4265,
      "ĠØ§ÙĦÙħÙĪØ§Ø·": 4266,
      "ĠØ§ÙĦØ´ÙĬØ®": 4267,
      "ĠPart": 4268,
      "Ġlif": 4269,
      "Ø¬Ø±Ø§Ø¡Ø§Øª": 4270,
      "Ø§ØªØ¨": 4271,
      "Ġsimilar": 4272,
      "Ġprevious": 4273,
      "ØŃØµ": 4274,
      "Ġvia": 4275,
      "ided": 4276,
      "ĠØ¨Ø§ÙĦØ±": 4277,
      "ĠØ§ÙĦÙĨÙĤ": 4278,
      "etimes": 4279,
      "Ġhair": 4280,
      "ops": 4281,
      "§ÙĥÙĦ": 4282,
      "ĠØ³ÙĪØ§Ø¡": 4283,
      "Ġsoon": 4284,
      "Ø¤ÙĪÙĦ": 4285,
      "Ġmultiple": 4286,
      "Ġinside": 4287,
      "eal": 4288,
      "Ø§ÙĥÙĦ": 4289,
      "Ġmobile": 4290,
      "Ġquite": 4291,
      "ĠGl": 4292,
      "Ġcases": 4293,
      "Ġopportunities": 4294,
      "But": 4295,
      "ÙĩÙĪØ¯": 4296,
      "Ø§Ø¯Ù": 4297,
      "Ø§Ø¯ÙĦ": 4298,
      "Ġsense": 4299,
      "Ġachieve": 4300,
      "ĠØ§ÙĦØ³ÙĪØ¯": 4301,
      "ening": 4302,
      "ison": 4303,
      "Ġlangu": 4304,
      "ĠØ£Ø±": 4305,
      "ategy": 4306,
      "ĠØ¨Ø§ÙĦØ³": 4307,
      "Ġtable": 4308,
      "pri": 4309,
      "wor": 4310,
      "Ø§Ø¦Ø¯Ø©": 4311,
      "Ġ2016": 4312,
      "ĠÙĨØµ": 4313,
      "Ġrate": 4314,
      "ecut": 4315,
      "minist": 4316,
      "ĠÙħØ±ÙĥØ²": 4317,
      "ĠÙĪØ§ÙĦØ§Ø³": 4318,
      "overed": 4319,
      "Ġstreng": 4320,
      "Ġpositive": 4321,
      "Ġadvant": 4322,
      "Ġpolicy": 4323,
      "verage": 4324,
      "Ġrespect": 4325,
      "ĠÙĪØªÙħ": 4326,
      "Ġmodern": 4327,
      "uge": 4328,
      "Ġseem": 4329,
      "AC": 4330,
      "ĠØ¯Ø§Ø¦": 4331,
      "Ġarr": 4332,
      "__": 4333,
      "ĠÙĤØ¯Ø±": 4334,
      "ÙĬØ§Ø±Ø©": 4335,
      "Ø³Ø³Ø©": 4336,
      "Ġmass": 4337,
      "Ø³Ø¨Ø§Ø¨": 4338,
      "sc": 4339,
      "Ġofficial": 4340,
      "ĠNational": 4341,
      "Ġcomplex": 4342,
      "ĠÙĦØµ": 4343,
      "Ø¯Ø¡": 4344,
      "ĠØ³Ùħ": 4345,
      "Ġinj": 4346,
      "ĠØªØ¯Ø§ÙĪÙĦ": 4347,
      "usion": 4348,
      "Al": 4349,
      "ĠÙħØ¯ÙĬØ±": 4350,
      "erous": 4351,
      "He": 4352,
      "Ġsent": 4353,
      "ĠØ§ÙĦÙĩÙĨØ¯": 4354,
      "era": 4355,
      "ĠØ§ÙĦÙħÙĨØªØ¬": 4356,
      "Ġgeneral": 4357,
      "ried": 4358,
      "ĠØ£ØµØ¨ØŃ": 4359,
      "ĠØŃØ§": 4360,
      "ĦÙĢ": 4361,
      "ĠØ§ÙĦØŃØ±Ø¨": 4362,
      "ÙĦÙĢ": 4363,
      "IC": 4364,
      "Ġleading": 4365,
      "Ġsho": 4366,
      "Ġnetwork": 4367,
      "Ġoutside": 4368,
      "Ġbehind": 4369,
      "ÙĤØ¨": 4370,
      "Ġlives": 4371,
      "where": 4372,
      "ĠØŃØ³Ø¨": 4373,
      "Ø§ÙĦØ±": 4374,
      "Ġpurchase": 4375,
      "Ġdest": 4376,
      "ĠCity": 4377,
      "Â».": 4378,
      "ØµØ§Ø¨Ø©": 4379,
      "Ġprivate": 4380,
      "Ġground": 4381,
      "rown": 4382,
      "ĠØ¹ÙħØ±": 4383,
      "ÙħÙĬØ¹": 4384,
      "icated": 4385,
      "AL": 4386,
      "Ġprint": 4387,
      "ĠReg": 4388,
      "Ø§Ø¯Ø«": 4389,
      "ÙĦØ°": 4390,
      "ĠAf": 4391,
      "pose": 4392,
      "Ġbonus": 4393,
      "Ġcele": 4394,
      "Ġpromot": 4395,
      "ysis": 4396,
      "ÙĤØ±Ø§Ø±": 4397,
      "ĠFrom": 4398,
      "ively": 4399,
      "Ġbud": 4400,
      "ĠØµØ¯": 4401,
      "Ġtrue": 4402,
      "iol": 4403,
      "gra": 4404,
      "Ġinternational": 4405,
      "ming": 4406,
      "lements": 4407,
      "Ġwriting": 4408,
      "ĠÙĦÙĦØ±": 4409,
      "Ġtraditional": 4410,
      "Ġphysical": 4411,
      "opy": 4412,
      "Ġplaying": 4413,
      "icles": 4414,
      "ĠØ§ÙĦÙħÙĪØ¬": 4415,
      "Ġrather": 4416,
      "Ġdeliver": 4417,
      "Ġlatest": 4418,
      "ĠØ§ÙĦØ£Ø¹ÙħØ§ÙĦ": 4419,
      "ĠØ´Ø¨": 4420,
      "ĠØ²ÙĬØ§Ø¯Ø©": 4421,
      "ÙĥÙħØ©": 4422,
      "Ġcoming": 4423,
      "Ø¨Ø§ØŃ": 4424,
      "Ġroad": 4425,
      "ĠÙĦØªØŃ": 4426,
      "ume": 4427,
      "Ġsmo": 4428,
      "Ġsett": 4429,
      "ĠØµÙĦÙī": 4430,
      "ĠÙģØªØ±Ø©": 4431,
      "Ø¬Ø§Ø²": 4432,
      "ĠØ³ÙĪØ±ÙĬØ§": 4433,
      "ØªØ": 4434,
      "hether": 4435,
      "isions": 4436,
      "irit": 4437,
      "Ġparty": 4438,
      "ĠØªØ¹ÙħÙĦ": 4439,
      "Ġoverall": 4440,
      "Ġrecent": 4441,
      "Ø¸ÙħØ©": 4442,
      "ØªØ§": 4443,
      "ĠØ§ÙĦÙĪØ·ÙĨÙĬØ©": 4444,
      "ØªÙ": 4445,
      "ØªÙĦ": 4446,
      "Ġblood": 4447,
      "ĠØ§ÙĦÙħØ®ØªÙĦÙģ": 4448,
      "Ġtrying": 4449,
      "ĠØ§ÙĦÙħØ±Ø£Ø©": 4450,
      "60": 4451,
      "Ġimplement": 4452,
      "Ġleave": 4453,
      "Ġwhite": 4454,
      "Ġcoun": 4455,
      "Ġprograms": 4456,
      "Ġgen": 4457,
      "atives": 4458,
      "Ġcapt": 4459,
      "Ø¹Ø¶Ø§Ø¡": 4460,
      "ĠAb": 4461,
      "ĠØ§ÙĦØ®Ø¯ÙħØ§Øª": 4462,
      "Ġpick": 4463,
      "Ġdou": 4464,
      "hold": 4465,
      "ÙĦØ§Ø²": 4466,
      "Ġencoura": 4467,
      "ĠStates": 4468,
      "ĠØ§ÙĦØ´Ø¹": 4469,
      "ÙĨØ§Ø¹Ø©": 4470,
      "Ġprim": 4471,
      "hens": 4472,
      "Ġinsp": 4473,
      "cast": 4474,
      "ĠÙħØ®ØªÙĦÙģØ©": 4475,
      "Ġemployees": 4476,
      "ublic": 4477,
      "Ġtold": 4478,
      "itable": 4479,
      "ĠØ§ÙĦØªÙĪØ§ØµÙĦ": 4480,
      "ĠÙģØ±ÙĬÙĤ": 4481,
      "ĠØŃØ±": 4482,
      "nds": 4483,
      "ĠØ§ÙĦØ³Ø§Ø¨ÙĤ": 4484,
      "Ġinteract": 4485,
      "ĠØ¹ÙĦÙĬÙĥ": 4486,
      "Ø¨Ø¯ÙĪ": 4487,
      "ĠØ±ÙĤÙħ": 4488,
      "22": 4489,
      "ÙĨØ¸ÙħØ©": 4490,
      "Ġhalf": 4491,
      "rug": 4492,
      "Ġtrack": 4493,
      "ĠCons": 4494,
      "Ġmor": 4495,
      "ĠØ§ÙĦØªÙģ": 4496,
      "ĠWorld": 4497,
      "Ġenter": 4498,
      "ĦÙĦØ¨": 4499,
      "ÙĦÙĦØ¨": 4500,
      "Ġmoment": 4501,
      "ØªÙħØ±Ø§Ø±": 4502,
      "ĠÙħØ²": 4503,
      "Ġpict": 4504,
      "ĠÙĨØ´Ø±": 4505,
      "ĠÙĤØµ": 4506,
      "Ġreduce": 4507,
      "ĠÙĬØ®": 4508,
      "ÙĪØ±Ø§Øª": 4509,
      "ĠÙĬÙģ": 4510,
      "iring": 4511,
      "ana": 4512,
      "ĠÙĥØªØ§Ø¨": 4513,
      "ĠJohn": 4514,
      "Ġlower": 4515,
      "ĠÙĦÙħØ": 4516,
      "ĠÙĦÙħØ§": 4517,
      "ĠPres": 4518,
      "ĠØ§ÙĦØªÙī": 4519,
      "Ġdom": 4520,
      "ÙĪØ¶ØŃ": 4521,
      "....": 4522,
      "ĠØ§ÙĦØ¥ÙĨØªØ±ÙĨØª": 4523,
      "Ġcountries": 4524,
      "ÙĬÙĤØ©": 4525,
      "ĠØ§ÙĦØ¥Ø¹ÙĦØ§Ùħ": 4526,
      "Ġimmed": 4527,
      "ĠØ§ÙĦÙĦÙĬ": 4528,
      "ĠØ±Ø¨": 4529,
      "Ø§ÙĨØ": 4530,
      "Ġhon": 4531,
      "Ġstress": 4532,
      "Ġtouch": 4533,
      "Ø§ÙĨØ§": 4534,
      "ĠSouth": 4535,
      "erve": 4536,
      "Ġfire": 4537,
      "Ø¹Ø§Ùħ": 4538,
      "Ġinvestment": 4539,
      "ĠØŃÙĬØ§Øª": 4540,
      "Ġelse": 4541,
      "ological": 4542,
      "ober": 4543,
      "ĠAct": 4544,
      "ĠØ¨Ø§ÙĦÙĥ": 4545,
      "ĠØ®Ø¯ÙħØ©": 4546,
      "ĠÙĬØ¹ÙħÙĦ": 4547,
      "ĠÙĬÙĥ": 4548,
      "ØªØ®Ø§Ø¨Ø§Øª": 4549,
      "ÙħØ¨Ø±": 4550,
      "ĠØ£Øº": 4551,
      "ĠØ§ÙĦÙħØ¬ÙĦØ³": 4552,
      "OS": 4553,
      "ØªÙĤØ¯": 4554,
      "Ġpaper": 4555,
      "Ġstra": 4556,
      "ĠØŃØ§Ù": 4557,
      "ĠØŃØ§ÙĦ": 4558,
      "ĠSm": 4559,
      "ĠÙĪÙĤØ§ÙĦ": 4560,
      "ivery": 4561,
      "ĠPe": 4562,
      "Ġexplore": 4563,
      "ada": 4564,
      "aches": 4565,
      "Ġnorm": 4566,
      "ĠØ§ÙĦÙħØ": 4567,
      "ĠØ§ÙĦÙħØ§": 4568,
      "Ġcareer": 4569,
      "ĠØ§ÙĦØ£Ø·ÙģØ§ÙĦ": 4570,
      "ÙĦØ¹Ø¨": 4571,
      "Ġthemselves": 4572,
      "One": 4573,
      "rated": 4574,
      "aign": 4575,
      "ÙĬÙĦØ©": 4576,
      "Ø§Ø¬Ø§Øª": 4577,
      "ĠÙĦÙĦØº": 4578,
      "ĠEm": 4579,
      "inary": 4580,
      "Ġpoints": 4581,
      "Ġlocation": 4582,
      "ĠØ§ÙĦØ«Ø§ÙĦØ«": 4583,
      "Ġupon": 4584,
      "Ġinflu": 4585,
      "Ġcry": 4586,
      "Ġsites": 4587,
      "Ø²Ø§Ù": 4588,
      "Ø²Ø§ÙĦ": 4589,
      "ĠPer": 4590,
      "Ø®Ø©": 4591,
      "Ø§ÙĪÙĦØ©": 4592,
      "ĠØ£ÙĨÙĪØ§Ø¹": 4593,
      "asons": 4594,
      "ĠØ§ÙĦØ¬ÙĬØ´": 4595,
      "ĠØ£Ø¨ÙĪ": 4596,
      "200": 4597,
      "ĠØ§ÙĦÙħØ®ØªÙĦÙģØ©": 4598,
      "Ġrout": 4599,
      "Ġbad": 4600,
      "ØªÙĨØ§": 4601,
      "Ġtowards": 4602,
      "izes": 4603,
      "ÙĬØ±ÙĬ": 4604,
      "pre": 4605,
      "Ġfinal": 4606,
      "arth": 4607,
      "ĠÙĦÙĦØ·": 4608,
      "Ġdefin": 4609,
      "Ø¬ÙĬ": 4610,
      "aching": 4611,
      "Ġrelated": 4612,
      "ÙĬØ§Ù": 4613,
      "ÙĬØ§ÙĦ": 4614,
      "Ġdrive": 4615,
      "ÙĪÙĬÙĨ": 4616,
      "Ġhol": 4617,
      "ĠØ®Ø¯ÙħØ§Øª": 4618,
      ",\"": 4619,
      "ĦÙĦÙĪ": 4620,
      "ÙĦÙĦÙĪ": 4621,
      "Ġmember": 4622,
      "wise": 4623,
      "ÙĪÙħÙĬ": 4624,
      "ples": 4625,
      "aced": 4626,
      "illing": 4627,
      "ĠØ§ÙĦÙĦØº": 4628,
      "ĠÙĪØ§Ø¶": 4629,
      "Ġpatients": 4630,
      "ĠØ§ÙĦØ³ÙĪØ±ÙĬ": 4631,
      "ĠØ§ÙĦÙħØµØ±ÙĬ": 4632,
      "Ġgoals": 4633,
      "ÙĩØ¯Ø§Ùģ": 4634,
      "Ġintrodu": 4635,
      "Ġaim": 4636,
      "ĠAustral": 4637,
      "Ġvac": 4638,
      "§ÙĦÙĦØ¨": 4639,
      "Ġmatch": 4640,
      "Ø§ÙĦÙĦØ¨": 4641,
      "pper": 4642,
      "Ġenhance": 4643,
      "Ø¶Ù": 4644,
      "Ø¶ÙĦ": 4645,
      "ĠUK": 4646,
      "Ġhighly": 4647,
      "Ġprofession": 4648,
      "ĠDep": 4649,
      "che": 4650,
      "ole": 4651,
      "Ġchallenges": 4652,
      "ĠÙĨÙĤÙĦ": 4653,
      "Ġconvers": 4654,
      "ÙĦØ§Ø©": 4655,
      "ĠStud": 4656,
      "Ġequipment": 4657,
      "'ve": 4658,
      "Ġrights": 4659,
      "ĠØ§ÙĦØªØ§Ø±ÙĬØ®": 4660,
      "ØªÙĦØ§ÙĦ": 4661,
      "Ġconsist": 4662,
      "Ġexact": 4663,
      "Ġsell": 4664,
      "Ġremain": 4665,
      "Ġbott": 4666,
      "Ġinde": 4667,
      "ĠØ§ÙĦÙħØ¯ÙĬÙĨØ©": 4668,
      "ĠÙģÙĩÙĪ": 4669,
      "Ġconsult": 4670,
      "Ġbuilt": 4671,
      "iation": 4672,
      "Ġwords": 4673,
      "nces": 4674,
      "Ø±Ø§Ø¡Ø©": 4675,
      "Ġdise": 4676,
      "ĠÙĪØ«": 4677,
      "ÙĦØ§ÙħØ©": 4678,
      "Ø¹ÙĬÙĨ": 4679,
      "'ll": 4680,
      "ival": 4681,
      "Ġ198": 4682,
      "Ġdaily": 4683,
      "Ġsuggest": 4684,
      "Ø§ØµÙĬÙĦ": 4685,
      "ĠÙĪÙĦÙĬØ³": 4686,
      "ĠØ¨Ø§ÙĨ": 4687,
      "Ġbox": 4688,
      "Ġnature": 4689,
      "§ÙĦØª": 4690,
      "Ġorganization": 4691,
      "ĠÙĦÙħØ¯Ø©": 4692,
      "ĠØ¹Ø´Ø±": 4693,
      "ÙĦÙĬÙĤ": 4694,
      "Ġones": 4695,
      "Ġ22": 4696,
      "ĠMore": 4697,
      "Ġsustain": 4698,
      "ÙĨØ¸ÙĬÙħ": 4699,
      "Ġfresh": 4700,
      "ĠTw": 4701,
      "ĠØ§ÙĦØ¨Ø·": 4702,
      "ĠSchool": 4703,
      "ĠÙĤØ¯Ùħ": 4704,
      "ĠØ§ÙĦØ¯ÙĪ": 4705,
      "ĠØ£ØŃÙħØ¯": 4706,
      "bling": 4707,
      "Ġdirectly": 4708,
      "ĠCount": 4709,
      "ection": 4710,
      "Ġsun": 4711,
      "Ġexcellent": 4712,
      "ĠØ¹Ø§ÙĦÙĬØ©": 4713,
      "Ġbi": 4714,
      "Ġanaly": 4715,
      "oph": 4716,
      "Ġhealthy": 4717,
      "ÙģØ±Ø§Ø¯": 4718,
      "Ġill": 4719,
      "Ġshows": 4720,
      "Ġcrucial": 4721,
      "Ġrequest": 4722,
      "ĠØ§ÙĦÙĨÙĩ": 4723,
      "ĠØ§ÙĦØ«ÙĤ": 4724,
      "airs": 4725,
      "akes": 4726,
      "Ġgoal": 4727,
      "Ġattract": 4728,
      "ĠØ§ÙĦØ§Ø¬ØªÙħØ§Ø¹ÙĬ": 4729,
      "ĠÙĬÙĥÙĨ": 4730,
      "ĠÙĨÙĩØ§ÙĬØ©": 4731,
      "ĠHis": 4732,
      "Ġaware": 4733,
      "ĠØ´Ùĩ": 4734,
      "Ġpan": 4735,
      "ÙģÙĬÙĨ": 4736,
      "ÙĨØ³ÙĬØ©": 4737,
      "ĠØ¹ÙĨÙĩØ§": 4738,
      "Ø¯ÙĬØ©": 4739,
      "ĠØŃÙ": 4740,
      "ĠØŃÙĦ": 4741,
      "Ø§ÙĦØº": 4742,
      "arant": 4743,
      "Ġsix": 4744,
      "ĠPol": 4745,
      "Ġ21": 4746,
      "oms": 4747,
      "ĠÙĦÙĦÙģ": 4748,
      "Ġgirl": 4749,
      "Ġcollabor": 4750,
      "ĠAcc": 4751,
      "ancing": 4752,
      "Ġfeed": 4753,
      "ĠBu": 4754,
      "Ġlic": 4755,
      "ĠTH": 4756,
      "Ġpayment": 4757,
      "Ø§Ø¦ØŃ": 4758,
      "Ġsecure": 4759,
      "Ġreceived": 4760,
      "ØºØ¨": 4761,
      "Ġrunning": 4762,
      "ÙĪØ§Ø²": 4763,
      "§ÙĦÙĦÙĪ": 4764,
      "Ø§ÙĦÙĦÙĪ": 4765,
      "cks": 4766,
      "RE": 4767,
      "Ġprobably": 4768,
      "Ġsum": 4769,
      "Ø±ÙĪØ¬": 4770,
      "ĠØ¨Ø§ÙĦØ§Ø": 4771,
      "ĠÙĦØ¨ÙĨØ§ÙĨ": 4772,
      "ÙĦÙģØ©": 4773,
      "ĠØ£ÙĬØ§Ùħ": 4774,
      "Ø¬Ø¨": 4775,
      "ĠØ§ÙĦØ§ØªØŃØ§Ø¯": 4776,
      "Ġguid": 4777,
      "Ġsports": 4778,
      "ĠYork": 4779,
      "care": 4780,
      "ams": 4781,
      "ĠInt": 4782,
      "ĠÙĤØ±Ø§Ø±": 4783,
      "ground": 4784,
      "ĠFin": 4785,
      "Ø³Ø§Ø¨": 4786,
      "hib": 4787,
      "ipping": 4788,
      "Ġstrategy": 4789,
      "Ġwanted": 4790,
      "ĠÙĥÙĬ": 4791,
      "Ġstandard": 4792,
      "ĠØ§ÙĦØ®ÙĬØ§Ø±Ø§Øª": 4793,
      "Ġdevice": 4794,
      "Ġcontribut": 4795,
      "ĠØ§ÙĦÙħØ´Ø±ÙĪØ¹": 4796,
      "ÙĨÙĩ": 4797,
      "Ġorganiz": 4798,
      "ctions": 4799,
      "Ġple": 4800,
      "Ġinternet": 4801,
      "ĠØ¥Ø¶Ø§ÙģØ©": 4802,
      "Ø§Ø¬Ø¹": 4803,
      "Ġdeg": 4804,
      "ĠØ§ÙĦÙħÙĬØ§Ùĩ": 4805,
      "rs": 4806,
      "Ġplant": 4807,
      "ĠØ¯ÙĪÙĦ": 4808,
      "Ø±Ø¨ÙĬ": 4809,
      "Ġcondition": 4810,
      "Ġoffering": 4811,
      "Ġemot": 4812,
      "Ġswe": 4813,
      "Ġqual": 4814,
      "Ġguide": 4815,
      "At": 4816,
      "icate": 4817,
      "orpor": 4818,
      "ĠØ¨ÙĢ": 4819,
      "Ġasked": 4820,
      "ĠÙĦÙĬØ³Øª": 4821,
      "Ġetc": 4822,
      "yond": 4823,
      "Ġexcept": 4824,
      "ese": 4825,
      "ĠØ§ÙĦØ³Ø¨": 4826,
      "ĠØ§ÙĦØ¬Ø³Ùħ": 4827,
      "ĠAI": 4828,
      "ĠØ¨Ø§Ø±": 4829,
      "Ġcurrently": 4830,
      "Ġago": 4831,
      "Ġdamage": 4832,
      "ĠØ¨Øº": 4833,
      "ĠØ³Ø±": 4834,
      "ĠØ¯Ø¹Ùħ": 4835,
      "Ġheav": 4836,
      "wh": 4837,
      "40": 4838,
      "ĠØ¥Ø³Ø±Ø§Ø¦ÙĬÙĦ": 4839,
      "Ġstop": 4840,
      "Ġprec": 4841,
      "Ġwel": 4842,
      "ĠØ§ÙĦØ£Øµ": 4843,
      "Ø·Ùħ": 4844,
      "Ø¬Ø§Ø±": 4845,
      "ĠÙĪÙģÙĤ": 4846,
      "Ø§ØŃØ¨": 4847,
      "like": 4848,
      "ĠØ§ÙĦÙħØ§Ù": 4849,
      "ĠØ§ÙĦÙħØ§ÙĦ": 4850,
      "ĠNorth": 4851,
      "Ġbed": 4852,
      "ĠÙĬØ³Ùħ": 4853,
      "na": 4854,
      "ĠØ§ÙĦÙħØ¹Ø¯": 4855,
      "empt": 4856,
      "ĠØŃØ¯ÙĬØ«": 4857,
      "Ġaspect": 4858,
      "ha": 4859,
      "Ġbehav": 4860,
      "ÙĦÙħØ": 4861,
      "ÙĦÙħØ§": 4862,
      "Ġinvolved": 4863,
      "Ø§Ø¦ÙĬÙĦÙĬ": 4864,
      "ĠÙĦÙĢ": 4865,
      "ĠØ¨ÙĬÙĨÙħØ§": 4866,
      "ĠØ§ÙĦÙħØ²ÙĬØ¯": 4867,
      "Ġwalk": 4868,
      "su": 4869,
      "ÙĪÙħÙĨ": 4870,
      "ÙĪÙĥØ§ÙĨ": 4871,
      "Ø§Ø¨ÙĬØ©": 4872,
      "ĠÙĪØ§ÙĦØ·": 4873,
      "ession": 4874,
      "earch": 4875,
      "Ġweeks": 4876,
      "Ġrev": 4877,
      "ĠØ®Ø§Øµ": 4878,
      "ĠBr": 4879,
      "Ġbase": 4880,
      "ĠØ§ÙĦØ£Ø®ÙĬØ±Ø©": 4881,
      "ĠØ§ÙĦØ«Ø§ÙĨÙĬØ©": 4882,
      "ĠÙħÙĪØ³": 4883,
      "ĠØ¬ÙĩØ§Ø²": 4884,
      "ĠØ¨Ø§Ø³ØªØ®Ø¯Ø§Ùħ": 4885,
      "§ÙĦÙĢ": 4886,
      "Ø§ÙĦÙĢ": 4887,
      "ĠØ¬Ø±": 4888,
      "ĦÙĪØ±": 4889,
      "ÙĦÙĪØ±": 4890,
      "Ø§ÙģÙĤ": 4891,
      "Ġfram": 4892,
      "Ġversion": 4893,
      "ĠÙħÙĨÙĩÙħ": 4894,
      "Ø®Ø¨": 4895,
      "ĠØ§ÙĦÙħØ²": 4896,
      "rast": 4897,
      "ÙĪÙħØ§": 4898,
      "ĠØ§ÙĦÙĦØ¨": 4899,
      "Ġsuccessful": 4900,
      "ÙģØ§Ø¸": 4901,
      "Ġsche": 4902,
      "ĠØ§ÙĦØ´Ùĩ": 4903,
      "ÙĩØ§Øª": 4904,
      "ĠÙĩÙħ": 4905,
      "put": 4906,
      "ÙĤØµ": 4907,
      "Ø°ÙĩØ¨": 4908,
      "Ġtit": 4909,
      "Ġ2015": 4910,
      "ĠJust": 4911,
      "ĠØ¨ÙĬØ§ÙĨ": 4912,
      "Ġhappy": 4913,
      "ÙĬØ¯ÙĬÙĪ": 4914,
      "ÙĦØ§Ùĥ": 4915,
      "ĠÙĨØªÙĬØ¬Ø©": 4916,
      "Ġhands": 4917,
      "Ġtotal": 4918,
      "ĠØ±Ø£Ø³": 4919,
      "Ġassess": 4920,
      "ĠØ§ÙĦØ£ÙĪØ±ÙĪØ¨": 4921,
      "ÙĥÙĨÙĪÙĦÙĪØ¬": 4922,
      "Ġplanning": 4923,
      "Ø§ÙħÙĬ": 4924,
      "Ġwall": 4925,
      "Ġnational": 4926,
      "ĠØ¨ÙĥÙĦ": 4927,
      "Ġscreen": 4928,
      "ĠÙĥØ«": 4929,
      "Ġfactors": 4930,
      "formation": 4931,
      "Ġoriginal": 4932,
      "ĠØ¨Ø¨": 4933,
      "ÙĪØ´": 4934,
      "alu": 4935,
      "Ġchance": 4936,
      "ĠØ¯Ø¹": 4937,
      "Ġplans": 4938,
      "Ø§Ø·Ø±": 4939,
      "ØªØ±Ùĥ": 4940,
      "bit": 4941,
      "ĠØ§ÙĦÙĤØ·Ø§Ø¹": 4942,
      "Ø²Ùħ": 4943,
      "ĠAut": 4944,
      "ÙĪÙĨØ³": 4945,
      "hood": 4946,
      "ĠØ§ÙĦÙĨØµ": 4947,
      "Ġitself": 4948,
      "Ġ60": 4949,
      "rate": 4950,
      "Ġclick": 4951,
      "Ġcand": 4952,
      "ĠÙģØªØŃ": 4953,
      "ĠOff": 4954,
      "ĠØ¨Ø§ÙĦØ¨": 4955,
      "Ġkit": 4956,
      "Ġcook": 4957,
      "ĠØ¨Ø§Ø³Ùħ": 4958,
      "ĠØªÙĨÙģÙĬØ°": 4959,
      "Ø¹Ø±Ø§Ø¶": 4960,
      "Ø§Ø¦ÙĦØ©": 4961,
      "Ġcert": 4962,
      "ĠØŃÙĤÙĪÙĤ": 4963,
      "Ġdraw": 4964,
      "ĠJan": 4965,
      "Ø§ÙĪØ²": 4966,
      "Ġexerc": 4967,
      "Ġanyone": 4968,
      "ĠÙĦØº": 4969,
      "ĠØ§ÙĦØ¨ÙĬ": 4970,
      "ĠÙĥØ°ÙĦÙĥ": 4971,
      "ĠÙĬÙĪØ¬Ø¯": 4972,
      "Ġsave": 4973,
      "ĠØ§ÙĦØ´Ø¹Ø±": 4974,
      "Ġfig": 4975,
      "Ġparts": 4976,
      "Ġfilm": 4977,
      "Ġdeath": 4978,
      "Ġlit": 4979,
      "Pro": 4980,
      "ĠØ§ÙĦØ¥Ø³ÙĦØ§ÙħÙĬØ©": 4981,
      "hel": 4982,
      "ĠÙĤØ·Ø§Ø¹": 4983,
      "Ġpret": 4984,
      "ĠØ§ÙĦØ±ÙĪØ³": 4985,
      "Ġcontain": 4986,
      "Ø§Ø¤": 4987,
      "Ø¸Ø©": 4988,
      "onst": 4989,
      "Ġcool": 4990,
      "ĠØ§ÙĦÙģØªØ±Ø©": 4991,
      "ĠØ¹ÙĤØ¯": 4992,
      "ĠÙĪØ¸": 4993,
      "Ġord": 4994,
      "ky": 4995,
      "ØªÙĨ": 4996,
      "Ġideas": 4997,
      "Ø±ÙĪØ": 4998,
      "ĠPar": 4999,
      "ĠØ¨Ø§ÙĦØ¯": 5000,
      "âĢĿØĮ": 5001,
      "azing": 5002,
      "ĠÙģÙĦØ§": 5003,
      "ĠØªØŃØ¯ÙĬØ¯": 5004,
      "Ġspeak": 5005,
      "Ø¯Øª": 5006,
      "24": 5007,
      "ĠDon": 5008,
      "cking": 5009,
      "Ġnothing": 5010,
      "ĠØ§ÙĦÙĪØ²Ø±Ø§Ø¡": 5011,
      "Ø§ÙĦØ§": 5012,
      "ĠØ§ÙĦÙĪØ§ÙĤØ¹": 5013,
      "Ġcampaign": 5014,
      "Ġmix": 5015,
      "idered": 5016,
      "Ġsleep": 5017,
      "ĠØ§ÙĦØµÙģ": 5018,
      "Ġsil": 5019,
      "ĠÙĬØ": 5020,
      "Ġkids": 5021,
      "Ġcash": 5022,
      "ĠÙĬØ§": 5023,
      "ĠNow": 5024,
      "idents": 5025,
      "Ġaltern": 5026,
      "ĠInc": 5027,
      "ties": 5028,
      "ension": 5029,
      "Ġsituation": 5030,
      "Ġapplications": 5031,
      "ĠØ¨Ø": 5032,
      "ishing": 5033,
      "reg": 5034,
      "Ġcommer": 5035,
      "'m": 5036,
      "ĠÙĤÙĪØ§Øª": 5037,
      "Ġidentify": 5038,
      "ĠØ§ÙĦÙĪØµÙĪÙĦ": 5039,
      "ĠÙĪØ§ÙĦØ«": 5040,
      "Ø¹Ø±ÙģØ©": 5041,
      "ĠÙĦÙĩØ°Ø§": 5042,
      "ÙĬØ¯ÙĬ": 5043,
      "ĠÙĤØ¨": 5044,
      "Ġearn": 5045,
      "Ø§ØµÙħØ©": 5046,
      "ĠØ§ÙĦØ³ÙĬØ§Ø³ÙĬ": 5047,
      "Ġcam": 5048,
      "Ġpath": 5049,
      "ĠØ¨Ø´Ø£ÙĨ": 5050,
      "ØŃØ±": 5051,
      "ĠBo": 5052,
      "Ġefficient": 5053,
      "ĠÙĪÙĬØ¹": 5054,
      "het": 5055,
      "ĠÙĪØ¨Ø§ÙĦØª": 5056,
      "year": 5057,
      "word": 5058,
      "Ø§ÙħÙĬÙĨ": 5059,
      "ĠÙĦØ®": 5060,
      "ĠØ§Ø¶": 5061,
      "Ø¶ÙĪØ±": 5062,
      "Ġclos": 5063,
      "Ġstudent": 5064,
      "Ġutil": 5065,
      "eter": 5066,
      "Ġsteps": 5067,
      "Ġheld": 5068,
      "my": 5069,
      "orage": 5070,
      "ĠØ¥ÙĤ": 5071,
      "Ġoptim": 5072,
      "Ø³Ø§ÙĨ": 5073,
      "Ø±ÙĪØ¶": 5074,
      "Ġsubs": 5075,
      "Ġgives": 5076,
      "Ġfa": 5077,
      "Ġexperiences": 5078,
      "ĠÙĨØ³Ø¨Ø©": 5079,
      "Ø¯Ùī": 5080,
      "ĠNet": 5081,
      "Ġincluded": 5082,
      "igation": 5083,
      "Ø§ØŃÙ": 5084,
      "Ø§ØŃÙĦ": 5085,
      "Ø¹ÙĦÙī": 5086,
      "ĠØ«ÙĦØ§Ø«Ø©": 5087,
      "Ġeffects": 5088,
      "Ø«Ø§Ø±": 5089,
      "Ġextreme": 5090,
      "ude": 5091,
      "ications": 5092,
      "Ġlab": 5093,
      "ades": 5094,
      "ÙĦÙĬØ²": 5095,
      "ĠØ¹Ø¶": 5096,
      "Ø§Ø¶ÙĬØ©": 5097,
      "ĠØ¹ÙħÙĦÙĬØ§Øª": 5098,
      "Ġopp": 5099,
      "Ø³ØªØ®Ø¯Ùħ": 5100,
      "Ġsubst": 5101,
      "Ġdevices": 5102,
      "ÙĩØ°Ø§": 5103,
      "Ġcollection": 5104,
      "ĠÙĦÙĨØ§": 5105,
      "Ø§ÙĦØ´": 5106,
      "itation": 5107,
      "Ġrad": 5108,
      "Ġx": 5109,
      "Ø´Ø§Ø±ÙĬØ¹": 5110,
      "Ġsource": 5111,
      "ĠØ§ÙĦØºØ°": 5112,
      "Ġsupply": 5113,
      "ĠÙĥÙĪÙĨ": 5114,
      "ĠØ³Ø¨ÙĬÙĦ": 5115,
      "Ø¹Ø§ÙĬØ©": 5116,
      "ker": 5117,
      "Ġlimited": 5118,
      "Ġdocument": 5119,
      "onse": 5120,
      "Ġep": 5121,
      "Ġshall": 5122,
      "ĠØ¯ÙĬÙĨ": 5123,
      "Ġ23": 5124,
      "ÙĨØ§Ùĩ": 5125,
      "ÙĦÙĪÙĥ": 5126,
      "ĠÙĦØ§ÙĨ": 5127,
      "Ġdemand": 5128,
      "Ġincreasing": 5129,
      "Ġur": 5130,
      "ĠÙħÙĪØ¬": 5131,
      "Ġmeeting": 5132,
      "www": 5133,
      "ĠØ§ÙĦØ§Ø¨": 5134,
      "Ġaccur": 5135,
      "ÙĪØ¨Ø±": 5136,
      "ceed": 5137,
      "ØµÙĦØ§ØŃ": 5138,
      "Ġboard": 5139,
      "Ø°Ø±": 5140,
      "ĠØ§ÙĦØ´Ø¨Ø§Ø¨": 5141,
      "ĠØ·Ø¨ÙĬØ¹": 5142,
      "Ġcode": 5143,
      "cription": 5144,
      "ĠØ§ÙĦØªØ¬Ø§Ø±ÙĬØ©": 5145,
      "ĠÙĦØ£ÙĨÙĩ": 5146,
      "Ġmachine": 5147,
      "Ġfully": 5148,
      "ÙĤØ±Ø§Ø·": 5149,
      "nal": 5150,
      "Ġlanguage": 5151,
      "Ġbudget": 5152,
      "ĠØ¶Ø±": 5153,
      "ĠØ£ÙĤÙĦ": 5154,
      "rec": 5155,
      "Ø±ÙĪØ§": 5156,
      "ÙĪÙĬÙĦØ©": 5157,
      "Ġbenefit": 5158,
      "Ġsatis": 5159,
      "Ġbank": 5160,
      "ĠSoc": 5161,
      "Ø²ÙĬÙĨ": 5162,
      "aly": 5163,
      "ĠØ¨Ø¯ÙĪÙĨ": 5164,
      "Ġminim": 5165,
      "ĠØ§ÙĦÙĨÙģØ·": 5166,
      "Ø¬ÙĪÙħ": 5167,
      "ĠIndia": 5168,
      "ĠÙģÙĪÙĤ": 5169,
      "Ġobs": 5170,
      "Ġculture": 5171,
      "ĠØ¯Ø±Ø¬Ø©": 5172,
      "ÙĦØ¨ÙĬØ©": 5173,
      "Ġconduct": 5174,
      "Ø§Ø¨Ø·": 5175,
      "ÙĨØ§ÙĤ": 5176,
      "ÙĦÙħØ§ÙĨ": 5177,
      "ĠØ§ÙĦØ¥ÙħØ§Ø±Ø§Øª": 5178,
      "ales": 5179,
      "lim": 5180,
      "Ġcouple": 5181,
      "Ġprogress": 5182,
      "Ø±ÙĬØ¹": 5183,
      "ĠØ·Ø±ÙĬÙĤØ©": 5184,
      "ĠAfric": 5185,
      "ÙĪÙĬÙĤ": 5186,
      "Ġprem": 5187,
      "Ġhit": 5188,
      "ÙĥØ§Ùħ": 5189,
      "ÙĬØ±Ø§Øª": 5190,
      "ÙĩÙĬ": 5191,
      "ĠSw": 5192,
      "ÙģÙĬØ©": 5193,
      "Ø§ØŃØ«": 5194,
      "Ø¢ÙĨ": 5195,
      "ĠØ±Ùħ": 5196,
      "ÙĦØ£": 5197,
      "Ġstream": 5198,
      "ĠØ§ÙĦØŃØ¬Ø±": 5199,
      "ĠØ§Øµ": 5200,
      "iverse": 5201,
      "Ø·ÙĪÙĬØ±": 5202,
      "rel": 5203,
      "Ġfavorite": 5204,
      "Ġdepos": 5205,
      "ĠØ§Ø®ØªÙĬØ§Ø±": 5206,
      "agn": 5207,
      "ĠHigh": 5208,
      "ĠØªÙĨØ¸ÙĬÙħ": 5209,
      "Ġregist": 5210,
      "ÙĥÙĬÙģ": 5211,
      "ĠEd": 5212,
      "ĠØ§ÙĦØ³Ùħ": 5213,
      "Ġ2014": 5214,
      "mon": 5215,
      "Ġstri": 5216,
      "ÙĤØ¯ÙħØ©": 5217,
      "Ġver": 5218,
      "Ġrele": 5219,
      "Ġserious": 5220,
      "ÙĪØ§Ø¬Ùĩ": 5221,
      "Ġremember": 5222,
      "ĠØ¨Ø§": 5223,
      "Ġtherap": 5224,
      "ĠÙĪÙĬÙħÙĥÙĨ": 5225,
      "ÙĩÙĪÙĦØ©": 5226,
      "Ġnut": 5227,
      "Ġmention": 5228,
      "Ġwood": 5229,
      "ĠArt": 5230,
      "ĠØ§ÙĦÙĢ": 5231,
      "Ġarch": 5232,
      "ĠØ£Ø¨ÙĬ": 5233,
      "Ġworked": 5234,
      "aby": 5235,
      "ÙĩÙĪØ±ÙĬØ©": 5236,
      "Ġcelebr": 5237,
      "All": 5238,
      "iency": 5239,
      "Ø§Ø¦Ùĩ": 5240,
      "ĠÙħØŃØ¯": 5241,
      "Ġviol": 5242,
      "Ġreading": 5243,
      "Ġdisplay": 5244,
      "ĠPark": 5245,
      "23": 5246,
      "ĠÙĪÙĬØª": 5247,
      "ĠÙħÙĤØ§Ø¨ÙĦ": 5248,
      "Ø¯Ø±Ø³Ø©": 5249,
      "Ġcorrect": 5250,
      "ĠÙĨÙĩ": 5251,
      "Ġconsidered": 5252,
      "Ġ+": 5253,
      "ĠØ§ÙĦØ±ÙĤ": 5254,
      "ĠØ§ÙĦØ°ÙĩØ¨": 5255,
      "ĠÙħØ¹Ø¸Ùħ": 5256,
      "Ġprotection": 5257,
      "ÙħØ§ÙĦÙĬ": 5258,
      "Ġgiving": 5259,
      "idge": 5260,
      "ĠServices": 5261,
      "uary": 5262,
      "ĠÙĦÙĦÙĥ": 5263,
      "Ġcat": 5264,
      "roup": 5265,
      "ĠBlack": 5266,
      "Ġnote": 5267,
      "ĠØ§Ø¬ØªÙħØ§Ø¹": 5268,
      "Ġdescrib": 5269,
      "ĠÙĨØŃÙĨ": 5270,
      "Ġinstead": 5271,
      "Ġgroups": 5272,
      "Ø³Ø§Ùħ": 5273,
      "ĠØ£Ø³Ø¹Ø§Ø±": 5274,
      "Ø±ÙĬØŃ": 5275,
      "Ø´Ø§Ø±Ø©": 5276,
      "Ġdelivery": 5277,
      "Ġeffort": 5278,
      "Ġing": 5279,
      "ĠØ¬ÙĨÙĪØ¨": 5280,
      "ÙĨØ§Ø©": 5281,
      "aves": 5282,
      "Ġobtain": 5283,
      "iddle": 5284,
      "ils": 5285,
      "ÙĬØªÙĩØ§": 5286,
      "ĠØ£Ø¹ÙħØ§ÙĦ": 5287,
      "board": 5288,
      "Ġdry": 5289,
      "Ġensuring": 5290,
      "Ø¹ÙħØ§ÙĦ": 5291,
      "uel": 5292,
      "ĠØ±Ø³Ùħ": 5293,
      "Ġfrequ": 5294,
      "Ġslow": 5295,
      "Ġproced": 5296,
      "ĠØ§ÙĦØ¹ÙħÙĦÙĬØ©": 5297,
      "Ġanalysis": 5298,
      "ĠØ¬Ø²Ø¡": 5299,
      "ĠFace": 5300,
      "Ø§ÙĪÙĦ": 5301,
      "ĠØ§ÙĦØ®ÙĦÙĬ": 5302,
      "Ġcourt": 5303,
      "Ø¶ØŃ": 5304,
      "Ġpartner": 5305,
      "ĠÙģÙĦØ³Ø·ÙĬÙĨ": 5306,
      "Ġcompletely": 5307,
      "ĠØ¯Ùħ": 5308,
      "Ġgrowing": 5309,
      "ĠØ§ÙĦØ·ÙĦØ¨": 5310,
      "ĠØ§ÙĦØ£ÙħØ±ÙĬÙĥÙĬ": 5311,
      "Ġaudience": 5312,
      "ule": 5313,
      "ĠØ¥Ø¹Ø§Ø¯Ø©": 5314,
      "Ġwarm": 5315,
      "ĠØ¥ÙĦÙĬÙĩØ§": 5316,
      "Ø§Ø¬ÙĩØ©": 5317,
      "ĠØ²ÙĪØ¬": 5318,
      "Ġbeyond": 5319,
      "ĠØ¨Ø§ÙĦØ´": 5320,
      "ĠÙĪØ¨Ø¹Ø¯": 5321,
      "Ø¨Ø¹Ø¯": 5322,
      "ĠÙĦØ·": 5323,
      "Ġrecently": 5324,
      "Ġgoes": 5325,
      "Ġult": 5326,
      "ÙĬÙħÙĤØ±Ø§Ø·": 5327,
      "ĠØ§Ø¯": 5328,
      "Ġmethods": 5329,
      "Ex": 5330,
      "Ø§ÙĩÙĬÙħ": 5331,
      "Ġ197": 5332,
      "ØªÙħØ§Ø¯": 5333,
      "Ġsepar": 5334,
      "term": 5335,
      "Sh": 5336,
      "ĠØ§ÙĦØ·Ø§ÙĤØ©": 5337,
      "Ġadjust": 5338,
      "gar": 5339,
      "Ġtemper": 5340,
      "ĠØªÙĨØ§ÙĪÙĦ": 5341,
      "Ġwar": 5342,
      "Ġconcept": 5343,
      "Ġwonder": 5344,
      "ĠØ¬Ø§ÙħØ¹Ø©": 5345,
      "Ġcommercial": 5346,
      "Ġparents": 5347,
      "aries": 5348,
      "irth": 5349,
      "ĠØ§ÙĦØ£ØŃØ¯": 5350,
      "Ġsmart": 5351,
      "Ġmaxim": 5352,
      "ibly": 5353,
      "Ø§ÙĥÙħ": 5354,
      "ĠØ§ÙĦØ¨Ø±ÙĨØ§ÙħØ¬": 5355,
      "ĠÙĤÙĬ": 5356,
      "Ġsn": 5357,
      "Ġmanage": 5358,
      "Ph": 5359,
      "ĠØ§ÙĦÙĤØ§Ø¯": 5360,
      "ĠCenter": 5361,
      "Ġhuge": 5362,
      "Ġpressure": 5363,
      "Ġtast": 5364,
      "ĠØ¥ÙĬØ±Ø§ÙĨ": 5365,
      "ĠØ§ÙĦÙħÙĪØ§Ø¯": 5366,
      "Ġcompre": 5367,
      "ÙĨØ§Øª": 5368,
      "ĠØ§ÙĦØ¯Ø§Ø®ÙĦÙĬØ©": 5369,
      "ÙĪÙħØ§Øª": 5370,
      "Ø´Ø±ÙĬÙĨ": 5371,
      "ĠØ´Ø±ÙĥØ§Øª": 5372,
      "ĠÙĪØ¢": 5373,
      "Ġdep": 5374,
      "Ġdream": 5375,
      "Ø³ØªØ§ÙĨ": 5376,
      "Ġ{": 5377,
      "ĠBar": 5378,
      "Ġcomputer": 5379,
      "ÙĦÙģØ§Øª": 5380,
      "Ġactivity": 5381,
      "ederal": 5382,
      "ached": 5383,
      "ĠØ§ÙĦØªØ®": 5384,
      "ĠÙĪØŃØ¯": 5385,
      "ĠBusiness": 5386,
      "ĠMarket": 5387,
      "iding": 5388,
      "ĠDay": 5389,
      "ĠØªÙĩ": 5390,
      "ĠØ§ÙĦØ³ÙĬØ¯": 5391,
      "Ġcommunication": 5392,
      "ĠØ§ÙĦÙħØ§Ø¡": 5393,
      "Ġbroad": 5394,
      "Ġanswer": 5395,
      "ĠØ§ÙĦÙĦÙĪ": 5396,
      "antly": 5397,
      "ĠØ§ÙĦÙĦØ¨ÙĨ": 5398,
      "ĠØªØŃØªØ§Ø¬": 5399,
      "Ġpiece": 5400,
      "While": 5401,
      "vest": 5402,
      "ĠâĢ¦": 5403,
      "ĠØ§ÙĦØ¹ÙħÙĦØ§Øª": 5404,
      "inos": 5405,
      "Ġpurpose": 5406,
      "ĠUs": 5407,
      "ÙĥÙĬØ¯": 5408,
      "ĠÙĥÙĬÙģÙĬØ©": 5409,
      "ĠØ¨Ø§ÙĦØ¬": 5410,
      "ĠØ¹Ø§ÙħØ": 5411,
      "ĠØ¹Ø§ÙħØ§": 5412,
      "Ùł": 5413,
      "Ġtown": 5414,
      "Ġexperienced": 5415,
      "ube": 5416,
      "ĠØ£Ø³Ø§Ø³": 5417,
      "Ġeye": 5418,
      "ĠØ§ÙĦØµØŃØ©": 5419,
      "ĠDirect": 5420,
      "ĠØ§Ø«": 5421,
      "Ġclient": 5422,
      "ĠAmerica": 5423,
      "ĠÙĦÙĦØ§Ø³": 5424,
      "Ġbur": 5425,
      "Ġlands": 5426,
      "ĠÙĪØºÙĬØ±ÙĩØ§": 5427,
      "enge": 5428,
      "Ġlocated": 5429,
      "oming": 5430,
      "Ġeasier": 5431,
      "Ø¤Ø": 5432,
      "US": 5433,
      "iction": 5434,
      "ĠØªÙĨØ¸ÙĬÙģ": 5435,
      "Ø¤Ø§": 5436,
      "bor": 5437,
      "ĠAre": 5438,
      "Ġrates": 5439,
      "Ø·ÙĬ": 5440,
      "fl": 5441,
      "ĠØ§ÙĦØ¥Ø±ÙĩØ§Ø¨": 5442,
      "Ġgreen": 5443,
      "ĠDis": 5444,
      "pite": 5445,
      "Ġeconomic": 5446,
      "Ġsection": 5447,
      "Ø§ÙĦØ®": 5448,
      "ÙĤØ§Ø¡": 5449,
      "ĠØ¥Ø¯": 5450,
      "ĦÙĪÙĨ": 5451,
      "ÙĦÙĪÙĨ": 5452,
      "Ġstrategies": 5453,
      "ĠØ§ÙĦØ¨ÙĬØ§ÙĨØ§Øª": 5454,
      "ĠØ§ÙĦÙħÙĪØ¶ÙĪØ¹": 5455,
      "tenance": 5456,
      "ĠØ§ÙĦÙĤÙĬØ§Ùħ": 5457,
      "Ġharm": 5458,
      "Ġfirm": 5459,
      "ĠØ§ÙĦØ³Ùģ": 5460,
      "Ġfix": 5461,
      "ÙĬØ²Ø§Øª": 5462,
      "force": 5463,
      "Ġconven": 5464,
      "ĠØ¹Ø³": 5465,
      "ÙĪÙĤØ¯": 5466,
      "Ġparticularly": 5467,
      "ĠHer": 5468,
      "ĠØ§ÙĦØ±ØºÙħ": 5469,
      "Ø·ÙĪØ±": 5470,
      "ĠÙħØ¨Ø§Ø´Ø±Ø©": 5471,
      "ĠØ§ÙĦØµÙĨ": 5472,
      "Ø°Ø¨": 5473,
      "ĠØ§ÙĦÙĦØ¬ÙĨØ©": 5474,
      "Ġdiv": 5475,
      "Ġ27": 5476,
      "ditionally": 5477,
      "Ġfair": 5478,
      "Ġappropri": 5479,
      "Ġpowerful": 5480,
      "Ø§ÙĦØ§Ø": 5481,
      "ĠOf": 5482,
      "Ġ28": 5483,
      "ĠØ£Ø¹ÙĦÙī": 5484,
      "AM": 5485,
      "Be": 5486,
      "iques": 5487,
      "ĠÙĦÙĦØ®": 5488,
      "Ġsong": 5489,
      "Ġround": 5490,
      "iles": 5491,
      "Ġdrug": 5492,
      "enty": 5493,
      "ĦÙĦÙĤ": 5494,
      "ÙĦÙĦÙĤ": 5495,
      "ĠØ§ÙĦØ£Ø´Ø®Ø§Øµ": 5496,
      "Ġvehicle": 5497,
      "ĠGe": 5498,
      "ĠPresident": 5499,
      "ĠØŃØ±ÙĥØ©": 5500,
      "Ø§Ø±Ø¹": 5501,
      "Ġstru": 5502,
      "Ø§ÙģØŃØ©": 5503,
      "ĠØ¨ÙĦØº": 5504,
      "Ġexpress": 5505,
      "ØªØ±Ø§ØªÙĬØ¬ÙĬØ©": 5506,
      "Ġreflect": 5507,
      "ĠØ±ÙĪØ³": 5508,
      "Ġvirt": 5509,
      "dom": 5510,
      "Ġspeed": 5511,
      "Ġfile": 5512,
      "ÙĨÙĬØ§": 5513,
      "ĠØ¸Ù": 5514,
      "ĠØ¸ÙĦ": 5515,
      "friend": 5516,
      "Ø³Ø±Ø§Ø¦ÙĬÙĦÙĬ": 5517,
      "ĠAir": 5518,
      "ĠÙĥÙĪØ±": 5519,
      "Ø°Ùĥ": 5520,
      "21": 5521,
      "ĠØ§ÙĦØ§Ø¬ØªÙħØ§Ø¹ÙĬØ©": 5522,
      "ĠØ§ÙĦÙħØµØ±ÙĬØ©": 5523,
      "Ġtips": 5524,
      "Ø¶Ø§ÙĬØ§": 5525,
      "ØµØ¯Ø±": 5526,
      "Ġdoor": 5527,
      "vey": 5528,
      "Ġimage": 5529,
      "Ġguarant": 5530,
      "ĠØ§ÙĦØ£Ø±": 5531,
      "Ġbecame": 5532,
      "ĠØ§ÙĦØ¥ÙĬØ±": 5533,
      "ned": 5534,
      "ĠRuss": 5535,
      "ĠØ¯ÙģØ¹": 5536,
      "ØµØ¨ØŃ": 5537,
      "ĠØŃØµ": 5538,
      "sych": 5539,
      "Ġgold": 5540,
      "Ø®ÙģØ¶": 5541,
      "Ġdeveloped": 5542,
      "Ø³ØªØ±": 5543,
      "yl": 5544,
      "Ġsaw": 5545,
      "ĠÙĦÙĦÙĩ": 5546,
      "ĠØ¨Ø°ÙĦÙĥ": 5547,
      "EC": 5548,
      "ĠØ§ÙĦÙģÙĦØ³Ø·ÙĬÙĨÙĬØ©": 5549,
      "ĠAc": 5550,
      "ÙĪØ¨Ø§Øª": 5551,
      "uth": 5552,
      "Ġpretty": 5553,
      "ÙĨÙĤ": 5554,
      "chen": 5555,
      "Ġideal": 5556,
      "ĠRed": 5557,
      "Ġcompon": 5558,
      "ĠØªØ·ÙĪÙĬØ±": 5559,
      "cape": 5560,
      "Ġdy": 5561,
      "Ġwal": 5562,
      "usive": 5563,
      "Ġspirit": 5564,
      "ÙĨÙĬÙĩ": 5565,
      "ĠÙĦÙĦØµ": 5566,
      "ĠØ§ÙĦÙħÙĨØ§Ø·ÙĤ": 5567,
      "Ġ2024": 5568,
      "ĠÙĤÙħ": 5569,
      "ĠEl": 5570,
      "Ġcritical": 5571,
      "Ø¤Ø§Ù": 5572,
      "Ø¤Ø§ÙĦ": 5573,
      "Ġrequires": 5574,
      "ÙħÙĪØ¹": 5575,
      "Ø§ÙħØ¨": 5576,
      "cil": 5577,
      "Ġble": 5578,
      "):": 5579,
      "ek": 5580,
      "Ġdark": 5581,
      "Ġsummer": 5582,
      "ÙĤØ§ÙĪÙħØ©": 5583,
      "Ġbooks": 5584,
      "ĠØ£ÙħØ±ÙĬ": 5585,
      "Ġball": 5586,
      "ĠØ§ÙĦØ®Ø¨Ø±": 5587,
      "Ġmeaning": 5588,
      "Ġresponsible": 5589,
      "Ġheat": 5590,
      "Ġrent": 5591,
      "Ġfight": 5592,
      "ĠWind": 5593,
      "Ġblock": 5594,
      "ĠÙĪØ³Ø§Ø¦ÙĦ": 5595,
      "Ġestablish": 5596,
      "ĠØ§ÙĦØ·ÙģÙĦ": 5597,
      "Ġrelease": 5598,
      "Ġadminist": 5599,
      "ĠMc": 5600,
      "Ġgain": 5601,
      "Ġassociated": 5602,
      "ĠØ¨ÙħÙĨ": 5603,
      "ĠØ§ÙĦØ¹Ø¨": 5604,
      "ĠØ§ÙĦØ§ÙĤØªØµØ§Ø¯ÙĬØ©": 5605,
      "Ġcarry": 5606,
      "ĠØ¨Ø¯Ø§ÙĬØ©": 5607,
      "Ø±ÙĬØ¶": 5608,
      "ĠVal": 5609,
      "ĠKe": 5610,
      "Ø¡": 5611,
      "Ġmat": 5612,
      "ĠØªØ±ÙĬØ¯": 5613,
      "ĠPlay": 5614,
      "Ġafford": 5615,
      "Ġowners": 5616,
      "ĠWill": 5617,
      "ØŃÙĪ": 5618,
      "Ġprefer": 5619,
      "Ġseems": 5620,
      "Ġstarting": 5621,
      "Ġlost": 5622,
      "ĠØ§ÙĦØ¨Ø´Ø±": 5623,
      "Ġuses": 5624,
      "Ġadvert": 5625,
      "wide": 5626,
      "Ø¨Ø§Ù": 5627,
      "Ø¨Ø§ÙĦ": 5628,
      "ĠØ§ÙĦØ¹ÙĦØ§Ø¬": 5629,
      "Ġlate": 5630,
      "Ġincreased": 5631,
      "Ġrelev": 5632,
      "Ġfloor": 5633,
      "ĠService": 5634,
      "ĠØ§ÙĦØµØŃÙĬØ©": 5635,
      "Ġtransport": 5636,
      "ĠØ§ÙĦØŃØ§ÙĦÙĬ": 5637,
      "Ġpattern": 5638,
      "ĠØªÙĪÙģÙĬØ±": 5639,
      "ĠØ£Ø¹ÙĦÙĨ": 5640,
      "ĠØ§ÙĦÙĥÙĩØ±Ø¨": 5641,
      "ĠØ§ÙĦÙħØ¬Ø": 5642,
      "ĠØ§ÙĦÙħØ¬Ø§": 5643,
      "Ġadvice": 5644,
      "ÙĤÙĩ": 5645,
      "Ġplayer": 5646,
      "sequ": 5647,
      "ĠÙħÙĪØ§ÙĤØ¹": 5648,
      "ĠØ§ÙĦØ¬Ø±": 5649,
      "ĠØ£ÙħØ³": 5650,
      "ĠÙĨØ¹": 5651,
      "gram": 5652,
      "mission": 5653,
      "Ø±Ø§Ø¹": 5654,
      "ĠÙĬØ¹Ø¯": 5655,
      "ĠJu": 5656,
      "ĠØ¨Ø§Øª": 5657,
      "ÙģØ±ÙĬÙĤ": 5658,
      "chan": 5659,
      "Ø§ÙĨÙĩ": 5660,
      "ologies": 5661,
      "Ġthinking": 5662,
      "ĠMost": 5663,
      "Ġamazing": 5664,
      "hest": 5665,
      "Ġeyes": 5666,
      "ecause": 5667,
      "Ø¨ØŃØ«": 5668,
      "Ġdiet": 5669,
      "ĠØ§ÙĦÙĨØ³Ø§Ø¡": 5670,
      "ĠØ§ÙĦÙģØ±ÙĬÙĤ": 5671,
      "ĠØ§ÙĦØ´ÙĩØ±": 5672,
      "ĠØ§ÙĦØ®Ø§Ùħ": 5673,
      "Ġcenter": 5674,
      "Ġbegan": 5675,
      "Ø§Ø¯Øª": 5676,
      "ruit": 5677,
      "ÙĨÙģ": 5678,
      "Ġacqu": 5679,
      "Ġsqu": 5680,
      "Ø¬ÙĨ": 5681,
      "ĠØ³ÙĪÙĤ": 5682,
      "Ø¬Ø±Ø©": 5683,
      "Ġattend": 5684,
      "ĠØ§ÙĦØ®Ùħ": 5685,
      "Ġconstruction": 5686,
      "ĠØ³ÙĬÙĥÙĪÙĨ": 5687,
      "ĠØªØ±ÙĥÙĬØ§": 5688,
      "hensive": 5689,
      "ĠØ§ÙĦØ¬ÙĨÙĪØ¨": 5690,
      "Ġresponse": 5691,
      "Ø§Ø¦Ø¹Ø©": 5692,
      "Ġreve": 5693,
      "ĠLet": 5694,
      "Ġprices": 5695,
      "ĠØ§ÙĦØ¬Ø§ÙĨØ¨": 5696,
      "Ġprofessionals": 5697,
      "ĠWest": 5698,
      "ĠØ´Ø¹": 5699,
      "ĠØ£ÙĩÙĦ": 5700,
      "ĠØ§ÙĦØ¯ÙģØ§Ø¹": 5701,
      "OU": 5702,
      "Ġcomfortable": 5703,
      "Ø·Ø§ÙĤ": 5704,
      "ĠØ§ÙĦØªÙĨÙģÙĬØ°": 5705,
      "Ġhttps": 5706,
      "Ġbus": 5707,
      "ĠÙĦÙĤØ¯": 5708,
      "ĠÙĦØ§ØŃ": 5709,
      "Ġexpected": 5710,
      "ari": 5711,
      "ÙĦØªÙĩ": 5712,
      "Ġrepl": 5713,
      "itely": 5714,
      "ĠTV": 5715,
      "Ġri": 5716,
      "ĠØ¥ØŃØ¯": 5717,
      "Ġorganizations": 5718,
      "ica": 5719,
      "ØºÙ": 5720,
      "ØºÙĦ": 5721,
      "ĠØªØ£Ø«ÙĬØ±": 5722,
      "ĠMon": 5723,
      "OT": 5724,
      "Ø§Ø¦Ø±Ø©": 5725,
      "ĠØ§ÙĦØ£ÙĥØ«Ø±": 5726,
      "ĠØŃØ¬Ùħ": 5727,
      "Ġdifference": 5728,
      "arily": 5729,
      "ĠCommun": 5730,
      "ĠØ¹ÙĦØ§Ø¬": 5731,
      "ĠØ§ÙĦÙħÙĪØ³": 5732,
      "ÙĦÙĤØ©": 5733,
      "Ġregion": 5734,
      "ĠØ§ÙĦÙĤÙĬ": 5735,
      "Ġgradu": 5736,
      "Ø¨Ø±Ø©": 5737,
      "Ġpractices": 5738,
      "Ø¨Ø±Ø²": 5739,
      "After": 5740,
      "ÙĥØ§Øª": 5741,
      "Ø§Ø²Ù": 5742,
      "Ø§Ø²ÙĦ": 5743,
      "ĠØ§ÙĦØ«ÙĨØ§Ø¦ÙĬØ©": 5744,
      "Ġpolitical": 5745,
      "ĠØ§ÙĦÙĥØªØ§Ø¨": 5746,
      "ĠHouse": 5747,
      "Ø§Ø¨ÙĬ": 5748,
      "Ġflex": 5749,
      "Ø§Ø´Ø©": 5750,
      "ffee": 5751,
      "Ġ26": 5752,
      "ĠÙĤØ§Ø¦ÙħØ©": 5753,
      "ĠØŃØ¯Ø«": 5754,
      "ØªØ¨Ø¹": 5755,
      "Ġsurpr": 5756,
      "ØªÙĦÙĥ": 5757,
      "Ġwritten": 5758,
      "ĠØªØ³Ùħ": 5759,
      "ĠProf": 5760,
      "ĠØªÙĦÙĤ": 5761,
      "Ø§Ø¦ÙĩØ§": 5762,
      "Ġsym": 5763,
      "Ġrespond": 5764,
      "aling": 5765,
      "Ġfamilies": 5766,
      "ĠØ£Ø´ÙĩØ±": 5767,
      "Ø§ÙĦØ¬Ø©": 5768,
      "ĠØ§ÙĦÙħØ³ØªØ®Ø¯Ùħ": 5769,
      "ĠØ§ÙĦØ³ÙĦØ·Ø©": 5770,
      "ĠØ§Ø±ØªÙģØ§Ø¹": 5771,
      "name": 5772,
      "ÙĬÙĦÙĬ": 5773,
      "ÙĥÙĬÙĦ": 5774,
      "ribute": 5775,
      "ĠThen": 5776,
      "ĠÙĪÙĬÙĨ": 5777,
      "Ġmother": 5778,
      "Ġfeeling": 5779,
      "ĠØ³Ø§Ø¹Ø©": 5780,
      "iately": 5781,
      "Ġreasons": 5782,
      "Ġmoving": 5783,
      "oices": 5784,
      "ĠÙħØŃØ·Ùħ": 5785,
      "Ġsometimes": 5786,
      "Ġroll": 5787,
      "Ġaverage": 5788,
      "ĠÙħÙĦÙĬØ§Ø±": 5789,
      "Ġpropos": 5790,
      "ÙħØ§Ø±Ø³Ø©": 5791,
      "ĠWhether": 5792,
      "Ġteams": 5793,
      "ÙĦÙĤØ¯": 5794,
      "Ø¤ÙĪÙĨ": 5795,
      "ĠØ¹ÙĦÙĬÙĩÙħ": 5796,
      "artment": 5797,
      "Ġstates": 5798,
      "ĠØ§ÙĦØ§ØŃØªÙĦØ§ÙĦ": 5799,
      "ĠØ§ÙĦØªØ¹Ø§ÙĪÙĨ": 5800,
      "Ġattempt": 5801,
      "ØŃØ«": 5802,
      "ĠØ§ÙĦØ³Ø§Ø¹Ø©": 5803,
      "ĠOct": 5804,
      "Ġsus": 5805,
      "Ġplaces": 5806,
      "Ad": 5807,
      "Ġthreat": 5808,
      "§ÙĦÙĪØ±": 5809,
      "Ø§ÙĦÙĪØ±": 5810,
      "Cl": 5811,
      "itary": 5812,
      "ÙĦÙħØ§Øª": 5813,
      "ĠØ§ÙĦÙħØ³ÙĦÙħÙĬÙĨ": 5814,
      "Ġhosp": 5815,
      "Ġconnection": 5816,
      "Ġbag": 5817,
      "ĠØ¢ÙĦØ©": 5818,
      "Ġstage": 5819,
      "ĠØ§ØªÙģØ§ÙĤ": 5820,
      "Ġformer": 5821,
      "Ġcross": 5822,
      "Ġteac": 5823,
      "raft": 5824,
      "Ġbra": 5825,
      "itute": 5826,
      "ĠÙģÙĩÙĬ": 5827,
      "more": 5828,
      "Ġvalu": 5829,
      "ancy": 5830,
      "Ġsuff": 5831,
      "Ġhelping": 5832,
      "By": 5833,
      "ously": 5834,
      "ashion": 5835,
      "Ġhistor": 5836,
      "overn": 5837,
      "Ġlooks": 5838,
      "Ø·Ø±Ø©": 5839,
      "ÙĪØ§Ø¯": 5840,
      "Ø³Ø¯": 5841,
      "ĠÙĬØ¨": 5842,
      "ĠØ§ÙĦØŃÙħ": 5843,
      "haps": 5844,
      "Ġled": 5845,
      "ĠØ£ÙĩÙħÙĬØ©": 5846,
      "istics": 5847,
      "Ġevalu": 5848,
      "ĠÙĦÙĥÙħ": 5849,
      "Ġspot": 5850,
      "Ø¹ÙĦÙĨ": 5851,
      "Ġexisting": 5852,
      "unt": 5853,
      "Ġinitial": 5854,
      "ham": 5855,
      "Ġmental": 5856,
      "Ġwoman": 5857,
      "Ġserve": 5858,
      "Ø§ÙħÙĬØ©": 5859,
      "ext": 5860,
      "eria": 5861,
      "ences": 5862,
      "change": 5863,
      "ares": 5864,
      "Ġfarm": 5865,
      "ĠØ´Ùĥ": 5866,
      "ET": 5867,
      "ĠØµÙĪØ±": 5868,
      "Ġstrength": 5869,
      "ipe": 5870,
      "ĠØ§ÙĦÙĤÙĪØ§Øª": 5871,
      "ÙĨØ³ÙĬ": 5872,
      "ĠTechn": 5873,
      "ĠØ§ÙĦØŃÙĥÙħ": 5874,
      "VID": 5875,
      "ĠÙģØ¶": 5876,
      "ĠInternational": 5877,
      "§ÙĦÙĦÙĤ": 5878,
      "Ø§ÙĦÙĦÙĤ": 5879,
      "Ġindepend": 5880,
      "Ġhor": 5881,
      "rought": 5882,
      "ĦÙĦØŃ": 5883,
      "ÙĦÙĦØŃ": 5884,
      "standing": 5885,
      "ĠMarch": 5886,
      "ĠØªØ³ØªØ®Ø¯Ùħ": 5887,
      "Ġten": 5888,
      "Ġactive": 5889,
      "ĠØªØºÙĬÙĬØ±": 5890,
      "ĠFacebook": 5891,
      "Ġregarding": 5892,
      "Ġtransfer": 5893,
      "ĠØ§ÙĨØªÙĩ": 5894,
      "ÙĬÙĨÙĬ": 5895,
      "Ġpaid": 5896,
      "ĠØ§ÙĦØ®Øµ": 5897,
      "bon": 5898,
      "Ġinterested": 5899,
      "ĠSim": 5900,
      "Ġstorage": 5901,
      "raw": 5902,
      "ØªØª": 5903,
      "99": 5904,
      "ĠChina": 5905,
      "cul": 5906,
      "ĠCas": 5907,
      "ĠÙĪØªÙĤ": 5908,
      "ĠØ§ÙĦØ¥ÙĤ": 5909,
      "ĠØ§ÙĦØ±Ø¦ÙĬØ³ÙĬØ©": 5910,
      "ĠCour": 5911,
      "ĠÙĨÙħÙĪ": 5912,
      "ĠÙħÙĨØªØ¬": 5913,
      "right": 5914,
      "ĠGener": 5915,
      "ĠØ§ÙĦÙħØ±Ø¶": 5916,
      "ĠØ±ÙģØ¹": 5917,
      "ĠØ§ÙĦØ¬ÙĩØ§Ø²": 5918,
      "Ġjud": 5919,
      "Â»ØĮ": 5920,
      "ĠAssoci": 5921,
      "ÙĪØ¬ÙĬÙĩ": 5922,
      "Ġ2013": 5923,
      "Ġallowing": 5924,
      "Ġpatient": 5925,
      "roid": 5926,
      "Ø·ØŃ": 5927,
      "ĠPa": 5928,
      "Ġund": 5929,
      "Ġcharge": 5930,
      "ĠØ§ÙĦÙģÙĬØ¯ÙĬÙĪ": 5931,
      "Ø§Ø¨Øª": 5932,
      "free": 5933,
      "80": 5934,
      "Ġcontinu": 5935,
      "ronic": 5936,
      "abilities": 5937,
      "Ġexecut": 5938,
      "oost": 5939,
      "ÙĦÙĬÙģ": 5940,
      "off": 5941,
      "Ø®Ø§Ø°": 5942,
      "imin": 5943,
      "ĠØ´ÙĥÙĦ": 5944,
      "ĠØ´Ø±Ø§Ø¡": 5945,
      "ĠÙĪØ¨Ø§ÙĦØªØ§ÙĦÙĬ": 5946,
      "Ġdepart": 5947,
      "ÙĪØ§Ø¦Ø¯": 5948,
      "ĠÙħØ¹ÙĦÙĪÙħØ§Øª": 5949,
      "ĠØ§ÙĦØ¨Ø¹Ø¶": 5950,
      "ĠÙĪØªØ´": 5951,
      "ĠÙĥØª": 5952,
      "Ġsetting": 5953,
      "ĠØ£ÙħÙĨ": 5954,
      "Ġnav": 5955,
      "ĠØ§ÙĦØ¥ÙĦÙĥØªØ±ÙĪÙĨÙĬ": 5956,
      "Ġexpand": 5957,
      "itter": 5958,
      "Ø±Ø´": 5959,
      "gu": 5960,
      "ĠØ§ÙĦÙĤØµ": 5961,
      "ĠGroup": 5962,
      "Ø§ÙĦØµ": 5963,
      "ÙĬØªÙĩ": 5964,
      "Ġdiscover": 5965,
      "ÙģØªØŃ": 5966,
      "ÙĩÙĨ": 5967,
      "arter": 5968,
      "ĠTrans": 5969,
      "ÙĤÙī": 5970,
      "ĠØ¨ÙĬØ¹": 5971,
      "ÙħØŃ": 5972,
      "Ġadult": 5973,
      "oul": 5974,
      "ĠÙĪÙĬÙĤ": 5975,
      "§ÙĬØ±": 5976,
      "Ġefforts": 5977,
      "ÙħØ§ÙĦÙĬØ©": 5978,
      "ĠØ§ÙĦÙĨØ¨ÙĬ": 5979,
      "Ġinstitut": 5980,
      "Ø¬Ø¹": 5981,
      "PS": 5982,
      "Ġincome": 5983,
      "Ġelectric": 5984,
      "ĠÙĤÙĬÙħØ©": 5985,
      "Com": 5986,
      "ĠÙĩØ¤": 5987,
      ".)": 5988,
      "ĠUp": 5989,
      "Ġrules": 5990,
      "ĠØ¨ÙĩØ°Ø§": 5991,
      "Ġgambling": 5992,
      "ĠÙĪØ§ÙĦØªØ¹": 5993,
      "ĠØ§ÙĦØ£Ø³Ø¨ÙĪØ¹": 5994,
      "ĠGet": 5995,
      "Ø·Ùģ": 5996,
      "Ġoutd": 5997,
      "Ġrestaur": 5998,
      "Ġpet": 5999,
      "ĠMus": 6000,
      "rag": 6001,
      "Ġbalance": 6002,
      "hern": 6003,
      "Ø§ÙĬØ±": 6004,
      "arden": 6005,
      "ara": 6006,
      "ØªÙģØ¹": 6007,
      "ĠÙĬØ¹Ø±Ùģ": 6008,
      "Ġcapital": 6009,
      "ĠØ§ÙĦØ±ØŃ": 6010,
      "icip": 6011,
      "ille": 6012,
      "ĠÙĩØ¤ÙĦØ§Ø¡": 6013,
      "Do": 6014,
      "Ġmount": 6015,
      "son": 6016,
      "ĠÙĦÙĦØºØ§ÙĬØ©": 6017,
      "Ø¯ÙĬØ±": 6018,
      "ĠPlease": 6019,
      "ĠØ§ÙĦÙĨØ¸Ø±": 6020,
      "ÙĥÙĬÙĨ": 6021,
      "Ġinterview": 6022,
      "ĠØ§ÙĦÙħÙĨØ²ÙĦ": 6023,
      "Ġdecisions": 6024,
      "Ġtur": 6025,
      "Ġtruly": 6026,
      "Ġtypically": 6027,
      "ĠLaw": 6028,
      "Ġwrong": 6029,
      "Ġreplace": 6030,
      "Ġstories": 6031,
      "aks": 6032,
      "ĠØ§ÙĦØ´Ø®ØµÙĬØ©": 6033,
      "Ġhous": 6034,
      "ma": 6035,
      "ĠCounty": 6036,
      "ÙĬØ§ÙĨØ©": 6037,
      "ÙĪÙĦØ§Øª": 6038,
      "Ġimmediately": 6039,
      "ĠØ±Ø£": 6040,
      "ĠØ£Ø±Ø¨": 6041,
      "Ġcommunities": 6042,
      "Ġpred": 6043,
      "Ø§Ø¬Ø±": 6044,
      "ÙģÙĬÙģ": 6045,
      "ĦÙĦØ§Ø²": 6046,
      "ÙĦÙĦØ§Ø²": 6047,
      "ĠÙħØµØ¯Ø±": 6048,
      "enses": 6049,
      "ĠØµØºÙĬØ±Ø©": 6050,
      "zz": 6051,
      "rest": 6052,
      "ĠEvery": 6053,
      "§ÙĦÙĦØ§Ø²": 6054,
      "Ø§ÙĦÙĦØ§Ø²": 6055,
      "ĠGerm": 6056,
      "ING": 6057,
      "Ġfat": 6058,
      "Ø§ÙĩØ±": 6059,
      "ØµØ¯Ø§Ø±": 6060,
      "ĠØ®ÙĦÙģ": 6061,
      "itect": 6062,
      "ĠEnglish": 6063,
      "Ġmessage": 6064,
      "Ġfelt": 6065,
      "ĠGr": 6066,
      "Ġoccur": 6067,
      "ÙĥÙĨÙĪÙĦÙĪØ¬ÙĬØ§": 6068,
      "ellow": 6069,
      "These": 6070,
      "ĠØ·ÙĪÙĬÙĦØ©": 6071,
      "Ø´Ù": 6072,
      "ĠØºØ²Ø©": 6073,
      "ĠØ§ÙĦØ§Ø´": 6074,
      "Ø´ÙĦ": 6075,
      "Ġoffered": 6076,
      "ĠØ§ÙĦØªØ§ÙĦÙĬØ©": 6077,
      "ØªØ¨Ø©": 6078,
      "Ġdisease": 6079,
      "ĠÙħØº": 6080,
      "ĠCoun": 6081,
      "ened": 6082,
      "ĠØ¬Ø²": 6083,
      "Ġexperts": 6084,
      "quality": 6085,
      "ĠØ¯Ø§Ø¦ÙħØ§": 6086,
      "nes": 6087,
      "Ġdistribut": 6088,
      "Ø±Ø£Ø©": 6089,
      "set": 6090,
      "sp": 6091,
      "Ġpen": 6092,
      "ÙĩØ§Ø±": 6093,
      "pril": 6094,
      "ÙĨØ¨ÙĬØ©": 6095,
      "Ġsurround": 6096,
      "Ø³ÙĬØŃ": 6097,
      "ĠØ§ÙĦÙĤØ±Ø§Ø±": 6098,
      "Ġadvantage": 6099,
      "ĠØ§ÙĦÙĦØ§Ø²": 6100,
      "ĠØ§ÙĦØ§ØªÙģØ§ÙĤ": 6101,
      "vis": 6102,
      "ban": 6103,
      "ÙģØ³ÙĬØ±": 6104,
      "ĠFree": 6105,
      "ĠØ·Ø¨": 6106,
      "ØªØ²": 6107,
      "ĠØ§ÙĦÙĦØºØ©": 6108,
      "ĠØµØ§ØŃØ¨": 6109,
      "ĠBrit": 6110,
      "ĠÙĦØ¬ÙĨØ©": 6111,
      "ÙĦØ§ÙĦØ": 6112,
      "Ø±ÙĬØ¹Ø©": 6113,
      "Ø®Ùģ": 6114,
      "Ġingred": 6115,
      "Ġmis": 6116,
      "ocol": 6117,
      "ĠÙħØ¯Ùī": 6118,
      "Ġplatforms": 6119,
      "My": 6120,
      "olute": 6121,
      "ĠÙħØ¹Ùĩ": 6122,
      "Ġnice": 6123,
      "Ġaccom": 6124,
      "ength": 6125,
      "ĠÙĬØ¹ØªØ¨Ø±": 6126,
      "ĠØ±Ø³ÙĪÙĦ": 6127,
      "ĠRem": 6128,
      "Ġmorning": 6129,
      "Ġstraight": 6130,
      "oke": 6131,
      "ellig": 6132,
      "Ġdur": 6133,
      "ĠØ´Ø¹Ø¨": 6134,
      "Ġcateg": 6135,
      "Ġrelevant": 6136,
      "ĠØ·Ø§ÙĦØ¨": 6137,
      "ĠØ§ÙĦØ¹ÙħÙĦØ§Ø¡": 6138,
      "Ġdedicated": 6139,
      "ØµØ§Ø±": 6140,
      "Ġexactly": 6141,
      "ĠØ¥Ø·Ø§Ø±": 6142,
      "ĠØ§ÙĦØ¹Ø³ÙĥØ±ÙĬØ©": 6143,
      "ĠØ¬ÙĬØ¯": 6144,
      "ĠMany": 6145,
      "Ġcleaning": 6146,
      "ĠÙĬØ³Ø§Ø¹Ø¯": 6147,
      "acity": 6148,
      "dule": 6149,
      "Ġmodels": 6150,
      "erences": 6151,
      "ÙĦØ¹Ø§Ø¨": 6152,
      "Ġwrite": 6153,
      "ĠÙĬØªØ¹ÙĦÙĤ": 6154,
      "Ġwish": 6155,
      "ĠØ§ÙĦÙħØŃØª": 6156,
      "Ġvict": 6157,
      "Ġ2011": 6158,
      "Ġelements": 6159,
      "Ø¦Ø§Ø³Ø©": 6160,
      "ĠÙĬÙĤØ¯Ùħ": 6161,
      "Ġinteresting": 6162,
      "apan": 6163,
      "ĠØ§ÙĦÙĦÙĤ": 6164,
      "ĠØªØ³Ø§Ø¹Ø¯": 6165,
      "Ø°Ø©": 6166,
      "Ġbatter": 6167,
      "ÙĨØ¯ÙħØ§": 6168,
      "ashing": 6169,
      "ĠÙħÙĨØµ": 6170,
      "lying": 6171,
      "Ġanim": 6172,
      "Ġshared": 6173,
      "ĠÙĤÙĪ": 6174,
      "ÙĨØªØ¬": 6175,
      "ĠØŃÙĪØ§ÙĦÙĬ": 6176,
      "ĠBro": 6177,
      "Ø±ÙĪØ¨": 6178,
      "Ø¶Ø§Øª": 6179,
      "ĠØ¥Ø¬Ø±Ø§Ø¡": 6180,
      "ded": 6181,
      "ĠØŃØ²Ø¨": 6182,
      "ĠØ¨Ø®": 6183,
      "ĠØ±ØºÙħ": 6184,
      "ĠÙĬØ¤Ø¯ÙĬ": 6185,
      "Ġexpertise": 6186,
      "Ġcertainly": 6187,
      "ĠÙĨØªØ§Ø¦Ø¬": 6188,
      "Ġhear": 6189,
      "ĠØ¨ÙĨØ³Ø¨Ø©": 6190,
      "ĠMr": 6191,
      "Ø¯ÙĬÙĨ": 6192,
      "Ġbasic": 6193,
      "hips": 6194,
      "oe": 6195,
      "Ġtrade": 6196,
      "ĠØ§ÙĦØ¹Ø§ÙĦÙħÙĬ": 6197,
      "Ġimages": 6198,
      "Is": 6199,
      "ØªØ±Ø§Ùĥ": 6200,
      "Ø¬ÙĦÙĬØ²": 6201,
      "ĠØ§ÙĦÙĪØ¶Ø¹": 6202,
      "ĠFirst": 6203,
      "Ø±ÙĬÙĥ": 6204,
      "asks": 6205,
      "Ġclin": 6206,
      "ĠÙģÙĨ": 6207,
      "arc": 6208,
      "ĠÙĬØ±ÙĬØ¯": 6209,
      "Ġdecided": 6210,
      "Ġappropriate": 6211,
      "ÙĪØ§ÙħÙĦ": 6212,
      "ĠØ£ÙĨØ": 6213,
      "ĠØ£ÙĨØ§": 6214,
      "ĠØ§ÙĦÙĥÙĪÙĬØª": 6215,
      "Ġgets": 6216,
      "Ġslot": 6217,
      "ought": 6218,
      "ĠØ§ÙĦÙħØŃÙĦÙĬØ©": 6219,
      "Ġneigh": 6220,
      "ØªÙĦØ§Ùģ": 6221,
      "Ġcomprehensive": 6222,
      "ĠÙĬØŃØ¯Ø«": 6223,
      "Ġ2012": 6224,
      "ĦÙĪÙĦ": 6225,
      "ÙĦÙĪÙĦ": 6226,
      "ĠØªØ²": 6227,
      "Ġtrip": 6228,
      "Ġmaintenance": 6229,
      "Ø§Ø±ÙĨØ©": 6230,
      "Ø´ÙĬ": 6231,
      "ĠÙĦÙĦØ¨ÙĬØ¹": 6232,
      "ĠØ¨Ø£ÙĨÙĩ": 6233,
      "ĠÙĪØ§Ø¬": 6234,
      "Ġreported": 6235,
      "Ġcopy": 6236,
      "Ø°ÙĬØ©": 6237,
      "Ġbreat": 6238,
      "Ġstandards": 6239,
      "Ġstrugg": 6240,
      "Ġpeace": 6241,
      "ĠØ§ÙĦØ§Ø«": 6242,
      "Ġtransform": 6243,
      "Ġproduce": 6244,
      "mas": 6245,
      "Ġrelax": 6246,
      "ĠØ§ÙĦÙĤØ±Ø¢ÙĨ": 6247,
      "ĠØ§ÙĦØ£Ø±Ø¯": 6248,
      "ĠØ§ÙĦØ¬ÙħÙĬØ¹": 6249,
      "Ġoperations": 6250,
      "Ġdemonst": 6251,
      "ĠCle": 6252,
      "Ø³ÙĬØ©": 6253,
      "Ġgreater": 6254,
      "ĠÙĪØ§ÙĦÙħØ¹": 6255,
      "Ġnotice": 6256,
      "ĠUse": 6257,
      "ĠØ¹Ù": 6258,
      "ĠØ¹ÙĦ": 6259,
      "attle": 6260,
      "ĠØ§ÙĦØ£Ùĥ": 6261,
      "ipped": 6262,
      "down": 6263,
      "Ø³Ù": 6264,
      "Ġprinc": 6265,
      "ĠSept": 6266,
      "ĠØ§ÙĦØ£Ø³Ø§Ø³ÙĬØ©": 6267,
      "ĠØ§ÙĦÙĩØ§ØªÙģ": 6268,
      "ĠØªØ¹Ø±Ø¶": 6269,
      "ĠDepartment": 6270,
      "ĠÙĪØ¨ÙĬÙĨ": 6271,
      "ĠOut": 6272,
      "Ø³ÙĦ": 6273,
      "ĠØ§ÙĦØ³ÙĪØ±ÙĬØ©": 6274,
      "ĠÙħÙĨØ§Ø·ÙĤ": 6275,
      "ĠØ§ÙĦØ§Ø³ØªØ«ÙħØ§Ø±": 6276,
      "igate": 6277,
      "Ø«Ùħ": 6278,
      "Ġapprec": 6279,
      "iforn": 6280,
      "ocks": 6281,
      "Ø«ÙħØ±": 6282,
      "idential": 6283,
      "ĠØ¥ÙĨØªØ§Ø¬": 6284,
      "ĠØµÙĪØ±Ø©": 6285,
      "ĠDevelop": 6286,
      "Ġthous": 6287,
      "Ġdead": 6288,
      "Ġtechniques": 6289,
      "ĠØ¶Ø¹": 6290,
      "Ġwear": 6291,
      "Ġevidence": 6292,
      "Ġspread": 6293,
      "Ø£ÙĥØ¯": 6294,
      "ĦÙĦØ¹": 6295,
      "ÙĦÙĦØ¹": 6296,
      "Ġadvanced": 6297,
      "ĠØ§ÙĦØ·Ø¨": 6298,
      "Ġpublished": 6299,
      "Ġrelationships": 6300,
      "ĠÙĦÙģ": 6301,
      "ĠØ§ÙĦØ±Ø¬ÙĦ": 6302,
      "Ġprocesses": 6303,
      "Ġter": 6304,
      "ĠFeb": 6305,
      "ama": 6306,
      "ĠÙĦÙĩØ°Ùĩ": 6307,
      "Ġdetermine": 6308,
      "Ġadapt": 6309,
      "Ġstock": 6310,
      "ÙĨØ³ÙĬÙĤ": 6311,
      "Here": 6312,
      "ĠØ§ÙĦÙħØ±ØŃÙĦØ©": 6313,
      "ĠØ§ÙĦÙĤØ¨": 6314,
      "ĠAug": 6315,
      "ĠHar": 6316,
      "duc": 6317,
      "ĠØ§ÙĦÙĪØ±": 6318,
      "Ġcorpor": 6319,
      "Ø³Ø": 6320,
      "Ø±ÙĬØ§Øª": 6321,
      "ague": 6322,
      "Ø³Ø§": 6323,
      "icing": 6324,
      "ĠØ§ÙĦØªØ¬Ø§Ø±Ø©": 6325,
      "ĠØ§ÙĦÙĨÙģØ³": 6326,
      "oday": 6327,
      "ĠÙĥØ§ÙĨÙĪØ§": 6328,
      "ounced": 6329,
      "Ġglass": 6330,
      "ĠGo": 6331,
      "Ġestate": 6332,
      "house": 6333,
      "ĠÙĥÙĦÙħØ©": 6334,
      "Ġcommitment": 6335,
      "Ġsold": 6336,
      "ĠÙĬØ¬Ø¹ÙĦ": 6337,
      "ĠÙħØªØ±": 6338,
      "Ġthr": 6339,
      "ØµØŃ": 6340,
      "ĠØ§ÙĦØ²Ø±": 6341,
      "Ġload": 6342,
      "wood": 6343,
      "Ġlimit": 6344,
      "Ġincred": 6345,
      "ÙĬØ³ÙĬ": 6346,
      "Ġappl": 6347,
      "ÙĪØ®": 6348,
      "ĠØ§ÙĦØªØ¹Ø¯": 6349,
      "ĠJanuary": 6350,
      "ĠØ§ÙĦØ£ÙħÙĪØ±": 6351,
      "AP": 6352,
      "ĠÙĦÙĦØŃØµÙĪÙĦ": 6353,
      "used": 6354,
      "ÙĦØ³ÙĦØ©": 6355,
      "ses": 6356,
      "Ø´Ø·Ø©": 6357,
      "ĠBest": 6358,
      "ØªØ¯Ø§Ø¡": 6359,
      "Ø±ÙĬØ¨Ø©": 6360,
      "Ġtransact": 6361,
      "ĠProgram": 6362,
      "Ġsmooth": 6363,
      "ĠØ§ÙĦØ¯Ø¹": 6364,
      "ĠØ§ÙĦØ®Ø¯ÙħØ©": 6365,
      "Ġjoin": 6366,
      "Ġgift": 6367,
      "ĠSte": 6368,
      "ĠØ§ÙĦØ·ÙĦØ§Ø¨": 6369,
      "ĠØ§ÙĦØ£ÙĦÙħ": 6370,
      "Ø§Ø±Ø§Ø©": 6371,
      "Ø±ÙĬÙħØ©": 6372,
      "example": 6373,
      "Ġgas": 6374,
      "omen": 6375,
      "net": 6376,
      "rial": 6377,
      "ĠOnce": 6378,
      "ÙĪÙĨÙĬ": 6379,
      "ĠÙĪØ³Ø·": 6380,
      "ÙħÙħ": 6381,
      "Ġsty": 6382,
      "ĠØ§ÙĦØ³Ø±": 6383,
      "Ġmyself": 6384,
      "ĠDesign": 6385,
      "Ġrob": 6386,
      "Ġ80": 6387,
      "zy": 6388,
      "ÙģØ¹Ù": 6389,
      "ÙģØ¹ÙĦ": 6390,
      "--------": 6391,
      "ÙĬÙħÙĬ": 6392,
      "ĠØ§ÙĦØ£Ø³ÙĩÙħ": 6393,
      "ĠØ¨Ø§ÙĦØ·": 6394,
      "ĠØŃÙĥÙħ": 6395,
      "ĠEuropean": 6396,
      "Ġchallenge": 6397,
      "ĠJune": 6398,
      "ĠØ§ÙĦÙĨÙĪØ¹": 6399,
      "Ġaw": 6400,
      "key": 6401,
      "ĠØ§ÙĦÙħÙĪØ§Ø·ÙĨÙĬÙĨ": 6402,
      "Ġdefinitely": 6403,
      "Ġbrow": 6404,
      "ĠØ§ÙĦØŃÙĬÙĪ": 6405,
      "ivil": 6406,
      "edding": 6407,
      "ĠØ¨ÙĬØª": 6408,
      "Ġwebsites": 6409,
      "Ġimag": 6410,
      "Ø§ÙĥØ²": 6411,
      "ipp": 6412,
      "Ġfab": 6413,
      "ĠØ³ÙĦØ·": 6414,
      "ĠØ§ÙĦØ¹ÙĦØ§ÙĤØ§Øª": 6415,
      "Ġnumerous": 6416,
      "ĠÙĪØ¶": 6417,
      "ĠØªØº": 6418,
      "cember": 6419,
      "Ġcreative": 6420,
      "ĠKing": 6421,
      "ĠÙĪØ": 6422,
      "ĠÙĪØ§": 6423,
      "ĠEven": 6424,
      "Ġstructure": 6425,
      "ĠRead": 6426,
      "amed": 6427,
      "ĠSystem": 6428,
      "Ø§Ø¹Ø±": 6429,
      "ifornia": 6430,
      "ÙĪØ§Ø·": 6431,
      "iar": 6432,
      "Ġapart": 6433,
      "Ġworkers": 6434,
      "ÙĬØ±ÙĪØ³": 6435,
      "Ø®ØµØµØ©": 6436,
      "ĠÙĪÙħØŃ": 6437,
      "Ġmid": 6438,
      "ÙĪØ±ÙĪØ¨Ø": 6439,
      "ÙĪØ±ÙĪØ¨Ø§": 6440,
      "Ġchann": 6441,
      "coming": 6442,
      "ups": 6443,
      "des": 6444,
      "ĠØ§ÙĦØ³Ø¹Ø±": 6445,
      "Ġmeasure": 6446,
      "Ø¨ÙĬÙĪØªØ±": 6447,
      "Ġtraffic": 6448,
      "Ġsurface": 6449,
      "istry": 6450,
      "Ġloan": 6451,
      "ĠAN": 6452,
      "ĠÙĥØªØ¨": 6453,
      "Ġinstruct": 6454,
      "Ġappoint": 6455,
      "Ġfine": 6456,
      "ĠØ¥ÙĨØ´Ø§Ø¡": 6457,
      "ira": 6458,
      "ĠØ§ÙĦØ¬Ø§Ùħ": 6459,
      "Re": 6460,
      "Ġloved": 6461,
      "ĠØ¨Ø³ÙĬ": 6462,
      "Ġadop": 6463,
      "ero": 6464,
      "Ġpassion": 6465,
      "EL": 6466,
      "undred": 6467,
      "Ġbeginning": 6468,
      "Ġselection": 6469,
      "Ġpros": 6470,
      "ography": 6471,
      "Ġwild": 6472,
      "ÙģÙĥØ§Ø±": 6473,
      "bl": 6474,
      "icks": 6475,
      "ĠOnline": 6476,
      "ĠØ§ÙĦÙģÙĦØ³Ø·ÙĬÙĨÙĬ": 6477,
      "agram": 6478,
      "Ø¨Ø±Ùī": 6479,
      "ĠÙĨÙĤØ·Ø©": 6480,
      "ovember": 6481,
      "ION": 6482,
      "Ġnation": 6483,
      "ondon": 6484,
      "ØŃØ¯ÙĬØ¯": 6485,
      "ĠØ¨Ùģ": 6486,
      "ĠÙĥØ§ÙħÙĦ": 6487,
      "ĠÙĦÙħÙĨ": 6488,
      "ØªÙĤØ§ÙĦ": 6489,
      "Ġahead": 6490,
      "Ġbrought": 6491,
      "ĠØ¥ÙĬØ¬": 6492,
      "ĠØ§ÙĦØ¥Ø³Ø±Ø§Ø¦ÙĬÙĦÙĬ": 6493,
      "Ġbelie": 6494,
      "Ø®Ø·Ø·": 6495,
      "ÙĤØ¯Ø±": 6496,
      "anging": 6497,
      "ĠÙĬØŃØªØ§Ø¬": 6498,
      "Ġemp": 6499,
      "ĠØ§ÙĦØ§ØªØµØ§ÙĦ": 6500,
      "encies": 6501,
      "cel": 6502,
      "Ġchat": 6503,
      "iant": 6504,
      "urt": 6505,
      "ĠØªÙĪÙģØ±": 6506,
      "Ø§ÙĩØ¯Ø©": 6507,
      "Ġprimary": 6508,
      "aint": 6509,
      "Ġtechnical": 6510,
      "ĠØ§ÙĦØªÙħ": 6511,
      "Ġsaying": 6512,
      "arlier": 6513,
      "Ġbirth": 6514,
      "Ġclub": 6515,
      "ÙĨØ¸ÙĬÙģ": 6516,
      "Ġbasis": 6517,
      "atur": 6518,
      "ĠCanada": 6519,
      "ris": 6520,
      "Ġaward": 6521,
      "ĠÙħØ±Ø¶": 6522,
      "ĠØ§ÙĦØ¨ÙĨ": 6523,
      "ĠØ¨Ø§ÙĦØ®": 6524,
      "ĠHome": 6525,
      "Ø·Ø§ÙĨ": 6526,
      "ĠØ§ÙĦÙĪØŃ": 6527,
      "asc": 6528,
      "irus": 6529,
      "ĠÙĥÙĨ": 6530,
      "order": 6531,
      "ĠÙĪØº": 6532,
      "atively": 6533,
      "Ġdegree": 6534,
      "ĠÙĪØ§Øª": 6535,
      "ĠØ¯ÙĬ": 6536,
      "ĠÙĩÙĬØ¦Ø©": 6537,
      "ÙĨØ¯ÙĪÙĤ": 6538,
      "Ġexcl": 6539,
      "ĠØ§Ùĩ": 6540,
      "ÙĦÙĬÙĩ": 6541,
      "Ġcards": 6542,
      "pen": 6543,
      "ĠDav": 6544,
      "ĠØ§ÙĦÙħØ¹Ø§Ø±": 6545,
      "ÙĪØ±Ø§ÙĤ": 6546,
      "Ġtim": 6547,
      "Ġli": 6548,
      "ĠÙĪÙģÙĤØ§": 6549,
      "ĠØŃÙĬØ§Ø©": 6550,
      "Ġvisual": 6551,
      "ĠØ±Ø¤ÙĬØ©": 6552,
      "Ġ90": 6553,
      "Ġstatement": 6554,
      "ament": 6555,
      "venue": 6556,
      "ĠØ§ÙĦØ¬ÙħØ¹Ø©": 6557,
      "Ġimportance": 6558,
      "Ġcrypt": 6559,
      "ĠØ§ØŃØª": 6560,
      "Ø´ÙĤ": 6561,
      "Ø§Ø¦Ø©": 6562,
      "ĠØ§ÙĦØ§Øµ": 6563,
      "ĠØ§ÙĦØ³Ø§Ø¨ÙĤØ©": 6564,
      "Ġmark": 6565,
      "ĠØ§ÙĦØªØ¹Ø§ÙħÙĦ": 6566,
      "aker": 6567,
      "ĠØ§ÙĦØ£ÙħÙħ": 6568,
      "Ġ29": 6569,
      "ĠSer": 6570,
      "Ġhandle": 6571,
      "ĠAP": 6572,
      "ĠØ§ÙĦØŃÙĤÙĬÙĤ": 6573,
      "Ġfunds": 6574,
      "Ø§Ø¨ÙĦØ©": 6575,
      "ĠSan": 6576,
      "ĠØ¸ÙĩØ±": 6577,
      "hol": 6578,
      "Ġchem": 6579,
      "Ġcandid": 6580,
      "ĠØ§ÙĦØ§Ùģ": 6581,
      "odes": 6582,
      "ØŃØ§Ø¡": 6583,
      "ĠØ§ÙĦØ³ÙĨØ©": 6584,
      "Ġplayed": 6585,
      "ĠÙĦØ¯ÙĬÙĥ": 6586,
      "ĠÙĪØ§ÙĦØº": 6587,
      "Ġmanufacture": 6588,
      "ett": 6589,
      "ĠWar": 6590,
      "ĠAustralia": 6591,
      "ĠÙĪØªØ±": 6592,
      "Ġhighest": 6593,
      "Ġâ": 6594,
      "ĠØ§ÙĦÙħØ§Ø¯Ø©": 6595,
      "ĠØ§ÙĦØ¥Ø¯Ø§Ø±Ø©": 6596,
      "Ġtick": 6597,
      "Un": 6598,
      "ĠApril": 6599,
      "Ġbeauty": 6600,
      "Ġscient": 6601,
      "tee": 6602,
      "mbol": 6603,
      "ĠÙĪØ§ÙĦÙĩ": 6604,
      "oosing": 6605,
      "AD": 6606,
      "Ø´ÙģÙī": 6607,
      "Ġtesting": 6608,
      "ĠÙĪØ¹Ø¯Ùħ": 6609,
      "Ġreliable": 6610,
      "ĠÙģÙĩÙħ": 6611,
      "ĠØ§ÙĦØ·Ø±ÙĤ": 6612,
      "Ġnumbers": 6613,
      "Ġextremely": 6614,
      "overy": 6615,
      "ÙĦÙĬØ¨": 6616,
      "Ġoccas": 6617,
      "27": 6618,
      "Ġreviews": 6619,
      "ĠØ¨Ø§Ø¨": 6620,
      "ĠAlso": 6621,
      "Ġrich": 6622,
      "Ġmechan": 6623,
      "Ġ*": 6624,
      "ĠÙĦØ²": 6625,
      "ÙĪØ²ÙĬØ¹": 6626,
      "ÙĪØ±Ø": 6627,
      "ÙĪØ±Ø§": 6628,
      "rupt": 6629,
      "olf": 6630,
      "ĠØ§ÙĦØªÙĥ": 6631,
      "Ġvaluable": 6632,
      "ĠØ§ÙĦÙĤØ¯Ùħ": 6633,
      "ĠØ¨ØŃÙĬØ«": 6634,
      "ĠÙĦØ¯ÙĬÙĨØ§": 6635,
      "That": 6636,
      "body": 6637,
      "ĠØĽ": 6638,
      "iam": 6639,
      "Ġadvance": 6640,
      "ÙĪØ§ÙĨÙĬÙĨ": 6641,
      "ĠÙħØªÙĨ": 6642,
      "Ġschools": 6643,
      "Ġwait": 6644,
      "No": 6645,
      "ray": 6646,
      "ÙĪÙĬØ¯": 6647,
      "ÙĪØ§ÙģÙĤ": 6648,
      "ĠÙģØ¥ÙĨÙĩ": 6649,
      "ĠÙħÙĪØ¶ÙĪØ¹": 6650,
      "ĠØ§ÙĦØŃØ¯ÙĪØ¯": 6651,
      "Ø¬ÙĦØ³": 6652,
      "ĠØ¬ÙĩØ©": 6653,
      "ĠOver": 6654,
      "Ġdeposit": 6655,
      "ĠØ§ÙĦØ£Ø±Ø¨Ø¹": 6656,
      "ĠGovern": 6657,
      "enior": 6658,
      "ĠØ±Ø¯": 6659,
      "Ø«Ø©": 6660,
      "100": 6661,
      "Ðµ": 6662,
      "Ġentertain": 6663,
      "ĠØ±ÙĪØ³ÙĬØ§": 6664,
      "ĠØªØµÙħÙĬÙħ": 6665,
      "ĠØ£ÙĦÙħ": 6666,
      "ĠÙĪØªÙĨ": 6667,
      "ĠØ§ÙĦØ¬Ø§ÙħØ¹Ø©": 6668,
      "Ġfinding": 6669,
      "Ġnormal": 6670,
      "anch": 6671,
      "Ġconcerns": 6672,
      "Ġdriving": 6673,
      "Ø¨ÙĪ": 6674,
      "ĠJapan": 6675,
      "oom": 6676,
      "ĠCB": 6677,
      "ĠØ§ÙĦÙħØ¶": 6678,
      "ĠØ§ÙĦØ·Ø±ÙĬÙĤ": 6679,
      "Ġhomes": 6680,
      "ØµØ±Ùģ": 6681,
      "ĠØ§ÙĦØ¯Ø¹Ùħ": 6682,
      "Ġscore": 6683,
      "IP": 6684,
      "Ġuseful": 6685,
      "ÙĨÙĬÙģ": 6686,
      "ØŃÙĨØ©": 6687,
      "oyal": 6688,
      "Ġeat": 6689,
      "ĠØ³ÙĬØªÙħ": 6690,
      "uk": 6691,
      "ĠCustom": 6692,
      "Ġvision": 6693,
      "Ġarri": 6694,
      "Ġgaming": 6695,
      "Ġalone": 6696,
      "Ġlack": 6697,
      "500": 6698,
      "ÙĬÙħØ§ÙĨ": 6699,
      "MS": 6700,
      "ÙĩÙĬØ±": 6701,
      "ĠØ¥Ø·ÙĦØ§ÙĤ": 6702,
      "Ġeffectively": 6703,
      "Ġiniti": 6704,
      "Ġmatt": 6705,
      "ĠDel": 6706,
      "mitted": 6707,
      "enture": 6708,
      "bur": 6709,
      "ĠÙħØ³Ø¤": 6710,
      "Ø¨Ø§Ø¡": 6711,
      "ruary": 6712,
      "Ġlarger": 6713,
      "ĠPat": 6714,
      "Ġfeet": 6715,
      "anking": 6716,
      "Ġreleased": 6717,
      "Ġgenerally": 6718,
      "Ġscience": 6719,
      "ĠØ§ÙĦÙĤØ¯Ø³": 6720,
      "Ġphotos": 6721,
      "Ġdeveloping": 6722,
      "azon": 6723,
      "Ġweather": 6724,
      "Ġmovement": 6725,
      "ĠØªØŃØ¯Ø«": 6726,
      "Ġstudies": 6727,
      "ĠCalifornia": 6728,
      "ÙĤÙĪÙĤ": 6729,
      "Ø±ÙĬØ¨Ø": 6730,
      "Ø±ÙĬØ¨Ø§": 6731,
      "ptoms": 6732,
      "ĠÙħØµØ§Ø¯Ø±": 6733,
      "ĠPay": 6734,
      "ĠIN": 6735,
      "ĠMod": 6736,
      "Ġhour": 6737,
      "Ġroof": 6738,
      "ĠMake": 6739,
      "ĠØªÙħØ§ÙħØ§": 6740,
      "ĠØ¨ÙĬØ±": 6741,
      "ĠØ§ÙĦÙħØ¯ÙĨÙĬ": 6742,
      "ØºØ§ÙĨ": 6743,
      "amm": 6744,
      "ĠØ§ÙĦØ´Ø±Ø·Ø©": 6745,
      "ĠAv": 6746,
      "ĠØ£Ø±Ø¶": 6747,
      "Ġheard": 6748,
      "ĠLa": 6749,
      "ĠØ§ÙĦÙĥØ¨": 6750,
      "ĠÙĬÙĨØ¨": 6751,
      "Ġpow": 6752,
      "ĠØ§ÙĦØ¹Ø§ØµÙħØ©": 6753,
      "ĠÙĤØ³Ùħ": 6754,
      "ÙĨÙĪÙĨ": 6755,
      "Ø³Ø§Ø¯": 6756,
      "ĠRec": 6757,
      "ĠÙĪØµÙģ": 6758,
      "ĠØ§ÙĦÙĥØ¨ÙĬØ±": 6759,
      "ĠCompany": 6760,
      "ĠØ¨ÙĩØ°Ùĩ": 6761,
      "ny": 6762,
      "icious": 6763,
      "ĠCOVID": 6764,
      "ĠÙĤÙĪØ©": 6765,
      "ĦÙĦØ§Ø¹": 6766,
      "ÙĦÙĦØ§Ø¹": 6767,
      "ĠØ§ÙĦØ¥Ø¯": 6768,
      "pective": 6769,
      "ĠÙĪÙĥÙĦ": 6770,
      "ÙĪØ£Ø´Ø§Ø±": 6771,
      "Ġcraft": 6772,
      "ipl": 6773,
      "Ġbetting": 6774,
      "Ġcasinos": 6775,
      "26": 6776,
      "Ġsector": 6777,
      "ĠØªØµÙĦ": 6778,
      "ĠØ§ÙĦØŃØ§ÙĦØ©": 6779,
      "Ġ500": 6780,
      "Ø¹Ø¯Ø¯Ø©": 6781,
      "Ġremove": 6782,
      "Ġparties": 6783,
      "ĠØ¨Ø§ÙĦÙĪ": 6784,
      "Ø·Ø": 6785,
      "ĠØ§ÙĦØ¨ÙĬØª": 6786,
      "Ø·Ø§": 6787,
      "Ġbaby": 6788,
      "45": 6789,
      "ĠIns": 6790,
      "ĠØ§ÙĦØ£Ø²": 6791,
      "ÙĬØ¹Ø©": 6792,
      "35": 6793,
      "ĠØ§ÙĦÙĥÙħ": 6794,
      "Ġreports": 6795,
      "ÙĤØ±Ø±": 6796,
      "Ġexercise": 6797,
      "Ġtail": 6798,
      "Ġtend": 6799,
      "ĠPri": 6800,
      "Ġcold": 6801,
      "ĠØ§ÙĦØ·Ø¹Ø§Ùħ": 6802,
      "Ġbackground": 6803,
      "Ġdang": 6804,
      "Ġsuppl": 6805,
      "ĠOctober": 6806,
      "ĠØ§ÙĦØ§ÙĤØªØµØ§Ø¯": 6807,
      "Ġkitchen": 6808,
      "Ġfear": 6809,
      "Ġbath": 6810,
      "ÙħÙĨØ©": 6811,
      "ĠÙĨØ²": 6812,
      "Ġlines": 6813,
      "ĠØ§ÙĦÙĤÙĦØ¨": 6814,
      "ĠÙĦØ§Ø¹": 6815,
      "ĠØ§ÙĦØµÙĪØ±": 6816,
      "Ġdress": 6817,
      "ĠÙĪØŃØªÙī": 6818,
      "ĠBra": 6819,
      "Ġfem": 6820,
      "ĠJuly": 6821,
      "ÙĤØªÙ": 6822,
      "ÙĤØªÙĦ": 6823,
      "They": 6824,
      "ĠØ¹Ø²": 6825,
      "atically": 6826,
      "Ġrepair": 6827,
      "ĠØŃÙĥÙĪÙħØ©": 6828,
      "ĠÙĤÙĦÙĬ": 6829,
      "ĠØªØ¶": 6830,
      "ĠÙĪÙĦØ¯": 6831,
      "ĠØ§ÙĦÙĩÙĬØ¦Ø©": 6832,
      "ĠÙħØ¹Ø±ÙģØ©": 6833,
      "Ġcompared": 6834,
      "ĠØ§ÙĦÙħØ§Ø¶ÙĬØ©": 6835,
      "ĠØ£ÙĨØª": 6836,
      "Ġwasn": 6837,
      "Ø§ØªÙĩÙħ": 6838,
      "Ġsale": 6839,
      "Ġcoffee": 6840,
      "ĠØ§ÙĦÙħØ¬Ø§Ù": 6841,
      "ĠØ§ÙĦÙħØ¬Ø§ÙĦ": 6842,
      "Ø§Ø´Ø±": 6843,
      "Ġremov": 6844,
      "ĠMicro": 6845,
      "Ġboost": 6846,
      "ÙĬØ§ÙĤ": 6847,
      "alt": 6848,
      "Ġretail": 6849,
      "ĠWindows": 6850,
      "Ġaren": 6851,
      "Ġhundred": 6852,
      "iling": 6853,
      "ĠSl": 6854,
      "Your": 6855,
      "ÙĬØ¬Ø¨": 6856,
      "Ġclimate": 6857,
      "ĠØ¨Ø²": 6858,
      "oly": 6859,
      "ĠÙĨØ¬": 6860,
      "Ø§ÙĦØ·": 6861,
      "ĠIT": 6862,
      "ĠØ§ÙĦÙħØ«Ø": 6863,
      "ĠØ§ÙĦÙħØ«Ø§": 6864,
      "ĠØ§ÙĦØµØŃÙĬ": 6865,
      "Ġmer": 6866,
      "Ġbrain": 6867,
      "ĠØ§ÙĦÙħÙĨØªØ¬Ø§Øª": 6868,
      "ĠLondon": 6869,
      "RO": 6870,
      "ĠØ§ÙĦØ§ÙĨØªØ®Ø§Ø¨Ø§Øª": 6871,
      "ĠÙħØµÙĨØ¹": 6872,
      "Ġvideos": 6873,
      "ĠÙĨÙģØ³ÙĩØ§": 6874,
      "ĠØ§ÙĦÙħØ«Ø§Ù": 6875,
      "ĠØ§ÙĦÙħØ«Ø§ÙĦ": 6876,
      "atever": 6877,
      "ĠØ³ÙĬØ±": 6878,
      "Ġpsych": 6879,
      "Ġestablished": 6880,
      "ĠÙĥÙĪØ±ÙĪÙĨØ§": 6881,
      "eed": 6882,
      "ĠØ§ÙĦØ¹Øµ": 6883,
      "Ġvoice": 6884,
      "Ġ70": 6885,
      "ester": 6886,
      "ÙĦØ§ØŃØ¸": 6887,
      "IL": 6888,
      "ĠÙĥØ±": 6889,
      "Ġhealthcare": 6890,
      "Ġefficiency": 6891,
      "ĠØ§ÙĦØ¨Ø±ÙĬØ·": 6892,
      "Ø¦ÙĬÙĨ": 6893,
      "Ġdoll": 6894,
      "ĠWell": 6895,
      "ĠSeptember": 6896,
      "Ġpool": 6897,
      "ĠAng": 6898,
      "ĠDecember": 6899,
      "ault": 6900,
      "Ġgave": 6901,
      "iber": 6902,
      "Ø´Ø§Ø·": 6903,
      "Ġsociety": 6904,
      "Ø¬Ø§Ø¨Ø©": 6905,
      "Ġ196": 6906,
      "ender": 6907,
      "ĠØ±ÙģØ¶": 6908,
      "ressive": 6909,
      "ĠÙģÙĤØ§ÙĦ": 6910,
      "ĠManagement": 6911,
      "Ġcloud": 6912,
      "Ġbillion": 6913,
      "band": 6914,
      "ĠØ§ÙĦÙĪÙĤ": 6915,
      "ĠØŃØ³ÙĨ": 6916,
      "ĠØ§ÙĦÙĤØ±ÙĨ": 6917,
      "§ÙĦÙĦØ¹": 6918,
      "Ø§ÙĦÙĦØ¹": 6919,
      "ÙĨØ§Ø¦ÙĬ": 6920,
      "ĠØ®Ø¨Ø±": 6921,
      "ĠÙĥØ«ÙĬØ±Ø": 6922,
      "ĠÙĥØ«ÙĬØ±Ø§": 6923,
      "Ġkeeping": 6924,
      "Ġpref": 6925,
      "Ġallowed": 6926,
      "ĠØ¨Ø³Ø±": 6927,
      "ĠØªØŃÙħÙĬÙĦ": 6928,
      "Ġpages": 6929,
      "rench": 6930,
      "rael": 6931,
      "Ġpolice": 6932,
      "Ġspent": 6933,
      "Ø²Ø§ÙĦØ©": 6934,
      "ĠØ§ÙĦÙħØ®Øª": 6935,
      "ĠØ§ÙĦØ®ÙħÙĬØ³": 6936,
      "Ġwants": 6937,
      "ĠØ¥Ø³Øª": 6938,
      "Ġlargest": 6939,
      "ĠÙħØŃÙħ": 6940,
      "amin": 6941,
      "ÙĦØ°ÙĦÙĥ": 6942,
      "ĠÙĪÙĩÙħ": 6943,
      "ĠØ¥ØŃØ¯Ùī": 6944,
      "esus": 6945,
      "Ø¹ÙĪ": 6946,
      "ĠØ§ÙĦØ¯ÙĬÙħÙĤØ±Ø§Ø·": 6947,
      "Ø±ÙĬØ¯Ø©": 6948,
      "Ø·Ø±Ø§Ùģ": 6949,
      "ĠÙĬØ£ØªÙĬ": 6950,
      "ĠCor": 6951,
      "ĠØ¨ÙĦØ§Ø¯": 6952,
      "ĠBet": 6953,
      "Ġacad": 6954,
      "Ġmaster": 6955,
      "Ġunc": 6956,
      "ÙĦØ³Ø©": 6957,
      "ÙĢÙĢÙĢÙĢÙĢÙĢÙĢÙĢ": 6958,
      "Ø£ÙħØ§": 6959,
      "ĠØ¨Ø§Ø¹": 6960,
      "Ø±ÙĬØ³": 6961,
      "ĠØ¯Ø±Ø§Ø³Ø©": 6962,
      "ĠØ§ÙĦØªØ§ÙĦÙĬ": 6963,
      "osing": 6964,
      "ĠÙĪØ§Ø¹": 6965,
      "itiz": 6966,
      "ĠØ¥ÙħÙĥØ§ÙĨ": 6967,
      "ĠÙĪÙĦÙĪ": 6968,
      "Ġmeasures": 6969,
      "ĠØ§ÙĦØ²ÙĪØ¬": 6970,
      "Ġdro": 6971,
      "28": 6972,
      "ĠØ§ÙĦØ£ÙĪØ³Ø·": 6973,
      "Ġreput": 6974,
      "ĠØ§ÙĦØ¯Ø±Ø§Ø³Ø©": 6975,
      "Ġdiverse": 6976,
      "Ġvalues": 6977,
      "ĠÙģÙħÙĨ": 6978,
      "Ġmicro": 6979,
      "ĠØ§ÙĦØ¯Ø®ÙĪÙĦ": 6980,
      "§ÙĦÙĦØŃ": 6981,
      "Ø§ÙĦÙĦØŃ": 6982,
      "ĠNovember": 6983,
      "icy": 6984,
      "ĠÙĪØªØ³": 6985,
      "ĠIndian": 6986,
      "ĠØ´ÙĩØ¯": 6987,
      "ĠÙħÙĥØªØ¨": 6988,
      "ĠÙĪÙħØ±": 6989,
      "Ġforce": 6990,
      "ÙħØ¤": 6991,
      "ĠØ§ÙĦØ¹ÙħØ±": 6992,
      "Ġrefer": 6993,
      "porary": 6994,
      "ĠÙĦØ¶": 6995,
      "Ġsort": 6996,
      "Ġmission": 6997,
      "Ġ2010": 6998,
      "Ġfashion": 6999,
      "ĠÙĦØ°Ø": 7000,
      "ĠÙĦØ°Ø§": 7001,
      "Ġfans": 7002,
      "erved": 7003,
      "inct": 7004,
      "ØªÙĬØŃ": 7005,
      "Ġerr": 7006,
      "Now": 7007,
      "ĠØ®Ø§Ùħ": 7008,
      "acing": 7009,
      "ĠØŃÙħØ§ÙĬØ©": 7010,
      "Ġseeking": 7011,
      "Ġcollege": 7012,
      "ech": 7013,
      "ĠØ§ÙĦÙħÙĥØ§ÙĨ": 7014,
      "Ġstatus": 7015,
      "Ġplants": 7016,
      "Ġsymbol": 7017,
      "soft": 7018,
      "Ø°Ø¬": 7019,
      "ĠØªØ¹ØªØ¨Ø±": 7020,
      "Ø±Ø¹ÙĬØ©": 7021,
      "Ġhar": 7022,
      "Ġabsolute": 7023,
      "ĠNews": 7024,
      "Ġcapacity": 7025,
      "ĠÙĬÙĦÙĬ": 7026,
      "Ġgar": 7027,
      "ĠØ§ÙĦÙĨÙĪ": 7028,
      "ÙĥØ°Ø§": 7029,
      "ĠÙħÙĬ": 7030,
      "ĠØ§ÙĦÙĦØ¹": 7031,
      "ÙĪØ£ÙĥØ¯": 7032,
      "Ġbecomes": 7033,
      "ĠØ¨Ø´Ø±": 7034,
      "Ġassistance": 7035,
      "andemic": 7036,
      "Ø³ØªØ§Ø°": 7037,
      "Ø§Ø¨Ùĩ": 7038,
      "Ø±ÙģØ¹": 7039,
      "Ø§ÙĪÙĬØ©": 7040,
      "ĠÙħØŃØ§ÙģØ¸Ø©": 7041,
      "ĠØ§ÙĤØªØµ": 7042,
      "Ġadding": 7043,
      "Ġshop": 7044,
      "ĠØ§Ø·": 7045,
      "iny": 7046,
      "ĠÙħØ±ØŃÙĦØ©": 7047,
      "Ġturned": 7048,
      "ĠØªØ¹Ø±Ùģ": 7049,
      "Ø§Ø·Ø©": 7050,
      "Ġpieces": 7051,
      "ĠØµÙĨØ¹": 7052,
      "ĠØ§ÙĦØ¨ÙĨÙĥ": 7053,
      "Ġreality": 7054,
      "ĠØ¨ØŃØ«": 7055,
      "ĠØµØ§ÙĦØŃ": 7056,
      "ĠØ§ÙĦØ³ÙĬØ§Ø±Ø§Øª": 7057,
      "ÙĤØ·Ø¹": 7058,
      "ĠØ¨ØŃØ³Ø¨": 7059,
      "ĠEach": 7060,
      "Ġpresence": 7061,
      "ida": 7062,
      "§ÙĦÙĦØ§Ø¹": 7063,
      "Ø§ÙĦÙĦØ§Ø¹": 7064,
      "itude": 7065,
      "Ġresist": 7066,
      "Ġhelped": 7067,
      "ĠÙħØ³Ø§Ø¡": 7068,
      "othing": 7069,
      "Ġhimself": 7070,
      "Ġkn": 7071,
      "ĠÙĥØ«ÙĬØ±Ø©": 7072,
      "Ġknew": 7073,
      "ØªÙħÙ": 7074,
      "ØªÙħÙĦ": 7075,
      "ĠØµØ¨Ø§ØŃ": 7076,
      "ĠØ£ØµØŃØ§Ø¨": 7077,
      "ÙĬØ¨Ø©": 7078,
      "ĠOther": 7079,
      "Ùĭ:": 7080,
      "Ø±Ø³Ø": 7081,
      "Ø±Ø³Ø§": 7082,
      "Ġproperties": 7083,
      "ĠØ§ÙĦÙĦØŃ": 7084,
      "ĠØ§ÙĦØ³Ø¹ÙĪØ¯ÙĬ": 7085,
      "Ġappeal": 7086,
      "Ø¯ÙĪÙĨ": 7087,
      "ĠPlan": 7088,
      "Ġforms": 7089,
      "ÙĩÙĬÙĦ": 7090,
      "Why": 7091,
      "ĠØ§ÙĦÙħØªØ¹ÙĦÙĤ": 7092,
      "ios": 7093,
      "Ġdepending": 7094,
      "Ġemerg": 7095,
      "ĠGold": 7096,
      "Ġsources": 7097,
      "gen": 7098,
      "ĠØªØ¬Ø§Ùĩ": 7099,
      "ðŁ": 7100,
      "ĠØ§ÙĦÙĨØ§Ø±": 7101,
      "ĠData": 7102,
      "Ġremains": 7103,
      "Pl": 7104,
      "ĠÙĬØµÙĦ": 7105,
      "Ġachie": 7106,
      "Ġshape": 7107,
      "ĠØ§Ø³ØªÙĩ": 7108,
      "osure": 7109,
      "ĠTHE": 7110,
      "Ġmovie": 7111,
      "ĠPort": 7112,
      "Ġstruct": 7113,
      "Ġattack": 7114,
      "issions": 7115,
      "Ġfather": 7116,
      "ĠØªÙĤØ±ÙĬØ±": 7117,
      "ĠÙħØ´ÙĥÙĦØ©": 7118,
      "Ġnearly": 7119,
      "Ġcancer": 7120,
      "ĠØŃØ¨": 7121,
      "Ġitem": 7122,
      "ifying": 7123,
      "Ø§Ø³Ø·Ø©": 7124,
      "ĠØ§ÙĦÙĨÙĤØ¯": 7125,
      "ĠChristmas": 7126,
      "ĠÙĤØ·Ø±": 7127,
      "reed": 7128,
      "ĠØ¨Ø±Ø§ÙħØ¬": 7129,
      "Ġreact": 7130,
      "ĠÂ£": 7131,
      "Ġannounced": 7132,
      "iced": 7133,
      "ĠÙħÙĨØ¸ÙħØ©": 7134,
      "itors": 7135,
      "iment": 7136,
      "à¤": 7137,
      "ĠØ§ÙĦÙĦØ§Ø¹": 7138,
      "ĠØ§ÙĦÙĥØ±ÙĬÙħ": 7139,
      "ÙĥØ§Ù": 7140,
      "ÙĥØ§ÙĦ": 7141,
      "going": 7142,
      "ĠØŃØ§ÙĦÙĬØ§": 7143,
      "ĠSk": 7144,
      "ĠCare": 7145,
      "isl": 7146,
      "Ġscen": 7147,
      "Ø¦ÙĦØ©": 7148,
      "ĠØ§ÙĦØ«ÙĦØ§Ø«Ø§Ø¡": 7149,
      "Ġbehavior": 7150,
      "ĠAugust": 7151,
      "Ġir": 7152,
      "ĠØ§ÙĦØ§ÙĦØª": 7153,
      "Ġactions": 7154,
      "Ġenvironmental": 7155,
      "Ġingredients": 7156,
      "ters": 7157,
      "ĠPal": 7158,
      "Ġexciting": 7159,
      "Ġmarkets": 7160,
      "ĠMich": 7161,
      "Ġcovered": 7162,
      "Ø¯Ø§Ø¡": 7163,
      "ĠØ¬Ø¹ÙĦ": 7164,
      "bu": 7165,
      "Ġearlier": 7166,
      "ĠTheir": 7167,
      "ĠØ§ÙĦØŃØ±ÙĥØ©": 7168,
      "App": 7169,
      "sec": 7170,
      "Ø±ÙĬØ": 7171,
      "ÙĤØ§Øª": 7172,
      "icon": 7173,
      "ÙĩÙĪÙĨ": 7174,
      "Ø±ÙĬØ§": 7175,
      "Ġtherefore": 7176,
      "vere": 7177,
      "ĠØªØ³Ø¬ÙĬÙĦ": 7178,
      "Ġprovider": 7179,
      "?âĢĿ": 7180,
      "Ġschedule": 7181,
      "Ø®ÙģØ§Ø¶": 7182,
      "box": 7183,
      "ÙĨØ¸Ø§Ùħ": 7184,
      "Ġlux": 7185,
      "Ġdating": 7186,
      "ĠØ£Ø¹Ø¶Ø§Ø¡": 7187,
      "Ġpolicies": 7188,
      "friendly": 7189,
      "last": 7190,
      "Ġbutton": 7191,
      "Ġchanged": 7192,
      "ĠSur": 7193,
      "Ġaf": 7194,
      "icine": 7195,
      "ĠØ´Ø¨ÙĥØ©": 7196,
      "29": 7197,
      "ØªÙĬØ§Ø¬Ø§Øª": 7198,
      "Ġcolors": 7199,
      "ÙĨØ§Ø¯": 7200,
      "Ġlength": 7201,
      "ĠÙĦÙĥÙĬ": 7202,
      "Ø§Ø±Øª": 7203,
      "aled": 7204,
      "lin": 7205,
      "Ġincorpor": 7206,
      "Ġshown": 7207,
      "Ø¯ÙĬÙĨØ©": 7208,
      "Ġfees": 7209,
      "ĠLear": 7210,
      "Ø§ÙĤØ¨Ø©": 7211,
      "ĠExper": 7212,
      "Ġcompleted": 7213,
      "ĠÙĤØ·Ø¹": 7214,
      "ĠØ§ÙĦÙĪØ·ÙĨ": 7215,
      "Ġliter": 7216,
      "Ġcore": 7217,
      "ĠØ¯Ø¨ÙĬ": 7218,
      "Ġfurn": 7219,
      "Ġsymptoms": 7220,
      "ĠEduc": 7221,
      "ĠØ´ÙĬØ¦": 7222,
      "Ġtalking": 7223,
      "Ġsurv": 7224,
      "aj": 7225,
      "ĠØ¨Ø¯Ø£Øª": 7226,
      "ĠØ§ÙĦÙħÙĤØ¨ÙĦ": 7227,
      "ĠApple": 7228,
      "ÙĤØ±Ø©": 7229,
      "Ġbecoming": 7230,
      "Ġtask": 7231,
      "ĠResearch": 7232,
      "Ġwat": 7233,
      "orrow": 7234,
      "ÙħØ¬": 7235,
      "ÙĪØµØ": 7236,
      "ÙĪØµØ§": 7237,
      "isation": 7238,
      "Ġlaws": 7239,
      "ĠØ§ÙĦÙĪØ¸": 7240,
      "Ġcontinues": 7241,
      "ĠÙħÙĩÙħØ©": 7242,
      "ĠØ´Ø£ÙĨ": 7243,
      "Ġvary": 7244,
      "ĠÙĬØ³ØªØ®Ø¯Ùħ": 7245,
      "ffect": 7246,
      "Ġtrain": 7247,
      "Ø´Ø¯": 7248,
      "ĠÙĨØ¸Ø±": 7249,
      "ĠFebruary": 7250,
      "ØªØ³": 7251,
      "iance": 7252,
      "coin": 7253,
      "Ġapps": 7254,
      "Ġsolid": 7255,
      "nown": 7256,
      "estern": 7257,
      "ĠØ£ÙĨÙĩÙħ": 7258,
      "hy": 7259,
      "Ġshipping": 7260,
      "ĠØ§ÙĦÙĪØ²Ø§Ø±Ø©": 7261,
      "Ġtechnologies": 7262,
      "Ġotherwise": 7263,
      "ĠEast": 7264,
      "ĠØ§ÙĦØ¨Ø¯": 7265,
      "Ġimpl": 7266,
      "Ġcomment": 7267,
      "ÙĤÙĬØ©": 7268,
      "ĠØ§ÙĦØ³ÙĦØ·Ø§Øª": 7269,
      "ÙģÙĩ": 7270,
      "Ġeth": 7271,
      "ĠÙĬØ¨Ø¯ÙĪ": 7272,
      "Ġrisks": 7273,
      "ĠØ§ÙĦÙħÙĨØ¸": 7274,
      "Ġeconomy": 7275,
      "rim": 7276,
      "ĠØ¬ÙĨÙĬÙĩ": 7277,
      "ocal": 7278,
      "Ġpromote": 7279,
      "chol": 7280,
      "Ġaspects": 7281,
      "ĠBen": 7282,
      "ÙĨÙĬØ§Øª": 7283,
      "ĠØ³Ø¨Ø¨": 7284,
      "ĠØ§ÙĦÙĥØ±": 7285,
      "ÙĬÙģÙĬØ©": 7286,
      "].": 7287,
      "ĠØ¶Ø±ÙĪØ±Ø©": 7288,
      "Ø§ÙĤØ§Øª": 7289,
      "Ġjobs": 7290,
      "ĠCourt": 7291,
      "Ġinnovative": 7292,
      "Ġopin": 7293,
      "ĠØ¯ÙĤÙĬÙĤØ©": 7294,
      "ĠÙĪØ§Ø´": 7295,
      "ÙĦÙĬØ³": 7296,
      "Ġfant": 7297,
      "ÙħÙĦÙĬØ©": 7298,
      "Ġrap": 7299,
      "Ġwaste": 7300,
      "Ø²ÙĬ": 7301,
      "ĠGra": 7302,
      "ĠØ§ÙĦØ¥Ø³ÙĦØ§ÙħÙĬ": 7303,
      "ĠØªØ¹ÙĦÙħ": 7304,
      "rief": 7305,
      "ĠØ§ÙĦØ·Ø¨ÙĬØ©": 7306,
      "ĠØ¨ÙĬØ§ÙĨØ§Øª": 7307,
      "Ø¨ÙĬØª": 7308,
      "ĠØ§ÙĦØŃÙħÙĦ": 7309,
      "ĠØ§ÙĦØ°Ø§Øª": 7310,
      "Ġband": 7311,
      "ugh": 7312,
      "ÙħÙĩ": 7313,
      "ĠØ§ÙĦÙĨÙħÙĪ": 7314,
      "Ġalternative": 7315,
      "inner": 7316,
      "ĠØ§ÙĦØ¨ØŃØ±": 7317,
      "ØŃØ³Ø¨": 7318,
      "However": 7319,
      "ÙĦØ§Ø¨Ø³": 7320,
      "Ġproviders": 7321,
      "Ġinsights": 7322,
      "Ġboy": 7323,
      "Ġge": 7324,
      "ĠÙģØ±ØµØ©": 7325,
      "ØªØ§Ø²": 7326,
      "ĠJesus": 7327,
      "uries": 7328,
      "Ġdynam": 7329,
      "ĠØ§ÙĦØ´ÙħØ³": 7330,
      "Ø§Ø¨Ø": 7331,
      "Ø§Ø¨Ø§": 7332,
      "Ġleadership": 7333,
      "Ġarchitect": 7334,
      "ĠVis": 7335,
      "Ø§Ø±Ø": 7336,
      "Ø§Ø±Ø§": 7337,
      "Ġorigin": 7338,
      "etic": 7339,
      "ĠØ®ÙĬØ§Ø±Ø§Øª": 7340,
      "Ġpicture": 7341,
      "Ø±ÙĬÙ": 7342,
      "Ġseek": 7343,
      "Ø±ÙĬÙĦ": 7344,
      "ĠÙĪØ§ÙĦØ§ÙĨ": 7345,
      "ĠÙĨÙĬ": 7346,
      "Ġtrading": 7347,
      "Ġmo": 7348,
      "ØµØ§ÙĦØ§Øª": 7349,
      "Ġsustainable": 7350,
      "70": 7351,
      "ĠØ§ÙĦØŃØ³": 7352,
      "Ø¬Ø§Ø±Ø©": 7353,
      "Ø§Ø¬Ø¹Ø©": 7354,
      "Ġsweet": 7355,
      "Ġ35": 7356,
      "ĠØ§ÙĦÙħÙĪØ¬ÙĪØ¯Ø©": 7357,
      "ĠWork": 7358,
      "Ġrelig": 7359,
      "Ġfinish": 7360,
      "Ġfinally": 7361,
      "Ġwelcome": 7362,
      "ST": 7363,
      "ald": 7364,
      "ĠØ§ÙĦØ£ÙĪØ±ÙĪØ¨ÙĬ": 7365,
      "Ø®Ø¯ÙħØ©": 7366,
      "Ġlaunch": 7367,
      "Ø£ØªÙĬ": 7368,
      "asure": 7369,
      "ĠØ¹Ø§Ø¯Ø©": 7370,
      "ĠØ§ÙĦØ¶Ø±": 7371,
      "ÙĬÙĨÙĬØ©": 7372,
      "Ø§ØŃØ§Øª": 7373,
      "works": 7374,
      "ĠØ§ÙĦÙĦØ§Ø²ÙħØ©": 7375,
      "ĠØ§ÙĦØ¬ÙĦØ¯": 7376,
      "Ġlinks": 7377,
      "ĠØ¨Ø·Ø±ÙĬÙĤØ©": 7378,
      "ĠWeb": 7379,
      "Ġmilitary": 7380,
      "ato": 7381,
      "ĠØ§ÙĦØ·Ø±ÙĬÙĤØ©": 7382,
      "Ø§ÙĨØ¹": 7383,
      "ĠÙĦÙĬØ¨": 7384,
      "Ġdocuments": 7385,
      "ĠAny": 7386,
      "Ġtrou": 7387,
      "ĠIsrael": 7388,
      "Ġvirtual": 7389,
      "ĠCollege": 7390,
      "Ùª": 7391,
      "Ġcoverage": 7392,
      "Ġbrands": 7393,
      "Ġrecommended": 7394,
      "ĠØŃÙĤÙĬÙĤ": 7395,
      "Ø¶Ø§ÙĨ": 7396,
      "ails": 7397,
      "ĠÙģØ§ÙĨ": 7398,
      "Ġtemperature": 7399,
      "ying": 7400,
      "Ġcultural": 7401,
      "ibrary": 7402,
      "ĠØ·Ø±ÙĤ": 7403,
      "ÙĪØ±ÙĪ": 7404,
      "ØªØ§Ø¦Ø¬": 7405,
      "ĠØªØ±Ø§ÙħØ¨": 7406,
      "ĠÙĪÙĥØ§ÙĨØª": 7407,
      "ĠØ¨Ø¯Ø¡": 7408,
      "phone": 7409,
      "Ġviews": 7410,
      "ums": 7411,
      "Ġannual": 7412,
      "elines": 7413,
      "Ġdecor": 7414,
      "ĠSuper": 7415,
      "ĠØ¥ÙĨÙĩØ§": 7416,
      "ĠØ§ÙĬØ¶Ø§": 7417,
      "ĠSpe": 7418,
      "Ġfiles": 7419,
      "ĠØ´ÙħØ§ÙĦ": 7420,
      "ĠÙĪØ§ÙĦÙħØ³": 7421,
      "Â«": 7422,
      "Ġsuitable": 7423,
      "Ġlots": 7424,
      "Ġcaused": 7425,
      "Ġlooked": 7426,
      "rastructure": 7427,
      "rig": 7428,
      "Ġpush": 7429,
      "Ġslight": 7430,
      "ĠØ§ÙĦØ§ÙĤØªØµØ§Ø¯ÙĬ": 7431,
      "ĠØ¨ÙĨÙģØ³": 7432,
      "Ġalign": 7433,
      "Ġcombination": 7434,
      "âĢĿ,": 7435,
      "ĠØ¨ÙĩØ¯Ùģ": 7436,
      "unning": 7437,
      "Ġtasks": 7438,
      "icking": 7439,
      "Ø¬Ø§Ø¨": 7440,
      "ĠØ£ÙĥØ¯": 7441,
      "ĠMac": 7442,
      "ØºØ": 7443,
      "ØºØ§": 7444,
      "EM": 7445,
      "ÙĪØ§Ùħ": 7446,
      "fit": 7447,
      "¡Ù": 7448,
      "Ġstuff": 7449,
      "Ø£ÙĦØ©": 7450,
      "tra": 7451,
      "ĠØ§ÙĦØŃØ¯ÙĬØ¯": 7452,
      "Ø¹Ø§Ø¡": 7453,
      "ĠØªØ¹Ø²ÙĬØ²": 7454,
      "ĠØ³ÙĬÙĨ": 7455,
      "ĠÙĤØ§ÙħØª": 7456,
      "Ġtherapy": 7457,
      "ØŃÙĬÙĨ": 7458,
      "Ġlose": 7459,
      "ĠGreen": 7460,
      "ĠØ§ÙĦØ¯Ø³Øª": 7461,
      "Ġproperly": 7462,
      "Some": 7463,
      "ĠÙĬØ³ØªØ·ÙĬØ¹": 7464,
      "ĠÙĬÙĪÙĨ": 7465,
      "ĠØ±Ø¬ÙĦ": 7466,
      "65": 7467,
      "Ġfill": 7468,
      "ĠÙĤÙĦØ¨": 7469,
      "Ġbuying": 7470,
      "ÙĪØ¬Ø¨": 7471,
      "fficient": 7472,
      "ĠAdditionally": 7473,
      "Ġfederal": 7474,
      "Ġblue": 7475,
      "ÙĤØ§Ø·": 7476,
      "ÙĦÙĬÙĥ": 7477,
      "ĠØŃØ§ÙĦØ§Øª": 7478,
      "Ġprocessing": 7479,
      "ĠÙĬÙĨØ§": 7480,
      "Ø§Ø¹Ø´": 7481,
      "ĠØŃØ±Ø¨": 7482,
      "Ġactual": 7483,
      "dy": 7484,
      "ĠÙĬÙħÙĨ": 7485,
      "ĠØ§ÙĦØ¹Ø³ÙĥØ±ÙĬ": 7486,
      "que": 7487,
      "ĠØ£ÙĨØŃØ§Ø¡": 7488,
      "Ġhop": 7489,
      "ĠÙĪØ³Øª": 7490,
      "ÙħØ±Ø©": 7491,
      "ternal": 7492,
      "ĠFound": 7493,
      "ĠPhil": 7494,
      "Ġensures": 7495,
      "ĠØ§ÙĦØ®ÙĦÙĬØ¬": 7496,
      "Ø¹ÙĨ": 7497,
      "ĠHol": 7498,
      "Ġfabric": 7499,
      "ĠØ§ÙĦÙħØ¤Ø³Ø³Ø§Øª": 7500,
      "Ġsharing": 7501,
      "ĠØ§ÙĦÙħØ´Ø§Ø±ÙĥØ©": 7502,
      "ĠØ¨Ø§ÙĦØ¶": 7503,
      "ĠCouncil": 7504,
      "asy": 7505,
      "Ø®ÙĬØµ": 7506,
      "ĠØ¨ÙĪØ§Ø³Ø·Ø©": 7507,
      "ĠØ¨Ø¯Ø£": 7508,
      "ĠÙģØ¹ÙĦ": 7509,
      "ĠØŃØ¯ÙĪØ«": 7510,
      "ĠÙĤÙĪÙĦÙĩ": 7511,
      "BC": 7512,
      "ĠØ§ÙĦÙĤØ§ÙĩØ±Ø©": 7513,
      "Ġfocused": 7514,
      "Ġextensive": 7515,
      "ĠØ§ÙĦÙĨØ³": 7516,
      "Ġowner": 7517,
      "Ġmaybe": 7518,
      "ÙĬØ±ÙĬØ©": 7519,
      "Ø§ÙģØ¹": 7520,
      "ĠØºØ§ÙĦØ¨": 7521,
      "asts": 7522,
      "ĠØ¨ÙĦØ§": 7523,
      "ĠAndroid": 7524,
      "Ø¬Ø§Ø¬": 7525,
      "Ġcommitted": 7526,
      "ÙĨØ³Ø": 7527,
      "ÙĨØ³Ø§": 7528,
      "ĠØ£ÙĩØ¯Ø§Ùģ": 7529,
      "hent": 7530,
      "arge": 7531,
      "orge": 7532,
      "Ġcris": 7533,
      "Ġheavy": 7534,
      "Ø¹ÙĦÙħ": 7535,
      "ĠØ§ÙĦØ´Ø¨": 7536,
      "Ġwedding": 7537,
      "ĠØ§ÙĦØºØ±Ø¨ÙĬØ©": 7538,
      "Ġpandemic": 7539,
      "Â®": 7540,
      "ĠØ§ÙĦØŃÙĥÙĪÙħÙĬØ©": 7541,
      "unction": 7542,
      "Ġbottom": 7543,
      "ĠØ£ÙħÙĬØ±": 7544,
      "ĠØ³ÙĪÙī": 7545,
      "33": 7546,
      "being": 7547,
      "roud": 7548,
      "Ġclassic": 7549,
      "ĠØªÙĥÙĨ": 7550,
      "ĠÙĦØ¹Ø¨Ø©": 7551,
      "Ġprepared": 7552,
      "ĠÃ": 7553,
      "Ġsession": 7554,
      "Ġworry": 7555,
      "Ġrace": 7556,
      "ĠÙħØ§Ø±Ø³": 7557,
      "htt": 7558,
      "Ġsugar": 7559,
      "Ġsignificantly": 7560,
      "ĠInter": 7561,
      "Ġplenty": 7562,
      "Ġbiggest": 7563,
      "ĠØ§ÙĦØ¢Ø®Ø±ÙĬÙĨ": 7564,
      "ommod": 7565,
      "ĠSEO": 7566,
      "ĠØªØ¸ÙĩØ±": 7567,
      "ĠØ£Ø¬ÙĩØ²Ø©": 7568,
      "Ġden": 7569,
      "ĠÙħØ¹Ø¯Ø§Øª": 7570,
      "ĠMet": 7571,
      "ĠØ«ÙĤ": 7572,
      "ĠÙĦÙħØ³": 7573,
      "ĠDem": 7574,
      "Ġdoctor": 7575,
      "unately": 7576,
      "Ġanti": 7577,
      "ØŃØ¯Ø¯": 7578,
      "Ġencourage": 7579,
      "ctors": 7580,
      "Ġplus": 7581,
      "ĠÙĨØµÙģ": 7582,
      "ÙĨØ§ÙĬØ©": 7583,
      "Ġcontinued": 7584,
      "Ġdiagn": 7585,
      "ĠØ§ÙĦØ¹Ø¶": 7586,
      "ĠØµØ¹": 7587,
      "ĠÙĤØ§Ø¦": 7588,
      "ĠDirector": 7589,
      "Ø¬Ø§ÙĨ": 7590,
      "ĠØ¬ÙĪ": 7591,
      "ĠØ§ÙĦØ¬ÙħÙĩÙĪØ±ÙĬØ©": 7592,
      "Ġmentioned": 7593,
      "ĠFriday": 7594,
      "poses": 7595,
      "Ġdecide": 7596,
      "IM": 7597,
      "Ġalthough": 7598,
      "ĠØ§ÙĦØŃØ¨": 7599,
      "Ø¨ÙĬØ¶": 7600,
      "gn": 7601,
      "ĠØ§ÙĦØ¹Ø¸": 7602,
      "ĠØ·Ø±": 7603,
      "ĠÙħØ·ØŃÙĨØ©": 7604,
      "ĠAM": 7605,
      "ĠStr": 7606,
      "Ġmist": 7607,
      "ford": 7608,
      "ĠØ¨Ø§ÙĦÙģØ¹ÙĦ": 7609,
      "ĠØµØŃÙĬÙģØ©": 7610,
      "ĠØµØŃÙĬØŃ": 7611,
      "Ø®Ø": 7612,
      "Ø®Ø§": 7613,
      "Ġ31": 7614,
      "ĠØ§ÙĦÙħØ³ØªÙĪÙī": 7615,
      "essions": 7616,
      "Ġseeing": 7617,
      "ĠØ§ÙĦÙħÙĨØ´": 7618,
      "Ġtruth": 7619,
      "ÙģÙĬØ¯": 7620,
      "ÙĤÙĪÙĦ": 7621,
      "Ġtalent": 7622,
      "ĠBoard": 7623,
      "ĠØ§ÙĦØªØ¯Ø±ÙĬØ¨": 7624,
      "ville": 7625,
      "ĠÙĦØ§Ø¨": 7626,
      "ÙĪÙĬØªØ±": 7627,
      "Ġson": 7628,
      "ĠØ§ÙĦØµØºÙĬØ±Ø©": 7629,
      "ĠSund": 7630,
      "ĠÙĪØ¥Ø°Ø§": 7631,
      "ĠAmazon": 7632,
      "ÙĬØ¶": 7633,
      "ĠØ¬ÙĬØ¯Ø©": 7634,
      "Ġpoor": 7635,
      "cious": 7636,
      "ĠØ§ÙĦØ£ÙĤÙĦ": 7637,
      "ervation": 7638,
      "ĠBel": 7639,
      "ula": 7640,
      "ĠØ£ÙĪØ±ÙĪØ¨Ø§": 7641,
      "Ġvot": 7642,
      "iveness": 7643,
      "ĦÙĨØ§": 7644,
      "ÙĦÙĨØ§": 7645,
      "ĠØ¨Ø±ÙĪ": 7646,
      "ĠTy": 7647,
      "Ø¶Ø¨": 7648,
      "ĠPC": 7649,
      "90": 7650,
      "ĠOffice": 7651,
      "ĠØ£Ø®Ø°": 7652,
      "unk": 7653,
      "ĠØªØŃØªÙĪÙĬ": 7654,
      "ĠGreat": 7655,
      "Ġinstallation": 7656,
      "Ġpopulation": 7657,
      "ounds": 7658,
      "Ø§Ø¯Ø¦": 7659,
      "Ġmiddle": 7660,
      "Ġtitle": 7661,
      "ĠØ®ÙĬØ§Ø±": 7662,
      "Ġleader": 7663,
      "ĠDist": 7664,
      "ØªØ±ÙĥØ©": 7665,
      "Ġclaims": 7666,
      "ĠÙĪÙħØ³": 7667,
      "ÙĦØ¨Ø©": 7668,
      "ØµÙī": 7669,
      "Ġexhib": 7670,
      "ifications": 7671,
      "Ġchanging": 7672,
      "Ġintellig": 7673,
      "ĠØ§ÙĦØ¬ÙĨØ³": 7674,
      "Ġwhose": 7675,
      "eless": 7676,
      "aughter": 7677,
      "ĠØ¨Ø§Ø³": 7678,
      "ĠCasino": 7679,
      "ĠØ±Ø¨ÙħØ§": 7680,
      "ĠØ§ÙĦØ£Ø¨": 7681,
      "Ġdecl": 7682,
      "ĠØ§ÙĦÙĦØ¹Ø¨Ø©": 7683,
      "Ġcircum": 7684,
      "ÙĦØ§ÙĬØ§": 7685,
      "ser": 7686,
      "ĠÙĪØŃØ¯Ø©": 7687,
      "cript": 7688,
      "ilit": 7689,
      "ĠUnder": 7690,
      "Ġsav": 7691,
      "ĠBecause": 7692,
      "Ø§Ø±ÙĬØ±": 7693,
      "inese": 7694,
      "Ġdesigns": 7695,
      "ĠØ±ØŃ": 7696,
      "Ġchoices": 7697,
      "ĠYear": 7698,
      "ĠÙĪÙĩØ°Ùĩ": 7699,
      "Please": 7700,
      "ĠØ¨ÙĩÙħ": 7701,
      "Ġfacilities": 7702,
      "ĠTex": 7703,
      "Ġwinter": 7704,
      "irection": 7705,
      "verse": 7706,
      "ĠØ§ÙĦØŃØ§ÙĦØ§Øª": 7707,
      "ÙĦØ§Øµ": 7708,
      "ĠAssociation": 7709,
      "ĠØ§ÙĦÙħØ³ÙĬØŃ": 7710,
      "ÙĪØ§Ø¬Ø¯": 7711,
      "Ġgrand": 7712,
      "ÙĪØµÙĦ": 7713,
      "ĠØ§ÙĦØ«ÙĪØ±Ø©": 7714,
      "Ġcounter": 7715,
      "Ġcentral": 7716,
      "Ġshopping": 7717,
      "iture": 7718,
      "ĠØ´Ø±ÙĤ": 7719,
      "Ġconnected": 7720,
      "ĠÙħÙĪÙĤÙģ": 7721,
      "Ġremind": 7722,
      "Ø¬ÙĦØ©": 7723,
      "ran": 7724,
      "Ø²ÙĬÙĪÙĨ": 7725,
      "ĠÙħÙĩÙħ": 7726,
      "ĠØ§ÙĦØ£Ø¬ÙĨØ¨ÙĬØ©": 7727,
      "ĠØ§ÙĦØ¥Ø¹ÙĦØ§ÙĨ": 7728,
      "Ø®Ùħ": 7729,
      "ĠCheck": 7730,
      "ĠØ§ÙĦÙģØ¹": 7731,
      "ĠÙĦØ¯ÙĬÙĩ": 7732,
      "ÙĦØ®": 7733,
      "ĠØ¥Ø¶Ø§Ùģ": 7734,
      "Ġbul": 7735,
      "ĠØ¸ÙĩÙĪØ±": 7736,
      "ĠØªØŃÙħÙĦ": 7737,
      "Ġagreement": 7738,
      "ĠÙĪÙĬØ³": 7739,
      "Ġperhaps": 7740,
      "ĠPower": 7741,
      "Ġemer": 7742,
      "Ġtaste": 7743,
      "Ġcompetition": 7744,
      "ĠØ§ÙĦØ·Ø¨ÙĬØ¹ÙĬØ©": 7745,
      "Ġdoub": 7746,
      "Ġinjury": 7747,
      "ĠØ§ÙĦØµÙĪØ±Ø©": 7748,
      "ĠÙħÙĨØ¹": 7749,
      "Ġfaith": 7750,
      "ĠHot": 7751,
      "ĠÙĪÙĬØªÙħ": 7752,
      "ÙĦØ§ÙĬÙĬÙĨ": 7753,
      "ÙĥÙĪÙĨØ§Øª": 7754,
      "Ġcomponents": 7755,
      "Ġaccounts": 7756,
      "ĠÙĦØ£ÙĨÙĩØ§": 7757,
      "ÙĬÙĪØ¨": 7758,
      "Ø¹Ø§Ø¯": 7759,
      "Ġgraph": 7760,
      "ĠØ§ÙĦÙħØŃÙĥÙħØ©": 7761,
      "Ġanx": 7762,
      "Ġtried": 7763,
      "ĠAnt": 7764,
      "ĠØ§ÙĦØ§Ø¯": 7765,
      "ÙĬÙĬÙħ": 7766,
      "ounce": 7767,
      "ĠØ¥Ø¨Ø±": 7768,
      "ĠÙĦÙĦØ§ÙĨ": 7769,
      "ibilities": 7770,
      "fol": 7771,
      "ÙĪØ§Ùĥ": 7772,
      "ĠÙĬØ²ÙĬØ¯": 7773,
      "ĠØ³Ø§Ø¹Ø§Øª": 7774,
      "ocr": 7775,
      "Ġfish": 7776,
      "Ġweeke": 7777,
      "Ġpurposes": 7778,
      "Ġhelpful": 7779,
      "hus": 7780,
      "Ġvisitors": 7781,
      "ij": 7782,
      "Ġunit": 7783,
      "liance": 7784,
      "ĠWord": 7785,
      "Ġinnovation": 7786,
      "lands": 7787,
      "Ġpaint": 7788,
      "Ġremote": 7789,
      "emy": 7790,
      "ĠØ§ÙĦØŃØ²Ø¨": 7791,
      "ĠGood": 7792,
      "Ġdouble": 7793,
      "Ġemployee": 7794,
      "Ġassets": 7795,
      "ĠØ§ÙĦØ³ÙĪØ¯Ø§ÙĨ": 7796,
      "Ġbrings": 7797,
      "ĠØ§ÙĦØ£Ø³Ø¹Ø§Ø±": 7798,
      "Ġwonderful": 7799,
      "Ġindic": 7800,
      "rency": 7801,
      "ĠIS": 7802,
      "Ġflu": 7803,
      "Ġleads": 7804,
      "ØºØ©": 7805,
      "75": 7806,
      "Ġprincip": 7807,
      "TS": 7808,
      "itness": 7809,
      "ĊĊ": 7810,
      "ĠØªÙĤØ¯": 7811,
      "ĠØ§ÙĦØ¹ÙĦÙĬØ§": 7812,
      "Ġslots": 7813,
      "ĠØ§ÙĦØ¥Ø¬Ø±Ø§Ø¡Ø§Øª": 7814,
      "Ġoperating": 7815,
      "ÙĪÙĤØ§ÙĦØª": 7816,
      "ĠØªØ¹ÙĦÙĬÙħ": 7817,
      "Ġsmaller": 7818,
      "ĠIts": 7819,
      "ĠØ±Ø³Ø§ÙĦØ©": 7820,
      "life": 7821,
      "ĠØ§ÙĦØªØŃØ¯": 7822,
      "rote": 7823,
      "ĠÙĬØŃØªÙĪÙĬ": 7824,
      "ĠStreet": 7825,
      "tion": 7826,
      "DA": 7827,
      "phas": 7828,
      "ĠØ§ÙĦÙħØ³Ø¤ÙĪÙĦ": 7829,
      "Ġassign": 7830,
      "Ġopening": 7831,
      "ĠØ¨Ø§ÙĦØµ": 7832,
      "Ø¶ÙĬÙģ": 7833,
      "top": 7834,
      "Ø·Ø§ÙĦØ¨": 7835,
      "ĠØ§ÙĦØ£Ø¬ÙĩØ²Ø©": 7836,
      "ÙĬÙĩØ§": 7837,
      "ersonal": 7838,
      "ĠPeople": 7839,
      "unte": 7840,
      "ĠSub": 7841,
      "ĠÙĤØ·": 7842,
      "ĠSince": 7843,
      "ĠÙħØŃØ§ÙĪÙĦØ©": 7844,
      "ĠInstagram": 7845,
      "Ġvital": 7846,
      "ĠÙģØ±Ø¶": 7847,
      "ĠØ§ÙĦØ£ÙĤ": 7848,
      "ĠØ§ÙĦØ¥ÙĦÙĥØªØ±ÙĪÙĨÙĬØ©": 7849,
      "ĠÙħØ´Ø§ÙĥÙĦ": 7850,
      "Ġfunding": 7851,
      "ĠØ§ÙĦØ§ÙĨØªØ±ÙĨØª": 7852,
      "ĠØ§ÙĦÙħØ³ØªÙĤØ¨ÙĦ": 7853,
      "ĠØ§ÙĦÙħÙħÙĥÙĨ": 7854,
      "Ġwindow": 7855,
      "Ġdirector": 7856,
      "ĠØ§ÙĦØµØ¯": 7857,
      "Ġplaced": 7858,
      "Ġshoot": 7859,
      "Ġexchange": 7860,
      "Ġvill": 7861,
      "ĠWhite": 7862,
      "Ġconfidence": 7863,
      "ĠØªØ«": 7864,
      "ĠØ§ÙĦØ³Ø¨Øª": 7865,
      "ĠØ¥Ø¬": 7866,
      "Ġcontains": 7867,
      "ĠSaf": 7868,
      "onday": 7869,
      "Ġolder": 7870,
      "Ø²ÙĬÙĦ": 7871,
      "Ø±ÙĬØª": 7872,
      "ĠÙĨÙħ": 7873,
      "ĠØ§ÙĦØªÙĨØ¸ÙĬÙħ": 7874,
      "CC": 7875,
      "ĠÙĬÙĨØª": 7876,
      "ĠÙĪÙĥØ§ÙĦØ©": 7877,
      "Ġserved": 7878,
      "ĠØ±Ø¤": 7879,
      "mp": 7880,
      "inger": 7881,
      "ÙĦÙĪØ§ÙĨ": 7882,
      "Ġlandscape": 7883,
      "ĠØ§ÙĦØ§Ùĩ": 7884,
      "Ġcompetitive": 7885,
      "Ġfeedback": 7886,
      "ĠØ¹ÙĬÙĨ": 7887,
      "ĠØ§ÙĦØªØ±Ø¨ÙĬØ©": 7888,
      "Ġphoto": 7889,
      "ĠØªØŃØ³ÙĬÙĨ": 7890,
      "Ġspecifically": 7891,
      "ĠRel": 7892,
      "ĠØ¬ÙħØ¹": 7893,
      "Ġconsumers": 7894,
      "ĠØ¹Ø¨Ø§Ø±Ø©": 7895,
      "Ġupdate": 7896,
      "Ġresidents": 7897,
      "ØªÙĪØ¨Ø±": 7898,
      "ĠØ³ÙĦØ³ÙĦØ©": 7899,
      "ĠØ§ÙĦÙĥØ¨ÙĬØ±Ø©": 7900,
      "Ø±ÙĪØ©": 7901,
      "ĠÙħØ¹ÙĩØ§": 7902,
      "ĠÙĪØ§ÙĦØ²": 7903,
      "Ġsigns": 7904,
      "Ġlearned": 7905,
      "ÙĪØ±Ùĩ": 7906,
      "ĠØ®ÙĦÙĤ": 7907,
      "Ġcalls": 7908,
      "ĠØªØ¬Ø±Ø¨Ø©": 7909,
      "Ø§ÙĤÙĬ": 7910,
      "ĠØ¹ÙĦØ§ÙĤØ©": 7911,
      "ĠØ§ÙĦØ£ÙħÙĬØ±ÙĥÙĬØ©": 7912,
      "Ġdat": 7913,
      "lusion": 7914,
      "Ġcamera": 7915,
      "Ġwinning": 7916,
      "Ġhotel": 7917,
      "Ġmill": 7918,
      "Ġ!": 7919,
      "umm": 7920,
      "ÙģÙĬØ§Øª": 7921,
      "ĠØ§ÙĦØ£ÙħÙĨÙĬØ©": 7922,
      "ĠØ§ÙĦØ£Ø±Ø¨Ø¹Ø§Ø¡": 7923,
      "Ø±Ø³Ø§Ù": 7924,
      "Ø±Ø³Ø§ÙĦ": 7925,
      "ĠØ¨Ø«": 7926,
      "ĠØ§ÙĦØ¥ØµØ§Ø¨Ø©": 7927,
      "ĠRet": 7928,
      "Ġagency": 7929,
      "Get": 7930,
      "Ġthanks": 7931,
      "ÙĦØ§ÙħØ§Øª": 7932,
      "ĠØ®Ø·Ø©": 7933,
      "ØªØ±Ùģ": 7934,
      "Ġbill": 7935,
      "Ġgrant": 7936,
      "ØªÙĩÙĬ": 7937,
      "ØªØ±Ø¶": 7938,
      "ĠØ§ÙĦØ²ÙħÙĨ": 7939,
      "ÙĨÙĬØ¹": 7940,
      "ĠØ®ÙĦØ§ÙĦÙĩØ§": 7941,
      "ĠØ§ÙĦØ¬ÙĨ": 7942,
      "ĠÙĪÙĬØ±": 7943,
      "§ÙĪÙĨ": 7944,
      "ĠØ§ÙĦÙģÙĥ": 7945,
      "ØªÙħØ¨Ø±": 7946,
      "ĠØ§ÙĦÙĤØ¯Ø±Ø©": 7947,
      "ev": 7948,
      "ĠØªØ´ØºÙĬÙĦ": 7949,
      "ĠØ§ÙĦØ¥ÙĨØªØ§Ø¬": 7950,
      "ÙĨÙĪØ§Øª": 7951,
      "ĠØ§ÙĦØ·Ø±Ùģ": 7952,
      "ĠÙħØ¤Ø´Ø±": 7953,
      "ĠØ§ÙĦÙħØªØ¹ÙĦÙĤØ©": 7954,
      "Ø§ÙĪÙĨ": 7955,
      "ÙĩØ°Ùĩ": 7956,
      "Ġtoward": 7957,
      "ĠÙĬÙĨØ¨ØºÙĬ": 7958,
      "ÙģØ§Ø¡Ø©": 7959,
      "Ġcourses": 7960,
      "ĠØ§ÙĦÙĤÙĪÙĦ": 7961,
      "Ġtransl": 7962,
      "Ġguests": 7963,
      "Ġfigure": 7964,
      "avour": 7965,
      "ĠAdd": 7966,
      "umn": 7967,
      "Ġaccommod": 7968,
      "Ġdrop": 7969,
      "Ġpractical": 7970,
      "Ġbeg": 7971,
      "Ġ--": 7972,
      "ĠØ²ÙĬØ§Ø±Ø©": 7973,
      "ĠØ§ÙĦÙħÙĤØ¨": 7974,
      "ĠØ§ÙĦØ£Ø®ÙĬØ±": 7975,
      "inter": 7976,
      "estyle": 7977,
      "ĠÙĦØ¯ÙĬÙĩØ§": 7978,
      "Ġrock": 7979,
      "Ġfee": 7980,
      "LE": 7981,
      "Ġinformed": 7982,
      "ĠØ§ÙĦØªÙĨÙħÙĬØ©": 7983,
      "ĠHel": 7984,
      "Ġpark": 7985,
      "acking": 7986,
      "ĠØ§ÙĦØ³Ø¨Ø¨": 7987,
      "ĠØ§ÙĦÙħÙĤØ¯": 7988,
      "Ġhappens": 7989,
      "Ġhighlight": 7990,
      "Ġthousands": 7991,
      "Ġseven": 7992,
      "Ġinfluence": 7993,
      "Ġsatisf": 7994,
      "ĠØ£ÙĦØ§": 7995,
      "CO": 7996,
      "ĠØ³Ø§Ø¨ÙĤ": 7997,
      "iences": 7998,
      "ĠÙħØ¹ÙĬÙĨØ©": 7999,
      "ĠØ¢Ù": 8000,
      "Ġ2008": 8001,
      "ught": 8002,
      "ront": 8003,
      "ĠÙĪØ±Ø§Ø¡": 8004,
      "Ġwife": 8005,
      "Ġforeign": 8006,
      "Ġchallenging": 8007,
      "âĢĺ": 8008,
      "ĠØ§Ø®Øª": 8009,
      "Ġoutdoor": 8010,
      "ĠØ¢ÙĦ": 8011,
      "Ġsexual": 8012,
      "Ġresponsibility": 8013,
      "Ġregulations": 8014,
      "Ġdisp": 8015,
      "Ġproduced": 8016,
      "hetic": 8017,
      "ĠÙħÙĥØ§ÙģØŃØ©": 8018,
      "ÙĨØ·ÙĨ": 8019,
      "gery": 8020,
      "ĠÙĨØ¬Ø§ØŃ": 8021,
      "Ġsettings": 8022,
      "ĠØ¯Ø§Ø¦Ùħ": 8023,
      "Ø±Øµ": 8024,
      "ĠWater": 8025,
      "ĠÙĦØªØŃÙĤÙĬÙĤ": 8026,
      "Ġvalid": 8027,
      "Ġinstance": 8028,
      "Ġfollowed": 8029,
      "ĠØŃØ¯ÙĪØ¯": 8030,
      "ĠØ§ÙĦÙĤØ¶Ø§Ø¡": 8031,
      "Ø±ÙĬÙĤÙĬØ§": 8032,
      "ĠÙħÙĦÙģ": 8033,
      "ĠØªÙĪØ¬Ø¯": 8034,
      "Ø³ÙħØ§Ø¡": 8035,
      "amb": 8036,
      "ĠØ§ÙĦÙħÙĪØ§ÙĤØ¹": 8037,
      "Ġteaching": 8038,
      "Ġengage": 8039,
      "Ġmort": 8040,
      "ĠØ®Ùħ": 8041,
      "outs": 8042,
      "ĠØ¯Ø§Ø±": 8043,
      "Ġselling": 8044,
      "ĠØ§ÙĦÙħØŃÙĦÙĬ": 8045,
      "Ġec": 8046,
      "ĠØªØ³Ø¨Ø¨": 8047,
      "ÙĬØ¤": 8048,
      "Ġproud": 8049,
      "Ġcast": 8050,
      "ĠAfrica": 8051,
      "ĠÙħØ¤Ùĥ": 8052,
      "ĠØ§ÙĦÙħØµØ¯Ø±": 8053,
      "ĠÙĨØ·Ø§ÙĤ": 8054,
      "pan": 8055,
      "ĠØ¹ÙĦÙĬÙĨØ§": 8056,
      "ÙĪÙĦØª": 8057,
      "ĠØ§ÙĦØ¨Ø§ØŃØ«": 8058,
      "ĠBank": 8059,
      "ishes": 8060,
      "Ġexpensive": 8061,
      "ĠØ§ÙĦÙĪØ§ØŃ": 8062,
      "Ġonto": 8063,
      "Ġgarden": 8064,
      "Ġindependent": 8065,
      "known": 8066,
      "Ġ2009": 8067,
      "ĠØ¹Øµ": 8068,
      "Ġlad": 8069,
      "Ø³ÙĪÙĨ": 8070,
      "____": 8071,
      "ĠLife": 8072,
      "ĠÙĪØ®Ø§ØµØ©": 8073,
      "ĠSocial": 8074,
      "Ġprofile": 8075,
      "ĠØ§ÙĦØ±Ø³ÙħÙĬ": 8076,
      "Ġwww": 8077,
      "ĠIP": 8078,
      "ĠÐ": 8079,
      "Ġaccident": 8080,
      "ĠÙĩØ¯Ùģ": 8081,
      "Ġmaximum": 8082,
      "Ø´Ø±ÙĪØ¹": 8083,
      "Ø§Ø¦Ø²Ø©": 8084,
      "ĠØ§ÙĦØ¹Ø±Ø§ÙĤÙĬØ©": 8085,
      "Ġfol": 8086,
      "ĠØ¨Ø³Ø±Ø¹Ø©": 8087,
      "ÙĦØ¦": 8088,
      "Ø«ÙĪØ±": 8089,
      "ĠÙħØ´ÙĬØ±Ø§": 8090,
      "Ġchurch": 8091,
      "ĠOF": 8092,
      "Ġmotor": 8093,
      "Ġjoint": 8094,
      "ico": 8095,
      "ĠØ§ÙĦÙħØ¤ØªÙħØ±": 8096,
      "Ġthank": 8097,
      "Ġcontext": 8098,
      "itoring": 8099,
      "Ġhom": 8100,
      "Ø´Ø¨": 8101,
      "ĠHy": 8102,
      "Ġaffordable": 8103,
      "Ø¯ÙĬÙĪ": 8104,
      "ĠInternet": 8105,
      "Ġmachines": 8106,
      "orough": 8107,
      "Ø¬ÙħØ¹": 8108,
      "agers": 8109,
      "Ø§ÙĨÙĬÙĬÙĨ": 8110,
      "Ġbattery": 8111,
      "Ø¬ØªÙħØ¹": 8112,
      "Ġspending": 8113,
      "ĠØªÙħÙĥÙĨ": 8114,
      "Ø¬Ø§ÙĪØ²": 8115,
      "ĠØ®Ø·Ø±": 8116,
      "Ġmoved": 8117,
      "ĠØ±ÙĬØ": 8118,
      "bed": 8119,
      "ĠØ±ÙĬØ§": 8120,
      "ĠÙĨØ§Ø¦Ø¨": 8121,
      "ĦÙĩÙħ": 8122,
      "ÙĦÙĩÙħ": 8123,
      "za": 8124,
      "ÙĪØ¹ÙĬØ©": 8125,
      "Ġ45": 8126,
      "ĠFrench": 8127,
      "ĠØ§ÙĦØ¶ØºØ·": 8128,
      "Acc": 8129,
      "ÙĪØ§ÙĬØ©": 8130,
      "ĠÙħÙĪØ§Ø¬ÙĩØ©": 8131,
      "pa": 8132,
      "ÙĤØ§Ùħ": 8133,
      "UR": 8134,
      "48": 8135,
      "Ġcivil": 8136,
      "estic": 8137,
      "Ġcompl": 8138,
      "Ġcontroll": 8139,
      "Ġsport": 8140,
      "ĠØ§ÙĦØªØ§Ø¨Ø¹Ø©": 8141,
      "ĠÙħÙĨØµØ©": 8142,
      "Ġdetailed": 8143,
      "Ġrapid": 8144,
      "ĠMor": 8145,
      "Ġforget": 8146,
      "Ġpayments": 8147,
      "Ġinterests": 8148,
      "Ø¹ÙħÙĦ": 8149,
      "ĠØ°Ø§": 8150,
      "ĠØ§ÙĦÙģØ±Ø¯": 8151,
      "osis": 8152,
      "ĠØ§ÙĦØ±Ø³ÙħÙĬØ©": 8153,
      "ĠCap": 8154,
      "Ø±Ø£": 8155,
      "ĠDevelopment": 8156,
      "ĠÙħØ§Ø±": 8157,
      "Ġ300": 8158,
      "ÙĬÙģØ": 8159,
      "ÙĬÙģØ§": 8160,
      "ulate": 8161,
      "New": 8162,
      "Ġemotional": 8163,
      "ĠØ§ÙĦØ¥Ø³Øª": 8164,
      "Ġscale": 8165,
      "ooper": 8166,
      "Ø¹Ø§ÙħÙĦ": 8167,
      "ĠÙħÙģØª": 8168,
      "Ġinfrastructure": 8169,
      "Ġguidance": 8170,
      "ĠÙħÙĤØ±": 8171,
      "ĠØ§ØªØ®Ø§Ø°": 8172,
      "ĠØ§ÙĦØ®ÙĬØ§Ø±": 8173,
      "rab": 8174,
      "ĠÙĦØ¬ÙħÙĬØ¹": 8175,
      "Ġquant": 8176,
      "Ġengagement": 8177,
      "ØŃÙĪÙĦ": 8178,
      "Ø§ØµÙ": 8179,
      "Ø§ØµÙĦ": 8180,
      "Ġtree": 8181,
      "Ġmajority": 8182,
      "Ab": 8183,
      "Ġfulf": 8184,
      "ĠØ§ÙĦØ¥Ø®": 8185,
      "Ġfamous": 8186,
      "ĠÙĪØ§Ø®": 8187,
      "Ġupdates": 8188,
      "ĠPM": 8189,
      "ĠLord": 8190,
      "ĠØ£Ø¯Ø§Ø¡": 8191,
      "ĠØ§ÙĦØ·Ø¨ÙĬØ¨": 8192,
      "Ġdiscount": 8193,
      "Ġseam": 8194,
      "Ø®Ø±Ø§Ø¬": 8195,
      "Ġenable": 8196,
      "igital": 8197,
      "ĠInformation": 8198,
      "Ġstar": 8199,
      "Ġcontribute": 8200,
      "ØªÙĬØ¨": 8201,
      "She": 8202,
      "Ġguarantee": 8203,
      "Ġhyd": 8204,
      "ÙĪÙĨØ§Øª": 8205,
      "imately": 8206,
      "Ġsumm": 8207,
      "ĠPost": 8208,
      "IV": 8209,
      "ĠFlor": 8210,
      "ĠØ¥Ø³": 8211,
      "Ø§ÙĦÙĬÙģ": 8212,
      "ĠØ§ÙĦØ§Ø·": 8213,
      "Ø°Ø§Ø±": 8214,
      "Ġeight": 8215,
      "ym": 8216,
      "Ġadvertising": 8217,
      "Ġminimum": 8218,
      "ael": 8219,
      "ashington": 8220,
      "ĠØ±ÙĬØ§Ù": 8221,
      "ĠØ±ÙĬØ§ÙĦ": 8222,
      "Ġhappened": 8223,
      "ĠØ§ÙĦÙĨØ²": 8224,
      "ØºØ¨Ø©": 8225,
      "arrant": 8226,
      "Ġinvolves": 8227,
      "Ġchoosing": 8228,
      "Ġmetal": 8229,
      "Ġnegative": 8230,
      "ĠØ¨Ø§ÙĦØ°": 8231,
      "ĠÙĬÙĨØ§ÙĬØ±": 8232,
      "ĠÙĪØ§ÙĦØ¢": 8233,
      "ÙħÙĪÙĦ": 8234,
      "Ġobvious": 8235,
      "Ġvehicles": 8236,
      "ĠØ§ÙĨØªØ´Ø§Ø±": 8237,
      "ĠØ¥Ø¹ÙĦØ§ÙĨ": 8238,
      "Ġmotiv": 8239,
      "field": 8240,
      "Con": 8241,
      "ĠTexas": 8242,
      "ĠØ§ÙĦØ¹ÙĦÙħÙĬØ©": 8243,
      "ĠÙĨØ´Ø§Ø·": 8244,
      "oves": 8245,
      "ĠÙħÙĤØ§Ø±ÙĨØ©": 8246,
      "ĠÙĦØ§Ø³Øª": 8247,
      "aturday": 8248,
      "ĠØ£ØµØ¨ØŃØª": 8249,
      "Ġprotected": 8250,
      "Ø§ÙĦÙĬØ§Øª": 8251,
      "ĠØ§ÙĦØªØ·": 8252,
      "Ġcells": 8253,
      "ĠØµØŃØ©": 8254,
      "Ø«ÙĦØ©": 8255,
      "ĠÙħØ¬ÙħÙĪØ¹": 8256,
      "Ġvacc": 8257,
      "Ø³Ø³": 8258,
      "ĠØ£ÙĨÙĥ": 8259,
      "eline": 8260,
      "ĠØ§ÙĦØ¹Ø±Ø§ÙĤÙĬ": 8261,
      "ÙĬØ±Ùĩ": 8262,
      "Ø®Ø·ÙĬØ·": 8263,
      "Ġcouldn": 8264,
      "Ġexplain": 8265,
      "ifts": 8266,
      "Ġenterpr": 8267,
      "Ġleaving": 8268,
      "ĠAlthough": 8269,
      "icial": 8270,
      "ĠØªØ¬Ø¯": 8271,
      "inated": 8272,
      "oration": 8273,
      "ĠØ³Ø¹ÙĪØ¯": 8274,
      "ĠÙĥØ³": 8275,
      "ĠBritish": 8276,
      "Ġcitiz": 8277,
      "ĠÙĥÙĪØ¨": 8278,
      "Ġpull": 8279,
      "Ġfuel": 8280,
      "ĠSecurity": 8281,
      "Ġbright": 8282,
      "cohol": 8283,
      "Ø¦Ø§Øª": 8284,
      "husi": 8285,
      "ĠØ§ÙĦÙĨØªØ§Ø¦Ø¬": 8286,
      "ÙĪÙĬØ³": 8287,
      "Ġwrote": 8288,
      "ĠØ¨ÙĨÙĬ": 8289,
      "Ġchemical": 8290,
      "ĠÙĪØ§ÙĤ": 8291,
      "ĠØµÙĨØ§Ø¹Ø©": 8292,
      "Ġcharacters": 8293,
      "ÙĪØ¬ÙĪØ¯": 8294,
      "Ġcircumst": 8295,
      "ĠST": 8296,
      "Ġtrends": 8297,
      "ĠGeneral": 8298,
      "ĠInstitute": 8299,
      "ĠØ§ÙĦØ£ÙĬØ§Ùħ": 8300,
      "ĠØ§ÙĦØ£ÙħÙĬØ±ÙĥÙĬ": 8301,
      "ĠProfess": 8302,
      "Ġcentury": 8303,
      "ags": 8304,
      "ĠII": 8305,
      "ÙĪØ±Ùĥ": 8306,
      "Ġfriendly": 8307,
      "ĠØ¨Ø¯ÙĦØ§": 8308,
      "Ġgeneration": 8309,
      "ĠØ§ÙĦØŃØ": 8310,
      "ĠØ§ÙĦØŃØ§": 8311,
      "Ġorders": 8312,
      "ĠChinese": 8313,
      "ĠØ§ÙĦØŃØ¯ÙĬØ«Ø©": 8314,
      "ĠÙĪØ§ÙĦÙĬ": 8315,
      "ĠÙħÙħÙĥÙĨ": 8316,
      "ĠWhy": 8317,
      "Ġrise": 8318,
      "From": 8319,
      "Don": 8320,
      "Ġregularly": 8321,
      "Ġsched": 8322,
      "ÙģÙĥÙĬØ±": 8323,
      "prene": 8324,
      "ĠØ§ÙĦØ¨Ø±Ø§ÙħØ¬": 8325,
      "ĠØµÙĪØª": 8326,
      "Ġenthusi": 8327,
      "ĠØ§ÙĦØŃÙģØ§Ø¸": 8328,
      "Ġrare": 8329,
      "Ġdirection": 8330,
      "Cont": 8331,
      "rical": 8332,
      "Ġappearance": 8333,
      "yer": 8334,
      "Ø°ÙĨ": 8335,
      "merce": 8336,
      "ĠØ¨ØµÙĪØ±Ø©": 8337,
      "Ġtrad": 8338,
      "ĠØ¨ÙħØ¹": 8339,
      "Ġmulti": 8340,
      "Ġï»": 8341,
      "ĠØ£Ø³Ø¨ÙĪØ¹": 8342,
      "ĠÙĦØ¯ÙĬÙĩÙħ": 8343,
      "ĠØ£Øª": 8344,
      "ĠØ¹Ø¶ÙĪ": 8345,
      "ÙĥÙĪÙħØ©": 8346,
      "Ġgather": 8347,
      "Ġsimpl": 8348,
      "ÙĨØ¸Ø±": 8349,
      "Ġkept": 8350,
      "ĠØ§ÙĦØ¹ÙĬÙĨ": 8351,
      "Ġintegr": 8352,
      "Ġlaun": 8353,
      "Ġlocations": 8354,
      "ĠTime": 8355,
      "ĠÙĤÙĨØ§Ø©": 8356,
      "ĠØ§ÙĦØ°Ùī": 8357,
      "Ø§Ø¦Ø²": 8358,
      "ĠÙĤØ§ÙĦØª": 8359,
      "Ġwhatever": 8360,
      "Ġholiday": 8361,
      "Ø±ÙĬØŃØ§Øª": 8362,
      "flow": 8363,
      "Ġconv": 8364,
      "Ġanimals": 8365,
      "ĠØ²Ø±": 8366,
      "Ġemphas": 8367,
      "ĠProduct": 8368,
      "ĠØ§ÙĦØ§Ø«ÙĨÙĬÙĨ": 8369,
      "Ġprote": 8370,
      "ĠBit": 8371,
      "vention": 8372,
      "Ġdriver": 8373,
      "ĠSunday": 8374,
      "ÙĬÙħØ§": 8375,
      "uman": 8376,
      "ĠDec": 8377,
      "draw": 8378,
      "ĠÙħØ¤Ø³Ø³Ø©": 8379,
      "ĠØ§ÙĦØ¥ÙħØ§Ùħ": 8380,
      "ÙĬÙĪÙħ": 8381,
      "ĠMa": 8382,
      "ĠØ³ØªÙĥÙĪÙĨ": 8383,
      "ÙģØµ": 8384,
      "Ġpackage": 8385,
      "ÙģÙĤØ§Øª": 8386,
      "ĠØ§ÙĦØ¬Ø¨": 8387,
      "cles": 8388,
      "ĠØ§ÙĦØµÙĦØ§Ø©": 8389,
      "reprene": 8390,
      "Ġattor": 8391,
      "ÙĬØ§Ø¯": 8392,
      "Ġextend": 8393,
      "ÙĦØ§Øº": 8394,
      "Ġfunctions": 8395,
      "amily": 8396,
      "ĠØ³Ùģ": 8397,
      "Ġaccessible": 8398,
      "ĠEducation": 8399,
      "Ġaccurate": 8400,
      "Ġfaster": 8401,
      "Ġjournal": 8402,
      "Ġconsidering": 8403,
      "Ġletter": 8404,
      "Ġrepe": 8405,
      "ĠAtt": 8406,
      "Ġcomments": 8407,
      "ĠØ§ÙĦØ¯ÙĪØ±Ø©": 8408,
      "ÙĩÙĦØ©": 8409,
      "ĠØ§ÙĦÙĤÙĪØ©": 8410,
      "Ġobl": 8411,
      "ĠØ¯Ø®ÙĪÙĦ": 8412,
      "ÙĪØ§Ø¶": 8413,
      "ĠÙħØŃØª": 8414,
      "Ġnamed": 8415,
      "Ġconvenient": 8416,
      "ayer": 8417,
      "ØªØ¨Ø·": 8418,
      "Ġborn": 8419,
      "Ġpassed": 8420,
      "Ġrecovery": 8421,
      "Ġpresident": 8422,
      "ĠÙģÙĥØ±Ø©": 8423,
      "ĠØ§ÙĦÙħØ´ÙĥÙĦØ©": 8424,
      "ĠØ§ÙĦÙģÙĨÙĬ": 8425,
      "ĠØ£ÙĪÙĦØ§": 8426,
      "Ġïº": 8427,
      "iers": 8428,
      "Ġsuit": 8429,
      "ĠØ§ÙĦØ¨Ø´Ø±ÙĬØ©": 8430,
      "ĠØ§ÙĦØ¹ÙĦØ§ÙĤØ©": 8431,
      "ĠÙħØ³Ø¤ÙĪÙĦ": 8432,
      "ĠÙħÙĨØŃ": 8433,
      "ĠMem": 8434,
      "ĠFore": 8435,
      "Ø§ÙģØ±": 8436,
      "Ġinvestors": 8437,
      "Ø²Ø§Ø¨": 8438,
      "Ġinternal": 8439,
      "ĠProt": 8440,
      "RA": 8441,
      "semb": 8442,
      "Ġepis": 8443,
      "Ġwilling": 8444,
      "Ġupgra": 8445,
      "ĠØ§ÙĦÙħÙĪØ¸": 8446,
      "ĠØ§ÙĦØ£ÙħÙĪØ§ÙĦ": 8447,
      "ÙĥØªØ¨": 8448,
      "Ġwine": 8449,
      "Phone": 8450,
      "ĠØ¹Ø§ÙħØ©": 8451,
      "ĠØ§ÙģØ¶ÙĦ": 8452,
      "ÙĬÙĦØ§Øª": 8453,
      "ĠØ§ÙĦØ¬ÙĩØ§Øª": 8454,
      "ĠØ¢ÙĦØ§Ùģ": 8455,
      "ĠØ¥Ø®": 8456,
      "Ġearth": 8457,
      "ĠØ§ÙĦØ¯ÙĪÙĦØ§Ø±": 8458,
      "mar": 8459,
      "ĠØ§ÙĦØªØ±ÙĥÙĬØ©": 8460,
      "Ġsand": 8461,
      "Ġpictures": 8462,
      "44": 8463,
      "Ø§Ø±Ø¨Ø©": 8464,
      "Ġcab": 8465,
      "Ġwaiting": 8466,
      "ĠØ£Ø³Ø¨Ø§Ø¨": 8467,
      "ĠØ³Ø¬": 8468,
      "ĠØ¯ÙĦÙĬÙĦ": 8469,
      "obe": 8470,
      "ĠØ§ÙĦÙĤØ§Ø¦ÙħØ©": 8471,
      "ĠØ´Ø±Ùĥ": 8472,
      "pet": 8473,
      "Ġpremium": 8474,
      "ĠÙĨØ³Ø¨": 8475,
      "ØŃÙĤÙĤ": 8476,
      "Ġrecords": 8477,
      "comes": 8478,
      "ĠØ§ÙĦÙĩØ¯Ùģ": 8479,
      "ĠØ§ÙĦØªÙĤÙĦÙĬ": 8480,
      "Ġpal": 8481,
      "ĠØ¹ÙĨØ§ØµØ±": 8482,
      "ĦÙĩØ§Ùħ": 8483,
      "ÙĦÙĩØ§Ùħ": 8484,
      "ĠConf": 8485,
      "ĠØ§ÙĦÙĬÙĩÙĪØ¯": 8486,
      "Ġhus": 8487,
      "bing": 8488,
      "ĠØ¨Ø°": 8489,
      "ÙĬÙĢ": 8490,
      "Ġseparate": 8491,
      "Ġmanager": 8492,
      "ĠØ§ÙĦÙĥØ¨Ø±Ùī": 8493,
      "Ġsets": 8494,
      "Ġprivacy": 8495,
      "ilding": 8496,
      "Ġsupporting": 8497,
      "ĠEv": 8498,
      "akers": 8499,
      "ĠØ§ÙĦØ¥Ø³": 8500,
      "Ġemergency": 8501,
      "Ø§Ø±ÙĤ": 8502,
      "Ġclasses": 8503,
      "Ġblend": 8504,
      "Ġsecret": 8505,
      "Ġbow": 8506,
      "Ġcollaboration": 8507,
      "alls": 8508,
      "ulated": 8509,
      "ĠØ£Ø¨Ø±Ø²": 8510,
      "pm": 8511,
      "ĠÙĪØ§ÙĦÙħÙĨ": 8512,
      "Ġgoods": 8513,
      "Ġhospital": 8514,
      "ĠOpen": 8515,
      "Ġlabor": 8516,
      "Ġstick": 8517,
      "Ġfan": 8518,
      "ÙģØ§Ùģ": 8519,
      "ception": 8520,
      "rees": 8521,
      "ĠMag": 8522,
      "ĠProject": 8523,
      "ĠÙģØ¶ÙĦØ§": 8524,
      "Ġlock": 8525,
      "apter": 8526,
      "ÙĲØĮ": 8527,
      "Ar": 8528,
      "ĠØ§ÙĦØ³ÙĨÙĪØ§Øª": 8529,
      "ĠProv": 8530,
      "ĠØ³ÙĬØ¯": 8531,
      "ÙĪØªÙĬ": 8532,
      "rition": 8533,
      "Ġauthent": 8534,
      "Ġconsumer": 8535,
      "ĠØ§ÙĦØŃÙĤÙĬÙĤØ©": 8536,
      "ÙĤØ§Ø¦ÙĤ": 8537,
      "ros": 8538,
      "ĠTrump": 8539,
      "Ġoperation": 8540,
      "PA": 8541,
      "Ġthus": 8542,
      "ĠØ²ÙĬØª": 8543,
      "la": 8544,
      "Ø³Ø±Ø§Ø¦ÙĬÙĦÙĬØ©": 8545,
      "Ġleaves": 8546,
      "ÙĦØ§Ùĩ": 8547,
      "Ø§Ø¦Ø±Ø§Øª": 8548,
      "lessly": 8549,
      "ston": 8550,
      "ĠØ§ÙĦØºØ°Ø§Ø¦ÙĬØ©": 8551,
      "Ġlegisl": 8552,
      "ĠØ§ÙĦÙĥØ±Ø©": 8553,
      "ĠØ´Ø¹Ø±": 8554,
      "Ġestim": 8555,
      "Ġidentity": 8556,
      "ĠÙĦØ£ÙĬ": 8557,
      "arian": 8558,
      "riage": 8559,
      "ĠØ§ÙĦÙĪØ²ÙĨ": 8560,
      "ĠØ¯ÙĬØ³": 8561,
      "ÙĨØ¯ÙĤ": 8562,
      "ĠSing": 8563,
      "ĠÙħÙĦÙĥ": 8564,
      "Ġgirls": 8565,
      "Ġgone": 8566,
      "Ġmeant": 8567,
      "ĠØ§ÙĦØªØŃÙĤÙĬÙĤ": 8568,
      "Ġpresented": 8569,
      "race": 8570,
      "Ġparticipants": 8571,
      "Ġnames": 8572,
      "ĠØ²ÙħÙĨ": 8573,
      "Ø¹Ø§Ù": 8574,
      "Ø¹Ø§ÙĦ": 8575,
      "88": 8576,
      "Ġclearly": 8577,
      "Ø¨ÙĦÙĪÙħ": 8578,
      "ĠØ§ÙĦØªØ¨": 8579,
      "ĠØ§ÙĦØ³Ø¬": 8580,
      "Ġselected": 8581,
      "ĠØ§Øº": 8582,
      "ÙĦØ§ÙħÙĬ": 8583,
      "Ġartists": 8584,
      "ĠTO": 8585,
      "ĠTake": 8586,
      "ĠØ§ÙĦØªÙĤØ±ÙĬØ±": 8587,
      "Are": 8588,
      "Ġveget": 8589,
      "Ġscene": 8590,
      "Ġcarefully": 8591,
      "En": 8592,
      "Ġthoughts": 8593,
      "ĠCur": 8594,
      "Ġtrial": 8595,
      "Ġacademic": 8596,
      "Ø¸Ø§Ø±": 8597,
      "Ġimproved": 8598,
      "Ġfreed": 8599,
      "related": 8600,
      "Ø¬ÙĦÙĬØ²ÙĬØ©": 8601,
      "ĠØ§ÙĦØ¥ÙĨØ³Ø§ÙĨÙĬØ©": 8602,
      "36": 8603,
      "ĠØ§ÙĦØ¬ÙĪØ¯Ø©": 8604,
      "ĠÙĦÙĥÙĨÙĩ": 8605,
      "ĠJew": 8606,
      "ĠCommission": 8607,
      "Ġnovel": 8608,
      "Ġdogs": 8609,
      "Ġluck": 8610,
      "ĠØ§ÙĦØ£Ø²ÙħØ©": 8611,
      "ĠÙĤØ¶ÙĬØ©": 8612,
      "ĠÙĨÙĪÙģ": 8613,
      "odies": 8614,
      "ÙĥÙĦØ§Øª": 8615,
      "ĠÙĦØ§Ùģ": 8616,
      "ÙĦØ§Ø·": 8617,
      "Ġcorporate": 8618,
      "inations": 8619,
      "tics": 8620,
      "ĠÙħØ¬ØªÙħØ¹": 8621,
      "uty": 8622,
      "Ġ2000": 8623,
      "ĠØªÙĪÙĤ": 8624,
      "Ġmanufacturing": 8625,
      "ĠØ§ÙĦØŃØ§ÙĦÙĬØ©": 8626,
      "ÙĬØ³Ø©": 8627,
      "Ġexcited": 8628,
      "ĠDown": 8629,
      "ĠWashington": 8630,
      "Another": 8631,
      "Ġship": 8632,
      "ÙĦÙģØ²ÙĬÙĪÙĨ": 8633,
      "ĠCBD": 8634,
      "ĠØ£ÙĥØªÙĪØ¨Ø±": 8635,
      "ĠÙĦØªØ¹": 8636,
      "ĠØ§ÙĦÙĪØ¬": 8637,
      "Ġroutine": 8638,
      "ĠØ§ÙĦØ¬Ø¯": 8639,
      "ĠClick": 8640,
      "Ġelimin": 8641,
      "Ġrecip": 8642,
      "Ġang": 8643,
      "ĠØ§ÙĦÙĤØ¶ÙĬØ©": 8644,
      "ĠClub": 8645,
      "Ġeducational": 8646,
      "Ġjoy": 8647,
      "Ġstrategic": 8648,
      "ĠØŃÙĬ": 8649,
      "ĠÙĪØ§ÙĦØ§Ø³Øª": 8650,
      "ĠRepublic": 8651,
      "osition": 8652,
      "Ġinstru": 8653,
      "ĠÙħØ¦": 8654,
      "iled": 8655,
      "ĠSee": 8656,
      "Ġanc": 8657,
      "ĠCEO": 8658,
      "ĠØ§ÙĦØ¥ÙĤÙĦÙĬÙħ": 8659,
      "ĠØªØ³ØªØ·ÙĬØ¹": 8660,
      "Ġrestrict": 8661,
      "ĠØ§ÙĦÙħÙĩÙħ": 8662,
      "Ġprepare": 8663,
      "ĠØ¥Ø´": 8664,
      "ĠÙĪØ±Ø¯": 8665,
      "ÙĨÙħÙĬØ©": 8666,
      "nel": 8667,
      "ĠØ§ÙĦØ·Ø¨ÙĬØ¹ÙĬ": 8668,
      "ÙĪÙĦÙī": 8669,
      "ĠLike": 8670,
      "ĠØ§Ø°Ø§": 8671,
      "ugg": 8672,
      "ĠØ§ÙĦÙĥØª": 8673,
      "Ġpair": 8674,
      "ĠClass": 8675,
      "Ġreducing": 8676,
      "ĠÙħÙħØ§Ø±Ø³Ø©": 8677,
      "ÙĦÙĪØ¨Ø©": 8678,
      "ÙĭÙĳ": 8679,
      "lines": 8680,
      "idden": 8681,
      "ĠÙħØ¤Ø®Ø±": 8682,
      "ĠØ§ÙĦÙħØªÙħ": 8683,
      "ÙĦØ§ÙĦØ©": 8684,
      "ÙģØ§Ø¯Ø©": 8685,
      "ĠDavid": 8686,
      "Ġplastic": 8687,
      "Read": 8688,
      "Ġcalcul": 8689,
      "Ġmemory": 8690,
      "Ġrevenue": 8691,
      "ĠØ§ÙĦÙĤØ§Ø¯ÙħØ©": 8692,
      "Ġshot": 8693,
      "ĠÙĬØ²Ø§ÙĦ": 8694,
      "ĠØ·Ùģ": 8695,
      "ĠÙħØ¬Ø±Ø¯": 8696,
      "ĠGovernment": 8697,
      "ona": 8698,
      "ivered": 8699,
      "Ġsteel": 8700,
      "ÙĤÙĬÙħ": 8701,
      "Ø§ÙħÙĨ": 8702,
      "DF": 8703,
      "Ġrooms": 8704,
      "estival": 8705,
      "ĠØ§ÙĦØºØ§Ø²": 8706,
      "ĠØ¨Ø§ÙĦØº": 8707,
      "ĠMicrosoft": 8708,
      "ĠØ§ÙĦÙĦÙĤØ§Ø¡": 8709,
      "ÙĪÙĬØ§": 8710,
      "state": 8711,
      "§ÙĪÙĬ": 8712,
      "ĠReview": 8713,
      "Ġment": 8714,
      "Ġvibr": 8715,
      "ĠBre": 8716,
      "ĠTwitter": 8717,
      "ĠÙĪÙĩÙĨØ§Ùĥ": 8718,
      "icians": 8719,
      "Ø§ÙĪÙĬ": 8720,
      "Ø³Ø¨ÙĤ": 8721,
      "Ġartist": 8722,
      "Ø´ÙĬØ±": 8723,
      "Ġcauses": 8724,
      "Ø§ÙģØ§Øª": 8725,
      "Ø«ÙĨØ§Ø¡": 8726,
      "ĠSpr": 8727,
      "ĠØ§ÙĦÙĤÙĬØ§Ø¯Ø©": 8728,
      "ĠØ§ÙĦØ±Ø¦ÙĬØ³ÙĬ": 8729,
      "ĠØ·ØŃÙĨ": 8730,
      "ores": 8731,
      "Ġdisapp": 8732,
      "ĠØ§ÙĦÙħØ§ÙĦÙĬ": 8733,
      "ĠÙħØªÙħ": 8734,
      "OL": 8735,
      "ĠØ¬ÙĨ": 8736,
      "ĠØ§ÙĦØ£Ø´ÙĬØ§Ø¡": 8737,
      "ĠØ¬ÙĩÙĪØ¯": 8738,
      "ÙĪØ³Ùģ": 8739,
      "ĠØ§ÙĦÙħØ±ÙĥØ²ÙĬ": 8740,
      "ĠØ§ÙĦÙħÙĨØ§Ø³Ø¨Ø©": 8741,
      "ĠØ¨ÙĬÙĨÙĩØ§": 8742,
      "Ġshap": 8743,
      "ÙĦØ§ÙħÙĬØ©": 8744,
      "ĠØ§ÙĦÙĤØ§ÙĨÙĪÙĨÙĬØ©": 8745,
      "Ġdebt": 8746,
      "ĠØ§Ø³ØªÙħØ±Ø§Ø±": 8747,
      "ØµØ§Ø¨": 8748,
      "hem": 8749,
      "Ġspaces": 8750,
      "ĠÙħØ¹Ø": 8751,
      "ĠÙħØ¹Ø§": 8752,
      "ĠØ§ÙĦÙħÙĤØ§ÙĦ": 8753,
      "Ø³ÙĬÙħ": 8754,
      "ado": 8755,
      "Ġhaven": 8756,
      "ĠPublic": 8757,
      "Ø¯Ø±Ø§Øª": 8758,
      "Ġcatch": 8759,
      "ĠØ§ÙĦÙħØ³ÙĦØŃØ©": 8760,
      "ĠÙģØ±Øµ": 8761,
      "ĠÙħØªØ¹Ø¯Ø¯Ø©": 8762,
      "ĠØ§Ø³ØªØ±Ø§ØªÙĬØ¬ÙĬØ©": 8763,
      "ĠØ¬Ø¹": 8764,
      "Ġchain": 8765,
      "ĠØŃØ¬Ø±": 8766,
      "ĠÙĤØ§Ø¦ÙĦØ§": 8767,
      "Ġcutting": 8768,
      "rier": 8769,
      "Ġentry": 8770,
      "Ġmale": 8771,
      "ĠÙĦÙĬØ¨ÙĬØ§": 8772,
      "Ġevol": 8773,
      "ĠMonday": 8774,
      "ÙĩÙĦÙĥ": 8775,
      "ĠÙĦÙĦÙħØ³": 8776,
      "ĠÙĬØ¹ÙĬØ´": 8777,
      "ĠÙĦØ§Øª": 8778,
      "Ġapplied": 8779,
      "ĠØ¨ÙĪØ±": 8780,
      "Ø®ÙĦØµ": 8781,
      "Ġcup": 8782,
      "osen": 8783,
      "Ġbond": 8784,
      "ĠÙĬÙĪÙħØ§": 8785,
      "ĠØ¥ÙħÙĥØ§ÙĨÙĬØ©": 8786,
      "ĠØ¹ÙĨÙĪØ§ÙĨ": 8787,
      "Ġfamiliar": 8788,
      "ĠÙĤØ§Ø¯Ø±": 8789,
      "ĠÙĤØ¶": 8790,
      "Ġadvis": 8791,
      "ĠÙĪØ¬Ø¯": 8792,
      "ØµØ±ÙĬØ©": 8793,
      "55": 8794,
      "ĠÙĬØ±Ø¬": 8795,
      "hab": 8796,
      "Ø§ÙģÙĤØ©": 8797,
      "Ġsea": 8798,
      "Ġworldwide": 8799,
      "De": 8800,
      "ĠÙĬÙĪÙģØ±": 8801,
      "ØªØ±Ø§Ùħ": 8802,
      "Ø£ÙĥÙĬØ¯": 8803,
      "Ġtrend": 8804,
      "Ĥ¬": 8805,
      "ĠØ§ÙĦÙĨÙĪÙħ": 8806,
      "oors": 8807,
      "Can": 8808,
      "ĠØ§ÙĦÙĨØ¨Ø§Øª": 8809,
      "antic": 8810,
      "Ġconflic": 8811,
      "ĠØ§ÙĦÙĨÙĤÙĦ": 8812,
      "ĠØ£ØŃØ¯Ø«": 8813,
      "ĠÙĬØº": 8814,
      "point": 8815,
      "ĠÙĪØ§Ø³Ø¹Ø©": 8816,
      "Ġice": 8817,
      "Ġshowc": 8818,
      "Ø§Ø¯Ùĩ": 8819,
      "Ø¬ØŃ": 8820,
      "ĠÙĤØªÙĦ": 8821,
      "men": 8822,
      "ÙĪÙĤØ§Øª": 8823,
      "Ø¶Ø§Ø¹": 8824,
      "eper": 8825,
      "Once": 8826,
      "ĠHall": 8827,
      "ĠØ¨ÙĬÙĨÙĩÙħ": 8828,
      "Ġaid": 8829,
      "Ġ=": 8830,
      "Ø«Ø": 8831,
      "ÙĪØ£ÙĪØ¶ØŃ": 8832,
      "Ġmanaged": 8833,
      "Ø«Ø§": 8834,
      "ĠØ§ÙĦØ§Ùĥ": 8835,
      "Ġpreviously": 8836,
      "ÙĬØ§ÙĨØ": 8837,
      "ÙĬØ§ÙĨØ§": 8838,
      "Ġmaintaining": 8839,
      "ÙĢÙĢÙĢ": 8840,
      "Ġbird": 8841,
      "Ġdesire": 8842,
      "Ø±ÙĪÙĬØ¯": 8843,
      "ĠØ§ÙĦØ£Ùĩ": 8844,
      "ÙĪÙĨÙĩ": 8845,
      "Ġconcent": 8846,
      "hop": 8847,
      "Ġcars": 8848,
      "ĠØ§ÙĦÙĥÙħØ¨ÙĬÙĪØªØ±": 8849,
      "Ġdu": 8850,
      "iration": 8851,
      "ĠØ¹Ø±Ùģ": 8852,
      "ĠØ£ÙģØ±Ø§Ø¯": 8853,
      "Ġconversation": 8854,
      "Ġnotes": 8855,
      "Ø³ÙĬØ³": 8856,
      "ĠTur": 8857,
      "Ġbound": 8858,
      "BA": 8859,
      "Ø´Ø±Ùģ": 8860,
      "Ġpatterns": 8861,
      "Ġknows": 8862,
      "ĠØ§ØŃØ¯": 8863,
      "craft": 8864,
      "Ø²ÙĨ": 8865,
      "38": 8866,
      "Ø±ÙģØ¶": 8867,
      "ĠØ§ÙĦÙħØŃØ§ÙģØ¸Ø©": 8868,
      "ĠØ³Ø¨ØªÙħØ¨Ø±": 8869,
      "Ġlisted": 8870,
      "Ġlisten": 8871,
      "Ġalb": 8872,
      "Ġweekend": 8873,
      "yn": 8874,
      "Ġprompt": 8875,
      "ĠMal": 8876,
      "ĠSol": 8877,
      "ĠØ§ÙĦØŃØ§Ù": 8878,
      "ĠØ§ÙĦØŃØ§ÙĦ": 8879,
      "ĠÙĪØ§ÙĦÙħØŃ": 8880,
      "Ø±Ø¨ÙħØ§": 8881,
      "Ġourselves": 8882,
      "Ø¬ÙĬØ±": 8883,
      "ĠØ§ÙĦÙĤØ¶": 8884,
      "ÙħÙĥÙĨ": 8885,
      "ĠØ§ÙĦÙĪØ³": 8886,
      "ÙĦØ¨ÙĬ": 8887,
      "Ġspecies": 8888,
      "ĠChild": 8889,
      "Ġarrange": 8890,
      "ĠØ§ÙĦÙħØ¬ÙħÙĪØ¹Ø©": 8891,
      "ĠØ§ÙĦØ¥Ø¬": 8892,
      "ka": 8893,
      "ĠØ±ÙħØ¶Ø§ÙĨ": 8894,
      "ĠØ§ÙĦØ¯Ø±Ø§Ø³Ø§Øª": 8895,
      "ĠÙĬØ³ÙħØŃ": 8896,
      "orial": 8897,
      "Ġexcess": 8898,
      "ĠØ§ÙĦØ£ÙģØ¶ÙĦ": 8899,
      "mail": 8900,
      "Ø§Ø·ÙĬ": 8901,
      "ĠReal": 8902,
      "oles": 8903,
      "ĠAdv": 8904,
      "ĠØ§ÙĦØ¥Ø³Ø±Ø§Ø¦ÙĬÙĦÙĬØ©": 8905,
      "Ġcream": 8906,
      "oman": 8907,
      "TH": 8908,
      "ØºÙĦØ§ÙĤ": 8909,
      "Ø¬ÙħÙĬØ¹": 8910,
      "ĠChar": 8911,
      "Ġcrow": 8912,
      "ĠØ³ÙĪØ±ÙĬØ©": 8913,
      "ĠÙĪÙĨØŃÙĨ": 8914,
      "ÙħÙĪÙĦØ©": 8915,
      "rip": 8916,
      "ĠØªÙĪØµ": 8917,
      "Ġfra": 8918,
      "Ø²Ø¹": 8919,
      "ĠFoundation": 8920,
      "ĠØ§ÙĦØ¹ÙħÙĦÙĬØ§Øª": 8921,
      "Ġlifestyle": 8922,
      "ĠØ§ÙĦØ¬Ø²Ø¡": 8923,
      "ĠØ¹Ø§Ø¦": 8924,
      "Ġautomatically": 8925,
      "Ġstarts": 8926,
      "ĠØ§ÙĦØŃØ§Ø¬Ø©": 8927,
      "ÙĩÙĨØ§Ùĥ": 8928,
      "Tube": 8929,
      "ĠEngine": 8930,
      "ĠFood": 8931,
      "Ġeating": 8932,
      "Ġvit": 8933,
      "Ġarticles": 8934,
      "ĠØ£Ø±Ø¯": 8935,
      "ĠØ§ÙĦØ±ÙĬ": 8936,
      "ya": 8937,
      "ĠÙħÙĪØ§Ø¯": 8938,
      "ĠØ§ÙĦØªÙĩ": 8939,
      "LC": 8940,
      "Ø´ÙĥÙĦ": 8941,
      "Ġcomplic": 8942,
      "press": 8943,
      "Ġsole": 8944,
      "Ġfactor": 8945,
      "ĠChurch": 8946,
      "ĠØ§ÙĦÙĤÙĪÙī": 8947,
      "ĠTop": 8948,
      "ĠØ§ÙĦÙħØ¯Ø±Ø³Ø©": 8949,
      "ĠKeep": 8950,
      "ĠØ§ÙĦØ³ÙģØ±": 8951,
      "Ġcreation": 8952,
      "ĠØ¨ÙħØŃ": 8953,
      "ĠØ§ÙĦØ³ÙĬØ§Ø±Ø©": 8954,
      "Â·": 8955,
      "cap": 8956,
      "ÙĤÙģ": 8957,
      "ĠØ§ÙĦØ¨Ø±ÙĬØ¯": 8958,
      "ĠÙĤÙĬØ§Ùħ": 8959,
      "ĠÙĪØµÙĦ": 8960,
      "ĠØ¨Ø³ÙĩÙĪÙĦØ©": 8961,
      "ĠPaul": 8962,
      "ĠOb": 8963,
      "ĠØ³ÙĥØ§ÙĨ": 8964,
      "Ġspect": 8965,
      "More": 8966,
      "Ġopened": 8967,
      "ĠØ§ÙĦØ§ÙĨØª": 8968,
      "Ġ@": 8969,
      "ĠLead": 8970,
      "pot": 8971,
      "Ø§Ø¬Ùħ": 8972,
      "ads": 8973,
      "mes": 8974,
      "Ġconsequ": 8975,
      "Ġplays": 8976,
      "Ġcircumstances": 8977,
      "Ġvolunte": 8978,
      "ĠØ§ÙĦÙĨÙĪØ§Ø¨": 8979,
      "ĠÙħÙĪØ§Ø·": 8980,
      "ĠØ§ÙĦØ£Ø¨ÙĬØ¶": 8981,
      "Ġspring": 8982,
      "ĠØµÙĦØ§ØŃ": 8983,
      "ĠInvest": 8984,
      "ĠØ§ÙĦØ¹ÙĦÙħÙĬ": 8985,
      "ĠÙĬÙĪÙħÙĬØ§": 8986,
      "ĠChristian": 8987,
      "Ġedge": 8988,
      "Ġmanaging": 8989,
      "Ġteeth": 8990,
      "oin": 8991,
      "Ġbrother": 8992,
      "Ġprocedure": 8993,
      "gment": 8994,
      "ĠØ§ÙĦÙħØ¤Ø³Ø³Ø©": 8995,
      "ĠÙħØ¤ØªÙħØ±": 8996,
      "ĠØ§ÙĦØ³ÙĬØ§Ø³Ø©": 8997,
      "ÙĩÙħÙĬØ©": 8998,
      "ĠDan": 8999,
      "ĠØ¨ÙħØ±": 9000,
      "ĠØ§ÙĦØ¨ÙĨØ§Ø¡": 9001,
      "ĠDuring": 9002,
      "Ġcapabilities": 9003,
      "ĠØ§ÙĦØ¹ÙĦÙħØ§Ø¡": 9004,
      "gage": 9005,
      "ĠØ§ÙĦØ·Ø§ÙĦØ¨": 9006,
      "ĠØ§ÙĦØªØ³Ø¬ÙĬÙĦ": 9007,
      "Ġfilled": 9008,
      "ago": 9009,
      "ĠØ§ÙĦÙĬØ§Ø¨": 9010,
      "37": 9011,
      "39": 9012,
      "ĠCam": 9013,
      "Ġtopic": 9014,
      "ĠÙĪØµÙĪÙĦ": 9015,
      "Ø§Ø¦ØŃØ©": 9016,
      "Ġpod": 9017,
      "ĠØ§ÙĦØ±Ø¬Ø§ÙĦ": 9018,
      "Ġfinished": 9019,
      "Ġamb": 9020,
      "ĠØ§ÙĦØ£Ø³ÙĪØ§ÙĤ": 9021,
      "ĠØ§ÙĦÙĪØ³Ø·": 9022,
      "Ġelig": 9023,
      "Ġthorough": 9024,
      "Ø§Ø¦ÙĩÙħ": 9025,
      "ĠØ§ÙĦØ±ÙĪØ³ÙĬØ©": 9026,
      "Ġsurvey": 9027,
      "water": 9028,
      "ĠÙĪÙĤÙģ": 9029,
      "Ø¹Ø¯Ù": 9030,
      "Ø¹Ø¯ÙĦ": 9031,
      "Ø¹Ø¯Ø¯": 9032,
      "Des": 9033,
      "ĠMain": 9034,
      "Ġdespite": 9035,
      "Ġhonest": 9036,
      "Ġaccompl": 9037,
      "ĠØ§ÙĦØ¯ÙĪØ±": 9038,
      "den": 9039,
      "ĠÙĤÙĪÙĬØ©": 9040,
      "ĠStart": 9041,
      "ĠØªØªØ±": 9042,
      "pass": 9043,
      "ĠØ³ÙĦÙĬÙħ": 9044,
      "ØªØµØ§Øµ": 9045,
      "34": 9046,
      "Ġraised": 9047,
      "Ø¬Ø²Ø§Ø¡": 9048,
      "ĠSaturday": 9049,
      "ĠØ§ÙĦÙĤØ¯ÙĬÙħØ©": 9050,
      "Ġsessions": 9051,
      "Ġfoods": 9052,
      "Ġdram": 9053,
      "Ġresearc": 9054,
[...]
