{
  "version": "1.0",
  "truncation": null,
  "padding": null,
  "added_tokens": [
    {
      "id": 0,
      "content": "<|endoftext|>",
      "single_word": false,
      "lstrip": false,
      "rstrip": false,
      "normalized": false,
      "special": true
    }
  ],
  "normalizer": null,
  "pre_tokenizer": {
    "type": "ByteLevel",
    "add_prefix_space": false,
    "trim_offsets": true,
    "use_regex": true
  },
  "post_processor": {
    "type": "ByteLevel",
    "add_prefix_space": true,
    "trim_offsets": false,
    "use_regex": true
  },
  "decoder": null,
  "model": {
    "type": "BPE",
    "dropout": null,
    "unk_token": null,
    "continuing_subword_prefix": null,
    "end_of_word_suffix": null,
    "fuse_unk": false,
    "byte_fallback": false,
    "ignore_merges": false,
    "vocab": {
      "<|endoftext|>": 0,
      "!": 1,
      "\"": 2,
      "#": 3,
      "$": 4,
      "%": 5,
      "&": 6,
      "'": 7,
      "(": 8,
      ")": 9,
      "*": 10,
      "+": 11,
      ",": 12,
      "-": 13,
      ".": 14,
      "/": 15,
      "0": 16,
      "1": 17,
      "2": 18,
      "3": 19,
      "4": 20,
      "5": 21,
      "6": 22,
      "7": 23,
      "8": 24,
      "9": 25,
      ":": 26,
      ";": 27,
      "<": 28,
      "=": 29,
      ">": 30,
      "?": 31,
      "@": 32,
      "A": 33,
      "B": 34,
      "C": 35,
      "D": 36,
      "E": 37,
      "F": 38,
      "G": 39,
      "H": 40,
      "I": 41,
      "J": 42,
      "K": 43,
      "L": 44,
      "M": 45,
      "N": 46,
      "O": 47,
      "P": 48,
      "Q": 49,
      "R": 50,
      "S": 51,
      "T": 52,
      "U": 53,
      "V": 54,
      "W": 55,
      "X": 56,
      "Y": 57,
      "Z": 58,
      "[": 59,
      "\\": 60,
      "]": 61,
      "^": 62,
      "_": 63,
      "`": 64,
      "a": 65,
      "b": 66,
      "c": 67,
      "d": 68,
      "e": 69,
      "f": 70,
      "g": 71,
      "h": 72,
      "i": 73,
      "j": 74,
      "k": 75,
      "l": 76,
      "m": 77,
      "n": 78,
      "o": 79,
      "p": 80,
      "q": 81,
      "r": 82,
      "s": 83,
      "t": 84,
      "u": 85,
      "v": 86,
      "w": 87,
      "x": 88,
      "y": 89,
      "z": 90,
      "{": 91,
      "|": 92,
      "}": 93,
      "~": 94,
      "¡": 95,
      "¢": 96,
      "£": 97,
      "¤": 98,
      "¥": 99,
      "¦": 100,
      "§": 101,
      "¨": 102,
      "©": 103,
      "ª": 104,
      "«": 105,
      "¬": 106,
      "®": 107,
      "¯": 108,
      "°": 109,
      "±": 110,
      "²": 111,
      "³": 112,
      "´": 113,
      "µ": 114,
      "¶": 115,
      "·": 116,
      "¸": 117,
      "¹": 118,
      "º": 119,
      "»": 120,
      "¼": 121,
      "½": 122,
      "¾": 123,
      "¿": 124,
      "À": 125,
      "Á": 126,
      "Â": 127,
      "Ã": 128,
      "Ä": 129,
      "Å": 130,
      "Æ": 131,
      "Ç": 132,
      "È": 133,
      "É": 134,
      "Ê": 135,
      "Ë": 136,
      "Ì": 137,
      "Í": 138,
      "Î": 139,
      "Ï": 140,
      "Ð": 141,
      "Ñ": 142,
      "Ò": 143,
      "Ó": 144,
      "Ô": 145,
      "Õ": 146,
      "Ö": 147,
      "×": 148,
      "Ø": 149,
      "Ù": 150,
      "Ú": 151,
      "Û": 152,
      "Ü": 153,
      "Ý": 154,
      "Þ": 155,
      "ß": 156,
      "à": 157,
      "á": 158,
      "â": 159,
      "ã": 160,
      "ä": 161,
      "å": 162,
      "æ": 163,
      "ç": 164,
      "è": 165,
      "é": 166,
      "ê": 167,
      "ë": 168,
      "ì": 169,
      "í": 170,
      "î": 171,
      "ï": 172,
      "ð": 173,
      "ñ": 174,
      "ò": 175,
      "ó": 176,
      "ô": 177,
      "õ": 178,
      "ö": 179,
      "÷": 180,
      "ø": 181,
      "ù": 182,
      "ú": 183,
      "û": 184,
      "ü": 185,
      "ý": 186,
      "þ": 187,
      "ÿ": 188,
      "Ā": 189,
      "ā": 190,
      "Ă": 191,
      "ă": 192,
      "Ą": 193,
      "ą": 194,
      "Ć": 195,
      "ć": 196,
      "Ĉ": 197,
      "ĉ": 198,
      "Ċ": 199,
      "ċ": 200,
      "Č": 201,
      "č": 202,
      "Ď": 203,
      "ď": 204,
      "Đ": 205,
      "đ": 206,
      "Ē": 207,
      "ē": 208,
      "Ĕ": 209,
      "ĕ": 210,
      "Ė": 211,
      "ė": 212,
      "Ę": 213,
      "ę": 214,
      "Ě": 215,
      "ě": 216,
      "Ĝ": 217,
      "ĝ": 218,
      "Ğ": 219,
      "ğ": 220,
      "Ġ": 221,
      "ġ": 222,
      "Ģ": 223,
      "ģ": 224,
      "Ĥ": 225,
      "ĥ": 226,
      "Ħ": 227,
      "ħ": 228,
      "Ĩ": 229,
      "ĩ": 230,
      "Ī": 231,
      "ī": 232,
      "Ĭ": 233,
      "ĭ": 234,
      "Į": 235,
      "į": 236,
      "İ": 237,
      "ı": 238,
      "Ĳ": 239,
      "ĳ": 240,
      "Ĵ": 241,
      "ĵ": 242,
      "Ķ": 243,
      "ķ": 244,
      "ĸ": 245,
      "Ĺ": 246,
      "ĺ": 247,
      "Ļ": 248,
      "ļ": 249,
      "Ľ": 250,
      "ľ": 251,
      "Ŀ": 252,
      "ŀ": 253,
      "Ł": 254,
      "ł": 255,
      "Ń": 256,
      "Ġt": 257,
      "Ġa": 258,
      "in": 259,
      "he": 260,
      "re": 261,
      "on": 262,
      "Ġthe": 263,
      "er": 264,
      "at": 265,
      "Ġs": 266,
      "Ġo": 267,
      "Ġc": 268,
      "en": 269,
      "es": 270,
      "is": 271,
      "nd": 272,
      "Ġw": 273,
      "it": 274,
      "or": 275,
      "Ġp": 276,
      "al": 277,
      "an": 278,
      "ing": 279,
      "Ġf": 280,
      "Ġb": 281,
      "Ġof": 282,
      "ed": 283,
      "Ġin": 284,
      "ou": 285,
      "ar": 286,
      "Ġm": 287,
      "Ġand": 288,
      "ic": 289,
      "Ġto": 290,
      "ion": 291,
      "Ġd": 292,
      "le": 293,
      "ro": 294,
      "as": 295,
      "ent": 296,
      "Ġh": 297,
      "ct": 298,
      "Ġth": 299,
      "Ġe": 300,
      "Ġre": 301,
      "il": 302,
      "om": 303,
      "ve": 304,
      "Ġl": 305,
      "us": 306,
      "Ġn": 307,
      "Ġis": 308,
      "et": 309,
      "ly": 310,
      "ĠT": 311,
      "âĢ": 312,
      "ation": 313,
      "ol": 314,
      "Ġg": 315,
      "st": 316,
      "im": 317,
      "Ġbe": 318,
      "id": 319,
      "ce": 320,
      "ra": 321,
      "ch": 322,
      "ow": 323,
      "ut": 324,
      "ot": 325,
      "ur": 326,
      "Ġfor": 327,
      "ig": 328,
      "ĠA": 329,
      "Ġy": 330,
      "Ġst": 331,
      "ĠS": 332,
      "Ġon": 333,
      "ver": 334,
      "Ġthat": 335,
      "ul": 336,
      "el": 337,
      "ir": 338,
      "ĠI": 339,
      "ĠC": 340,
      "ay": 341,
      "Ġyou": 342,
      "am": 343,
      "Ġpro": 344,
      "ith": 345,
      "Ġas": 346,
      "se": 347,
      "Ġcon": 348,
      "Ġare": 349,
      "Ġan": 350,
      "if": 351,
      "ad": 352,
      "Ġwith": 353,
      "her": 354,
      "Ġor": 355,
      "ess": 356,
      "od": 357,
      "Ġal": 358,
      "ter": 359,
      "Ġit": 360,
      "ment": 361,
      "Ġwh": 362,
      "ĠThe": 363,
      "un": 364,
      "ge": 365,
      "ĠM": 366,
      "ĠP": 367,
      "Ġ(": 368,
      "th": 369,
      "ate": 370,
      "ers": 371,
      "Ġde": 372,
      "ab": 373,
      "op": 374,
      "Ġex": 375,
      "ist": 376,
      "ect": 377,
      "ies": 378,
      "Ġ1": 379,
      "Ġcom": 380,
      "Ġhe": 381,
      "ive": 382,
      "ill": 383,
      "ity": 384,
      "ure": 385,
      "um": 386,
      "ĠB": 387,
      "Ġv": 388,
      "ore": 389,
      "qu": 390,
      "est": 391,
      "ant": 392,
      "âĢĻ": 393,
      "ere": 394,
      "Ġcan": 395,
      "os": 396,
      "ac": 397,
      "iv": 398,
      "em": 399,
      "Ġha": 400,
      "ke": 401,
      "ĠW": 402,
      "rom": 403,
      "ain": 404,
      "ĠH": 405,
      "ud": 406,
      "pp": 407,
      "Ġby": 408,
      "Ġus": 409,
      "ĠE": 410,
      "oc": 411,
      "Ġsu": 412,
      "ial": 413,
      "Ġch": 414,
      "ld": 415,
      "ĠD": 416,
      "igh": 417,
      "ort": 418,
      "Ġr": 419,
      "Ġat": 420,
      "res": 421,
      "Ġ2": 422,
      "nt": 423,
      "ĠF": 424,
      "Ġfrom": 425,
      "ĠR": 426,
      "and": 427,
      "Ġne": 428,
      "ical": 429,
      "Ġse": 430,
      "Ġle": 431,
      "og": 432,
      "Ġen": 433,
      "art": 434,
      "Ġwas": 435,
      "ĠâĢ": 436,
      "ri": 437,
      "Ġsh": 438,
      "Ġhave": 439,
      "Ġnot": 440,
      "ĠG": 441,
      "ĠL": 442,
      "pe": 443,
      "Ġwor": 444,
      "ĠN": 445,
      "pt": 446,
      "ions": 447,
      "per": 448,
      "Ġthis": 449,
      "Ġim": 450,
      "Ġyour": 451,
      "act": 452,
      "ight": 453,
      "Ġab": 454,
      "our": 455,
      "ine": 456,
      "Ġwe": 457,
      "ag": 458,
      "all": 459,
      "rou": 460,
      "pl": 461,
      "ust": 462,
      "Ġpl": 463,
      "ost": 464,
      "ich": 465,
      "du": 466,
      "ome": 467,
      "Ġu": 468,
      "ated": 469,
      "out": 470,
      "ff": 471,
      "ell": 472,
      "iz": 473,
      "The": 474,
      "age": 475,
      "gh": 476,
      "ther": 477,
      "Ġint": 478,
      "ard": 479,
      "are": 480,
      "Ġtheir": 481,
      "ide": 482,
      "ult": 483,
      "00": 484,
      "ould": 485,
      "ĠO": 486,
      "Ġk": 487,
      "Ġcomp": 488,
      "ans": 489,
      "Ġad": 490,
      "ak": 491,
      "ast": 492,
      "Ġcont": 493,
      "Ġinc": 494,
      "ous": 495,
      "ru": 496,
      "ations": 497,
      "ear": 498,
      "ood": 499,
      "cc": 500,
      "Ġwhich": 501,
      "Ġres": 502,
      "Ġwill": 503,
      "Ġwhe": 504,
      "ĠIn": 505,
      "ib": 506,
      "vel": 507,
      "end": 508,
      "Ġdis": 509,
      "ip": 510,
      "orm": 511,
      "ks": 512,
      "Ġall": 513,
      "ĠU": 514,
      "ie": 515,
      "Ġthey": 516,
      "so": 517,
      "able": 518,
      "ary": 519,
      "ia": 520,
      "ence": 521,
      "Ġmore": 522,
      "Ġhas": 523,
      "ong": 524,
      "Ġdo": 525,
      "ĠJ": 526,
      "ĠTh": 527,
      "Ġimp": 528,
      "ance": 529,
      "ual": 530,
      "ater": 531,
      "ap": 532,
      "Ġman": 533,
      "Ġte": 534,
      "Ġcl": 535,
      "ents": 536,
      "ind": 537,
      "ire": 538,
      "rit": 539,
      "ry": 540,
      "Ġun": 541,
      "ign": 542,
      "ach": 543,
      "Ġalso": 544,
      "ction": 545,
      "Ġme": 546,
      "ep": 547,
      "Ġother": 548,
      "ild": 549,
      "oo": 550,
      "reat": 551,
      "âĢĿ": 552,
      "ress": 553,
      "ake": 554,
      "ase": 555,
      "Ġper": 556,
      "ass": 557,
      "ition": 558,
      "Ġj": 559,
      "av": 560,
      "Ġbut": 561,
      "Ġpre": 562,
      "ice": 563,
      "ces": 564,
      "Ġapp": 565,
      "Ġone": 566,
      "Ġar": 567,
      "Ġstud": 568,
      "Ġsp": 569,
      "ory": 570,
      "aus": 571,
      "Ġsy": 572,
      "Ġinf": 573,
      "ime": 574,
      "Ġout": 575,
      "one": 576,
      "Ġso": 577,
      "ens": 578,
      "ber": 579,
      "ang": 580,
      "Ġpart": 581,
      "ord": 582,
      "Ġabout": 583,
      "ors": 584,
      "ish": 585,
      "Ġqu": 586,
      "Ġwere": 587,
      "very": 588,
      "ace": 589,
      "iff": 590,
      "olog": 591,
      "ĠâĢľ": 592,
      "'s": 593,
      "ue": 594,
      "ount": 595,
      "ree": 596,
      "ĠSt": 597,
      "Ġev": 598,
      "ack": 599,
      "Ġcomm": 600,
      "Ġsc": 601,
      "Ġpe": 602,
      "Ġ20": 603,
      "ĠIt": 604,
      "ric": 605,
      "ose": 606,
      "ub": 607,
      "ike": 608,
      "low": 609,
      "now": 610,
      ").": 611,
      "Ġthem": 612,
      "ame": 613,
      "Ġits": 614,
      "ile": 615,
      "Ġind": 616,
      "ĠK": 617,
      "ays": 618,
      "Ġspe": 619,
      "ph": 620,
      "Ġdiff": 621,
      "Ġmay": 622,
      "ound": 623,
      "ĠThis": 624,
      "Ġfe": 625,
      "ific": 626,
      "ys": 627,
      "nder": 628,
      "Ġwho": 629,
      "ail": 630,
      "Ġ19": 631,
      "ates": 632,
      "Ġbec": 633,
      "Ġup": 634,
      "Ġhow": 635,
      "ite": 636,
      "Ġ3": 637,
      "alth": 638,
      "king": 639,
      "ople": 640,
      "Ġro": 641,
      "Ġtra": 642,
      "Ġrec": 643,
      "Ġcons": 644,
      "Ġuse": 645,
      "lud": 646,
      "Ġsome": 647,
      "ings": 648,
      "Ġwhen": 649,
      "ren": 650,
      "Ġtr": 651,
      "Ġcol": 652,
      "Ġthan": 653,
      "ms": 654,
      "Ġhel": 655,
      "te": 656,
      "..": 657,
      "ĠCh": 658,
      "Ġinto": 659,
      "Ġbet": 660,
      "ffect": 661,
      "Ġtime": 662,
      "lect": 663,
      "ments": 664,
      "Ġover": 665,
      "cess": 666,
      "Ġact": 667,
      "ities": 668,
      "mer": 669,
      "erv": 670,
      "we": 671,
      "ĠV": 672,
      "Ġthere": 673,
      "Ġthese": 674,
      "Ġhis": 675,
      "ons": 676,
      "ally": 677,
      "ning": 678,
      "ian": 679,
      "rough": 680,
      "Ġgo": 681,
      "int": 682,
      "vers": 683,
      "Ġhelp": 684,
      "les": 685,
      "stem": 686,
      "Ġacc": 687,
      "tern": 688,
      "ond": 689,
      "Ġbeen": 690,
      "Ġpeople": 691,
      "velop": 692,
      "Ġdes": 693,
      "Ġag": 694,
      "Ġunder": 695,
      "ll": 696,
      "Ġrel": 697,
      "ause": 698,
      "Ġyear": 699,
      "ject": 700,
      "Ġmost": 701,
      "Ġneed": 702,
      "ĠY": 703,
      "Ġknow": 704,
      "Ġlike": 705,
      "ious": 706,
      "ative": 707,
      "ough": 708,
      "Ġra": 709,
      "Ġbl": 710,
      "lic": 711,
      "Ġsuch": 712,
      "Ġour": 713,
      "Ġinclud": 714,
      "ple": 715,
      "ics": 716,
      "row": 717,
      "ating": 718,
      "ove": 719,
      "Ġused": 720,
      "ular": 721,
      "Ġph": 722,
      "Ġpr": 723,
      "irst": 724,
      "Ġprov": 725,
      "ob": 726,
      "Ġgen": 727,
      "ient": 728,
      "Ġdiffere": 729,
      "ne": 730,
      "Ġprodu": 731,
      "Ġnew": 732,
      "red": 733,
      "Ġtw": 734,
      "eth": 735,
      "Ġdevelop": 736,
      "uc": 737,
      "Ġif": 738,
      "Ġany": 739,
      "Ġwork": 740,
      "hat": 741,
      "ced": 742,
      "Ġem": 743,
      "ook": 744,
      "Ġdi": 745,
      "Ġass": 746,
      "Ġsa": 747,
      "Ġspec": 748,
      "ility": 749,
      "ational": 750,
      "Ġpo": 751,
      "ov": 752,
      "Ġam": 753,
      "Ġsystem": 754,
      "ath": 755,
      "Ġchild": 756,
      "Ġac": 757,
      "ature": 758,
      "Ġwhat": 759,
      "Ġ\"": 760,
      "Ġreg": 761,
      "Ġthrough": 762,
      "uring": 763,
      "ise": 764,
      "ract": 765,
      "rib": 766,
      "Ġhealth": 767,
      "ful": 768,
      "Ġrep": 769,
      "als": 770,
      "Ġadd": 771,
      "Ġmany": 772,
      "ool": 773,
      "Ġ-": 774,
      "erm": 775,
      "Ġoff": 776,
      "hen": 777,
      "Ġexp": 778,
      "oss": 779,
      "arch": 780,
      "Ġno": 781,
      "ased": 782,
      "ark": 783,
      "hed": 784,
      "oth": 785,
      "Ġfirst": 786,
      "Ġob": 787,
      "ten": 788,
      "Ġ201": 789,
      "Ġwell": 790,
      "ert": 791,
      "round": 792,
      "ween": 793,
      "Ġess": 794,
      "Ġonly": 795,
      "ower": 796,
      "cy": 797,
      "Ġdec": 798,
      "ange": 799,
      "Ġwould": 800,
      "Ġhad": 801,
      "ble": 802,
      "Ġinv": 803,
      "ram": 804,
      "Ġtwo": 805,
      "),": 806,
      "fter": 807,
      "ible": 808,
      "Ġ4": 809,
      "ef": 810,
      "xt": 811,
      "Ġshould": 812,
      "old": 813,
      "ife": 814,
      "chn": 815,
      "Ġsub": 816,
      "Ġimport": 817,
      "Ġbetween": 818,
      "Ġsupp": 819,
      "ss": 820,
      "Ġty": 821,
      "ĠUn": 822,
      "ng": 823,
      "its": 824,
      "ology": 825,
      "Ġtrans": 826,
      "Ġpers": 827,
      "iss": 828,
      "Ġhigh": 829,
      "Ġatt": 830,
      "form": 831,
      "Ġwrit": 832,
      "Ġ5": 833,
      "Ġlear": 834,
      "ution": 835,
      "Ġexam": 836,
      "gan": 837,
      "In": 838,
      "Ġco": 839,
      "own": 840,
      "Ġwater": 841,
      "Ġform": 842,
      "ata": 843,
      "ting": 844,
      "ec": 845,
      "Ġpres": 846,
      "Ġdifferent": 847,
      "Ġsur": 848,
      "ience": 849,
      "Ġmake": 850,
      "Ġmod": 851,
      "ew": 852,
      "Ġvar": 853,
      "hes": 854,
      "Ġfl": 855,
      "Ġinter": 856,
      "iet": 857,
      "ts": 858,
      "ĠâĢĵ": 859,
      "Ġeffect": 860,
      "Ġrese": 861,
      "Ġsm": 862,
      "aw": 863,
      "ural": 864,
      "Ġrem": 865,
      "Ġget": 866,
      "Ġexper": 867,
      "ied": 868,
      "ever": 869,
      "ants": 870,
      "Ġnum": 871,
      "ines": 872,
      "Ġdisc": 873,
      "Ġsign": 874,
      "ident": 875,
      "iew": 876,
      "ness": 877,
      "Ġprocess": 878,
      "Ġsoc": 879,
      "ism": 880,
      "ily": 881,
      "Ġmed": 882,
      "Ġinst": 883,
      "chool": 884,
      "ade": 885,
      "ps": 886,
      "fore": 887,
      "cial": 888,
      "ick": 889,
      "Ġed": 890,
      "Ġwhere": 891,
      "Ġdet": 892,
      "20": 893,
      "aking": 894,
      "erg": 895,
      "ĠHe": 896,
      "Ġsim": 897,
      "Ġbu": 898,
      "ict": 899,
      "cept": 900,
      "Ġworld": 901,
      "ited": 902,
      "ins": 903,
      "Ġinform": 904,
      "Ġresp": 905,
      "Ġyears": 906,
      "elf": 907,
      "ets": 908,
      "ont": 909,
      "ered": 910,
      "ages": 911,
      "Ġpol": 912,
      "Ġcar": 913,
      "wn": 914,
      "Ġincre": 915,
      "ures": 916,
      "Ġtechn": 917,
      "Ġke": 918,
      "ruct": 919,
      "oy": 920,
      "Ġimportant": 921,
      "Ġref": 922,
      "Ġear": 923,
      "vent": 924,
      "Ġgra": 925,
      "Ġcould": 926,
      "meric": 927,
      "uch": 928,
      "iron": 929,
      "ues": 930,
      "Ġher": 931,
      "ft": 932,
      "Ġway": 933,
      "Ġgener": 934,
      "Ġart": 935,
      "ives": 936,
      "Ġhum": 937,
      "ollow": 938,
      "Ġlong": 939,
      "ically": 940,
      "ually": 941,
      "ink": 942,
      "Ġread": 943,
      "Ġfact": 944,
      "Ġbecause": 945,
      "ases": 946,
      "Ġresult": 947,
      "Ġrequ": 948,
      "ists": 949,
      "ize": 950,
      "Ġdata": 951,
      "ices": 952,
      "Ġcount": 953,
      "Ġpat": 954,
      "Ġafter": 955,
      "ĠPro": 956,
      "ds": 957,
      "Ġext": 958,
      "ential": 959,
      "Ġlar": 960,
      "Ġsk": 961,
      "Ġlife": 962,
      "Ġcent": 963,
      "Ġsec": 964,
      "Ġjust": 965,
      "Ġfound": 966,
      "ody": 967,
      "ized": 968,
      "ĠHow": 969,
      "Ġeach": 970,
      "stand": 971,
      "eg": 972,
      "Ġvery": 973,
      "Ġ200": 974,
      "ivid": 975,
      "Ġdef": 976,
      "Ġevery": 977,
      "Ġeven": 978,
      "other": 979,
      "Ġcommun": 980,
      "Ġperson": 981,
      "Ġprog": 982,
      "Ġcre": 983,
      "Ġstudents": 984,
      "Ġdep": 985,
      "land": 986,
      "ality": 987,
      "Ġusing": 988,
      "get": 989,
      "arm": 990,
      "Ġmain": 991,
      "__": 992,
      "led": 993,
      "Ġpartic": 994,
      "Ġthen": 995,
      "Ġstudy": 996,
      "ĠAn": 997,
      "Ġdoes": 998,
      "Ġsee": 999,
      "urn": 1000,
      "Ġlead": 1001,
      "ck": 1002,
      "Ġdist": 1003,
      "Ġconc": 1004,
      "Ġ6": 1005,
      "omm": 1006,
      "ection": 1007,
      "Ġfollow": 1008,
      "ork": 1009,
      "Th": 1010,
      "Ġsol": 1011,
      "Ġstr": 1012,
      "Ġlevel": 1013,
      "Ġaut": 1014,
      "Ġmin": 1015,
      "hip": 1016,
      "Ġduring": 1017,
      "Ġinformation": 1018,
      ".,": 1019,
      "Ġgrow": 1020,
      "Ġloc": 1021,
      "ivers": 1022,
      "ĠWe": 1023,
      "Ġval": 1024,
      "Ġbeing": 1025,
      "viron": 1026,
      "Ġchildren": 1027,
      "Ġins": 1028,
      "Ġmon": 1029,
      "Ġexpl": 1030,
      "Ġent": 1031,
      "Ġche": 1032,
      "Ġresearch": 1033,
      "Ġfood": 1034,
      "Ġgood": 1035,
      "Ġproble": 1036,
      "Ġpub": 1037,
      "ĠAl": 1038,
      "iqu": 1039,
      "ĠAmeric": 1040,
      "Ġfind": 1041,
      "Ġcur": 1042,
      "io": 1043,
      "onom": 1044,
      "Ġav": 1045,
      "Ġcomple": 1046,
      "Ġcall": 1047,
      "Ġfun": 1048,
      "Ġthose": 1049,
      "Ġmy": 1050,
      "ĠAs": 1051,
      "any": 1052,
      "Ġfam": 1053,
      "ĠThey": 1054,
      "ien": 1055,
      "ĠFor": 1056,
      "ward": 1057,
      "||": 1058,
      "Ġhist": 1059,
      "Ġchar": 1060,
      "ved": 1061,
      "Ġright": 1062,
      "gg": 1063,
      "Ġset": 1064,
      "Ġown": 1065,
      "Ġcor": 1066,
      "Ġshe": 1067,
      "Ġappro": 1068,
      "Ġboth": 1069,
      "dition": 1070,
      "Ġtest": 1071,
      "Ġgl": 1072,
      "nce": 1073,
      "imes": 1074,
      "iety": 1075,
      "Ġmuch": 1076,
      "Ġpop": 1077,
      "Ġshow": 1078,
      "Ġprovid": 1079,
      "ale": 1080,
      "ather": 1081,
      "ĠIf": 1082,
      "ional": 1083,
      "ern": 1084,
      "Ġschool": 1085,
      "Ġactiv": 1086,
      "Ġend": 1087,
      "Ġorgan": 1088,
      "ergy": 1089,
      "Ġtreat": 1090,
      "Ġ18": 1091,
      "vironment": 1092,
      "der": 1093,
      "akes": 1094,
      "tle": 1095,
      "19": 1096,
      "Ġec": 1097,
      "Ġclass": 1098,
      "Ġserv": 1099,
      "ty": 1100,
      "Ġoften": 1101,
      "iel": 1102,
      "Ġmade": 1103,
      "Ġwhile": 1104,
      "Ġdesign": 1105,
      "ted": 1106,
      "und": 1107,
      "Ġredu": 1108,
      "Ġ10": 1109,
      "rol": 1110,
      "Ġlit": 1111,
      "ital": 1112,
      "ĠInd": 1113,
      "acter": 1114,
      "Ġgrou": 1115,
      "Ġsame": 1116,
      "inal": 1117,
      "ax": 1118,
      "vern": 1119,
      "Ġprot": 1120,
      "Ġback": 1121,
      "Ġpower": 1122,
      "Ġanal": 1123,
      "ix": 1124,
      "Ġessay": 1125,
      "Ġless": 1126,
      "ined": 1127,
      "Ġstate": 1128,
      "ividual": 1129,
      "What": 1130,
      "Ġelect": 1131,
      "Ġcell": 1132,
      "Ġcommon": 1133,
      "ĠRe": 1134,
      "Ġunderstand": 1135,
      "Ġbody": 1136,
      "Ġnumber": 1137,
      "uss": 1138,
      "Ġtake": 1139,
      "read": 1140,
      "Ġbr": 1141,
      "Ġris": 1142,
      "de": 1143,
      "ute": 1144,
      "Ġconsid": 1145,
      "ĠYou": 1146,
      "ulation": 1147,
      "Ġdise": 1148,
      "Ġtyp": 1149,
      "ium": 1150,
      "Ġsmall": 1151,
      "Ġsupport": 1152,
      "ethod": 1153,
      "aterial": 1154,
      "Ġ7": 1155,
      "Ġposs": 1156,
      "ral": 1157,
      "lish": 1158,
      "ving": 1159,
      "ĠAr": 1160,
      "Ġpract": 1161,
      "Ġbefore": 1162,
      "Ġcare": 1163,
      "the": 1164,
      "Ġhand": 1165,
      "Ġequ": 1166,
      "ock": 1167,
      "line": 1168,
      "imate": 1169,
      "eng": 1170,
      "omen": 1171,
      "...": 1172,
      "hy": 1173,
      "Ġstart": 1174,
      "Ġsaid": 1175,
      "Ġindividual": 1176,
      "els": 1177,
      "ĠSc": 1178,
      "Ġgu": 1179,
      "raph": 1180,
      "ization": 1181,
      "Ġhuman": 1182,
      "Ġadv": 1183,
      "Ġeduc": 1184,
      "ince": 1185,
      "Ġday": 1186,
      "ier": 1187,
      "com": 1188,
      "Ġexample": 1189,
      "iness": 1190,
      "itions": 1191,
      "Ġocc": 1192,
      "ars": 1193,
      "Ġmem": 1194,
      "ters": 1195,
      "ves": 1196,
      "ron": 1197,
      "Ġvis": 1198,
      "Ġpa": 1199,
      "itive": 1200,
      "Ġ8": 1201,
      "angu": 1202,
      "Ġquest": 1203,
      "Ġconf": 1204,
      "up": 1205,
      "irect": 1206,
      "Ġplan": 1207,
      "Ġincluding": 1208,
      "Ġmet": 1209,
      "Ġdown": 1210,
      ".âĢĿ": 1211,
      "Ġbel": 1212,
      "Ġ&": 1213,
      "Ġcle": 1214,
      "âĢĵ": 1215,
      "iving": 1216,
      "10": 1217,
      "Ġagain": 1218,
      "This": 1219,
      "rent": 1220,
      "ex": 1221,
      "ished": 1222,
      "Ġallow": 1223,
      "Ġrequire": 1224,
      "Ġpoint": 1225,
      "Ġmust": 1226,
      "Ġsocial": 1227,
      "Ġaround": 1228,
      "ains": 1229,
      "Ġgreat": 1230,
      "Ġ.": 1231,
      "Ġproduct": 1232,
      "Ġimpro": 1233,
      "aj": 1234,
      "ffic": 1235,
      "Ġbeh": 1236,
      "ering": 1237,
      "day": 1238,
      "ids": 1239,
      "Ġmaterial": 1240,
      "Ġeng": 1241,
      "Ġlearn": 1242,
      "ĠThese": 1243,
      "rodu": 1244,
      "Ġide": 1245,
      "Ġthree": 1246,
      "ources": 1247,
      "Ġmethod": 1248,
      "Ġconst": 1249,
      "000": 1250,
      "Ġenvironment": 1251,
      "Ġeas": 1252,
      "Ġser": 1253,
      "Ġplay": 1254,
      "Ġ9": 1255,
      "Ġprof": 1256,
      "ave": 1257,
      "Ġet": 1258,
      "ross": 1259,
      "ental": 1260,
      "Ġdevelopment": 1261,
      "Ġpot": 1262,
      "ining": 1263,
      "Ġest": 1264,
      "ption": 1265,
      "hers": 1266,
      "cing": 1267,
      "ven": 1268,
      "oms": 1269,
      "ĠThere": 1270,
      "pect": 1271,
      "ull": 1272,
      "Ġpur": 1273,
      "Ġtoo": 1274,
      "Ġnow": 1275,
      "ability": 1276,
      "Ġtop": 1277,
      "ury": 1278,
      "Ġenergy": 1279,
      "Ġop": 1280,
      "Ġsym": 1281,
      "ĠEng": 1282,
      "Ġtem": 1283,
      "ash": 1284,
      "Ġcour": 1285,
      "Ġident": 1286,
      "ĠNew": 1287,
      "gen": 1288,
      "iod": 1289,
      "Ġknown": 1290,
      "ries": 1291,
      "Ġpresent": 1292,
      "ination": 1293,
      "Ġcult": 1294,
      "Ġmus": 1295,
      "Ġphys": 1296,
      "Ġben": 1297,
      "Ġwithin": 1298,
      "iven": 1299,
      "ared": 1300,
      "iversity": 1301,
      "oh": 1302,
      "oci": 1303,
      "ior": 1304,
      "Ġpos": 1305,
      "Ġcontin": 1306,
      "Ġmat": 1307,
      "ration": 1308,
      "ify": 1309,
      "Ġbest": 1310,
      "bs": 1311,
      "Ġiss": 1312,
      "view": 1313,
      "Ġcaus": 1314,
      "ills": 1315,
      "Ġhy": 1316,
      "Ġdr": 1317,
      "Ġreport": 1318,
      "ples": 1319,
      "ĠEx": 1320,
      "tain": 1321,
      "Ġlarge": 1322,
      "Ġbo": 1323,
      "agn": 1324,
      "Ġchang": 1325,
      "ah": 1326,
      "ouse": 1327,
      "Ġbuild": 1328,
      "Ġdem": 1329,
      "Ġwant": 1330,
      "Ġgovern": 1331,
      "Ġlearning": 1332,
      "ĠAnd": 1333,
      "Ġworks": 1334,
      "ertain": 1335,
      "erest": 1336,
      "ĠWhat": 1337,
      "Ġinclude": 1338,
      "ran": 1339,
      "tt": 1340,
      "ĠAd": 1341,
      "uro": 1342,
      "Ġpar": 1343,
      "Ġstand": 1344,
      "ological": 1345,
      "Ġcap": 1346,
      "inc": 1347,
      "Ġsignific": 1348,
      "Ġdid": 1349,
      "Ġgre": 1350,
      "air": 1351,
      "Ġplace": 1352,
      "Ġproper": 1353,
      "Ġaw": 1354,
      "Ġchange": 1355,
      "Ġmeas": 1356,
      "sc": 1357,
      "ner": 1358,
      "ense": 1359,
      "Ġdesc": 1360,
      "Ġsom": 1361,
      "Ġprovide": 1362,
      "Ġve": 1363,
      "ateg": 1364,
      "Ġmight": 1365,
      "me": 1366,
      "Ġbus": 1367,
      "rain": 1368,
      "ording": 1369,
      "Ġmark": 1370,
      "ger": 1371,
      "Ġcalled": 1372,
      "Ġhim": 1373,
      "lu": 1374,
      "Ġwithout": 1375,
      "Ġland": 1376,
      "au": 1377,
      "Ġthough": 1378,
      "Ġhome": 1379,
      "Ġlight": 1380,
      "Ġbas": 1381,
      "irc": 1382,
      "oun": 1383,
      "Ġlangu": 1384,
      "bers": 1385,
      "iver": 1386,
      "Ġproject": 1387,
      "Ġpublic": 1388,
      "pr": 1389,
      "Ġimm": 1390,
      "ason": 1391,
      "less": 1392,
      "ĠâĢĺ": 1393,
      "orn": 1394,
      "Ġaddition": 1395,
      "Ġperform": 1396,
      "cer": 1397,
      "ĠDe": 1398,
      "ource": 1399,
      "ĠTo": 1400,
      "Ġfin": 1401,
      "Ġant": 1402,
      "ĠHowever": 1403,
      "ĠIs": 1404,
      "outh": 1405,
      "ĠRes": 1406,
      "Ġblood": 1407,
      "Ġele": 1408,
      "cl": 1409,
      "icle": 1410,
      "atic": 1411,
      "How": 1412,
      "osed": 1413,
      "Ġcontrol": 1414,
      "Ġbre": 1415,
      "Ġstill": 1416,
      "ĠCon": 1417,
      "Ġhistory": 1418,
      "Ġ0": 1419,
      "ified": 1420,
      "Ġfew": 1421,
      "Ġsit": 1422,
      "Ġeconom": 1423,
      "ield": 1424,
      "Ġmean": 1425,
      "rop": 1426,
      "ccess": 1427,
      "ected": 1428,
      "Ġdisease": 1429,
      "Ġbenef": 1430,
      "ision": 1431,
      "ysis": 1432,
      "omp": 1433,
      "Ġrisk": 1434,
      "Ġcal": 1435,
      "ĠSe": 1436,
      "âĢĶ": 1437,
      "Ġprom": 1438,
      "ajor": 1439,
      "Ġdirect": 1440,
      "arent": 1441,
      "hor": 1442,
      "Ġsaf": 1443,
      "ĠBut": 1444,
      "atural": 1445,
      "ĠQ": 1446,
      "Ġbetter": 1447,
      "cent": 1448,
      "Ġfree": 1449,
      "Ġsl": 1450,
      "ograph": 1451,
      "Ġtype": 1452,
      "ories": 1453,
      "Ġlow": 1454,
      "ats": 1455,
      "It": 1456,
      "ĠSh": 1457,
      "Ġoper": 1458,
      "ients": 1459,
      "ĠWh": 1460,
      "Ġdev": 1461,
      "Ġcr": 1462,
      "Ġaffect": 1463,
      "Ġinvol": 1464,
      "Ġarea": 1465,
      "apt": 1466,
      "Ġwriting": 1467,
      "Ġsever": 1468,
      "Ġorder": 1469,
      "Ġstruct": 1470,
      "Ġimpact": 1471,
      "Ġplant": 1472,
      "Ġpain": 1473,
      "Ġinterest": 1474,
      "Ġcause": 1475,
      "Ġret": 1476,
      "Ġdon": 1477,
      ",âĢĿ": 1478,
      "Ġopp": 1479,
      "Ġmeans": 1480,
      "Ġ[": 1481,
      "Ġmill": 1482,
      "Ġkeep": 1483,
      "ĠPl": 1484,
      "ention": 1485,
      "Ġpass": 1486,
      "oid": 1487,
      "Ġbook": 1488,
      "Ġsignificant": 1489,
      "Ġbecome": 1490,
      "Ġbelie": 1491,
      "ication": 1492,
      "ogn": 1493,
      "Ġreal": 1494,
      "port": 1495,
      "ently": 1496,
      "Ġanim": 1497,
      "man": 1498,
      "ug": 1499,
      "az": 1500,
      "Ġwomen": 1501,
      "Ġcreat": 1502,
      "ocus": 1503,
      "ways": 1504,
      "ards": 1505,
      "Ġlaw": 1506,
      "Ġanother": 1507,
      "ĠCl": 1508,
      "ived": 1509,
      "to": 1510,
      "sy": 1511,
      "Ġter": 1512,
      "ead": 1513,
      "Ġleg": 1514,
      "Ġavail": 1515,
      "Ġbased": 1516,
      "Ġprogram": 1517,
      "ĠPh": 1518,
      "Ġcost": 1519,
      "eral": 1520,
      "Ġsecond": 1521,
      "Ġair": 1522,
      "Ġvarious": 1523,
      "Ġbeg": 1524,
      "Ġhig": 1525,
      "Ġes": 1526,
      "Ġmar": 1527,
      "Ġmult": 1528,
      "ĠWor": 1529,
      "sw": 1530,
      "Ġfeel": 1531,
      "ik": 1532,
      "ote": 1533,
      "Ġparticular": 1534,
      "Ġmove": 1535,
      "here": 1536,
      "Ġpaper": 1537,
      "Ġrest": 1538,
      "Ġmajor": 1539,
      "Ġwar": 1540,
      "Ġperiod": 1541,
      "agement": 1542,
      "Ġtre": 1543,
      "par": 1544,
      "Ġlook": 1545,
      "ator": 1546,
      "Ġcurrent": 1547,
      "âĢľ": 1548,
      "Ġnon": 1549,
      "Ġgroup": 1550,
      "Ġaccess": 1551,
      "Ġconn": 1552,
      "Ġdel": 1553,
      "Ġoccur": 1554,
      "Ġfollowing": 1555,
      "Ġfamily": 1556,
      "ĠAmerican": 1557,
      "Ġseveral": 1558,
      "Ġold": 1559,
      "Ġbi": 1560,
      "work": 1561,
      "Ġtreatment": 1562,
      "Ġearly": 1563,
      "ton": 1564,
      "ĠTe": 1565,
      "ression": 1566,
      "Ġprevent": 1567,
      "Ġpossible": 1568,
      "Ġlim": 1569,
      "ames": 1570,
      "Ġbusiness": 1571,
      "rap": 1572,
      "ĠWhen": 1573,
      "Ġable": 1574,
      "Ġhere": 1575,
      "ploy": 1576,
      "ides": 1577,
      "ole": 1578,
      "Ġindust": 1579,
      "Ġfore": 1580,
      "Ġlanguage": 1581,
      "Ġinvest": 1582,
      "ilar": 1583,
      "oad": 1584,
      "Ġfunction": 1585,
      "Ġdue": 1586,
      "Ġcond": 1587,
      "Ġmaking": 1588,
      "ĠSp": 1589,
      "ling": 1590,
      "ina": 1591,
      "lished": 1592,
      "ots": 1593,
      "Ġ15": 1594,
      "ank": 1595,
      "Ġfre": 1596,
      "Ġpotential": 1597,
      "Ġagainst": 1598,
      "Ġhapp": 1599,
      "Ġspecific": 1600,
      "ends": 1601,
      "Ġlast": 1602,
      "Ġbehav": 1603,
      "ledge": 1604,
      "Ġfocus": 1605,
      "ances": 1606,
      "Ġname": 1607,
      "Ġcharacter": 1608,
      "Ġintern": 1609,
      "ĠUniversity": 1610,
      "Ġobject": 1611,
      "Ġ12": 1612,
      "Ġens": 1613,
      "orth": 1614,
      "be": 1615,
      "por": 1616,
      "Ġwords": 1617,
      "Ġel": 1618,
      "Ġcertain": 1619,
      "Ġlist": 1620,
      "Ġspecies": 1621,
      "Ġeffective": 1622,
      "Ġamong": 1623,
      "Ġgovernment": 1624,
      "hem": 1625,
      "Ġcreate": 1626,
      "ians": 1627,
      "Ġassoci": 1628,
      "Ġorig": 1629,
      "Ġproblems": 1630,
      "Ġfac": 1631,
      "Ġeducation": 1632,
      "over": 1633,
      "Ġage": 1634,
      "ooks": 1635,
      "idence": 1636,
      "urther": 1637,
      "Ġpress": 1638,
      "ĠUnited": 1639,
      "Ġ199": 1640,
      "Ġthings": 1641,
      "Ġavailable": 1642,
      "Ġcase": 1643,
      "'t": 1644,
      "Ġopen": 1645,
      "Ġflow": 1646,
      "Ġapplic": 1647,
      "Ġcomput": 1648,
      "Ġothers": 1649,
      "ission": 1650,
      "olution": 1651,
      "Ġmil": 1652,
      "Ġtext": 1653,
      "Ġtypes": 1654,
      "Ġsystems": 1655,
      "Ġcrit": 1656,
      "Ġdeterm": 1657,
      "pecial": 1658,
      "ĠZ": 1659,
      "ended": 1660,
      "ised": 1661,
      "Ġareas": 1662,
      "Ġlet": 1663,
      "Ġview": 1664,
      "rist": 1665,
      "ĠCol": 1666,
      "Ġvol": 1667,
      "Ġshort": 1668,
      "arc": 1669,
      "ox": 1670,
      "Ġproblem": 1671,
      "ĠCan": 1672,
      "amp": 1673,
      "ique": 1674,
      "Ġtechnology": 1675,
      "Ġcountry": 1676,
      "Ġnatural": 1677,
      "12": 1678,
      "Ġtool": 1679,
      "Ġlevels": 1680,
      "Ġsuccess": 1681,
      "etic": 1682,
      "Ġvir": 1683,
      "ĠEn": 1684,
      "erc": 1685,
      "Ġamount": 1686,
      "Ġexperience": 1687,
      "Ġpost": 1688,
      "Ġcells": 1689,
      "Ġsince": 1690,
      "resent": 1691,
      "icro": 1692,
      "Ġimprove": 1693,
      "uture": 1694,
      "ret": 1695,
      "icult": 1696,
      "Ġprofess": 1697,
      "Ġcirc": 1698,
      "Ġtimes": 1699,
      "oint": 1700,
      "atory": 1701,
      "cle": 1702,
      "perature": 1703,
      "osp": 1704,
      "Ġkey": 1705,
      "ones": 1706,
      "Ġrole": 1707,
      "Ġwee": 1708,
      "Ġcy": 1709,
      "Ġanalysis": 1710,
      "18": 1711,
      "of": 1712,
      "Ġresults": 1713,
      "Ġfour": 1714,
      "abor": 1715,
      "Ġopt": 1716,
      "Ġconsum": 1717,
      "Ġsay": 1718,
      "Ġthink": 1719,
      "Ġneeds": 1720,
      "une": 1721,
      "Ġfil": 1722,
      "Ġmonth": 1723,
      "Ġcome": 1724,
      "Ġscient": 1725,
      "though": 1726,
      "urope": 1727,
      "Ġdiscuss": 1728,
      "Ġgr": 1729,
      "Ġhard": 1730,
      "face": 1731,
      "Ġincrease": 1732,
      "ĠâĢĶ": 1733,
      "Ġdra": 1734,
      "If": 1735,
      "cul": 1736,
      "Ġcomb": 1737,
      "Ġrun": 1738,
      "Ġmen": 1739,
      "Ġhead": 1740,
      "ww": 1741,
      "oring": 1742,
      "ĠComm": 1743,
      "ortun": 1744,
      "____": 1745,
      "ope": 1746,
      "Ġrece": 1747,
      "Ġsw": 1748,
      "Ġconditions": 1749,
      "ĠStates": 1750,
      "ape": 1751,
      "ending": 1752,
      "utions": 1753,
      "Ġstep": 1754,
      "iation": 1755,
      "ggest": 1756,
      "ĠOn": 1757,
      "Ġcourse": 1758,
      "ptoms": 1759,
      "Ġterm": 1760,
      "We": 1761,
      "Ġnet": 1762,
      "ument": 1763,
      "Ġrelations": 1764,
      "ilities": 1765,
      "Ġskills": 1766,
      "br": 1767,
      "Ġteac": 1768,
      "ird": 1769,
      "Ġspecial": 1770,
      "asing": 1771,
      "Ġbro": 1772,
      "Ġyoung": 1773,
      "Ġusually": 1774,
      "Ġnear": 1775,
      "Ġobs": 1776,
      "Ġwhy": 1777,
      "Ġtemperature": 1778,
      "Ġeffects": 1779,
      "Ġrele": 1780,
      "Ġ=": 1781,
      "obal": 1782,
      "ething": 1783,
      "Ġmot": 1784,
      "Ġchall": 1785,
      "Ġinflu": 1786,
      "Ġdescrib": 1787,
      "ured": 1788,
      "Ġput": 1789,
      "Ġsing": 1790,
      "isc": 1791,
      "Ġdig": 1792,
      "ode": 1793,
      "not": 1794,
      "11": 1795,
      "ĠAt": 1796,
      "Ġcolle": 1797,
      "str": 1798,
      "ables": 1799,
      "ĠEnglish": 1800,
      "let": 1801,
      "Ġheart": 1802,
      "ee": 1803,
      "Ġplants": 1804,
      "Ġrad": 1805,
      "ĠOr": 1806,
      "duct": 1807,
      "Ġkind": 1808,
      "Ġgiven": 1809,
      "Ġsuggest": 1810,
      "Ġenc": 1811,
      "Ġunt": 1812,
      "ĠAf": 1813,
      "Ġknowledge": 1814,
      "ems": 1815,
      "Ġnecess": 1816,
      "Ġhigher": 1817,
      "St": 1818,
      "Ġessential": 1819,
      "Ġfuture": 1820,
      "Ġdifficult": 1821,
      "Ġrespons": 1822,
      "Ġchanges": 1823,
      "Ġer": 1824,
      "Ġill": 1825,
      "aster": 1826,
      "Ġ17": 1827,
      "ym": 1828,
      "Ġpolit": 1829,
      "ably": 1830,
      "Ġsimilar": 1831,
      "Ġquality": 1832,
      "af": 1833,
      "Ġalways": 1834,
      "Ġ'": 1835,
      "Ġprim": 1836,
      "Ġphysical": 1837,
      "Ġcontain": 1838,
      "Ġconsider": 1839,
      "Ġauthor": 1840,
      "Ġline": 1841,
      "As": 1842,
      "sych": 1843,
      "Ġintrodu": 1844,
      "Ġgive": 1845,
      "ruction": 1846,
      "ware": 1847,
      "Ġlocal": 1848,
      "chie": 1849,
      "ators": 1850,
      "Ġsens": 1851,
      "Ġsubject": 1852,
      "pecially": 1853,
      "ately": 1854,
      "lement": 1855,
      "aching": 1856,
      "An": 1857,
      "Ġstrong": 1858,
      "Ġways": 1859,
      "oney": 1860,
      "Ġdays": 1861,
      "idd": 1862,
      "ĠAll": 1863,
      "ours": 1864,
      "ĠSo": 1865,
      "Ġcomplete": 1866,
      "ĠUS": 1867,
      "ged": 1868,
      "Ġaccount": 1869,
      "Ġlittle": 1870,
      "Ġbegin": 1871,
      "Ġcommunity": 1872,
      "alk": 1873,
      "ĠWith": 1874,
      "ĠEurope": 1875,
      "ler": 1876,
      "Ġsomething": 1877,
      "ification": 1878,
      "Ġsum": 1879,
      "Ġactivities": 1880,
      "Ġprev": 1881,
      "Ġclear": 1882,
      "Ġansw": 1883,
      "sel": 1884,
      "Ġgrowth": 1885,
      "inking": 1886,
      "Ġchem": 1887,
      "iple": 1888,
      "50": 1889,
      "ĠBy": 1890,
      "Ġturn": 1891,
      "Ġarticle": 1892,
      "ember": 1893,
      "ires": 1894,
      "ĠBl": 1895,
      "ĠBe": 1896,
      "Ġmodel": 1897,
      "Ġpast": 1898,
      "Ġdam": 1899,
      "Ġparent": 1900,
      "Ġappear": 1901,
      "Ġvalue": 1902,
      "Ġcontrib": 1903,
      "Ġalong": 1904,
      "Ġself": 1905,
      "Ġspace": 1906,
      "Ġ16": 1907,
      ".\"": 1908,
      "Ġrange": 1909,
      "aves": 1910,
      "Ġ,": 1911,
      "Ġword": 1912,
      "Ġnut": 1913,
      "Ġquestions": 1914,
      "Ġtoget": 1915,
      "Ġtogether": 1916,
      "Ġz": 1917,
      "ither": 1918,
      "//": 1919,
      "Ġey": 1920,
      "app": 1921,
      "istic": 1922,
      "stit": 1923,
      "aken": 1924,
      "bon": 1925,
      "Ġcountries": 1926,
      "Ġconcept": 1927,
      "Ġacross": 1928,
      "Ġsymptoms": 1929,
      "Ġunderstanding": 1930,
      "atch": 1931,
      "fact": 1932,
      "mit": 1933,
      "Ġlikely": 1934,
      "Ġworking": 1935,
      "There": 1936,
      "ored": 1937,
      "Ġpercent": 1938,
      "Ġproduction": 1939,
      "Ġ|": 1940,
      "Ġpatients": 1941,
      "Ġtry": 1942,
      "Ġtoday": 1943,
      "Ġstudies": 1944,
      "ales": 1945,
      "min": 1946,
      "rug": 1947,
      "ĠGod": 1948,
      "ann": 1949,
      "Ġmarket": 1950,
      "ivity": 1951,
      "Ġissues": 1952,
      "acc": 1953,
      "Ġresources": 1954,
      "Ġindividuals": 1955,
      "Ġlot": 1956,
      "Ġteam": 1957,
      "pos": 1958,
      "Ġmind": 1959,
      "aring": 1960,
      "Ġdeath": 1961,
      "iting": 1962,
      "Ġpopulation": 1963,
      "ired": 1964,
      "ency": 1965,
      "NA": 1966,
      "ĠIm": 1967,
      "Ġproducts": 1968,
      "Ġgeneral": 1969,
      "ried": 1970,
      "aces": 1971,
      "Ġexist": 1972,
      "use": 1973,
      "aps": 1974,
      "nal": 1975,
      "ĠMed": 1976,
      "Ġstory": 1977,
      "Ġemploy": 1978,
      "Ġfull": 1979,
      "omes": 1980,
      "oot": 1981,
      "Ġliter": 1982,
      "Ġstrateg": 1983,
      "Ġachie": 1984,
      "Ġlower": 1985,
      "Ġfactors": 1986,
      "16": 1987,
      "ush": 1988,
      "ibility": 1989,
      "ane": 1990,
      "ĠCent": 1991,
      "reen": 1992,
      "ison": 1993,
      "self": 1994,
      "Ġsure": 1995,
      "Ġespecially": 1996,
      "://": 1997,
      "amm": 1998,
      "ray": 1999,
      "orts": 2000,
      "Ġnorm": 2001,
      "Ġmakes": 2002,
      "uation": 2003,
      "Ġfar": 2004,
      "by": 2005,
      "Ġactivity": 2006,
      "ĠAfric": 2007,
      "Ġ$": 2008,
      "erence": 2009,
      "for": 2010,
      "15": 2011,
      "Ġi": 2012,
      "Ġfeature": 2013,
      "urity": 2014,
      "Ġbrain": 2015,
      "Ġindic": 2016,
      "Ġscience": 2017,
      "Ġestab": 2018,
      "Ġrecord": 2019,
      "Ġmaterials": 2020,
      "Ġreduce": 2021,
      "Ġuntil": 2022,
      "Ġmanagement": 2023,
      "ising": 2024,
      "Ġpractice": 2025,
      "emic": 2026,
      "17": 2027,
      "Ġprotect": 2028,
      "Ġrelationship": 2029,
      "Ġquestion": 2030,
      "Ġrepresent": 2031,
      "osis": 2032,
      "Ġhaving": 2033,
      "Ġneg": 2034,
      "ung": 2035,
      "ER": 2036,
      "Ġmov": 2037,
      "Ġonline": 2038,
      "Ġcentury": 2039,
      "fficient": 2040,
      "Ġcases": 2041,
      "utes": 2042,
      "Ġabove": 2043,
      "ĠEar": 2044,
      "Ġside": 2045,
      "ĠStud": 2046,
      "izing": 2047,
      "ĠChrist": 2048,
      "Ġsam": 2049,
      "ĠComp": 2050,
      "Ġlater": 2051,
      "Ġcancer": 2052,
      "ĠSome": 2053,
      "Ġcorre": 2054,
      "Ġver": 2055,
      "thing": 2056,
      "Ġpred": 2057,
      "Ġloss": 2058,
      "ĠNational": 2059,
      "usion": 2060,
      "ring": 2061,
      "ips": 2062,
      "Ġstress": 2063,
      "aging": 2064,
      "ipp": 2065,
      "Ġnext": 2066,
      "ges": 2067,
      "Ġaddress": 2068,
      "Ġfield": 2069,
      "Ġtoward": 2070,
      "30": 2071,
      "âĢ¦": 2072,
      "eds": 2073,
      "ĠPr": 2074,
      "aut": 2075,
      "Ġtru": 2076,
      "ĠÂ": 2077,
      "Ġleast": 2078,
      "Ġfurther": 2079,
      "Ġdetail": 2080,
      "ooking": 2081,
      "Ġassociated": 2082,
      "verage": 2083,
      "ae": 2084,
      "Ġsent": 2085,
      "ohn": 2086,
      "Ġhowever": 2087,
      "Ġmedical": 2088,
      "Ġcho": 2089,
      "Ġwhether": 2090,
      "Ġsoil": 2091,
      "14": 2092,
      "Ġ14": 2093,
      "Ġrate": 2094,
      "Ġsize": 2095,
      "ream": 2096,
      "Ġpolic": 2097,
      "fer": 2098,
      "Ġstat": 2099,
      "Ġpersonal": 2100,
      "Ġgoing": 2101,
      "Ġ30": 2102,
      "Ġweight": 2103,
      "Ġsource": 2104,
      "Ġrelated": 2105,
      "acy": 2106,
      "Ġreason": 2107,
      "Ġlive": 2108,
      "Ġdiet": 2109,
      "Ġrecogn": 2110,
      "Ġsays": 2111,
      "ites": 2112,
      "Ġmillion": 2113,
      "most": 2114,
      "Ġhealthy": 2115,
      "ery": 2116,
      "Ġfund": 2117,
      "Ġcontent": 2118,
      "Ġpressure": 2119,
      "earch": 2120,
      "Ġaway": 2121,
      "ety": 2122,
      "Ġcomplex": 2123,
      "omet": 2124,
      "Ġwide": 2125,
      "Ġprovides": 2126,
      "oman": 2127,
      "Ġut": 2128,
      "Ġfrequ": 2129,
      "Ġtradition": 2130,
      "iction": 2131,
      "ĠHealth": 2132,
      "Ġbig": 2133,
      "ences": 2134,
      "put": 2135,
      "Ġservices": 2136,
      "ĠOne": 2137,
      "yle": 2138,
      "Ġarg": 2139,
      "Ġhouse": 2140,
      "yn": 2141,
      "Ġ...": 2142,
      "ĠTr": 2143,
      "iol": 2144,
      "Ġabs": 2145,
      "13": 2146,
      "oura": 2147,
      "leep": 2148,
      "Ġdeg": 2149,
      "ĠGo": 2150,
      "ĠBrit": 2151,
      "Ġenough": 2152,
      "Ġsingle": 2153,
      "Ġexperien": 2154,
      "ĠLe": 2155,
      "Ġwrite": 2156,
      "Ġbelow": 2157,
      "rams": 2158,
      "selves": 2159,
      "Ġconsidered": 2160,
      "edi": 2161,
      "plic": 2162,
      "Ġsurface": 2163,
      "nces": 2164,
      "Ġassess": 2165,
      "Ġparticip": 2166,
      "side": 2167,
      "Ġmass": 2168,
      "Ġ/": 2169,
      "Ġbat": 2170,
      "à¤": 2171,
      "icial": 2172,
      "ask": 2173,
      "Ġtot": 2174,
      "Ġsimple": 2175,
      "Ġleft": 2176,
      "ustom": 2177,
      "oose": 2178,
      "Ġphot": 2179,
      "When": 2180,
      "Ġur": 2181,
      "Ġsoft": 2182,
      "ĠWorld": 2183,
      "Ġbir": 2184,
      "Ġpay": 2185,
      "Ġobserv": 2186,
      "Ġaccording": 2187,
      "Ġgroups": 2188,
      "Ġrecomm": 2189,
      "Ġinteract": 2190,
      "Ġlay": 2191,
      "Ġstructure": 2192,
      "Ġability": 2193,
      "Ġreading": 2194,
      "Ġinit": 2195,
      "Ġnever": 2196,
      "ĠMan": 2197,
      "Ġmaintain": 2198,
      "chan": 2199,
      "Ġflu": 2200,
      "light": 2201,
      "ustain": 2202,
      "ott": 2203,
      "Ġdom": 2204,
      "Ġprote": 2205,
      "ĠGerm": 2206,
      "Wh": 2207,
      "Ġapproach": 2208,
      "ystem": 2209,
      "ilt": 2210,
      "anced": 2211,
      "Ġdeveloped": 2212,
      "Ġnature": 2213,
      "Ġensure": 2214,
      "Ġmethods": 2215,
      "aim": 2216,
      "urs": 2217,
      "Ġopportun": 2218,
      "Ġmicro": 2219,
      "alf": 2220,
      "Ġresearc": 2221,
      "Ġcondition": 2222,
      "Ġexerc": 2223,
      "ule": 2224,
      "Ġfri": 2225,
      "200": 2226,
      "roll": 2227,
      "Ġcollect": 2228,
      "ok": 2229,
      "Ġglobal": 2230,
      "Ġreact": 2231,
      "hern": 2232,
      "ises": 2233,
      "Ġhtt": 2234,
      "Ġreally": 2235,
      "epend": 2236,
      "Ġreview": 2237,
      "Ġpopular": 2238,
      "ival": 2239,
      "Ġwind": 2240,
      "Ġsociety": 2241,
      "Ġstates": 2242,
      "ĠGen": 2243,
      "Ġengine": 2244,
      "elling": 2245,
      "Ġdoc": 2246,
      "Ġmach": 2247,
      "Ġground": 2248,
      "ĠAm": 2249,
      "ches": 2250,
      "ĠWar": 2251,
      "Ch": 2252,
      "ounds": 2253,
      "amin": 2254,
      "istics": 2255,
      "ĠAss": 2256,
      "oph": 2257,
      "Ġskin": 2258,
      "For": 2259,
      "Ġavoid": 2260,
      "Ġdog": 2261,
      "Ġincreased": 2262,
      "Ġdone": 2263,
      "ley": 2264,
      "Ġvari": 2265,
      "Ġcompany": 2266,
      "ĠCont": 2267,
      "Ġbenefits": 2268,
      "Ġclimate": 2269,
      "Ġnecessary": 2270,
      "ID": 2271,
      "pro": 2272,
      "ancial": 2273,
      "Ġcity": 2274,
      "Ġcut": 2275,
      "Ġworkshe": 2276,
      "Ġfall": 2277,
      "Ġeconomic": 2278,
      "oes": 2279,
      "Ġeff": 2280,
      "ournal": 2281,
      "ney": 2282,
      "ĠCO": 2283,
      "Ġcomes": 2284,
      "Ġhelps": 2285,
      "ĠIntern": 2286,
      "ĠAb": 2287,
      "itud": 2288,
      "Ġmoney": 2289,
      "Ġquick": 2290,
      "ively": 2291,
      "Ġrequired": 2292,
      "ready": 2293,
      "ĠNe": 2294,
      "sequ": 2295,
      "Ġmodern": 2296,
      "Ġred": 2297,
      "abet": 2298,
      "ibr": 2299,
      "yl": 2300,
      "Ġdrug": 2301,
      "ivil": 2302,
      "Ġbehavior": 2303,
      "Ġparts": 2304,
      "ands": 2305,
      "Ġsal": 2306,
      "Ġseen": 2307,
      "ening": 2308,
      "Ġevent": 2309,
      "based": 2310,
      "Ġoil": 2311,
      "Ġ13": 2312,
      "Ġpositive": 2313,
      "Ġchalleng": 2314,
      "Ġstudent": 2315,
      "Ġvers": 2316,
      "ĠâĢ¦": 2317,
      "Ġclose": 2318,
      "lying": 2319,
      "rict": 2320,
      "Ġcreated": 2321,
      "Ġbuilding": 2322,
      "Ġmeasure": 2323,
      "Ġfive": 2324,
      "rad": 2325,
      "reg": 2326,
      "Ġcomputer": 2327,
      "Ġpath": 2328,
      "reng": 2329,
      "Ġjob": 2330,
      "Ġge": 2331,
      "21": 2332,
      "reme": 2333,
      "Ġeither": 2334,
      "iam": 2335,
      "Ġanimals": 2336,
      "ections": 2337,
      "Ġconcern": 2338,
      "augh": 2339,
      "oles": 2340,
      "sh": 2341,
      "Ġpsych": 2342,
      "Ġcompon": 2343,
      "ĠCar": 2344,
      "ĠMar": 2345,
      "Ġremain": 2346,
      "Ġrelig": 2347,
      "Ġport": 2348,
      "icles": 2349,
      "Ġsun": 2350,
      "overed": 2351,
      "ĠQu": 2352,
      "Ġcoll": 2353,
      "Ġwhite": 2354,
      "Ġmeet": 2355,
      "You": 2356,
      "Ġfat": 2357,
      "Ġwhole": 2358,
      "org": 2359,
      "ES": 2360,
      "Ġmeaning": 2361,
      "ume": 2362,
      "ued": 2363,
      "22": 2364,
      "Ġinteg": 2365,
      "Ġalready": 2366,
      "Ġindustry": 2367,
      "ump": 2368,
      "ĠThat": 2369,
      "Ġpattern": 2370,
      "Ġincludes": 2371,
      "Ġeasy": 2372,
      "Ġhistor": 2373,
      "Ġste": 2374,
      "itation": 2375,
      "Ġask": 2376,
      "Ġliving": 2377,
      "ĠShe": 2378,
      "Ġvide": 2379,
      "rast": 2380,
      "way": 2381,
      "ging": 2382,
      "Ġconduct": 2383,
      "Ġprob": 2384,
      "Ġcolor": 2385,
      "Ġnational": 2386,
      "mber": 2387,
      "Ġterms": 2388,
      "Ġpolitical": 2389,
      "Ġtraining": 2390,
      "Ġmor": 2391,
      "Ġrather": 2392,
      "ores": 2393,
      "To": 2394,
      "Ġhold": 2395,
      "Ġadult": 2396,
      "Ġsite": 2397,
      "Ġemot": 2398,
      "Ġevidence": 2399,
      "Ġactually": 2400,
      "cies": 2401,
      "ze": 2402,
      "Ġidea": 2403,
      "enn": 2404,
      "onse": 2405,
      "Ġprinc": 2406,
      "AT": 2407,
      "Ġweek": 2408,
      "ublic": 2409,
      "Ġprop": 2410,
      "rapy": 2411,
      "acks": 2412,
      ",\"": 2413,
      "gest": 2414,
      "Ġfail": 2415,
      "Ġidentify": 2416,
      "bo": 2417,
      "Ġcat": 2418,
      "Ġculture": 2419,
      "erous": 2420,
      "Ġregard": 2421,
      "Ġchemical": 2422,
      "Ġvariety": 2423,
      "Ġdisord": 2424,
      "ĠAct": 2425,
      "Ġblack": 2426,
      "ufact": 2427,
      "Ġservice": 2428,
      "Ġonce": 2429,
      "Ġ198": 2430,
      "Ġthroughout": 2431,
      "Ġfeed": 2432,
      "Ġcauses": 2433,
      "oll": 2434,
      "Ġann": 2435,
      "Ġtar": 2436,
      "Ġ100": 2437,
      "Ġbecame": 2438,
      "Ġdefin": 2439,
      "cient": 2440,
      "arr": 2441,
      "ĠSoc": 2442,
      "ĠX": 2443,
      "olic": 2444,
      "Ġsuper": 2445,
      "astic": 2446,
      "Ġtaken": 2447,
      "Ġcannot": 2448,
      "Ġbal": 2449,
      "Ġrev": 2450,
      "Ġmembers": 2451,
      "ĠIndia": 2452,
      "Al": 2453,
      "Ġneeded": 2454,
      "Ġclean": 2455,
      "Ġprint": 2456,
      "Ġdoct": 2457,
      "ming": 2458,
      "ript": 2459,
      "Ġ11": 2460,
      "Ġgas": 2461,
      "ĠAmerica": 2462,
      "ĠGe": 2463,
      "Ġmedic": 2464,
      "Ġbar": 2465,
      "ĠGu": 2466,
      "verse": 2467,
      "Ġpage": 2468,
      "ĠSouth": 2469,
      "Ġcop": 2470,
      "iddle": 2471,
      "AS": 2472,
      "Ġcustom": 2473,
      "Ġheat": 2474,
      "ai": 2475,
      "Ġemer": 2476,
      "Ġgreen": 2477,
      "ctions": 2478,
      "hib": 2479,
      "Ġarch": 2480,
      "oon": 2481,
      "Ġtotal": 2482,
      "Ġwritten": 2483,
      "vere": 2484,
      "ĠJohn": 2485,
      "Ġfish": 2486,
      "Ġregular": 2487,
      "Ġanaly": 2488,
      "ĠEm": 2489,
      "ĠCal": 2490,
      "Ġproduce": 2491,
      "erve": 2492,
      "like": 2493,
      "Ġenvironmental": 2494,
      "istance": 2495,
      "eter": 2496,
      "AR": 2497,
      "Ġincreasing": 2498,
      "Ġrights": 2499,
      "ront": 2500,
      "ules": 2501,
      "Ġsepar": 2502,
      "ography": 2503,
      "ĠInt": 2504,
      "ronic": 2505,
      "Ġmental": 2506,
      "Ġstreng": 2507,
      "Ġshows": 2508,
      "Ġcru": 2509,
      "Ġsleep": 2510,
      "ĠSu": 2511,
      "illed": 2512,
      "Ġce": 2513,
      "Ġentire": 2514,
      "ma": 2515,
      "Ġmechan": 2516,
      "igure": 2517,
      "Ġetc": 2518,
      "Ġaction": 2519,
      "Ġfinancial": 2520,
      "Ġfamil": 2521,
      "Ġsources": 2522,
      "hing": 2523,
      "Ġmusic": 2524,
      "Ġlove": 2525,
      "lex": 2526,
      "Ġlab": 2527,
      "ender": 2528,
      "Ġcarbon": 2529,
      "ensive": 2530,
      "Ġselect": 2531,
      "Ġtaking": 2532,
      "aced": 2533,
      "Ġperformance": 2534,
      "Ġideas": 2535,
      "):": 2536,
      "Ġprec": 2537,
      "ene": 2538,
      "ĠWhile": 2539,
      "pose": 2540,
      "ĠMay": 2541,
      "rown": 2542,
      "het": 2543,
      "aged": 2544,
      "Ġthemselves": 2545,
      "Ġsafe": 2546,
      "Ġexperim": 2547,
      "aily": 2548,
      "Ġbreak": 2549,
      "ext": 2550,
      "ĠOf": 2551,
      "Ġmonths": 2552,
      "Ġcheck": 2553,
      "Ġthought": 2554,
      "ply": 2555,
      "val": 2556,
      "ccording": 2557,
      "ĠAust": 2558,
      "Ġupon": 2559,
      "Ġhab": 2560,
      "gar": 2561,
      "go": 2562,
      "Ġbasic": 2563,
      "load": 2564,
      "Ġelectric": 2565,
      "Ġdiagn": 2566,
      "Ġdest": 2567,
      "Ġdesigned": 2568,
      "ĠRep": 2569,
      "ĠDr": 2570,
      "ĠDes": 2571,
      "Ġsense": 2572,
      "duc": 2573,
      "rel": 2574,
      "Ġsat": 2575,
      "Ġpriv": 2576,
      "Ġcritical": 2577,
      "Ġsex": 2578,
      "iques": 2579,
      "Ġwin": 2580,
      "ights": 2581,
      "Ġlives": 2582,
      "hold": 2583,
      "lor": 2584,
      "Ġposition": 2585,
      "pid": 2586,
      "place": 2587,
      "Ġparents": 2588,
      "Ġunique": 2589,
      "aff": 2590,
      "Ġhyd": 2591,
      "Ġlink": 2592,
      "Ġexplain": 2593,
      "Ġpublished": 2594,
      "Ġmedia": 2595,
      "ĠNorth": 2596,
      "ties": 2597,
      "Ġwebs": 2598,
      "Ġcaused": 2599,
      "Ġreturn": 2600,
      "Ġsustain": 2601,
      "Ġsubst": 2602,
      "asc": 2603,
      "Ġshown": 2604,
      "ĠMe": 2605,
      "Ġlif": 2606,
      "inary": 2607,
      "ulations": 2608,
      "ength": 2609,
      "Ġregion": 2610,
      "Ġrespect": 2611,
      "Ġcompet": 2612,
      "ese": 2613,
      "Ġfru": 2614,
      "Ġuses": 2615,
      "itary": 2616,
      "apan": 2617,
      "ĠEarth": 2618,
      "eb": 2619,
      "uel": 2620,
      "Ġstandard": 2621,
      "Ġprevious": 2622,
      "urch": 2623,
      "ĠApp": 2624,
      "Ġconsist": 2625,
      "Ġresponse": 2626,
      "Ġtools": 2627,
      "Ġresearchers": 2628,
      "IN": 2629,
      "uted": 2630,
      "Ġeth": 2631,
      "iency": 2632,
      "ĠYour": 2633,
      "vant": 2634,
      "ĠHist": 2635,
      "Ġcompan": 2636,
      "aling": 2637,
      "Ġox": 2638,
      "Ġla": 2639,
      "rior": 2640,
      "Ġpie": 2641,
      "Ġeval": 2642,
      "rand": 2643,
      "Ġsuff": 2644,
      "Ġdistrib": 2645,
      "Ġever": 2646,
      "Ġfem": 2647,
      "Ġoffer": 2648,
      "Ġ50": 2649,
      "Ġ25": 2650,
      "Ġhours": 2651,
      "Ġmanufact": 2652,
      "Ġallows": 2653,
      "Ġstop": 2654,
      "Ã©": 2655,
      "Ġimplement": 2656,
      "Ġevents": 2657,
      "ober": 2658,
      "Ġharm": 2659,
      "wor": 2660,
      "Ġdifference": 2661,
      "Ġcontact": 2662,
      "Ġprovided": 2663,
      "Ġmatter": 2664,
      "Ġaspect": 2665,
      "Ġanswer": 2666,
      "Ġarr": 2667,
      "Ġprimary": 2668,
      "ened": 2669,
      "Ġsafety": 2670,
      "ĠResearch": 2671,
      "Ġspread": 2672,
      "Ġtell": 2673,
      "fully": 2674,
      "oor": 2675,
      "ĠAfter": 2676,
      "artment": 2677,
      "Ġemb": 2678,
      "Ġenh": 2679,
      "Ġbacter": 2680,
      "Ġtheory": 2681,
      "aches": 2682,
      "vey": 2683,
      "Ġdeep": 2684,
      "ils": 2685,
      "Ġdraw": 2686,
      "Ġalmost": 2687,
      "hood": 2688,
      "Ġface": 2689,
      "Ġdamage": 2690,
      "ĠMore": 2691,
      "Ġnews": 2692,
      "Ġitself": 2693,
      "Ġattention": 2694,
      "Ġrecent": 2695,
      "Ġmultiple": 2696,
      "Ġeat": 2697,
      "abetes": 2698,
      "ĠCo": 2699,
      "Ġcommunication": 2700,
      "Ġyet": 2701,
      "Ġlog": 2702,
      "fect": 2703,
      "mar": 2704,
      "Ġexamples": 2705,
      "Ġcorrect": 2706,
      "eration": 2707,
      "Ġlonger": 2708,
      "irm": 2709,
      "Ġhalf": 2710,
      "Ġbooks": 2711,
      "room": 2712,
      "Ġ:": 2713,
      "ners": 2714,
      "Ġinj": 2715,
      "Ġvirus": 2716,
      "itor": 2717,
      "âĢ¢": 2718,
      "ows": 2719,
      "Ġrefer": 2720,
      "Ġthing": 2721,
      "aving": 2722,
      "uck": 2723,
      "lease": 2724,
      "ĠPe": 2725,
      "Ġpoll": 2726,
      "Ġtravel": 2727,
      "hens": 2728,
      "Ġshare": 2729,
      "atives": 2730,
      "cell": 2731,
      "Ġforms": 2732,
      "mon": 2733,
      "IS": 2734,
      "Ġkids": 2735,
      "Ġissue": 2736,
      "Ġexpress": 2737,
      "Ġap": 2738,
      "ĠDep": 2739,
      "Ġgain": 2740,
      "Ġnegative": 2741,
      "Ġaverage": 2742,
      "ricult": 2743,
      "Ġrelative": 2744,
      "Ġclaim": 2745,
      "minist": 2746,
      "Ġfire": 2747,
      "Ġbring": 2748,
      "Ġfarm": 2749,
      "ĠPre": 2750,
      "empt": 2751,
      "lation": 2752,
      "23": 2753,
      "Ġfoods": 2754,
      "yp": 2755,
      "Ġnetwork": 2756,
      "Ġmagn": 2757,
      "Ġconcent": 2758,
      "ster": 2759,
      "Ġachieve": 2760,
      "Ġbur": 2761,
      "estern": 2762,
      "Ġquant": 2763,
      "ura": 2764,
      "Ġvalues": 2765,
      "Ġnumbers": 2766,
      "Ġdemon": 2767,
      "apter": 2768,
      "Ġcame": 2769,
      "Ġexc": 2770,
      "rim": 2771,
      "nov": 2772,
      "ĠScience": 2773,
      "Ġelements": 2774,
      "ĠNo": 2775,
      "Ġnormal": 2776,
      "ĠUs": 2777,
      "isions": 2778,
      "Ġaud": 2779,
      "Ġappl": 2780,
      "Ġsoftware": 2781,
      "Ġorigin": 2782,
      "bol": 2783,
      "Ġencoura": 2784,
      "ĠâĢ¢": 2785,
      "Ġfeatures": 2786,
      "Ġsecurity": 2787,
      "Ġsix": 2788,
      "Ġsurv": 2789,
      "60": 2790,
      "Ġminim": 2791,
      "Ġtraditional": 2792,
      "Ġpatient": 2793,
      "aries": 2794,
      "rench": 2795,
      "25": 2796,
      "Ġviol": 2797,
      "Ġgreater": 2798,
      "imately": 2799,
      "Ġlat": 2800,
      "Ġaim": 2801,
      "pri": 2802,
      "know": 2803,
      "co": 2804,
      "Ġ197": 2805,
      "ada": 2806,
      "osing": 2807,
      "Ġaccept": 2808,
      "ground": 2809,
      "Ġvacc": 2810,
      "Ġacid": 2811,
      "ON": 2812,
      "Ġtechniques": 2813,
      "dom": 2814,
      "ucle": 2815,
      "Ġdetermine": 2816,
      "--": 2817,
      "Ġprograms": 2818,
      "ĠDo": 2819,
      "Ġaware": 2820,
      "Ġtax": 2821,
      "Ġmovement": 2822,
      "40": 2823,
      "ĠSchool": 2824,
      "ĠState": 2825,
      "Ġtrue": 2826,
      "Ġgenerally": 2827,
      "Ġguid": 2828,
      "Ġsimply": 2829,
      "ched": 2830,
      "Ġschools": 2831,
      "Ġheav": 2832,
      "Ġdeveloping": 2833,
      "Ġdaily": 2834,
      "Ġdecre": 2835,
      "Ġpict": 2836,
      "Ġdeb": 2837,
      "ĠTra": 2838,
      "ĠPer": 2839,
      "Ġsomet": 2840,
      "Ġlooking": 2841,
      "ĠLear": 2842,
      "Ġpoints": 2843,
      "Ġlack": 2844,
      "Ġappropri": 2845,
      "erson": 2846,
      "Ġthreat": 2847,
      "Ġdiseases": 2848,
      "ister": 2849,
      "Ġinvestig": 2850,
      "Ġpan": 2851,
      "Ġteachers": 2852,
      "Ġimportance": 2853,
      "Ġessays": 2854,
      "Ġimage": 2855,
      "Ġpurpose": 2856,
      "Ġinvolved": 2857,
      "Ġir": 2858,
      "arily": 2859,
      "Ġled": 2860,
      "ĠPar": 2861,
      "Ġparticularly": 2862,
      "ban": 2863,
      "Ġprep": 2864,
      "Ġearth": 2865,
      "Ġextreme": 2866,
      "asons": 2867,
      "rated": 2868,
      "Ġindepend": 2869,
      "umb": 2870,
      "ĠJapan": 2871,
      "ension": 2872,
      "Ġgrowing": 2873,
      "Ġvit": 2874,
      "Ġsomeone": 2875,
      "Ġbill": 2876,
      "Ġdoing": 2877,
      "Ġcover": 2878,
      "joy": 2879,
      "Ġtowards": 2880,
      "olar": 2881,
      "ĠEduc": 2882,
      "Ġcompared": 2883,
      "Ġsmo": 2884,
      "Ġwild": 2885,
      "ĠBritish": 2886,
      "Ġbelieve": 2887,
      "Ġdigital": 2888,
      ".)": 2889,
      "ades": 2890,
      "Ġremov": 2891,
      "ĠSec": 2892,
      "Ġwood": 2893,
      "sis": 2894,
      "Ġveget": 2895,
      "ĠII": 2896,
      "Ġextra": 2897,
      "Ġapplications": 2898,
      "Ġseries": 2899,
      "ĠChina": 2900,
      "Ġprocesses": 2901,
      "Ġvideo": 2902,
      "Ġtakes": 2903,
      "Ġgetting": 2904,
      "Ġeasily": 2905,
      "my": 2906,
      "mb": 2907,
      "Ġaltern": 2908,
      "Ġwaste": 2909,
      "Ġreflect": 2910,
      "Ġslow": 2911,
      "Ġbegan": 2912,
      "Ġaff": 2913,
      "term": 2914,
      "Ġadvant": 2915,
      "AN": 2916,
      "new": 2917,
      "Ġprofessional": 2918,
      "Ġoverall": 2919,
      "Ġsometimes": 2920,
      "Ġanimal": 2921,
      "Ġproced": 2922,
      "rial": 2923,
      "na": 2924,
      "Ġapplication": 2925,
      "Ġ24": 2926,
      "Ġbab": 2927,
      "aly": 2928,
      "Ġtook": 2929,
      "Ġcra": 2930,
      "ĠHere": 2931,
      "ĠHis": 2932,
      "Ġproduced": 2933,
      "Ġleading": 2934,
      "Ġx": 2935,
      "Ġtopic": 2936,
      "Ġsection": 2937,
      "Ġcompanies": 2938,
      "Ġbuilt": 2939,
      "Ġsound": 2940,
      "lection": 2941,
      "ino": 2942,
      "Ġobtain": 2943,
      "Ġtypically": 2944,
      "udd": 2945,
      "Ġsqu": 2946,
      "isms": 2947,
      "Ġteaching": 2948,
      "ana": 2949,
      "Ġincluded": 2950,
      "Ġfram": 2951,
      "Ġinfluence": 2952,
      "iot": 2953,
      "Ġreported": 2954,
      "Ġforce": 2955,
      "ony": 2956,
      "Ġinfection": 2957,
      "Ġinternational": 2958,
      "Ġoriginal": 2959,
      "osition": 2960,
      "Ġmess": 2961,
      "Ġdevices": 2962,
      "apers": 2963,
      "lands": 2964,
      "hel": 2965,
      "Ġcalcul": 2966,
      "Ġful": 2967,
      "ror": 2968,
      "ĠYork": 2969,
      "Ġsearch": 2970,
      "Ġthinking": 2971,
      "Ġsupply": 2972,
      "OR": 2973,
      "Ġsil": 2974,
      "ancy": 2975,
      "ipl": 2976,
      "Ġsolar": 2977,
      "Ġgard": 2978,
      "itude": 2979,
      "Ġcrucial": 2980,
      "Ġcoun": 2981,
      "ĠCons": 2982,
      "Ġutil": 2983,
      "Ġcultural": 2984,
      "ĠMin": 2985,
      "Ġtree": 2986,
      "Ġdocument": 2987,
      "ĠRead": 2988,
      "Ġsolution": 2989,
      "ĠMany": 2990,
      "Ġprotein": 2991,
      "Ġprogress": 2992,
      "ĠArt": 2993,
      "amed": 2994,
      "Ġcontinue": 2995,
      "Ġexercise": 2996,
      "ĠKing": 2997,
      "rs": 2998,
      "ĠAustral": 2999,
      "Ġleaders": 3000,
      "Ġdiv": 3001,
      "Ġdry": 3002,
      "Ġstay": 3003,
      "Ġoutside": 3004,
      "ription": 3005,
      "ologies": 3006,
      "play": 3007,
      "fort": 3008,
      "rought": 3009,
      "Ġcivil": 3010,
      "Ġserious": 3011,
      "itable": 3012,
      "izes": 3013,
      "eed": 3014,
      "Ġcontains": 3015,
      "Ġprior": 3016,
      "wh": 3017,
      "Ġreve": 3018,
      "issions": 3019,
      "Ġrequires": 3020,
      "Ġclin": 3021,
      "Ġrout": 3022,
      "ederal": 3023,
      "Ġpoor": 3024,
      "ĠAc": 3025,
      "Ġtur": 3026,
      "Ġseem": 3027,
      "Ġdou": 3028,
      "come": 3029,
      "istry": 3030,
      "IC": 3031,
      "ĠEss": 3032,
      "Ġinstit": 3033,
      "ĠReg": 3034,
      "Ġuseful": 3035,
      "ipment": 3036,
      "Ġworksheets": 3037,
      "Ġinside": 3038,
      "ĠPart": 3039,
      "Ġdemonstr": 3040,
      "Ġgame": 3041,
      "Ġquickly": 3042,
      "Ġgrade": 3043,
      "Ġcontext": 3044,
      "Ġpolicy": 3045,
      "Ġhighly": 3046,
      "Ġtiss": 3047,
      "Ġcard": 3048,
      "overy": 3049,
      "Ġenjoy": 3050,
      "Ġcreating": 3051,
      "care": 3052,
      "Ġcapt": 3053,
      "Ġadditional": 3054,
      "izations": 3055,
      "Ġtransport": 3056,
      "Ġang": 3057,
      "Ġhumans": 3058,
      "ech": 3059,
      "Ġdang": 3060,
      "ulate": 3061,
      "con": 3062,
      "uth": 3063,
      "EN": 3064,
      "Ġadapt": 3065,
      "Ġcit": 3066,
      "Ġtherefore": 3067,
      "Ġcommit": 3068,
      "Ġnight": 3069,
      "Ġstarted": 3070,
      "Ġcross": 3071,
      "ift": 3072,
      "idge": 3073,
      "Ġdoesn": 3074,
      "Ġscientific": 3075,
      "Ġtarget": 3076,
      "ervation": 3077,
      "ilos": 3078,
      "ying": 3079,
      "Ġguide": 3080,
      "tery": 3081,
      "Ġpractices": 3082,
      "Ġproviding": 3083,
      "ĠAg": 3084,
      "Ġlength": 3085,
      "vention": 3086,
      "Ġattempt": 3087,
      "Ġvisit": 3088,
      "itch": 3089,
      "Ġmother": 3090,
      "formation": 3091,
      "Ġstra": 3092,
      "Ġspeak": 3093,
      "rogen": 3094,
      "oly": 3095,
      "Ġmath": 3096,
      "Ġweb": 3097,
      "ls": 3098,
      "coh": 3099,
      "iter": 3100,
      "Ġpack": 3101,
      "Ġspeed": 3102,
      "avor": 3103,
      "Ex": 3104,
      "Ġchoose": 3105,
      "ĠInstit": 3106,
      "Ġdecision": 3107,
      "Ġwall": 3108,
      "Ġlate": 3109,
      "Ġforest": 3110,
      "Ġfa": 3111,
      "Ġacad": 3112,
      "uge": 3113,
      "ĠGl": 3114,
      "att": 3115,
      "Ġcamp": 3116,
      "ĠEd": 3117,
      "orpor": 3118,
      "Ġmole": 3119,
      "Ġdirectly": 3120,
      "ĠFrom": 3121,
      "Ġscientists": 3122,
      "inks": 3123,
      "ĠPres": 3124,
      "bre": 3125,
      "Ġ40": 3126,
      "Ġwarm": 3127,
      "One": 3128,
      "rate": 3129,
      "osure": 3130,
      "Ġfast": 3131,
      "ned": 3132,
      "Ġcentral": 3133,
      "Ġwebsite": 3134,
      "ari": 3135,
      "Ġthird": 3136,
      "Ġactive": 3137,
      "ellig": 3138,
      "anks": 3139,
      "Ġautom": 3140,
      "Ġsevere": 3141,
      "Ġfit": 3142,
      "Ġassign": 3143,
      "Ġadded": 3144,
      "irit": 3145,
      "Ġadj": 3146,
      "ding": 3147,
      "book": 3148,
      "ellow": 3149,
      "Ġtable": 3150,
      "Ġdiabetes": 3151,
      "Ġ2020": 3152,
      "Ġbroad": 3153,
      "Ġago": 3154,
      "Ġleaves": 3155,
      "Ġfoot": 3156,
      "ĠWill": 3157,
      "ief": 3158,
      "right": 3159,
      "inct": 3160,
      "ached": 3161,
      "ider": 3162,
      "Ġtit": 3163,
      "Ġchallenges": 3164,
      "Ġestim": 3165,
      "Ġinstead": 3166,
      "Ġcommunities": 3167,
      "Ġofficial": 3168,
      "Ġinterp": 3169,
      "rig": 3170,
      "\".": 3171,
      "ha": 3172,
      "vert": 3173,
      "Ġthus": 3174,
      "rehens": 3175,
      "Ġappropriate": 3176,
      "Ġexact": 3177,
      "Ġcapac": 3178,
      "ecause": 3179,
      "Ġdemand": 3180,
      "Ġeye": 3181,
      "ĠNot": 3182,
      "Is": 3183,
      "ĠTechn": 3184,
      "ĠMost": 3185,
      "Ġsituation": 3186,
      "Ġtri": 3187,
      "Ġlarger": 3188,
      "Ġep": 3189,
      "Ġtend": 3190,
      "Ġbehavi": 3191,
      "Ġconnect": 3192,
      "equ": 3193,
      "Ġbad": 3194,
      "rical": 3195,
      "Ġcosts": 3196,
      "itis": 3197,
      "Ġhar": 3198,
      "ĠRuss": 3199,
      "Ġquite": 3200,
      "ĠEuropean": 3201,
      "Ġbit": 3202,
      "ogen": 3203,
      "Ġblock": 3204,
      "oming": 3205,
      "Ġattack": 3206,
      "Ġlimited": 3207,
      "24": 3208,
      "Ġlo": 3209,
      "Ġsteps": 3210,
      "Ġfib": 3211,
      "Ġstrategies": 3212,
      "Ġliterature": 3213,
      "Ġstrength": 3214,
      "pite": 3215,
      "Ġcomponents": 3216,
      "Ġcred": 3217,
      "ĠKe": 3218,
      "ĠIndian": 3219,
      "Ġtherapy": 3220,
      "Ġexplore": 3221,
      "Ġmix": 3222,
      "Ġtrees": 3223,
      "Ġancient": 3224,
      "Ġones": 3225,
      "oud": 3226,
      "Ġbase": 3227,
      "Ġyourself": 3228,
      "back": 3229,
      "gn": 3230,
      "Ġproperties": 3231,
      "uk": 3232,
      "itect": 3233,
      "Ġfeet": 3234,
      "Ġexpect": 3235,
      "Ġbehind": 3236,
      "ĠJan": 3237,
      "uous": 3238,
      "ĠCount": 3239,
      "ceed": 3240,
      "On": 3241,
      "Ġdifferences": 3242,
      "www": 3243,
      "Ġbeaut": 3244,
      "iring": 3245,
      "Ġhor": 3246,
      "ĠEl": 3247,
      "Ġcapital": 3248,
      "ĠWrit": 3249,
      "ĠAfrica": 3250,
      "Ġmodels": 3251,
      "wise": 3252,
      "ords": 3253,
      "Ġsugar": 3254,
      "where": 3255,
      "Ġcode": 3256,
      "Ġsymbol": 3257,
      "ĠFrench": 3258,
      "AC": 3259,
      "ula": 3260,
      "Ġhot": 3261,
      "Ġsn": 3262,
      "Ġequipment": 3263,
      "ius": 3264,
      "ĠFr": 3265,
      "ĠJew": 3266,
      "Ġdevice": 3267,
      "Ġunc": 3268,
      "Ġoffers": 3269,
      "Ġbeginning": 3270,
      "Ġveh": 3271,
      "Ġorganization": 3272,
      "axim": 3273,
      "Ġmachine": 3274,
      "Ġstyle": 3275,
      "Ġmom": 3276,
      "Ġhost": 3277,
      "He": 3278,
      "Ġball": 3279,
      "Ġanx": 3280,
      "Ġprotection": 3281,
      "Ġimmedi": 3282,
      "ĠSystem": 3283,
      "Ġ+": 3284,
      "Ġlabor": 3285,
      "water": 3286,
      "Ġearl": 3287,
      "ED": 3288,
      "ĠRec": 3289,
      "yond": 3290,
      "ĠChild": 3291,
      "Ġgoal": 3292,
      "Ġstage": 3293,
      "ops": 3294,
      "iers": 3295,
      "Ġsus": 3296,
      "cohol": 3297,
      "uman": 3298,
      "mission": 3299,
      "elt": 3300,
      "Ġeffic": 3301,
      "uary": 3302,
      "amb": 3303,
      "ĠFirst": 3304,
      "Ġinstall": 3305,
      "ĠSch": 3306,
      "Ġinitial": 3307,
      "Ġestablished": 3308,
      "Ġvisual": 3309,
      "Ġefficient": 3310,
      "Ġnation": 3311,
      "ĠInc": 3312,
      "uries": 3313,
      "Ġdoctor": 3314,
      "Ġlegal": 3315,
      "Ġrates": 3316,
      "iples": 3317,
      "Ġsea": 3318,
      "ĠHistory": 3319,
      "Ġsample": 3320,
      "Ġusers": 3321,
      "ĠSm": 3322,
      "Ġlargest": 3323,
      "ĠMy": 3324,
      "Ġhttps": 3325,
      "Ġmemory": 3326,
      "Ġoptim": 3327,
      "Ġnovel": 3328,
      "Ġcommonly": 3329,
      "Ġminutes": 3330,
      "Ġpoly": 3331,
      "Ġprojects": 3332,
      "Ġbirth": 3333,
      "But": 3334,
      "ĠPa": 3335,
      "Ġagree": 3336,
      "Ġcry": 3337,
      "80": 3338,
      "Ġdat": 3339,
      "hest": 3340,
      "Ġsequ": 3341,
      "Ġcompar": 3342,
      "ensity": 3343,
      "ĠOther": 3344,
      "Ġroad": 3345,
      "Ġnucle": 3346,
      "cks": 3347,
      "Ġprobably": 3348,
      "resh": 3349,
      "time": 3350,
      "vest": 3351,
      "Ġadop": 3352,
      "Ġhyp": 3353,
      "Ġult": 3354,
      "Ġimages": 3355,
      "uments": 3356,
      "ulated": 3357,
      "Ġ21": 3358,
      "Ġtesting": 3359,
      "Ġconstruction": 3360,
      "Ġreasons": 3361,
      "Ġlocated": 3362,
      "Ġfriends": 3363,
      "cean": 3364,
      "son": 3365,
      "Ġlines": 3366,
      "Ġâ": 3367,
      "Ġder": 3368,
      "Ġuser": 3369,
      "Ġalthough": 3370,
      "ields": 3371,
      "imin": 3372,
      "Ġcateg": 3373,
      "Ġteacher": 3374,
      "Ġestablish": 3375,
      "iles": 3376,
      "Ġbreat": 3377,
      "hemat": 3378,
      "Ġmilitary": 3379,
      "Ġfront": 3380,
      "Ġmeasures": 3381,
      "Ġseason": 3382,
      "inese": 3383,
      "lamm": 3384,
      "ĠAug": 3385,
      "ĠCom": 3386,
      "ĠGree": 3387,
      "amic": 3388,
      "Ġshape": 3389,
      "ĠAlthough": 3390,
      "odies": 3391,
      "iar": 3392,
      "Ġconflic": 3393,
      "Ġdark": 3394,
      "Ġchoice": 3395,
      "Ġpromot": 3396,
      "Ġteeth": 3397,
      "ĠAI": 3398,
      "Ġdepend": 3399,
      "Ġunit": 3400,
      "Ġtests": 3401,
      "ĠAre": 3402,
      "pper": 3403,
      "ĠAfrican": 3404,
      "Ġadults": 3405,
      "Ġfra": 3406,
      "Ġeating": 3407,
      "Ġinnov": 3408,
      "Ġegg": 3409,
      "Ġdescribed": 3410,
      "Ġcolon": 3411,
      "Ġjo": 3412,
      "Ġreach": 3413,
      "ĠInternational": 3414,
      "Ġadminist": 3415,
      "gency": 3416,
      "IT": 3417,
      "ĠEducation": 3418,
      "uit": 3419,
      "ĠUse": 3420,
      "ĠMon": 3421,
      "gy": 3422,
      "ille": 3423,
      "bor": 3424,
      "Ġemp": 3425,
      "Ġgives": 3426,
      "Ġthous": 3427,
      "Ġcool": 3428,
      "ĠJu": 3429,
      "set": 3430,
      "Ġbecomes": 3431,
      "Ġcold": 3432,
      "ĠMod": 3433,
      "ĠAnt": 3434,
      "Ġperfect": 3435,
      "Ġfamilies": 3436,
      "head": 3437,
      "Ġhabit": 3438,
      "asks": 3439,
      "Ġstru": 3440,
      "Ġsold": 3441,
      "âĢĿ.": 3442,
      "Ġagricult": 3443,
      "Ġbacteria": 3444,
      "Ġdeal": 3445,
      "Ġfinal": 3446,
      "Ġfunctions": 3447,
      "Ġnutri": 3448,
      "anish": 3449,
      "Ġcommunic": 3450,
      "Ġproperty": 3451,
      "Ġpages": 3452,
      "Ġpurch": 3453,
      "ception": 3454,
      "Ġhands": 3455,
      "'re": 3456,
      "Ġweeks": 3457,
      "Ġprice": 3458,
      "Ġstatement": 3459,
      "Ġresponsible": 3460,
      "sect": 3461,
      "Ġmiddle": 3462,
      "ĠSw": 3463,
      "ĠDay": 3464,
      "Ġconsequ": 3465,
      "ĠFran": 3466,
      "Ġtalk": 3467,
      "pril": 3468,
      "ĠGerman": 3469,
      "Ġconstant": 3470,
      "Pro": 3471,
      "iable": 3472,
      "alking": 3473,
      "ĠTw": 3474,
      "Ġsoon": 3475,
      "Ġsurround": 3476,
      "Ġcollection": 3477,
      "Ġplat": 3478,
      "AL": 3479,
      "Ġcarry": 3480,
      "ĠChar": 3481,
      "Ġaffected": 3482,
      "Ġeconomy": 3483,
      "Ġrapid": 3484,
      "Ad": 3485,
      "rie": 3486,
      "Ġcele": 3487,
      "ĠTrans": 3488,
      "Ġrat": 3489,
      "cles": 3490,
      "Ġwa": 3491,
      "Ġgot": 3492,
      "med": 3493,
      "Ġevalu": 3494,
      "estic": 3495,
      "Ġsignificantly": 3496,
      "Ġjud": 3497,
      "Ġpatterns": 3498,
      "ĠOur": 3499,
      "Ġheld": 3500,
      "Ġcontroll": 3501,
      "Ġinsp": 3502,
      "Ġvia": 3503,
      "ĠDevelop": 3504,
      "Ġrespond": 3505,
      "Ġdate": 3506,
      "ĠDis": 3507,
      "ĠSim": 3508,
      "sp": 3509,
      "Ġrob": 3510,
      "cil": 3511,
      "ibrary": 3512,
      "These": 3513,
      "Ġ194": 3514,
      "Ġcou": 3515,
      "Ġfile": 3516,
      "Ġrules": 3517,
      "Ġtrade": 3518,
      "Ġdegree": 3519,
      "Ġmention": 3520,
      "Ġfight": 3521,
      "ica": 3522,
      "Ġtown": 3523,
      "Ġdecl": 3524,
      "ĠOct": 3525,
      "Ġeverything": 3526,
      "ests": 3527,
      "Ġgold": 3528,
      "Ġeyes": 3529,
      "Ġrecommend": 3530,
      "Ġoptions": 3531,
      "Ġelement": 3532,
      "Ġrich": 3533,
      "Ġpregn": 3534,
      "Ġlocation": 3535,
      "Ġund": 3536,
      "Ġbasis": 3537,
      "iology": 3538,
      "oe": 3539,
      "Ġassist": 3540,
      "ĠWorks": 3541,
      "Ġmob": 3542,
      "Ġprivate": 3543,
      "undred": 3544,
      "ĠHer": 3545,
      "Ġoccurs": 3546,
      "Ġsigns": 3547,
      "Ġremains": 3548,
      "Ġtopics": 3549,
      "Ġqual": 3550,
      "Ġcollege": 3551,
      "illing": 3552,
      "Ġgoals": 3553,
      "________": 3554,
      "ĠMus": 3555,
      "Ġnutrit": 3556,
      "Ġinvolves": 3557,
      "ided": 3558,
      "Ġscreen": 3559,
      "Ġ2017": 3560,
      "ĠGra": 3561,
      "So": 3562,
      "bit": 3563,
      "Ġconcl": 3564,
      "Ġpen": 3565,
      "more": 3566,
      "Ġbalance": 3567,
      "Ġ2016": 3568,
      "iforn": 3569,
      "Ġexperiences": 3570,
      "Ġsuccessful": 3571,
      "Ġroom": 3572,
      "Ġbenefit": 3573,
      "Ġsolutions": 3574,
      "Ġitems": 3575,
      "Ġfactor": 3576,
      "Ġmount": 3577,
      "Ġplaces": 3578,
      "Ġ2015": 3579,
      "Ġeveryone": 3580,
      "By": 3581,
      "atur": 3582,
      "Ġanti": 3583,
      "Ġreceive": 3584,
      "Ġlaws": 3585,
      "haps": 3586,
      "Ġsch": 3587,
      "Ġobjects": 3588,
      "Ġstri": 3589,
      "idents": 3590,
      "ĠInstitute": 3591,
      "Ġrequirements": 3592,
      "Ġsitu": 3593,
      "IV": 3594,
      "Ġhistorical": 3595,
      "Ġcomprehens": 3596,
      "ky": 3597,
      "Ġpredict": 3598,
      "Ġpowerful": 3599,
      "Ġexpected": 3600,
      "Ġrock": 3601,
      "ĠÐ": 3602,
      "ogle": 3603,
      "arian": 3604,
      "Ġmaxim": 3605,
      "Ġacqu": 3606,
      "Ġiron": 3607,
      "ĠMarch": 3608,
      "Ġacademic": 3609,
      "abilities": 3610,
      "Ġcharacteristics": 3611,
      "Ġbul": 3612,
      "Ġscale": 3613,
      "Ġweather": 3614,
      "Ġ2018": 3615,
      "Ġimag": 3616,
      "lim": 3617,
      "Ġpow": 3618,
      "phas": 3619,
      "ĠFin": 3620,
      "ingu": 3621,
      "Ġworkers": 3622,
      "tical": 3623,
      "ĠHar": 3624,
      "Ġeducational": 3625,
      "Ġsect": 3626,
      "Why": 3627,
      "Ġtask": 3628,
      "Ġphilos": 3629,
      "Ġcenter": 3630,
      "Ġaspects": 3631,
      "rec": 3632,
      "Ġintroduction": 3633,
      "Ġopportunities": 3634,
      "ĠCenter": 3635,
      "esus": 3636,
      "Ġcontrast": 3637,
      "Ġborn": 3638,
      "Ġapplied": 3639,
      "Ġgradu": 3640,
      "che": 3641,
      "Ġrare": 3642,
      "outhern": 3643,
      "Ġgames": 3644,
      "rong": 3645,
      "Ġopportunity": 3646,
      "Ġconvers": 3647,
      "27": 3648,
      "ashing": 3649,
      "wide": 3650,
      "ĠInst": 3651,
      "Ġ23": 3652,
      "Ġ#": 3653,
      "While": 3654,
      "oses": 3655,
      "Ġking": 3656,
      "ĠWest": 3657,
      "ifornia": 3658,
      "ĠServ": 3659,
      "Ġdead": 3660,
      "Ġroot": 3661,
      "Ġdetails": 3662,
      "Ġvirt": 3663,
      "ira": 3664,
      "sec": 3665,
      "Ġanxiety": 3666,
      "Ġ2014": 3667,
      "ees": 3668,
      "ĠEc": 3669,
      "Ġ2019": 3670,
      "Ġlost": 3671,
      "Ġwhose": 3672,
      "ptember": 3673,
      "ĠAccording": 3674,
      "raft": 3675,
      "Ġaccur": 3676,
      "Ġgraph": 3677,
      "Ġfather": 3678,
      "Ġillust": 3679,
      "Ġactions": 3680,
      "hesis": 3681,
      "edia": 3682,
      "Ġrain": 3683,
      "Ġfuel": 3684,
      "Ġefforts": 3685,
      "Ġcommer": 3686,
      "Ġdefined": 3687,
      "Ġ196": 3688,
      "Ġenter": 3689,
      "Ġ2013": 3690,
      "Ġlimit": 3691,
      "Ġsites": 3692,
      "mosp": 3693,
      "ĠBar": 3694,
      "enge": 3695,
      "year": 3696,
      "Ġord": 3697,
      "Ġpresence": 3698,
      "rome": 3699,
      "ĠHigh": 3700,
      "Ġimmune": 3701,
      "Ġreduced": 3702,
      "Ġstandards": 3703,
      "ĠJournal": 3704,
      "Ġformat": 3705,
      "life": 3706,
      "Ġequal": 3707,
      "Ġrise": 3708,
      "ternal": 3709,
      "ching": 3710,
      "ĠProg": 3711,
      "Ġreceived": 3712,
      "orthern": 3713,
      "Ġshall": 3714,
      "Ġreligious": 3715,
      "ĠCommun": 3716,
      "Ġcapacity": 3717,
      "pective": 3718,
      "bl": 3719,
      "26": 3720,
      "Ġexec": 3721,
      "oration": 3722,
      "Ġ2010": 3723,
      "Ġbeyond": 3724,
      "rees": 3725,
      "used": 3726,
      "Ġ2012": 3727,
      "irection": 3728,
      "RE": 3729,
      "Ġconstit": 3730,
      "ocks": 3731,
      "Ġseems": 3732,
      "Ġinstru": 3733,
      "Ġsett": 3734,
      "ste": 3735,
      "Ġfear": 3736,
      "Ġelse": 3737,
      "odes": 3738,
      "Ġstim": 3739,
      "With": 3740,
      "Ġsmaller": 3741,
      "Ġpet": 3742,
      "Ġbott": 3743,
      "iate": 3744,
      "Ġinstruct": 3745,
      "Ġexposure": 3746,
      "Ġalcohol": 3747,
      "Ġarchitect": 3748,
      "Ġdisplay": 3749,
      "Ġmal": 3750,
      "Ġnote": 3751,
      "Ġpapers": 3752,
      "Ġbelief": 3753,
      "Ġsummer": 3754,
      "orage": 3755,
      "aught": 3756,
      "Ġcompletely": 3757,
      "ĠChinese": 3758,
      "aste": 3759,
      "Ġcam": 3760,
      "Ġswe": 3761,
      "ST": 3762,
      "Ġolder": 3763,
      "Ġdefinition": 3764,
      "iences": 3765,
      "29": 3766,
      "ĠÃ": 3767,
      "Ġgenetic": 3768,
      "Ġcitiz": 3769,
      "Ġillness": 3770,
      "Ġresistance": 3771,
      "ygen": 3772,
      "Ġresource": 3773,
      "Ġhair": 3774,
      "Ġplanning": 3775,
      "Ġdyn": 3776,
      "Ġfollowed": 3777,
      "Ġjoint": 3778,
      "Ġanything": 3779,
      "Ġidentified": 3780,
      "Ġvict": 3781,
      "Ġbaby": 3782,
      "Ġconsumption": 3783,
      "do": 3784,
      "Ġintellig": 3785,
      "Ġ60": 3786,
      "mitted": 3787,
      "ĠJune": 3788,
      "ocol": 3789,
      "Ġteach": 3790,
      "eal": 3791,
      "Ġspirit": 3792,
      "Ġstories": 3793,
      "ĠAut": 3794,
      "ĠDepartment": 3795,
      "Ġtransfer": 3796,
      "Ġbrought": 3797,
      "Ġhundred": 3798,
      "Ġdisorder": 3799,
      "Ġing": 3800,
      "Ġhope": 3801,
      "ament": 3802,
      "Ġlesson": 3803,
      "Ġfruit": 3804,
      "Ġstatus": 3805,
      "ero": 3806,
      "Ġalg": 3807,
      "ĠRed": 3808,
      "Ġbra": 3809,
      "ĠCanada": 3810,
      "Ġload": 3811,
      "ube": 3812,
      "28": 3813,
      "Ġincreases": 3814,
      "Ġ--": 3815,
      "Ġinstance": 3816,
      "Ġvary": 3817,
      "Ġdecisions": 3818,
      "Ġapprox": 3819,
      "At": 3820,
      "umn": 3821,
      "Ġtrial": 3822,
      "PA": 3823,
      "Ġtrying": 3824,
      "rief": 3825,
      "Ġmetal": 3826,
      "Ġobserved": 3827,
      "ĠAugust": 3828,
      "Ġwent": 3829,
      "Ġfair": 3830,
      "ses": 3831,
      "VID": 3832,
      "que": 3833,
      "And": 3834,
      "Ġhosp": 3835,
      "oice": 3836,
      "ĠEngland": 3837,
      "ĠWhy": 3838,
      "ĠLet": 3839,
      "Ġcurrently": 3840,
      "Ġtechnologies": 3841,
      "Ġcollabor": 3842,
      "ĠFl": 3843,
      "erences": 3844,
      "Ġexcess": 3845,
      "Ġsouth": 3846,
      "Ġfresh": 3847,
      "Ġcontract": 3848,
      "Ġspeech": 3849,
      "ĠGreat": 3850,
      "Ġrelationships": 3851,
      "Ġisn": 3852,
      "resp": 3853,
      "ĠPol": 3854,
      "Ġliqu": 3855,
      "Ġplatform": 3856,
      "Ġstrugg": 3857,
      "ĠDNA": 3858,
      "standing": 3859,
      "Ġgarden": 3860,
      "Ġremember": 3861,
      "omb": 3862,
      "Ġdivid": 3863,
      "ĠAlso": 3864,
      "Ġgoes": 3865,
      "ĠBlack": 3866,
      "Ġrot": 3867,
      "Ġkid": 3868,
      "urg": 3869,
      "ognitive": 3870,
      "ĠApril": 3871,
      "Ġreducing": 3872,
      "Ġmiss": 3873,
      "ample": 3874,
      "Ġinteresting": 3875,
      "Ġshap": 3876,
      "Ġnorth": 3877,
      "Ġwon": 3878,
      "Ġwoman": 3879,
      "Ġfix": 3880,
      "inding": 3881,
      "see": 3882,
      "Ġdrugs": 3883,
      "Ġconstruct": 3884,
      "90": 3885,
      "Ġorganizations": 3886,
      "can": 3887,
      "Sh": 3888,
      "ico": 3889,
      "Ġwond": 3890,
      "Ġstructures": 3891,
      "known": 3892,
      "Ġ2011": 3893,
      "aled": 3894,
      "HE": 3895,
      "cember": 3896,
      "ĠCalifornia": 3897,
      "Ġworth": 3898,
      "Ġnumerous": 3899,
      "ancing": 3900,
      "Ġdetect": 3901,
      "lin": 3902,
      "rew": 3903,
      "Ġmis": 3904,
      "force": 3905,
      "roduction": 3906,
      "Ġprofession": 3907,
      "33": 3908,
      "ĠJesus": 3909,
      "Ġtou": 3910,
      "Ġcycle": 3911,
      "Ġclinical": 3912,
      "ype": 3913,
      "Ġjour": 3914,
      "ĠWater": 3915,
      "Ġprocessing": 3916,
      "Ġmuscle": 3917,
      "Ġformed": 3918,
      "ĠTherefore": 3919,
      "Ġson": 3920,
      "urance": 3921,
      "Ġefficiency": 3922,
      "ibly": 3923,
      "Ġforces": 3924,
      "ken": 3925,
      "Ġplans": 3926,
      "Ġabsor": 3927,
      "Ġphen": 3928,
      "Ġversion": 3929,
      "Ġeffectively": 3930,
      "Ġdistribution": 3931,
      "rote": 3932,
      "ovember": 3933,
      "Ġletter": 3934,
      "Ġconcepts": 3935,
      "ĠAssoci": 3936,
      "Ġantib": 3937,
      "Ġemphas": 3938,
      "ophy": 3939,
      "Ġmonit": 3940,
      "Ġten": 3941,
      "Ġbox": 3942,
      "Ġrule": 3943,
      "Ġemotional": 3944,
      "ĠPat": 3945,
      "Ġrisks": 3946,
      "ĠBo": 3947,
      "Ġshowed": 3948,
      "ĠAmericans": 3949,
      "Ġbuy": 3950,
      "Ġdistance": 3951,
      "uff": 3952,
      "ditionally": 3953,
      "ocr": 3954,
      "Ġgir": 3955,
      "Ġeasier": 3956,
      "Ġattract": 3957,
      "Ġregions": 3958,
      "Ġfemale": 3959,
      "vious": 3960,
      "ama": 3961,
      "ford": 3962,
      "change": 3963,
      "ought": 3964,
      "Ġrepl": 3965,
      "rupt": 3966,
      "Ġnames": 3967,
      "Ġwinter": 3968,
      "works": 3969,
      "iful": 3970,
      "Ġmid": 3971,
      "ĠThen": 3972,
      "ares": 3973,
      "Ġincome": 3974,
      "ĠRiver": 3975,
      "plications": 3976,
      "ĠChristian": 3977,
      "ĠVal": 3978,
      "Ġreference": 3979,
      "....": 3980,
      "ara": 3981,
      "Ġice": 3982,
      "ructure": 3983,
      "ĠJuly": 3984,
      "Ġhous": 3985,
      "Ġpiece": 3986,
      "Ġhttp": 3987,
      "Ġnearly": 3988,
      "Ġfully": 3989,
      "ĠDi": 3990,
      "bal": 3991,
      "ĠEssay": 3992,
      "Un": 3993,
      "Ġeffort": 3994,
      "ulum": 3995,
      "ifically": 3996,
      "Ġweak": 3997,
      "Ġbirds": 3998,
      "Ġplanet": 3999,
      "ĠUK": 4000,
      "Ġleave": 4001,
      "Ġassessment": 4002,
      "ev": 4003,
      "Ġ27": 4004,
      "iveness": 4005,
      "Ġenhance": 4006,
      "Ġindustrial": 4007,
      "Ġclassroom": 4008,
      "elines": 4009,
      "Ġden": 4010,
      "Ġhon": 4011,
      "Ġadjust": 4012,
      "ĠDuring": 4013,
      "Ġhealthcare": 4014,
      "Ġalone": 4015,
      "EC": 4016,
      "Ġgender": 4017,
      "ĠOver": 4018,
      "Ġmember": 4019,
      "Ġcontribute": 4020,
      "ĠInter": 4021,
      "ondon": 4022,
      "Ġtox": 4023,
      "35": 4024,
      "Ġlayer": 4025,
      "ĠMc": 4026,
      "Ġtissue": 4027,
      "imens": 4028,
      "edom": 4029,
      "Ġ28": 4030,
      "Ġcommercial": 4031,
      "Ġfriend": 4032,
      "Â°": 4033,
      "Ġmo": 4034,
      "Ġdepression": 4035,
      "zz": 4036,
      "Ġatmosp": 4037,
      "Ġagg": 4038,
      "ĠPhys": 4039,
      "ĠSocial": 4040,
      "Ġmut": 4041,
      "ĠUnder": 4042,
      "Ġcoast": 4043,
      "Ġsaw": 4044,
      "Ġfert": 4045,
      "Ġ26": 4046,
      "Ġplastic": 4047,
      "Ġ22": 4048,
      "ĠProf": 4049,
      "Ġexpand": 4050,
      "Ġjournal": 4051,
      "ham": 4052,
      "Ġmoment": 4053,
      "Ġsetting": 4054,
      "Some": 4055,
      "ĠEach": 4056,
      "Ġincorpor": 4057,
      "iment": 4058,
      "Ġdirection": 4059,
      "Ġmajority": 4060,
      "Ġspect": 4061,
      "Ġsustainable": 4062,
      "Ġexcell": 4063,
      "ĠClass": 4064,
      "ĠEven": 4065,
      "Ġmouth": 4066,
      "AM": 4067,
      "acters": 4068,
      "Ġsave": 4069,
      "atin": 4070,
      "Ġcommand": 4071,
      "igen": 4072,
      "Ġexisting": 4073,
      "iance": 4074,
      "oma": 4075,
      "Ġapply": 4076,
      "gin": 4077,
      "iest": 4078,
      "Ġdisorders": 4079,
      "Ġasked": 4080,
      "Ġmanage": 4081,
      "Ġalternative": 4082,
      "ĠRel": 4083,
      "ĠGovern": 4084,
      "Ġsuppl": 4085,
      "ĠNow": 4086,
      "icip": 4087,
      "Ġevolution": 4088,
      "rab": 4089,
      "oday": 4090,
      "Ġbound": 4091,
      "being": 4092,
      "Ġdivers": 4093,
      "off": 4094,
      "Ġtechnique": 4095,
      "iding": 4096,
      "part": 4097,
      "ĠDav": 4098,
      "Ġmig": 4099,
      "ĠPeople": 4100,
      "hab": 4101,
      "Ġdiss": 4102,
      "Ġnamed": 4103,
      "orial": 4104,
      "enty": 4105,
      "Ġtasks": 4106,
      "unction": 4107,
      "ĠSeptember": 4108,
      "hors": 4109,
      "isation": 4110,
      "ĠSpe": 4111,
      "ĠPress": 4112,
      "ĠFeb": 4113,
      "Ġrelevant": 4114,
      "Ġexpert": 4115,
      "uild": 4116,
      "ĠCor": 4117,
      "Ġrecently": 4118,
      "ĠJanuary": 4119,
      "ĠChe": 4120,
      "Ġpresented": 4121,
      "Ġdiscovered": 4122,
      "Ġchanged": 4123,
      "Ġupd": 4124,
      "Ġargument": 4125,
      "Ġtrust": 4126,
      "Ġnothing": 4127,
      "Ġtransform": 4128,
      "raw": 4129,
      "Ġtips": 4130,
      "unt": 4131,
      "Ġwidely": 4132,
      "Ġvolume": 4133,
      "Ġblue": 4134,
      "Ġoxygen": 4135,
      "Ġvital": 4136,
      "hyd": 4137,
      "Ġconnected": 4138,
      "Ġplaced": 4139,
      "ĠRoman": 4140,
      "inated": 4141,
      "ĠHel": 4142,
      "cular": 4143,
      "Ġallowed": 4144,
      "uable": 4145,
      "Ġprinciples": 4146,
      "related": 4147,
      "Ġoccup": 4148,
      "mary": 4149,
      "Ġopin": 4150,
      "ĠWilliam": 4151,
      "Ġearlier": 4152,
      "ĠPlan": 4153,
      "Ġpromote": 4154,
      "Ġdepending": 4155,
      "Ġrelatively": 4156,
      "cont": 4157,
      "Ġsynt": 4158,
      "Ġfederal": 4159,
      "Ġtold": 4160,
      "Ġrepe": 4161,
      "ĠPark": 4162,
      "Ġtrend": 4163,
      "agraph": 4164,
      "70": 4165,
      "cious": 4166,
      "ĠPresident": 4167,
      "Ġrecommended": 4168,
      "ilit": 4169,
      "Ġcelebr": 4170,
      "ET": 4171,
      "Ġoperations": 4172,
      "Ġstorage": 4173,
      "Ġglass": 4174,
      "Ġcro": 4175,
      "ĠOctober": 4176,
      "ĠCour": 4177,
      "Ġgiving": 4178,
      "Ġtele": 4179,
      "ĠAustralia": 4180,
      "encies": 4181,
      "Ġextremely": 4182,
      "ĠSince": 4183,
      "Ġemissions": 4184,
      "uration": 4185,
      "ball": 4186,
      "Ġforward": 4187,
      "Ġoption": 4188,
      "ii": 4189,
      "mat": 4190,
      "Ġpicture": 4191,
      "tes": 4192,
      "ĠVir": 4193,
      "Ġhimself": 4194,
      "Ġfrequently": 4195,
      "Ġremove": 4196,
      "ĠBecause": 4197,
      "Ġfamous": 4198,
      "ulf": 4199,
      "Ġcoming": 4200,
      "char": 4201,
      "Ġtrig": 4202,
      "ĠTheir": 4203,
      "house": 4204,
      "cast": 4205,
      "Ġprefer": 4206,
      "Ġbillion": 4207,
      "ĠCOVID": 4208,
      "ĠIS": 4209,
      "Ġgeneration": 4210,
      "Ġnative": 4211,
      "erate": 4212,
      "Ġmap": 4213,
      "roph": 4214,
      "Ġdescribe": 4215,
      "semb": 4216,
      "Ġorganic": 4217,
      "Ġelectricity": 4218,
      "Ġfindings": 4219,
      "199": 4220,
      "Ġregarding": 4221,
      "Ġadvanced": 4222,
      "Ġdistinct": 4223,
      "Ġcharacters": 4224,
      "ession": 4225,
      "Ġhom": 4226,
      "crib": 4227,
      "Ġpric": 4228,
      "Ġforeign": 4229,
      "Ġhighest": 4230,
      "Ġexpression": 4231,
      "Ġemail": 4232,
      "ĠLaw": 4233,
      "Ġprepar": 4234,
      "ĠDec": 4235,
      "aur": 4236,
      "Ġfilm": 4237,
      "Ġstrategy": 4238,
      "Ġurban": 4239,
      "Ġhighlight": 4240,
      "Ġbackground": 4241,
      "unch": 4242,
      "era": 4243,
      "ĠGermany": 4244,
      "Ġcombination": 4245,
      "ographic": 4246,
      "Ġpul": 4247,
      "Ġarticles": 4248,
      "Ġconnection": 4249,
      "ĠSur": 4250,
      "Ġstaff": 4251,
      "Ġpeace": 4252,
      "ĠCity": 4253,
      "Ġdied": 4254,
      "Ġ2021": 4255,
      "osystem": 4256,
      "Ġmoving": 4257,
      "onds": 4258,
      "ĠJust": 4259,
      "comes": 4260,
      "rete": 4261,
      "ĠAv": 4262,
      "Ġreports": 4263,
      "rael": 4264,
      "Ġneigh": 4265,
      "ĠEast": 4266,
      "alt": 4267,
      "Ġoutput": 4268,
      "Ġeight": 4269,
      "poses": 4270,
      "ĠCur": 4271,
      "Ġbran": 4272,
      "Ġthesis": 4273,
      "ruary": 4274,
      "rane": 4275,
      "Ġfavor": 4276,
      "Ġperformed": 4277,
      "Ġreaction": 4278,
      "opy": 4279,
      "II": 4280,
      "ĠConf": 4281,
      "Ġrefers": 4282,
      "Ġdogs": 4283,
      "ĠMat": 4284,
      "Ġwatch": 4285,
      "Ġinflamm": 4286,
      "gypt": 4287,
      ");": 4288,
      "EM": 4289,
      "amental": 4290,
      "Ġexperiment": 4291,
      "Res": 4292,
      "Ġnotes": 4293,
      "mal": 4294,
      "Ġmathemat": 4295,
      "ĠRef": 4296,
      "âĢĿ,": 4297,
      "36": 4298,
      "AD": 4299,
      "Ġstar": 4300,
      "Ġcities": 4301,
      "Ġchance": 4302,
      "Ġ2009": 4303,
      "Ġmotiv": 4304,
      "Ġinternal": 4305,
      "Ġdiscover": 4306,
      "Ġinsect": 4307,
      "Ġmilk": 4308,
      "45": 4309,
      "ĠRet": 4310,
      "Ġcore": 4311,
      "Ġrunning": 4312,
      "gment": 4313,
      "They": 4314,
      "eria": 4315,
      "iny": 4316,
      "ĠNet": 4317,
      "Ġmedicine": 4318,
      "Ġconducted": 4319,
      "Ġmale": 4320,
      "eding": 4321,
      "Ġsexual": 4322,
      "Ġast": 4323,
      "met": 4324,
      "ĠMex": 4325,
      "Ġnarr": 4326,
      "Ġinfections": 4327,
      "Ġtour": 4328,
      "ĠEnvironment": 4329,
      "li": 4330,
      "Ġelectrical": 4331,
      "la": 4332,
      "Ġstore": 4333,
      "ĠProt": 4334,
      "OS": 4335,
      "Ġwrong": 4336,
      "Ġchallenge": 4337,
      "Ġproperly": 4338,
      "Ġstarting": 4339,
      "Ġsolid": 4340,
      "ĠDecember": 4341,
      "Ġbecoming": 4342,
      "78": 4343,
      "Ġinfluen": 4344,
      "Ġboard": 4345,
      "Ġserve": 4346,
      "Ġchronic": 4347,
      "Ġassum": 4348,
      "ĠTest": 4349,
      "Ġdisp": 4350,
      "Ġmiles": 4351,
      "gery": 4352,
      "ĠBr": 4353,
      "porary": 4354,
      "Ġcarried": 4355,
      "su": 4356,
      "Ġbed": 4357,
      "Ġded": 4358,
      "Ġhuge": 4359,
      "Ġphase": 4360,
      "Ġreality": 4361,
      "ĠÎ": 4362,
      "Ġseparate": 4363,
      "Ġinput": 4364,
      "spe": 4365,
      "ĠSub": 4366,
      "Ġsuggests": 4367,
      "Ġvision": 4368,
      "ificial": 4369,
      "riculum": 4370,
      "Ġexhib": 4371,
      "Ar": 4372,
      "Ġtemperatures": 4373,
      "Ġformer": 4374,
      "ĠWorkshe": 4375,
      "ressive": 4376,
      "Ġresulting": 4377,
      "olid": 4378,
      "Ġtim": 4379,
      "Ġsurvey": 4380,
      "Ġthr": 4381,
      "Ġfigure": 4382,
      "ios": 4383,
      "39": 4384,
      "ashington": 4385,
      "men": 4386,
      "Ġbelieved": 4387,
      "merican": 4388,
      "orge": 4389,
      "Ġdro": 4390,
      "Ġvoc": 4391,
      "ĠCong": 4392,
      "ĠStudents": 4393,
      "AP": 4394,
      "asion": 4395,
      "Ġmotor": 4396,
      "ald": 4397,
      "Ġrevolution": 4398,
      "Ġbone": 4399,
      "Ġinvolve": 4400,
      "Ġchanging": 4401,
      "Ġhappen": 4402,
      "Ġtooth": 4403,
      "ifying": 4404,
      "ĠNovember": 4405,
      "Ġcomfort": 4406,
      "ĠOrgan": 4407,
      "ĠLearning": 4408,
      "ager": 4409,
      "Ġfig": 4410,
      "Ġisol": 4411,
      "Ġfields": 4412,
      "anging": 4413,
      "efore": 4414,
      "All": 4415,
      "lege": 4416,
      "ĠSpanish": 4417,
      "Ġinternet": 4418,
      "des": 4419,
      "antic": 4420,
      "Ġcalc": 4421,
      "ĠDevelopment": 4422,
      "Ġ2008": 4423,
      "ĠSy": 4424,
      "Ġsteel": 4425,
      "Ġready": 4426,
      "iated": 4427,
      "Ġtreated": 4428,
      "However": 4429,
      "hetic": 4430,
      "Ph": 4431,
      "Ġther": 4432,
      "Ġdownload": 4433,
      "ĠLondon": 4434,
      "oul": 4435,
      "reet": 4436,
      "Ġsand": 4437,
      "Ġreferred": 4438,
      "ĠData": 4439,
      "Ġexperts": 4440,
      "Ġbusinesses": 4441,
      "Ġhappens": 4442,
      "Ġideal": 4443,
      "Con": 4444,
      "Ġtrack": 4445,
      "Ġengineering": 4446,
      "Can": 4447,
      "ĠRev": 4448,
      "38": 4449,
      "Ġlandsc": 4450,
      "alysis": 4451,
      "asive": 4452,
      "Ġheavy": 4453,
      "orith": 4454,
      "Ġdatab": 4455,
      "Ġdiscussion": 4456,
      "Ġclasses": 4457,
      "Ġhorm": 4458,
      "Ġparticipants": 4459,
      "Ġintroduced": 4460,
      "ION": 4461,
      "Ġappears": 4462,
      "Ġpolicies": 4463,
      "ieties": 4464,
      "Ġwrote": 4465,
      "Ġindependent": 4466,
      "bed": 4467,
      "ĠArch": 4468,
      "ĠThus": 4469,
      "Ġcausing": 4470,
      "Ġdestro": 4471,
      "Ġconcerns": 4472,
      "Ġcand": 4473,
      "ĠIts": 4474,
      "Ġgene": 4475,
      "Ġfacts": 4476,
      "Ġactual": 4477,
      "Ġrelease": 4478,
      "Ġconflict": 4479,
      "inter": 4480,
      "Ġscen": 4481,
      "eters": 4482,
      "Ġfeeling": 4483,
      "urt": 4484,
      "Ġexactly": 4485,
      "Ġseeds": 4486,
      "wards": 4487,
      "onic": 4488,
      "Ġtransl": 4489,
      "Ġmag": 4490,
      "Ġflex": 4491,
      "ek": 4492,
      "Ðµ": 4493,
      "Ġcitizens": 4494,
      "ĠAng": 4495,
      "ĠDef": 4496,
      "Ġspring": 4497,
      "Ġallowing": 4498,
      "aign": 4499,
      "ping": 4500,
      "Ġexcellent": 4501,
      "ĠInf": 4502,
      "Ġadvantage": 4503,
      "iant": 4504,
      "ĠFrance": 4505,
      "Ġsentence": 4506,
      "Ġviolence": 4507,
      "Ġimproved": 4508,
      "rep": 4509,
      "ias": 4510,
      "Ġ*": 4511,
      "Ġconsult": 4512,
      "Ġbodies": 4513,
      "ĠDon": 4514,
      "Ġmainly": 4515,
      "rick": 4516,
      "Ġadvance": 4517,
      "Ġdrive": 4518,
      "Ġchapter": 4519,
      "cking": 4520,
      "Ġauthors": 4521,
      "anguage": 4522,
      "].": 4523,
      "RO": 4524,
      "Ġvitamin": 4525,
      "Ġstream": 4526,
      "ĠST": 4527,
      "zing": 4528,
      "Ġunits": 4529,
      "Ġapproximately": 4530,
      "aters": 4531,
      "Ġexcept": 4532,
      "lick": 4533,
      "omas": 4534,
      "SA": 4535,
      "ĠHouse": 4536,
      "Ġconclusion": 4537,
      "Ġthick": 4538,
      "olved": 4539,
      "Ġleads": 4540,
      "Ġcompl": 4541,
      "Ġoffice": 4542,
      "Ġsamples": 4543,
      "ĠFree": 4544,
      "agram": 4545,
      "ĠMark": 4546,
      "ĠBra": 4547,
      "Ġnav": 4548,
      "Ġlanguages": 4549,
      "ros": 4550,
      "Ġhousehold": 4551,
      "\",": 4552,
      "Ġpractical": 4553,
      "nes": 4554,
      "Ġlearned": 4555,
      "Ġ80": 4556,
      "ĠChurch": 4557,
      "Ð¾": 4558,
      "ĠNews": 4559,
      "Ġmanufacture": 4560,
      "Ġexperienced": 4561,
      "Ġriver": 4562,
      "Ġsituations": 4563,
      "Ġinterpret": 4564,
      "Ġsem": 4565,
      "ij": 4566,
      "Ġplease": 4567,
      "Ġpollution": 4568,
      "ĠFood": 4569,
      "rum": 4570,
      "ris": 4571,
      "onomic": 4572,
      "Ġtruth": 4573,
      "key": 4574,
      "Ġreligion": 4575,
      "ĠRem": 4576,
      "ida": 4577,
      "Ġple": 4578,
      "ĠInternet": 4579,
      "Ġslight": 4580,
      "Ġbreast": 4581,
      "ta": 4582,
      "PS": 4583,
      "Ġfrequency": 4584,
      "order": 4585,
      "Ġfailure": 4586,
      "ishing": 4587,
      "Ġvul": 4588,
      "umin": 4589,
      "ux": 4590,
      "emy": 4591,
      "Im": 4592,
      "ĠGreek": 4593,
      "Ġnutrients": 4594,
      "board": 4595,
      "ĠElect": 4596,
      "otes": 4597,
      "och": 4598,
      "Ġinvestment": 4599,
      "ĠIsrael": 4600,
      "Ġpartners": 4601,
      "Ġliquid": 4602,
      "Ġdidn": 4603,
      "Ġcognitive": 4604,
      "rows": 4605,
      "rates": 4606,
      "Ġthousands": 4607,
      "ĠCounty": 4608,
      "Ġbelong": 4609,
      "Ġimmediately": 4610,
      "Ġpun": 4611,
      "ĠUnion": 4612,
      "Ġformation": 4613,
      "ĠSan": 4614,
      "Ġ29": 4615,
      "ously": 4616,
      "Ġdetermined": 4617,
      "Ġprocedure": 4618,
      "Ġoperation": 4619,
      "cript": 4620,
      "ĠCoun": 4621,
      "Ġcopy": 4622,
      "Ġreplace": 4623,
      "ĠWashington": 4624,
      "Ġcareer": 4625,
      "DF": 4626,
      "Ġconsists": 4627,
      "Ġfol": 4628,
      "ĠGeneral": 4629,
      "Ġcontinued": 4630,
      "Ġaid": 4631,
      "Ġunivers": 4632,
      "Ġbeautiful": 4633,
      "100": 4634,
      "estion": 4635,
      "ĠWeb": 4636,
      "Ġgave": 4637,
      "Ġlung": 4638,
      "ĠProgram": 4639,
      "ĠPublic": 4640,
      "Ġawareness": 4641,
      "iling": 4642,
      "Ġtrib": 4643,
      "irus": 4644,
      "tenance": 4645,
      "Ġsuitable": 4646,
      "Ġseven": 4647,
      "ags": 4648,
      "Ġchurch": 4649,
      "Ġencourage": 4650,
      "ĠEgypt": 4651,
      "ĠHuman": 4652,
      "imal": 4653,
      "37": 4654,
      "Ġfine": 4655,
      "Ġidentity": 4656,
      "ipe": 4657,
      "Ġcourt": 4658,
      "ĠJapanese": 4659,
      "Ġ2007": 4660,
      "roup": 4661,
      "Ġhelping": 4662,
      "Ġoutcomes": 4663,
      "ĠWestern": 4664,
      "Ġfinding": 4665,
      "Ġpp": 4666,
      "Ġplays": 4667,
      "ndrome": 4668,
      "Ġvaluable": 4669,
      "According": 4670,
      "Ġperhaps": 4671,
      "Ð°": 4672,
      "Ġcomprehensive": 4673,
      "Ġtitle": 4674,
      "ĠChildren": 4675,
      "Ġparagraph": 4676,
      "rant": 4677,
      "Ġanyone": 4678,
      "CO": 4679,
      "Ġhyper": 4680,
      "tra": 4681,
      "Ġvill": 4682,
      "Ġgets": 4683,
      "34": 4684,
      "Ġburn": 4685,
      "Ġmist": 4686,
      "alle": 4687,
      "Ġhomes": 4688,
      "ework": 4689,
      "Ġlib": 4690,
      "Ġcredit": 4691,
      "df": 4692,
      "Ġcreative": 4693,
      "Ġworked": 4694,
      "After": 4695,
      "Ġsav": 4696,
      "Ġpopulations": 4697,
      "Ġconver": 4698,
      "rans": 4699,
      "Ġmentioned": 4700,
      "Ġecosystem": 4701,
      "Ġanswers": 4702,
      "Ġlinked": 4703,
      "Ġpurposes": 4704,
      "ND": 4705,
      "Ġdiagnosis": 4706,
      "Ġcircum": 4707,
      "cers": 4708,
      "Ġbud": 4709,
      "ĠOb": 4710,
      "Ġcomponent": 4711,
      "Cl": 4712,
      "Ġdri": 4713,
      "Ġparty": 4714,
      "ĠPhil": 4715,
      "Ġfreedom": 4716,
      "Ġseek": 4717,
      "Ġbottom": 4718,
      "Ġvegetables": 4719,
      "Ġsyn": 4720,
      "Ġmessage": 4721,
      "ĠGreen": 4722,
      "Ġmel": 4723,
      "Here": 4724,
      "Ġmaster": 4725,
      "aper": 4726,
      "Ġ2000": 4727,
      "ĠVol": 4728,
      "ĠSociety": 4729,
      "ĠCollege": 4730,
      "Ġexternal": 4731,
      "inger": 4732,
      "Ġpassed": 4733,
      "Ġparam": 4734,
      "gra": 4735,
      "enth": 4736,
      "Ġinvent": 4737,
      "Ġattrib": 4738,
      "Ġseed": 4739,
      "Ġ195": 4740,
      "Ġcoal": 4741,
      "EL": 4742,
      "Ġdecades": 4743,
      "Ġupper": 4744,
      "umber": 4745,
      "Ġgod": 4746,
      "Ġrace": 4747,
      "Ġmetab": 4748,
      "Ġcorresp": 4749,
      "Ġcreation": 4750,
      "Ġdangerous": 4751,
      "Ġaccurate": 4752,
      "Do": 4753,
      "Ġletters": 4754,
      "ĠFebruary": 4755,
      "eline": 4756,
      "Ġreduction": 4757,
      "uting": 4758,
      "Ġdiverse": 4759,
      "Ġelimin": 4760,
      "Ġalgorith": 4761,
      "Read": 4762,
      "ĠAssociation": 4763,
      "Ġdegrees": 4764,
      "Ġsong": 4765,
      "Ġcovered": 4766,
      "cel": 4767,
      "Ġgoods": 4768,
      "ĠUsing": 4769,
      "Ġinjury": 4770,
      "Ġmostly": 4771,
      "Ġowners": 4772,
      "Ġsort": 4773,
      "Ġwalk": 4774,
      "ded": 4775,
      "Ġoral": 4776,
      "Ġcounter": 4777,
      "roid": 4778,
      "ĠSupp": 4779,
      "ĠBook": 4780,
      "inn": 4781,
      "Ġtrou": 4782,
      "Ġaffects": 4783,
      "Ġign": 4784,
      "Ġsignal": 4785,
      "Ġreleased": 4786,
      "Ġminor": 4787,
      "ĠAD": 4788,
      "Ġheight": 4789,
      "anges": 4790,
      "Ġestimated": 4791,
      "Ġyellow": 4792,
      "Äģ": 4793,
      "Ġgenes": 4794,
      "Ġeggs": 4795,
      "Ġdie": 4796,
      "Ġunf": 4797,
      "Ġsurpr": 4798,
      "Ġclearly": 4799,
      "Ġhelpful": 4800,
      "Ġpresident": 4801,
      "Ġdefic": 4802,
      "ĠOnce": 4803,
      "enses": 4804,
      "otic": 4805,
      "Ġconsequences": 4806,
      "ĠMor": 4807,
      "ĠBas": 4808,
      "osite": 4809,
      "Ġjourney": 4810,
      "Ġsector": 4811,
      "Ġsac": 4812,
      "Ġsmart": 4813,
      "ologist": 4814,
      "Ġmission": 4815,
      "ĠOut": 4816,
      "pen": 4817,
      "ologists": 4818,
      "Ġprepared": 4819,
      "75": 4820,
      "Ġrecords": 4821,
      "Ġemployees": 4822,
      "Ġkil": 4823,
      "erved": 4824,
      "ĠGet": 4825,
      "Ġclick": 4826,
      "Ġsatis": 4827,
      "ĠFurther": 4828,
      "aint": 4829,
      "nic": 4830,
      "Ġimpl": 4831,
      "Ġhun": 4832,
      "Ġnuclear": 4833,
      "Ġworksheet": 4834,
      "cription": 4835,
      "Ġround": 4836,
      "Ġamounts": 4837,
      "Ġimpacts": 4838,
      "ams": 4839,
      "ĠMet": 4840,
      "Ġpal": 4841,
      "Ġmoist": 4842,
      "Ġmanner": 4843,
      "Ġkinds": 4844,
      "Ġthoughts": 4845,
      "Ġcharge": 4846,
      "ixt": 4847,
      "ĠBi": 4848,
      "erals": 4849,
      "Ġrecy": 4850,
      "Ġperspective": 4851,
      "ĠTechnology": 4852,
      "atically": 4853,
      "Ġlegis": 4854,
      "ĠAir": 4855,
      "ĠEvery": 4856,
      "Ġ)": 4857,
      "pped": 4858,
      "Ġeventually": 4859,
      "Ġcontinuous": 4860,
      "Ġshared": 4861,
      "ulating": 4862,
      "Ġconcentration": 4863,
      "tion": 4864,
      "acing": 4865,
      "Ġpick": 4866,
      "writ": 4867,
      "Ġbuildings": 4868,
      "Ġvalid": 4869,
      "Ġ90": 4870,
      "Ġdepends": 4871,
      "Ġradio": 4872,
      "Ġprimarily": 4873,
      "Ġstraight": 4874,
      "ĠMedic": 4875,
      "Ġinterested": 4876,
      "rence": 4877,
      "Ġkill": 4878,
      "ormal": 4879,
      "Ġwel": 4880,
      "Ġintelligence": 4881,
      ".;": 4882,
      "Ġtum": 4883,
      "Ġvaccine": 4884,
      "Ġmeat": 4885,
      "Ġphr": 4886,
      "Ġreader": 4887,
      "Ġtreatments": 4888,
      "ypes": 4889,
      "usive": 4890,
      "Ġmanufacturing": 4891,
      "ĠSk": 4892,
      "Ġsubjects": 4893,
      "Ġspecifically": 4894,
      "za": 4895,
      "Ġdental": 4896,
      "Ġreaders": 4897,
      "Ġboost": 4898,
      "Ġmonitoring": 4899,
      "ya": 4900,
      "ĠDisc": 4901,
      "Ġindicate": 4902,
      "ns": 4903,
      "abul": 4904,
      "ĠPal": 4905,
      "Ġdetailed": 4906,
      "Ġbrief": 4907,
      "riage": 4908,
      "active": 4909,
      "Ġfocused": 4910,
      "point": 4911,
      "road": 4912,
      "Ġmit": 4913,
      "Ġalt": 4914,
      "Ġapproaches": 4915,
      "Ġterrit": 4916,
      "inf": 4917,
      "Ġpros": 4918,
      "Ġpair": 4919,
      "Ġbank": 4920,
      "Ġtechnical": 4921,
      "Ġspot": 4922,
      "Ġphenomen": 4923,
      "ĠExpl": 4924,
      "ĠSer": 4925,
      "rich": 4926,
      "Ġsquare": 4927,
      "ĠProject": 4928,
      "ĠGoogle": 4929,
      "Ġfundamental": 4930,
      "US": 4931,
      "Ġocean": 4932,
      "Ġfaith": 4933,
      "ĠSee": 4934,
      "Ġradiation": 4935,
      "Ġesc": 4936,
      "Ġmining": 4937,
      "rations": 4938,
      "Ġdram": 4939,
      "ails": 4940,
      "65": 4941,
      "uing": 4942,
      "Ġmaximum": 4943,
      "Ġobtained": 4944,
      "Ġpoet": 4945,
      "ĠMac": 4946,
      "Ġsecure": 4947,
      "Ġcontinues": 4948,
      "Ġdiam": 4949,
      "ĠHy": 4950,
      "Ġflowers": 4951,
      "Ġappe": 4952,
      "Ġoperating": 4953,
      "itative": 4954,
      "ictionary": 4955,
      "Ġproteins": 4956,
      "Ġwanted": 4957,
      "Ġcris": 4958,
      "Ġ70": 4959,
      "TS": 4960,
      "ĠBel": 4961,
      "ault": 4962,
      "ĠAsia": 4963,
      "Ġparticles": 4964,
      "Ġpreviously": 4965,
      "Ġvulner": 4966,
      "Ġneuro": 4967,
      "istan": 4968,
      "Ġnurs": 4969,
      "Ġprofessionals": 4970,
      "Ġfruits": 4971,
      "ING": 4972,
      "ĠAdditionally": 4973,
      "vision": 4974,
      "Ġconfirm": 4975,
      "ums": 4976,
      "Ġinstitutions": 4977,
      "Ã¡": 4978,
      "ĠOff": 4979,
      "Ġsche": 4980,
      "'ll": 4981,
      "airs": 4982,
      "Ġvess": 4983,
      "Ġbrand": 4984,
      "Ġcertainly": 4985,
      "olute": 4986,
      "ĠMal": 4987,
      "ushing": 4988,
      "Ġban": 4989,
      "Ġfaster": 4990,
      "rest": 4991,
      "mark": 4992,
      "Ġmedium": 4993,
      "Ġmac": 4994,
      "isher": 4995,
      "Ġroll": 4996,
      "Ġlifest": 4997,
      "Ġdiversity": 4998,
      "rog": 4999,
      "Ġflood": 5000,
      "Ġphysic": 5001,
      "ulin": 5002,
      "ially": 5003,
      "ĠPower": 5004,
      "yth": 5005,
      "lig": 5006,
      "down": 5007,
      "Ġnotice": 5008,
      "ĠMake": 5009,
      "stitution": 5010,
      "erent": 5011,
      "Ġdoub": 5012,
      "ĠEv": 5013,
      "Ġannual": 5014,
      "athy": 5015,
      "col": 5016,
      "Ġclos": 5017,
      "Ġcert": 5018,
      "Ġaf": 5019,
      "Ġmort": 5020,
      "omy": 5021,
      "Ġdivided": 5022,
      "ĠFore": 5023,
      "ĠUN": 5024,
      "Ġbegins": 5025,
      "Ġvs": 5026,
      "ĠFound": 5027,
      "Ġlessons": 5028,
      "ĠLife": 5029,
      "Ġfeelings": 5030,
      "Ġadvice": 5031,
      "rastructure": 5032,
      "Ġhour": 5033,
      "ĠMicro": 5034,
      "resents": 5035,
      "Ġhelped": 5036,
      "Ġincl": 5037,
      "Ġ<": 5038,
      "olars": 5039,
      "ressed": 5040,
      "Ġlov": 5041,
      "Ġwealth": 5042,
      "Ġhear": 5043,
      "32": 5044,
      "Ġdecrease": 5045,
      "Ġdouble": 5046,
      "Ġpieces": 5047,
      "gal": 5048,
      "zy": 5049,
      "Ġimmun": 5050,
      "Ġexposed": 5051,
      "99": 5052,
      "Ġatmosphere": 5053,
      "Ġrenew": 5054,
      "Ġlatest": 5055,
      "Ġlic": 5056,
      "well": 5057,
      "Ġcolors": 5058,
      "Ġpref": 5059,
      "ĠRepublic": 5060,
      "Ġtypical": 5061,
      "Ġ2006": 5062,
      "Ġadvantages": 5063,
      "Ġcoord": 5064,
      "ĠBen": 5065,
      "Ġcampaign": 5066,
      "Ġmeasured": 5067,
      "ĠWork": 5068,
      "Ġselected": 5069,
      "ascular": 5070,
      "Ġnit": 5071,
      "ĠEngine": 5072,
      "Ġsurgery": 5073,
      "Ġjobs": 5074,
      "Ġmobile": 5075,
      "inant": 5076,
      "Ġcompleted": 5077,
      "Ġcast": 5078,
      "Ġarm": 5079,
      "Ġblog": 5080,
      "Ġselection": 5081,
      "No": 5082,
      "Ġbattery": 5083,
      "ĠMary": 5084,
      "Ġextract": 5085,
      "Ġfluid": 5086,
      "Ġintended": 5087,
      "Ġconservation": 5088,
      "ĠLord": 5089,
      "ĠPort": 5090,
      "Ġguidelines": 5091,
      "ago": 5092,
      "Ġlooks": 5093,
      "à¥": 5094,
      "ped": 5095,
      "going": 5096,
      "Ġvent": 5097,
      "Ġ35": 5098,
      "OT": 5099,
      "Pl": 5100,
      "ĠMich": 5101,
      "Ġkeeping": 5102,
      "Our": 5103,
      "Ġstone": 5104,
      "Ġpu": 5105,
      "inate": 5106,
      "More": 5107,
      "Ġhearing": 5108,
      "Ġyouth": 5109,
      "ĠTur": 5110,
      "Ġwriter": 5111,
      "Ġju": 5112,
      "ĠManagement": 5113,
      "Ġgrass": 5114,
      "48": 5115,
      "Ġcurriculum": 5116,
      "Ġsalt": 5117,
      "Ġroots": 5118,
      "Ġrul": 5119,
      "Ġcollected": 5120,
      "ĠDem": 5121,
      "Ġhit": 5122,
      "Ġmuscles": 5123,
      "Ġprocedures": 5124,
      "osen": 5125,
      "Ġvehicle": 5126,
      "Ġproposed": 5127,
      "Ġneut": 5128,
      "ĠSun": 5129,
      "Ġconv": 5130,
      "Ġcardi": 5131,
      "Ġattacks": 5132,
      "Ġfacilit": 5133,
      "Ġcomposition": 5134,
      "Ġchann": 5135,
      "Ġprices": 5136,
      "DA": 5137,
      "oxide": 5138,
      "ishes": 5139,
      "Ġbird": 5140,
      "Ġexchange": 5141,
      "Ġshar": 5142,
      "Ġvictim": 5143,
      "gl": 5144,
      "Ġmaintenance": 5145,
      "wood": 5146,
      "Ġrepresents": 5147,
      "Ġdepth": 5148,
      "Ġcere": 5149,
      "Ġbattle": 5150,
      "Ġimproving": 5151,
      "abric": 5152,
      "teries": 5153,
      "Ġsolve": 5154,
      "oyal": 5155,
      "Ġ2005": 5156,
      "hi": 5157,
      "Ġhospital": 5158,
      "Ġregularly": 5159,
      "Ġwire": 5160,
      "CS": 5161,
      "Ġmer": 5162,
      "Ġsounds": 5163,
      "Ġremoved": 5164,
      "Ġiniti": 5165,
      "Ġemotions": 5166,
      "Ġlived": 5167,
      "Ġpregnancy": 5168,
      "Ġfollows": 5169,
      "Ġmotion": 5170,
      "ĠEnergy": 5171,
      "Ġwear": 5172,
      "Ġrecorded": 5173,
      "Ġchemicals": 5174,
      "ĠYear": 5175,
      "Ġdestroy": 5176,
      "Ġresponsibility": 5177,
      "Ġinstruction": 5178,
      "Ġmeeting": 5179,
      "Ġexplan": 5180,
      "Ġnetworks": 5181,
      "Ġnerv": 5182,
      "ĠPsych": 5183,
      "Ġchain": 5184,
      "Ġbeneficial": 5185,
      "ĠGovernment": 5186,
      "Ġcircuit": 5187,
      "pat": 5188,
      "Ġstages": 5189,
      "Ġalle": 5190,
      "CT": 5191,
      "Ġgenerate": 5192,
      "Ġappearance": 5193,
      "ĠJames": 5194,
      "ander": 5195,
      "pan": 5196,
      "Ġdrinking": 5197,
      "ĠSecond": 5198,
      "ĠForm": 5199,
      "Ġsecondary": 5200,
      "Ġdial": 5201,
      "Ġcombined": 5202,
      "rier": 5203,
      "berg": 5204,
      "Ġsports": 5205,
      "Ġperiods": 5206,
      "ĠLatin": 5207,
      "Ġsufficient": 5208,
      "Ġhaz": 5209,
      "free": 5210,
      "osph": 5211,
      "Ġvoice": 5212,
      "Ġrub": 5213,
      "Ġadding": 5214,
      "ĠDiff": 5215,
      "vironments": 5216,
      "Ġpron": 5217,
      "95": 5218,
      "arant": 5219,
      "05": 5220,
      "Ġharmful": 5221,
      "den": 5222,
      "Ġdiscussed": 5223,
      "Ġwet": 5224,
      "fl": 5225,
      "ĠCongress": 5226,
      "Ġcook": 5227,
      "celer": 5228,
      "Ġliver": 5229,
      "ĠLa": 5230,
      "vis": 5231,
      "ompl": 5232,
      "rieved": 5233,
      "Ġleadership": 5234,
      "Ġplayed": 5235,
      "Ġbiological": 5236,
      "Ġ>": 5237,
      "Ġresist": 5238,
      "Ġspend": 5239,
      "onomy": 5240,
      "Ġsecret": 5241,
      "Ġaudience": 5242,
      "iverse": 5243,
      "ava": 5244,
      "ĠSte": 5245,
      "with": 5246,
      "Ġabuse": 5247,
      "Ġextent": 5248,
      "icated": 5249,
      "ĠAcad": 5250,
      "MS": 5251,
      "ache": 5252,
      "mas": 5253,
      "Des": 5254,
      "Ġplaying": 5255,
      "Ġchart": 5256,
      "Ġmeant": 5257,
      "Many": 5258,
      "aker": 5259,
      "Ġtraffic": 5260,
      "Ġdeliver": 5261,
      "abulary": 5262,
      "Ġcompare": 5263,
      "aughter": 5264,
      "ĠDesign": 5265,
      "Ġtransition": 5266,
      "hips": 5267,
      "ĠDavid": 5268,
      "Ġsupported": 5269,
      "ĠWriting": 5270,
      "Ġtoxic": 5271,
      "ria": 5272,
      "ĠJewish": 5273,
      "atric": 5274,
      "tee": 5275,
      "Ġmaintaining": 5276,
      "uls": 5277,
      "aturally": 5278,
      "hemical": 5279,
      "Ġcrisis": 5280,
      "Ġleader": 5281,
      "Ġrand": 5282,
      "Ġlose": 5283,
      "Ġoffered": 5284,
      "New": 5285,
      "Ġrecovery": 5286,
      "Ġkn": 5287,
      "ibilities": 5288,
      "ĠReview": 5289,
      "itz": 5290,
      "Ġingred": 5291,
      "anted": 5292,
      "Ġshowing": 5293,
      "ĠPract": 5294,
      "Ġcourses": 5295,
      "olve": 5296,
      "Ġmoved": 5297,
      "inent": 5298,
      "Ġelectronic": 5299,
      "Ab": 5300,
      "Ġinflammation": 5301,
      "Ġviews": 5302,
      "Ġtaught": 5303,
      "Ġdomestic": 5304,
      "othing": 5305,
      "Ġnoted": 5306,
      "ĠProfess": 5307,
      "Ġclim": 5308,
      "Ġwonder": 5309,
      "Ġemergency": 5310,
      "ĠKnow": 5311,
      "Ġhypot": 5312,
      "ĠPC": 5313,
      "Ġcolumn": 5314,
      "Ġpand": 5315,
      "Ġbright": 5316,
      "Ġframework": 5317,
      "Ġprompt": 5318,
      "olving": 5319,
      "Ġfiles": 5320,
      "inder": 5321,
      "Ġcustomers": 5322,
      "ĠOld": 5323,
      "Ġcrus": 5324,
      "Ġpotentially": 5325,
      "lements": 5326,
      "ĠTreat": 5327,
      "roduct": 5328,
      "Ġdrink": 5329,
      "Ġfoss": 5330,
      "Ġreb": 5331,
      "Ġthin": 5332,
      "Ġcorrespond": 5333,
      "Ġkilled": 5334,
      "Ġturned": 5335,
      "Ġratio": 5336,
      "Ġworldwide": 5337,
      "Ġheard": 5338,
      "ĠOF": 5339,
      "31": 5340,
      "ey": 5341,
      "ortunately": 5342,
      "ĠWhite": 5343,
      "Ġsaying": 5344,
      "Ġconclud": 5345,
      "Ġcontaining": 5346,
      "Ġfamiliar": 5347,
      "Ġsurrounding": 5348,
      "Ġpsychological": 5349,
      "usiness": 5350,
      "Another": 5351,
      "Ġuniversity": 5352,
      "Ġisland": 5353,
      "inations": 5354,
      "Ġelev": 5355,
      "Ġsets": 5356,
      "44": 5357,
      "Ġod": 5358,
      "oster": 5359,
      "Ġcontrolled": 5360,
      "Ġrein": 5361,
      "Ġkm": 5362,
      "cules": 5363,
      "Ġrandom": 5364,
      "Ġdu": 5365,
      "ĠDist": 5366,
      "roke": 5367,
      "Ġdescribes": 5368,
      "akers": 5369,
      "Ġphone": 5370,
      "osa": 5371,
      "Ġstem": 5372,
      "Ġskill": 5373,
      "Ġcomparison": 5374,
      "ĠThrough": 5375,
      "lam": 5376,
      "oper": 5377,
      "Ġsouthern": 5378,
      "Ġallerg": 5379,
      "Ġproport": 5380,
      "tage": 5381,
      "Ġsubstance": 5382,
      "ĠInformation": 5383,
      "Ġrecognize": 5384,
      "Ġinterview": 5385,
      "Ġjustice": 5386,
      "Ġkept": 5387,
      "stract": 5388,
      "ventional": 5389,
      "Ġcenturies": 5390,
      "Ġprinciple": 5391,
      "ounced": 5392,
      "astern": 5393,
      "Be": 5394,
      "ĠCentral": 5395,
      "Ġspl": 5396,
      "ĠLanguage": 5397,
      "Ġdatabase": 5398,
      "'ve": 5399,
      "Ġengage": 5400,
      "Ġrespir": 5401,
      "asure": 5402,
      "Ġincreasingly": 5403,
      "ĠUp": 5404,
      "Ġmedications": 5405,
      "Ġpig": 5406,
      "igenous": 5407,
      "omach": 5408,
      "Ġaccompl": 5409,
      "ĠStudy": 5410,
      "IG": 5411,
      "Ġchoices": 5412,
      "Ġinteraction": 5413,
      "ĠCouncil": 5414,
      "cling": 5415,
      "Ġlifestyle": 5416,
      "ĠStand": 5417,
      "ĠSal": 5418,
      "Ġcomment": 5419,
      "CC": 5420,
      "ado": 5421,
      "Ġtrad": 5422,
      "ĠDise": 5423,
      "Ġexplains": 5424,
      "Ġoffic": 5425,
      "Ġensuring": 5426,
      "rors": 5427,
      "Ġenvironments": 5428,
      "level": 5429,
      "From": 5430,
      "Ġobvious": 5431,
      "Ġpret": 5432,
      "dent": 5433,
      "Ġbehaviour": 5434,
      "ĠBoth": 5435,
      "utive": 5436,
      "01": 5437,
      "Ind": 5438,
      "Ġstudied": 5439,
      "Ġnutrition": 5440,
      "Ġlinks": 5441,
      "Ġfertil": 5442,
      "what": 5443,
      "Ġdocuments": 5444,
      "Ġsyndrome": 5445,
      "Ġprepare": 5446,
      "ĠWind": 5447,
      "pass": 5448,
      "Ġsubstant": 5449,
      "Ã¢": 5450,
      "Ġstudying": 5451,
      "rect": 5452,
      "Ġinfrastructure": 5453,
      "ipped": 5454,
      "ĠAbout": 5455,
      "Ġauthority": 5456,
      "itors": 5457,
      "Ġindex": 5458,
      "ĠStudies": 5459,
      "ras": 5460,
      "Ġgram": 5461,
      "ĠTwo": 5462,
      "Ġartificial": 5463,
      "Ġprecise": 5464,
      "Ġchallenging": 5465,
      "Ġdespite": 5466,
      "Ġdream": 5467,
      "Ġvast": 5468,
      "itage": 5469,
      "Ġnations": 5470,
      "Ġnor": 5471,
      "Ġcontem": 5472,
      "Us": 5473,
      "flow": 5474,
      "Ġfarmers": 5475,
      "ivery": 5476,
      "ka": 5477,
      "ĠArab": 5478,
      "Ġpaint": 5479,
      "Ġroutine": 5480,
      "ĠMath": 5481,
      "ĠWhe": 5482,
      "agers": 5483,
      "Ġkg": 5484,
      "Ġapprec": 5485,
      "Ġnorthern": 5486,
      "Ġsummary": 5487,
      "ĠSum": 5488,
      "rency": 5489,
      "Ġmoral": 5490,
      "Ġages": 5491,
      "net": 5492,
      "bra": 5493,
      "mp": 5494,
      "Re": 5495,
      "ocal": 5496,
      "Ġfirm": 5497,
      "Ġera": 5498,
      "ĠAtt": 5499,
      "ffee": 5500,
      "ĠTex": 5501,
      "Ġagricultural": 5502,
      "Ġevaluation": 5503,
      "ifications": 5504,
      "Now": 5505,
      "Ġax": 5506,
      "Ġinstrument": 5507,
      "ĠMuse": 5508,
      "rid": 5509,
      "amples": 5510,
      "organ": 5511,
      "fall": 5512,
      "Ġserved": 5513,
      "Most": 5514,
      "ĠGeorge": 5515,
      "ĠExper": 5516,
      "Ġdensity": 5517,
      "Ġcm": 5518,
      "ashion": 5519,
      "Ġpossess": 5520,
      "bi": 5521,
      "ĠIN": 5522,
      "Ġsensitive": 5523,
      "Although": 5524,
      "ague": 5525,
      "Ġmorning": 5526,
      "ĠService": 5527,
      "faces": 5528,
      "ny": 5529,
      "Ġdoll": 5530,
      "ĠMount": 5531,
      "ĠBet": 5532,
      "Ġexistence": 5533,
      "Ġminimum": 5534,
      "ifies": 5535,
      "Ġgrown": 5536,
      "ĠBritain": 5537,
      "HO": 5538,
      "Ġsubsequ": 5539,
      "ĠMiddle": 5540,
      "itness": 5541,
      "Ġdriving": 5542,
      "CE": 5543,
      "Ġsignificance": 5544,
      "mic": 5545,
      "ĠCare": 5546,
      "lo": 5547,
      "Ġprevention": 5548,
      "Ġformal": 5549,
      "acific": 5550,
      "opes": 5551,
      "ĠTop": 5552,
      "LE": 5553,
      "unk": 5554,
      "Ġinterests": 5555,
      "nel": 5556,
      "Ġflat": 5557,
      "ĠCivil": 5558,
      "Ġcultures": 5559,
      "alled": 5560,
      "Ġdecided": 5561,
      "Ġstock": 5562,
      "rolog": 5563,
      "Ġrecognized": 5564,
      "Ġprogramming": 5565,
      "ĠMexico": 5566,
      "Ġtrain": 5567,
      "Ġtail": 5568,
      "Ġmedication": 5569,
      "Ġgreatest": 5570,
      "Ġcloud": 5571,
      "aks": 5572,
      "ested": 5573,
      "Ġtouch": 5574,
      "Ġ45": 5575,
      "ĠMedical": 5576,
      "Ġstation": 5577,
      "tering": 5578,
      "Ġsed": 5579,
      "ossible": 5580,
      "Ġcircumst": 5581,
      "BC": 5582,
      "ĠCourt": 5583,
      "Ġreached": 5584,
      "ĠFre": 5585,
      "Ġlandscape": 5586,
      "Ġgluc": 5587,
      "Ġdating": 5588,
      "Ġnan": 5589,
      "ownload": 5590,
      "Ġtested": 5591,
      "Ġpump": 5592,
      "Ġglob": 5593,
      "ĠAnother": 5594,
      "yles": 5595,
      "Ġslightly": 5596,
      "oke": 5597,
      "Ġopinion": 5598,
      "Ġprotected": 5599,
      "ĠFe": 5600,
      "Ġcorpor": 5601,
      "Ġnavig": 5602,
      "ĠTHE": 5603,
      "Ġlik": 5604,
      "Ġwave": 5605,
      "Ġelectro": 5606,
      "Ġintake": 5607,
      "46": 5608,
      "Ġmovements": 5609,
      "ĠDirect": 5610,
      "ĠHol": 5611,
      "ĠHIV": 5612,
      "verty": 5613,
      "ĠKore": 5614,
      "Ġfacilities": 5615,
      "ĠTem": 5616,
      "Ġphotos": 5617,
      "Ġconsistent": 5618,
      "Â·": 5619,
      "racy": 5620,
      "bing": 5621,
      "Ġperman": 5622,
      "Ġship": 5623,
      "Ġplate": 5624,
      "name": 5625,
      "Ġspent": 5626,
      "Ġpoverty": 5627,
      "De": 5628,
      "Ġcultiv": 5629,
      "oughly": 5630,
      "iced": 5631,
      "ĠCam": 5632,
      "Ġsend": 5633,
      "Ġoutl": 5634,
      "ĠStep": 5635,
      "Ġabsolute": 5636,
      "Ġfiber": 5637,
      "ĠBible": 5638,
      "Ġgar": 5639,
      "ĠRober": 5640,
      "Ġresponses": 5641,
      "Ġdescription": 5642,
      "Ġwest": 5643,
      "Ġenable": 5644,
      "Ġvehicles": 5645,
      "Ġaren": 5646,
      "Ġdiscipl": 5647,
      "ÃŃ": 5648,
      "Ġappoint": 5649,
      "aser": 5650,
      "inating": 5651,
      "chers": 5652,
      "izer": 5653,
      "Ġlibrary": 5654,
      "Ġdiscrim": 5655,
      "Ġspiritual": 5656,
      "ĠMart": 5657,
      "ĠFam": 5658,
      "Ġwhom": 5659,
      "ĠControl": 5660,
      "ĠEmp": 5661,
      "Ġsimpl": 5662,
      "RI": 5663,
      "Ġportion": 5664,
      "LA": 5665,
      "ĠLike": 5666,
      "stood": 5667,
      "ĠGood": 5668,
      "adian": 5669,
      "Ġbrown": 5670,
      "Ġsequence": 5671,
      "arrow": 5672,
      "Ġsuggested": 5673,
      "ĠPaul": 5674,
      "Ġswitch": 5675,
      "Ġtransmission": 5676,
      "Ġ2022": 5677,
      "ĠCy": 5678,
      "Ġindu": 5679,
      "En": 5680,
      "Ġ2004": 5681,
      "Ġfabric": 5682,
      "Ġmyth": 5683,
      "ctor": 5684,
      "Ġclosely": 5685,
      "Ġhandle": 5686,
      "esity": 5687,
      "rd": 5688,
      "Ġexplained": 5689,
      "ĠDel": 5690,
      "Ġwestern": 5691,
      "ĠHome": 5692,
      "plicated": 5693,
      "Ġoccurred": 5694,
      "Ġfoundation": 5695,
      "Ġgirls": 5696,
      "ĠRussia": 5697,
      "Ġstated": 5698,
      "Ġdut": 5699,
      "ĠCath": 5700,
      "word": 5701,
      "lar": 5702,
      "Ġble": 5703,
      "Ġcrops": 5704,
      "Ġraw": 5705,
      "Ġgenerated": 5706,
      "struct": 5707,
      "Ġdistingu": 5708,
      "Ġindustries": 5709,
      "tic": 5710,
      "ĠPost": 5711,
      "Ġvariable": 5712,
      "Ð¸": 5713,
      "Ġgrand": 5714,
      "Ġconcrete": 5715,
      "ĠJe": 5716,
      "Ġraised": 5717,
      "Ġonto": 5718,
      "85": 5719,
      "band": 5720,
      "Ġexamine": 5721,
      "ĠHen": 5722,
      "asp": 5723,
      "Ġbow": 5724,
      "Ġassemb": 5725,
      "Ġleaf": 5726,
      "Ġthor": 5727,
      "ĠDet": 5728,
      "Go": 5729,
      "Ġfeedback": 5730,
      "Ġpictures": 5731,
      "Ġcompr": 5732,
      "Ġinsurance": 5733,
      "ĠIsland": 5734,
      "Ġprem": 5735,
      "Ġerror": 5736,
      "ato": 5737,
      "Ġsupplement": 5738,
      "Ġbehaviors": 5739,
      "Ġsides": 5740,
      "ĠCommon": 5741,
      "Ġlargely": 5742,
      "Ġfinally": 5743,
      "Ġchildhood": 5744,
      "Ġstorm": 5745,
      "ĠSaf": 5746,
      "Ġcomputers": 5747,
      "Ġtal": 5748,
      "eper": 5749,
      "uracy": 5750,
      "Ġusage": 5751,
      "Ġotherwise": 5752,
      "gets": 5753,
      "Ġ2003": 5754,
      "Ġhero": 5755,
      "Ġband": 5756,
      "Ġinstructions": 5757,
      "Ġadequ": 5758,
      "Stud": 5759,
      "ĠTexas": 5760,
      "ĠFact": 5761,
      "Ġexercises": 5762,
      "That": 5763,
      "ensus": 5764,
      "ĠSpace": 5765,
      "Ġdrop": 5766,
      "ario": 5767,
      "Ġrapidly": 5768,
      "76": 5769,
      "Ġpurchase": 5770,
      "Ġharvest": 5771,
      "Ġelectron": 5772,
      "Ġbio": 5773,
      "ĠToday": 5774,
      "Ġagriculture": 5775,
      "Ġfelt": 5776,
      "Ġtransact": 5777,
      "Ġsheet": 5778,
      "Ġfunctional": 5779,
      "Ġpreval": 5780,
      "udden": 5781,
      "Ġspeaking": 5782,
      "ocy": 5783,
      "which": 5784,
      "Ġtheme": 5785,
      "Ġstomach": 5786,
      "ellect": 5787,
      "Ġpoem": 5788,
      "Ġconcerned": 5789,
      "car": 5790,
      "Ġcreates": 5791,
      "ropical": 5792,
      "Ġfort": 5793,
      "Ġinteractions": 5794,
      "alian": 5795,
      "Ġmolecules": 5796,
      "Ġimmig": 5797,
      "Ġcapable": 5798,
      "ĠÂ·": 5799,
      "ĠCult": 5800,
      "Ġ31": 5801,
      "ĠRich": 5802,
      "Ġhabits": 5803,
      "eles": 5804,
      "ĠLearn": 5805,
      "ometimes": 5806,
      "Ġrevealed": 5807,
      "ĠWomen": 5808,
      "Ġreliable": 5809,
      "Ġvirtual": 5810,
      "Ġrural": 5811,
      "Ġphilosophy": 5812,
      "ĠAdd": 5813,
      "Ġsnow": 5814,
      "uilding": 5815,
      "Ġbrother": 5816,
      "opl": 5817,
      "Ġnaturally": 5818,
      "ĠRussian": 5819,
      "Ġliterary": 5820,
      "Ġachieved": 5821,
      "Ġsell": 5822,
      "ĠMil": 5823,
      "Ġcutting": 5824,
      "osc": 5825,
      "Ġproducing": 5826,
      "ĠSl": 5827,
      "Ġexperiments": 5828,
      "Ġexpensive": 5829,
      "arsh": 5830,
      "eless": 5831,
      "iled": 5832,
      "Ġshel": 5833,
      "rons": 5834,
      "indu": 5835,
      "Ġarchitecture": 5836,
      "Ġstored": 5837,
      "Ġmagnetic": 5838,
      "Ġsettle": 5839,
      "Ġfasc": 5840,
      "omic": 5841,
      "ael": 5842,
      "ĠCD": 5843,
      "Ġsurvival": 5844,
      "ĠLess": 5845,
      "ĠPub": 5846,
      "ĠMuseum": 5847,
      "Ġinches": 5848,
      "Ġregulations": 5849,
      "rag": 5850,
      "Ġmachines": 5851,
      "Ġscholars": 5852,
      "Ġchrom": 5853,
      "Ġforced": 5854,
      "ĠEffect": 5855,
      "Ġsod": 5856,
      "ĠMiss": 5857,
      "Ġaqu": 5858,
      "alse": 5859,
      "Ġcommunicate": 5860,
      "Ġsuffering": 5861,
      "Ġstarts": 5862,
      "Ã¼": 5863,
      "long": 5864,
      "Ġfif": 5865,
      "ĠWord": 5866,
      "Ġrelax": 5867,
      "Ġhappened": 5868,
      "Ġamb": 5869,
      "Ġhabitat": 5870,
      "Te": 5871,
      "Ġabund": 5872,
      "Ġinhib": 5873,
      "Ġpolice": 5874,
      "ĠTime": 5875,
      "Ġdrawing": 5876,
      "Ġaer": 5877,
      "Ġmulti": 5878,
      "Ġfixed": 5879,
      "Ġacids": 5880,
      "Int": 5881,
      "akespe": 5882,
      "raction": 5883,
      "Ġtut": 5884,
      "ĠIr": 5885,
      "Ġroles": 5886,
      "ĠMr": 5887,
      "Ġcustomer": 5888,
      "Ġminerals": 5889,
      "Ġcouple": 5890,
      "Ġfill": 5891,
      "olf": 5892,
      "Ġbeliefs": 5893,
      "amics": 5894,
      "Ġderived": 5895,
      "Ġsupporting": 5896,
      "olester": 5897,
      "hav": 5898,
      "Ġsen": 5899,
      "ĠQue": 5900,
      "Ġsin": 5901,
      "Ġunderlying": 5902,
      "88": 5903,
      "Ġhappy": 5904,
      "Ġhydrogen": 5905,
      "rus": 5906,
      "ventions": 5907,
      "Ġgovernments": 5908,
      "Ġquar": 5909,
      "Ġwriters": 5910,
      "Ġraise": 5911,
      "ĠProv": 5912,
      "Ġparties": 5913,
      "Lear": 5914,
      "ht": 5915,
      "Ġacceler": 5916,
      "Ġsan": 5917,
      "Ġvariables": 5918,
      "Ġintervention": 5919,
      "ĠRetrieved": 5920,
      "Ġinfected": 5921,
      "Ġassistance": 5922,
      "kin": 5923,
      "Ġwife": 5924,
      "Ġpaid": 5925,
      "Ġextensive": 5926,
      "Ġmemb": 5927,
      "47": 5928,
      "Ġacts": 5929,
      "Ġobjective": 5930,
      "Ġmm": 5931,
      "icks": 5932,
      "Ġcompounds": 5933,
      "Ġbond": 5934,
      "Ġrestrict": 5935,
      "ĠWell": 5936,
      "Ġnormally": 5937,
      "uter": 5938,
      "Ġprotocol": 5939,
      "Ġlots": 5940,
      "Ġeast": 5941,
      "Ġpandemic": 5942,
      "apping": 5943,
      "stream": 5944,
      "Ġvisible": 5945,
      "UR": 5946,
      "Ġpure": 5947,
      "Ġafford": 5948,
      "ĠMedicine": 5949,
      "bert": 5950,
      "Sc": 5951,
      "pping": 5952,
      "ĠSam": 5953,
      "Ġwhereas": 5954,
      "Ġtoler": 5955,
      "Ġkit": 5956,
      "lers": 5957,
      "estions": 5958,
      "ĠGrade": 5959,
      "Ġprofessor": 5960,
      "idden": 5961,
      "Ġmechanism": 5962,
      "Comp": 5963,
      "Ġmechanisms": 5964,
      "Ġimper": 5965,
      "Ġimplementation": 5966,
      "Ġformula": 5967,
      "Ġdent": 5968,
      "Ġwalls": 5969,
      "Ġimprovement": 5970,
      "ĠBer": 5971,
      "49": 5972,
      "van": 5973,
      "Ġagreement": 5974,
      "Cont": 5975,
      "Ġstars": 5976,
      "Ġremote": 5977,
      "iform": 5978,
      "Ġaccounts": 5979,
      "Ġalign": 5980,
      "Ġconscious": 5981,
      "Ġapart": 5982,
      "ĠNAS": 5983,
      "olesterol": 5984,
      "Ġclaims": 5985,
      "ĠCle": 5986,
      "ĠEqu": 5987,
      "Ġreactions": 5988,
      "Ġsick": 5989,
      "55": 5990,
      "rian": 5991,
      "Ġhydro": 5992,
      "ĠSen": 5993,
      "inet": 5994,
      "pes": 5995,
      "ĠSea": 5996,
      "oted": 5997,
      "Ġperce": 5998,
      "ups": 5999,
      "Ġsettings": 6000,
      "ĠAtl": 6001,
      "Ġgather": 6002,
      "Ġplayers": 6003,
      "ĠAS": 6004,
      "ĠMem": 6005,
      "akespeare": 6006,
      "Ġmonitor": 6007,
      "ĠLou": 6008,
      "Ġpersons": 6009,
      "Ġmere": 6010,
      "Ġeveryday": 6011,
      "ults": 6012,
      "ye": 6013,
      "ĠMain": 6014,
      "ĠMass": 6015,
      "state": 6016,
      "Ġfract": 6017,
      "othe": 6018,
      "ĠMill": 6019,
      "Ġdelivery": 6020,
      "Ġmixed": 6021,
      "ĠThomas": 6022,
      "Ġexcl": 6023,
      "Ġwants": 6024,
      "Ġfigures": 6025,
      "icon": 6026,
      "ipping": 6027,
      "ÑĤ": 6028,
      "ivalent": 6029,
      "vity": 6030,
      "win": 6031,
      "Ġconsumers": 6032,
      "anged": 6033,
      "Ġaccomp": 6034,
      "Ġconfidence": 6035,
      "Ġtalking": 6036,
      "Ġlabel": 6037,
      "Ġextended": 6038,
      "Ġsweet": 6039,
      "ĠPers": 6040,
      "Ġfloor": 6041,
      "ĠUSA": 6042,
      "rem": 6043,
      "Ġcoffee": 6044,
      "66": 6045,
      "Gen": 6046,
      "Ġwaters": 6047,
      "Ġadministration": 6048,
      "Ġwish": 6049,
      "Ġpup": 6050,
      "Ġtraum": 6051,
      "Ġcalcium": 6052,
      "Se": 6053,
      "Ġdeaths": 6054,
      "Ġadoles": 6055,
      "Ġpresentation": 6056,
      "Ġcandid": 6057,
      "ansion": 6058,
      "itudes": 6059,
      "Ġcarefully": 6060,
      "oding": 6061,
      "onal": 6062,
      "Ġsmoking": 6063,
      "âĢĻ.": 6064,
      "riend": 6065,
      "Ġindicates": 6066,
      "Ġreform": 6067,
      "anc": 6068,
      "Ġlisted": 6069,
      "ĠBre": 6070,
      "rating": 6071,
      "ĠGroup": 6072,
      "ĠNor": 6073,
      "west": 6074,
      "Ġenglish": 6075,
      "ĠInstead": 6076,
      "ĠSuch": 6077,
      "Ġcritic": 6078,
      "Ġleaving": 6079,
      "Ġdepos": 6080,
      "Ġsubstances": 6081,
      "ĠHam": 6082,
      "89": 6083,
      "Ġwindow": 6084,
      "Ġstret": 6085,
      "Ġlaun": 6086,
      "Ġmeasurement": 6087,
      "Ġguidance": 6088,
      "Ġrecognition": 6089,
      "ĠFlor": 6090,
      "Ġregul": 6091,
      "Ġsharing": 6092,
      "Ġcrime": 6093,
      "ĠLand": 6094,
      "azing": 6095,
      "Ġcars": 6096,
      "making": 6097,
      "Ġadvoc": 6098,
      "Ġnarrative": 6099,
      "ĠDig": 6100,
      "Ġarmy": 6101,
      "riers": 6102,
      "ena": 6103,
      "Ġbudget": 6104,
      "Ġvocabulary": 6105,
      "Ġevaluate": 6106,
      "Ġpropos": 6107,
      "IL": 6108,
      "Ġ;": 6109,
      "Ġyield": 6110,
      "Ġwaves": 6111,
      "Ġexpressed": 6112,
      "Ġinject": 6113,
      "Ġaccuracy": 6114,
      "Ġdecide": 6115,
      "ĠAny": 6116,
      "Ġcircumstances": 6117,
      "Ġlocations": 6118,
      "ads": 6119,
      "ĠWorksheets": 6120,
      "Ġcash": 6121,
      "ĠVirgin": 6122,
      "ĠGlobal": 6123,
      "Ġsuccessfully": 6124,
      "Ġdefine": 6125,
      "Ġglucose": 6126,
      "print": 6127,
      "Ġinjuries": 6128,
      "throp": 6129,
      "cific": 6130,
      "Ġsmooth": 6131,
      "ĠJer": 6132,
      "Ġvoltage": 6133,
      "Ġnoise": 6134,
      "ester": 6135,
      "Ġmillions": 6136,
      "orrow": 6137,
      "rust": 6138,
      "Ġcats": 6139,
      "wing": 6140,
      "ĠAP": 6141,
      "ĠScient": 6142,
      "how": 6143,
      "Ġmarriage": 6144,
      "ĠOx": 6145,
      "Ġ2001": 6146,
      "Ġguarant": 6147,
      "ĠJews": 6148,
      "Ġinsulin": 6149,
      "ĠChapter": 6150,
      "field": 6151,
      "Ġoffering": 6152,
      "Ġcovers": 6153,
      "Ġtheories": 6154,
      "Bl": 6155,
      "Ġrespectively": 6156,
      "ĠPlant": 6157,
      ".|": 6158,
      "Ġinstitution": 6159,
      "Ġresidents": 6160,
      "ĠLab": 6161,
      "ĠGuide": 6162,
      "Ġregional": 6163,
      "ĠVis": 6164,
      "Ġtank": 6165,
      "ĠTer": 6166,
      "ogue": 6167,
      "77": 6168,
      "Ġstable": 6169,
      "Ġdust": 6170,
      "normal": 6171,
      "rants": 6172,
      "ĠFind": 6173,
      "Ġproduces": 6174,
      "Ġconnections": 6175,
      "Ġstruggle": 6176,
      "orter": 6177,
      "Ġclosed": 6178,
      "stein": 6179,
      "Ġdigest": 6180,
      "Ġsignals": 6181,
      "Ġpossibly": 6182,
      "Ġaccum": 6183,
      "Ġcrop": 6184,
      "ĠEnvironmental": 6185,
      "Ġanalyze": 6186,
      "ona": 6187,
      "idity": 6188,
      "Ġunderstood": 6189,
      "ĠPacific": 6190,
      "atever": 6191,
      "ĠCre": 6192,
      "iability": 6193,
      "Ġsentences": 6194,
      "Ġweap": 6195,
      "Qu": 6196,
      "Ġethnic": 6197,
      "icious": 6198,
      "ocracy": 6199,
      "Ġca": 6200,
      "ĠAp": 6201,
      "ĠAcc": 6202,
      "Ġdiscovery": 6203,
      "amins": 6204,
      "iotics": 6205,
      "Ġsatell": 6206,
      "zed": 6207,
      "Ġdetection": 6208,
      "Ġdisapp": 6209,
      "ocratic": 6210,
      "Ã³": 6211,
      "body": 6212,
      "Ġlearners": 6213,
      "ocking": 6214,
      "Ġmild": 6215,
      "ĠBay": 6216,
      "Ġrecon": 6217,
      "ĠExt": 6218,
      "ican": 6219,
      "Ġtried": 6220,
      "Ġchosen": 6221,
      "Ġ2002": 6222,
      "Ġhundreds": 6223,
      "han": 6224,
      "Ġhorse": 6225,
      "Ġfocuses": 6226,
      "Ġadvert": 6227,
      "ĠMa": 6228,
      "Ġsuffer": 6229,
      "ĠIP": 6230,
      "ĠMuslim": 6231,
      "oral": 6232,
      "gans": 6233,
      "ĠGold": 6234,
      "ĠAnalysis": 6235,
      "Ġorganisms": 6236,
      "Ġuns": 6237,
      "ĠBudd": 6238,
      "Ġtransportation": 6239,
      "pected": 6240,
      "Ġreven": 6241,
      "Ġdifficulty": 6242,
      "BS": 6243,
      "Ġremained": 6244,
      "Ġwid": 6245,
      "Ġcatch": 6246,
      "Ġtruly": 6247,
      "Ġassignment": 6248,
      "Ġconventional": 6249,
      "IP": 6250,
      "itivity": 6251,
      "Ġbreathing": 6252,
      "Ġedge": 6253,
      "Ġedition": 6254,
      "ĠNature": 6255,
      "Ġshift": 6256,
      "Ġopening": 6257,
      "hop": 6258,
      "ĠLeg": 6259,
      "Ġscore": 6260,
      "Ġ1990": 6261,
      "emia": 6262,
      "gent": 6263,
      "ĠRights": 6264,
      "Ġrecept": 6265,
      "Ġcolour": 6266,
      "Ġaims": 6267,
      "Ġcrypt": 6268,
      "ircraft": 6269,
      "Ġcalls": 6270,
      "onia": 6271,
      "Ġzero": 6272,
      "ville": 6273,
      "Ġ500": 6274,
      "Ġbones": 6275,
      "Ġmoon": 6276,
      "ĠLong": 6277,
      "ĠMult": 6278,
      "ĠJud": 6279,
      "war": 6280,
      "aning": 6281,
      "Ġmarine": 6282,
      "Ġtro": 6283,
      "Ġopposite": 6284,
      "Ġgreatly": 6285,
      "Ġsupports": 6286,
      "Ġrhy": 6287,
      "Ġtells": 6288,
      "Ġtaste": 6289,
      "Ġdecline": 6290,
      "Ġshell": 6291,
      "Ġcharacterized": 6292,
      "ki": 6293,
      "Ġtun": 6294,
      "Ġpil": 6295,
      "2017": 6296,
      "Ġrail": 6297,
      "Ġinsights": 6298,
      "ĠEth": 6299,
      "allel": 6300,
      "ĠStat": 6301,
      "ella": 6302,
      "Ġsurvive": 6303,
      "Ġunknown": 6304,
      "Ġpercentage": 6305,
      "ĠDoes": 6306,
      "Ġsuc": 6307,
      "Ġlayers": 6308,
      "ersonal": 6309,
      "Ġ300": 6310,
      "advant": 6311,
      "Ġadopted": 6312,
      "aria": 6313,
      "Ġinsects": 6314,
      "oviet": 6315,
      "Ġinner": 6316,
      "oom": 6317,
      "Ġfashion": 6318,
      "Ġpersist": 6319,
      "Ġsudden": 6320,
      "ĠRad": 6321,
      "Ġapparent": 6322,
      "Ġinformed": 6323,
      "%)": 6324,
      "Ġhoriz": 6325,
      "Ġorganized": 6326,
      "Ġpip": 6327,
      "Ġaccepted": 6328,
      "ĠNASA": 6329,
      "ĠSym": 6330,
      "Over": 6331,
      "urd": 6332,
      "ĠPM": 6333,
      "ĠSign": 6334,
      "arten": 6335,
      "Ġethical": 6336,
      "Ġhomework": 6337,
      "then": 6338,
      "Ġshop": 6339,
      "Ġintellect": 6340,
      "orical": 6341,
      "Ġunlike": 6342,
      "Ġoutline": 6343,
      "Ġpossibility": 6344,
      "Ġinnovation": 6345,
      "Ġgall": 6346,
      "edy": 6347,
      "ĠBat": 6348,
      "Ġenab": 6349,
      "Ġrow": 6350,
      "Ġabilities": 6351,
      "ĠCommission": 6352,
      "inity": 6353,
      "Ġconsumer": 6354,
      "Ġaccessible": 6355,
      "Ġcyber": 6356,
      "Ġtheore": 6357,
      "chain": 6358,
      "Ġmamm": 6359,
      "aming": 6360,
      "ython": 6361,
      "cest": 6362,
      "born": 6363,
      "ĠCreat": 6364,
      "During": 6365,
      "ita": 6366,
      "Ġtherap": 6367,
      "oto": 6368,
      "Ġpresents": 6369,
      "ĠStr": 6370,
      "Ġfilled": 6371,
      "Ġtea": 6372,
      "Ġnarrow": 6373,
      "Ġcategories": 6374,
      "Ġinfluenced": 6375,
      "Ġwors": 6376,
      "umes": 6377,
      "lets": 6378,
      "Ġprison": 6379,
      "Ġconstitution": 6380,
      "Ġshapes": 6381,
      "Ġlaboratory": 6382,
      "ĠFoundation": 6383,
      "ĠNav": 6384,
      "Ġfle": 6385,
      "ĠCompany": 6386,
      "Ġpsychology": 6387,
      "ĠRome": 6388,
      "Ġmoisture": 6389,
      "struction": 6390,
      "Ġgun": 6391,
      "Ġcart": 6392,
      "Ġassociation": 6393,
      "Ã¶": 6394,
      "Ġcopper": 6395,
      "08": 6396,
      "Ġmechanical": 6397,
      "Ġbiggest": 6398,
      "Ġmassive": 6399,
      "Ġfunding": 6400,
      "Ġdedicated": 6401,
      "ĠLake": 6402,
      "ĠSciences": 6403,
      "itory": 6404,
      "ugh": 6405,
      "ini": 6406,
      "ĠWik": 6407,
      "Ġchick": 6408,
      "hand": 6409,
      "Ġlisten": 6410,
      "Ġreduces": 6411,
      "Ġconsidering": 6412,
      "Ġdemonstrate": 6413,
      "500": 6414,
      "ota": 6415,
      "Ġdesire": 6416,
      "Ġsections": 6417,
      "gu": 6418,
      "ĠSing": 6419,
      "Ġpray": 6420,
      "Ġrelation": 6421,
      "unte": 6422,
      "Ġpolitics": 6423,
      "Ġregist": 6424,
      "Ġcompetition": 6425,
      "pring": 6426,
      "ĠHelp": 6427,
      "ĠSol": 6428,
      "Ġmarked": 6429,
      "Ġpersu": 6430,
      "Ġsales": 6431,
      "ĠWho": 6432,
      "Ġconven": 6433,
      "add": 6434,
      "Ġfav": 6435,
      "Ġrepeated": 6436,
      "Ġacknow": 6437,
      "Ġcholesterol": 6438,
      "ĠSet": 6439,
      "ĠArmy": 6440,
      "Ġfeeding": 6441,
      "dule": 6442,
      "Ġstands": 6443,
      "no": 6444,
      "luding": 6445,
      "ĠCap": 6446,
      "Ġimpossible": 6447,
      "weight": 6448,
      "Ġseeking": 6449,
      "ĠConstitution": 6450,
      "Ġlooked": 6451,
      "ĠKeep": 6452,
      "ĠLibrary": 6453,
      "Ġment": 6454,
      "Dr": 6455,
      "Ġrespiratory": 6456,
      "Ġhem": 6457,
      "Ġjoin": 6458,
      "under": 6459,
      "Ġappeared": 6460,
      "Ġentry": 6461,
      "ĠWhere": 6462,
      "icking": 6463,
      "Ġeffectiveness": 6464,
      "Ġexcessive": 6465,
      "Ġultimately": 6466,
      "03": 6467,
      "Ġobjectives": 6468,
      "orous": 6469,
      "Ġbeauty": 6470,
      "04": 6471,
      "Ġrid": 6472,
      "Ġmood": 6473,
      "ishment": 6474,
      "Ġsusp": 6475,
      "Ġdesired": 6476,
      "86": 6477,
      "burg": 6478,
      "Ġdescript": 6479,
      "ĠList": 6480,
      "hist": 6481,
      "orph": 6482,
      "anda": 6483,
      "usions": 6484,
      "idential": 6485,
      "Ġpark": 6486,
      "oric": 6487,
      "Ġdoctors": 6488,
      "Ġanalys": 6489,
      "ua": 6490,
      "ĠQuestions": 6491,
      "ãģ": 6492,
      "Ġmode": 6493,
      "Ġbear": 6494,
      "ĠStart": 6495,
      "ĠFurthermore": 6496,
      "Ġbroken": 6497,
      "Ġdivision": 6498,
      "Ġearn": 6499,
      "atal": 6500,
      "ĠMoreover": 6501,
      "otal": 6502,
      "ipedia": 6503,
      "Ġdiagram": 6504,
      "that": 6505,
      "Ð½": 6506,
      "Ġgal": 6507,
      "OL": 6508,
      "ditional": 6509,
      "itely": 6510,
      "Ġath": 6511,
      "Ġtrends": 6512,
      "Ġoverl": 6513,
      "zil": 6514,
      "ĠAlex": 6515,
      "Ġmineral": 6516,
      "Ġserver": 6517,
      "Ġentirely": 6518,
      "ĠMethod": 6519,
      "Ġengaging": 6520,
      "Ġalph": 6521,
      "Ġmountain": 6522,
      "hent": 6523,
      "ĠNon": 6524,
      "Ġmatch": 6525,
      "ocation": 6526,
      "ĠTeac": 6527,
      "Ġcryst": 6528,
      "Ġpreparation": 6529,
      "Ġwildlife": 6530,
      "inction": 6531,
      "Ġunp": 6532,
      "liam": 6533,
      "ĠTake": 6534,
      "Ġindependence": 6535,
      "Other": 6536,
      "ĠMo": 6537,
      "Ġtiny": 6538,
      "ĠReport": 6539,
      "Ñģ": 6540,
      "ĠRobert": 6541,
      "Ġmanif": 6542,
      "Figure": 6543,
      "?âĢĿ": 6544,
      "OC": 6545,
      "Ġstimul": 6546,
      "iration": 6547,
      "Ġneighb": 6548,
      "Ġstatements": 6549,
      "ĠSoviet": 6550,
      "Ġpounds": 6551,
      "Are": 6552,
      "Your": 6553,
      "iological": 6554,
      "Ġmarketing": 6555,
      "Ġnerve": 6556,
      "Ġbiology": 6557,
      "ĠMont": 6558,
      "ĠLiter": 6559,
      "ergarten": 6560,
      "Ġworse": 6561,
      "sts": 6562,
      "Ġstick": 6563,
      "Ġscene": 6564,
      "Ġfrequent": 6565,
      "Ġobesity": 6566,
      "07": 6567,
      "ĠCatholic": 6568,
      "Ġforests": 6569,
      "Pe": 6570,
      "Ġstability": 6571,
      "Ġcategory": 6572,
      "press": 6573,
      "Ġkidney": 6574,
      "Ġangle": 6575,
      "isp": 6576,
      "Ġuniverse": 6577,
      "leg": 6578,
      "Sp": 6579,
      "ĠPDF": 6580,
      "ĠCa": 6581,
      "Ġcards": 6582,
      "Ġspaces": 6583,
      "ĠBC": 6584,
      "ĠProcess": 6585,
      "Ġflo": 6586,
      "Ġrepresented": 6587,
      "ĠClin": 6588,
      "Ġdemonstrated": 6589,
      "Ġwarming": 6590,
      "Ġteen": 6591,
      "pet": 6592,
      "ĠBusiness": 6593,
      "Ġfossil": 6594,
      "ingly": 6595,
      "ĠAnsw": 6596,
      "Ġà¤": 6597,
      "Ġdebate": 6598,
      "isk": 6599,
      "Ġmathematics": 6600,
      "Ġflight": 6601,
      "Ġexamination": 6602,
      "icide": 6603,
      "Ġtissues": 6604,
      "Ġfulf": 6605,
      "ĠTable": 6606,
      "Ġphysics": 6607,
      "Ġpull": 6608,
      "Ġintegrated": 6609,
      "Ġfunds": 6610,
      "ĠCheck": 6611,
      "Ġimmediate": 6612,
      "ĪĴ": 6613,
      "06": 6614,
      "Ġserves": 6615,
      "Ġends": 6616,
      "ĠOnline": 6617,
      "ÑĢ": 6618,
      "Ġchief": 6619,
      "Ġtow": 6620,
      "Ġcos": 6621,
      "Ġoperate": 6622,
      "Ġremark": 6623,
      "ĠDisease": 6624,
      "Ġdistrict": 6625,
      "Ġdoi": 6626,
      "Ġ36": 6627,
      "phone": 6628,
      "uts": 6629,
      "ĠIndust": 6630,
      "Ġclar": 6631,
      "Ġvideos": 6632,
      "Ġitem": 6633,
      "Ġcomposed": 6634,
      "âĢĻ,": 6635,
      "Ġassets": 6636,
      "Ġdioxide": 6637,
      "kes": 6638,
      "09": 6639,
      "Ġtwice": 6640,
      "Ġremaining": 6641,
      "ĠRevolution": 6642,
      "ĠIll": 6643,
      "imer": 6644,
      "Ġpurs": 6645,
      "Ġplus": 6646,
      "Ġequivalent": 6647,
      "Ġcriteria": 6648,
      "ĠHave": 6649,
      "ĠEnd": 6650,
      "Ġoutcome": 6651,
      "Ġbiod": 6652,
      "hma": 6653,
      "Ġpreventing": 6654,
      "Ġdoor": 6655,
      "eck": 6656,
      "Ġmixt": 6657,
      "ymph": 6658,
      "Ġmuse": 6659,
      "ĠDiv": 6660,
      "Ġmetabol": 6661,
      "Ġveter": 6662,
      "Ġlies": 6663,
      "Ġdesigns": 6664,
      "Ġmanaged": 6665,
      "Ġstructural": 6666,
      "Ġrequest": 6667,
      "zen": 6668,
      "Ġarrange": 6669,
      "ĠJose": 6670,
      "Ġmanaging": 6671,
      "Med": 6672,
      "Ġinvolving": 6673,
      "ĠAdv": 6674,
      "ĠOpen": 6675,
      "Ġzone": 6676,
      "Ġsky": 6677,
      "avirus": 6678,
      "Ġpool": 6679,
      "EP": 6680,
      "Ġofficials": 6681,
      "Ġretain": 6682,
      "Ġcleaning": 6683,
      "eren": 6684,
      "Ġrepair": 6685,
      "ora": 6686,
      "fish": 6687,
      "Ġemployed": 6688,
      "Ġpretty": 6689,
      "Ġoriginally": 6690,
      "ĠAND": 6691,
      "ĠFranc": 6692,
      "uality": 6693,
      "MP": 6694,
      "liament": 6695,
      "Ġcoron": 6696,
      "Ġfever": 6697,
      "occ": 6698,
      "Ġresolution": 6699,
      "Ġdebt": 6700,
      "Ġchlor": 6701,
      "Ġsole": 6702,
      "Ġlimits": 6703,
      "Ġcollaboration": 6704,
      "42": 6705,
      "Ġsoldiers": 6706,
      "Ġaircraft": 6707,
      "02": 6708,
      "DP": 6709,
      "ĠAnn": 6710,
      "icians": 6711,
      "igare": 6712,
      "rene": 6713,
      "ĠSmith": 6714,
      "Ġcapture": 6715,
      "Ġbreath": 6716,
      "Ġslowly": 6717,
      "Ġparticipate": 6718,
      "Ġfurn": 6719,
      "Ġingredients": 6720,
      "See": 6721,
      "Ġprincip": 6722,
      "irt": 6723,
      "ĠView": 6724,
      "Ġvessels": 6725,
      "Ġdys": 6726,
      "ĠEarly": 6727,
      "Ġphosph": 6728,
      "ctic": 6729,
      "Ġongoing": 6730,
      "Ġbrings": 6731,
      "Ġgap": 6732,
      "Ġwalking": 6733,
      "Ġmanip": 6734,
      "Ġsport": 6735,
      "IR": 6736,
      "Ġhus": 6737,
      "Ġwitness": 6738,
      "Ġdin": 6739,
      "Ġmarkets": 6740,
      "Ġepid": 6741,
      "uses": 6742,
      "Ġarms": 6743,
      "ĠVict": 6744,
      "Ġmolecular": 6745,
      "ĠFlorida": 6746,
      "Let": 6747,
      "Ġplot": 6748,
      "Ġemployment": 6749,
      "ĠWild": 6750,
      "Ġtexts": 6751,
      "rovers": 6752,
      "istical": 6753,
      "Ġcrim": 6754,
      "Ġroof": 6755,
      "aud": 6756,
      "ĠCharles": 6757,
      "wo": 6758,
      "ĠBro": 6759,
      "Ġerrors": 6760,
      "Ġinterf": 6761,
      "Ġdepartment": 6762,
      "ĠNatural": 6763,
      "Ġviruses": 6764,
      "nam": 6765,
      "Ġahead": 6766,
      "icate": 6767,
      "stone": 6768,
      "My": 6769,
      "ĠFigure": 6770,
      "Ġheating": 6771,
      "Ġ32": 6772,
      "ourage": 6773,
      "ĠPan": 6774,
      "79": 6775,
      "Ġdomain": 6776,
      "Ġpromoting": 6777,
      "Ġfer": 6778,
      "Ġcloser": 6779,
      "ĠAustralian": 6780,
      "Ġclus": 6781,
      "Ġlatter": 6782,
      "ĠEmpire": 6783,
      "UT": 6784,
      "akistan": 6785,
      "ĠRob": 6786,
      "ritis": 6787,
      "%.": 6788,
      "Ġrenewable": 6789,
      "ĠReading": 6790,
      "oga": 6791,
      "43": 6792,
      "ĠFederal": 6793,
      "Ġattend": 6794,
      "âĢĺ": 6795,
      "Ġdeeper": 6796,
      "Under": 6797,
      "Ġran": 6798,
      "erior": 6799,
      "Ġsurfaces": 6800,
      "ĠOcean": 6801,
      "ĠHenry": 6802,
      "Ġfly": 6803,
      "Ġpermanent": 6804,
      "Ġseeing": 6805,
      "Ġexpansion": 6806,
      "ployment": 6807,
      "Ġparameters": 6808,
      "ĠAccess": 6809,
      "Ġauthorities": 6810,
      "elled": 6811,
      "Ġholds": 6812,
      "Ġenables": 6813,
      "Ġswim": 6814,
      "Ġmeasurements": 6815,
      "she": 6816,
      "Ġancest": 6817,
      "aped": 6818,
      "ML": 6819,
      "ĠNations": 6820,
      "Ġteams": 6821,
      "Ġdynamic": 6822,
      "health": 6823,
      "Ġpharm": 6824,
      "from": 6825,
      "Ġpainting": 6826,
      "Ġhouses": 6827,
      "Ġreserv": 6828,
      "Ġequation": 6829,
      "Ġconstantly": 6830,
      "Ġunless": 6831,
      "Ġinstruments": 6832,
      "Ġlect": 6833,
      "ĠCarol": 6834,
      "Ġyounger": 6835,
      "urrent": 6836,
      "Ġdirector": 6837,
      "itan": 6838,
      "Ġsupplies": 6839,
      "Ġdaughter": 6840,
      "ĠType": 6841,
      "ĠEngineering": 6842,
      "Ġstyles": 6843,
      "ovascular": 6844,
      "ĠProfessor": 6845,
      "Ġrocks": 6846,
      "ained": 6847,
      "Ġbalanced": 6848,
      "Ġfold": 6849,
      "mes": 6850,
      "Ġunable": 6851,
      "Ġquantity": 6852,
      "Ġamerican": 6853,
      "Ġcontamin": 6854,
      "ĠColor": 6855,
      "Ġworry": 6856,
      "ĠPrint": 6857,
      "een": 6858,
      "Ġpersonality": 6859,
      "CD": 6860,
      "Ġinnovative": 6861,
      "Ġknew": 6862,
      "Ġorgans": 6863,
      "Ġproof": 6864,
      "Ġholid": 6865,
      "Ġcontemporary": 6866,
      "Ġrice": 6867,
      "Ġvulnerable": 6868,
      "Ġcompound": 6869,
      "ĠBur": 6870,
      "ĠOffice": 6871,
      "ml": 6872,
      "iotic": 6873,
      "Ġthemes": 6874,
      "Ġnewsp": 6875,
      "Ġarts": 6876,
      "cons": 6877,
      "inson": 6878,
      "ĠBefore": 6879,
      "asters": 6880,
      "cher": 6881,
      "Ġgenerations": 6882,
      "earchers": 6883,
      "ĠWhich": 6884,
      "iox": 6885,
      "Ġimplications": 6886,
      "Ġcorrectly": 6887,
      "Ġreturned": 6888,
      "itter": 6889,
      "ĠPaper": 6890,
      "sey": 6891,
      "First": 6892,
      "Ġneck": 6893,
      "Ġfalse": 6894,
      "Ġsight": 6895,
      "Ġrecommendations": 6896,
      "gs": 6897,
      "Ġmeth": 6898,
      "Ġobservations": 6899,
      "Ġmic": 6900,
      "Ġvac": 6901,
      "Ġdelay": 6902,
      "Ġmice": 6903,
      "pread": 6904,
      "Ġtall": 6905,
      "Ġbot": 6906,
      "Ġindicated": 6907,
      "Ġvitamins": 6908,
      "Since": 6909,
      "Ġcalories": 6910,
      "ala": 6911,
      "Ġstroke": 6912,
      "ears": 6913,
      "Ġinhab": 6914,
      "Ġstring": 6915,
      "ĠOnly": 6916,
      "ĠItaly": 6917,
      "ĠDan": 6918,
      "Ġorient": 6919,
      "Ġeld": 6920,
      "41": 6921,
      "agues": 6922,
      "Ġoverview": 6923,
      "Su": 6924,
      "Ġquantum": 6925,
      "Ġtrials": 6926,
      "ĠLabor": 6927,
      "Ġmeal": 6928,
      "ston": 6929,
      "ĠIns": 6930,
      "medi": 6931,
      "Me": 6932,
      "etics": 6933,
      "Ġtransp": 6934,
      "pling": 6935,
      "Ġattached": 6936,
      "ĠParis": 6937,
      "Ġinteractive": 6938,
      "Ġblocks": 6939,
      "Ġframe": 6940,
      "Ġreject": 6941,
      "Ġmold": 6942,
      "ENT": 6943,
      "utrit": 6944,
      "Ġdecade": 6945,
      "yroid": 6946,
      "Ġcomfortable": 6947,
      "erning": 6948,
      "Ġexists": 6949,
      "Ġgreenhouse": 6950,
      "Ġagencies": 6951,
      "ĠKingdom": 6952,
      "Ġrecip": 6953,
      "ĠPlease": 6954,
      "idespread": 6955,
      "Ġopened": 6956,
      "Ġthermal": 6957,
      "Ġlegs": 6958,
      "Ġ75": 6959,
      "scale": 6960,
      "Ġtrained": 6961,
      "ĠLouis": 6962,
      "ogenic": 6963,
      "Ġstatistics": 6964,
      "ocial": 6965,
      "Ġartists": 6966,
      "Ġcontrols": 6967,
      "87": 6968,
      "Ġadequate": 6969,
      "comm": 6970,
      "Ġbread": 6971,
      "itting": 6972,
      "cribed": 6973,
      "Ġresil": 6974,
      "umps": 6975,
      "Ġfewer": 6976,
      "Ġ?": 6977,
      "ĠAge": 6978,
      "urb": 6979,
      "Ġdistributed": 6980,
      "Ġhousing": 6981,
      "Ġpublication": 6982,
      "Ġloved": 6983,
      "Ġpowers": 6984,
      "nect": 6985,
      "Get": 6986,
      "Ġmicrob": 6987,
      "Ġadministr": 6988,
      "itt": 6989,
      "Ġrising": 6990,
      "ĠHaw": 6991,
      "Ġidentifying": 6992,
      "SS": 6993,
      "Ġoblig": 6994,
      "Ġvillage": 6995,
      "rooms": 6996,
      "arn": 6997,
      "Ġparallel": 6998,
      "Ġrely": 6999,
      "reland": 7000,
      "ĠMad": 7001,
      "Ġsucceed": 7002,
      "doi": 7003,
      "gers": 7004,
      "Ġthreats": 7005,
      "CH": 7006,
      "Ġresulted": 7007,
      "Ġnine": 7008,
      "2018": 7009,
      "Ġmg": 7010,
      "Fig": 7011,
      "Ġneur": 7012,
      "Ġpoetry": 7013,
      "Ã¤": 7014,
      "htt": 7015,
      "charge": 7016,
      "Ġclot": 7017,
      "Ġsmoke": 7018,
      "Ġfu": 7019,
      "ĠVirginia": 7020,
      "Ġdiscrimination": 7021,
      "gments": 7022,
      "Ġbutter": 7023,
      "coin": 7024,
      "Ġpartner": 7025,
      "gien": 7026,
      "Ġspok": 7027,
      "Ġincred": 7028,
      "Ġped": 7029,
      "Ġplenty": 7030,
      "plete": 7031,
      "Ġscript": 7032,
      "Ġacute": 7033,
      "Ġconsideration": 7034,
      "Ġmand": 7035,
      "ĠHall": 7036,
      "BN": 7037,
      "ĠIntroduction": 7038,
      "Ġexplanation": 7039,
      "Ġcooking": 7040,
      "friend": 7041,
      "ĠNative": 7042,
      "Ġpositions": 7043,
      "Ġphenomenon": 7044,
      "Ġ186": 7045,
      "asty": 7046,
      "Ġparticipation": 7047,
      "plate": 7048,
      "Ġproductivity": 7049,
      "Ġmeters": 7050,
      "Ġexperimental": 7051,
      "Ġnervous": 7052,
      "ĠWood": 7053,
      "Ġrig": 7054,
      "Ġnecessarily": 7055,
      "Ġtight": 7056,
      "Ġparas": 7057,
      "Ġfavorite": 7058,
      "forcement": 7059,
      "IA": 7060,
      "bohyd": 7061,
      "Ġdoubt": 7062,
      "opic": 7063,
      "Ġracial": 7064,
      "Ġspending": 7065,
      "ola": 7066,
      "Ġtube": 7067,
      "pact": 7068,
      "requ": 7069,
      "Ġpoison": 7070,
      "azon": 7071,
      "Ġham": 7072,
      "Ġreplaced": 7073,
      "Ġsubs": 7074,
      "ĠSpain": 7075,
      "ĠSouthern": 7076,
      "Ġlinear": 7077,
      "ĠJul": 7078,
      "ether": 7079,
      "ait": 7080,
      "Ġru": 7081,
      "56": 7082,
      "oting": 7083,
      "Ġcriminal": 7084,
      "ady": 7085,
      "utch": 7086,
      "bles": 7087,
      "Ġtub": 7088,
      "Ġinfect": 7089,
      "Rec": 7090,
      "ĠThose": 7091,
      "esis": 7092,
      "ĠCell": 7093,
      "Ġmaps": 7094,
      "bridge": 7095,
      "Ġourselves": 7096,
      "rine": 7097,
      "words": 7098,
      "soft": 7099,
      "Ġturns": 7100,
      "rape": 7101,
      "holders": 7102,
      "oir": 7103,
      "Ġaccident": 7104,
      "Ġdanger": 7105,
      "ĠCanadian": 7106,
      "Ġcomments": 7107,
      "everal": 7108,
      "ĠHand": 7109,
      "Ġdependent": 7110,
      "Ġfilter": 7111,
      "ĠSil": 7112,
      "Co": 7113,
      "ĠBank": 7114,
      "Ġcav": 7115,
      "Ġcomplicated": 7116,
      "Ġuncertain": 7117,
      "Ġfro": 7118,
      "icing": 7119,
      "Ġexplo": 7120,
      "ĠMag": 7121,
      "Ġmeals": 7122,
      "Ġinsert": 7123,
      "Ġoccasion": 7124,
      "Ġsurve": 7125,
      "Ġowner": 7126,
      "ĠVer": 7127,
      "Ġforget": 7128,
      "Ġprovider": 7129,
      "Ġregulation": 7130,
      "Ġshif": 7131,
      "Ġmarks": 7132,
      "herent": 7133,
      "ĠMach": 7134,
      "Ġ1999": 7135,
      "hemistry": 7136,
      "ĠIdent": 7137,
      "last": 7138,
      "Ġliteracy": 7139,
      "Ġwidespread": 7140,
      "Ġcamera": 7141,
      "irds": 7142,
      "Ġstanding": 7143,
      "Ġoptimal": 7144,
      "Who": 7145,
      "icago": 7146,
      "Ġore": 7147,
      "Ġchemistry": 7148,
      "Ġconcerning": 7149,
      "Ġprove": 7150,
      "Ġimplemented": 7151,
      "ĠPop": 7152,
      "Ġabstract": 7153,
      "earing": 7154,
      "Ġcomplications": 7155,
      "Ġirrit": 7156,
      "Ġwilling": 7157,
      "96": 7158,
      "ilation": 7159,
      "but": 7160,
      "itamin": 7161,
      "ighter": 7162,
      "Ġdisadvant": 7163,
      "Ġpanel": 7164,
      "Ġfounded": 7165,
      "effect": 7166,
      "App": 7167,
      "ĠIreland": 7168,
      "Ġprofit": 7169,
      "Ġdiagnosed": 7170,
      "working": 7171,
      "ĠPo": 7172,
      "HD": 7173,
      "unc": 7174,
      "Ġunus": 7175,
      "IM": 7176,
      "Ġneighbor": 7177,
      "ĠNorthern": 7178,
      "Ġdealing": 7179,
      "Ġdecreased": 7180,
      "Ġpeak": 7181,
      "Ġcup": 7182,
      "Ġvariation": 7183,
      "Ġarray": 7184,
      "ented": 7185,
      "Ġconsume": 7186,
      "Ġboy": 7187,
      "Ġflower": 7188,
      "ione": 7189,
      "atial": 7190,
      "using": 7191,
      "Ġwebsites": 7192,
      "Ġconvey": 7193,
      "Ġpregnant": 7194,
      "EE": 7195,
      "PT": 7196,
      "heast": 7197,
      "esides": 7198,
      "Ġmissing": 7199,
      "Comm": 7200,
      "Ġfemales": 7201,
      "Ġfailed": 7202,
      "Ġencoun": 7203,
      "inally": 7204,
      "Ġprinting": 7205,
      "Ġburning": 7206,
      "osion": 7207,
      "Ġcenters": 7208,
      "Ġturning": 7209,
      "ĠBrazil": 7210,
      "ĠFace": 7211,
      "onym": 7212,
      "Ġborder": 7213,
      "Pub": 7214,
      "Ġsummar": 7215,
      "Ġsolving": 7216,
      "sm": 7217,
      "Ġintellectual": 7218,
      "isters": 7219,
      "ĠCommit": 7220,
      "craft": 7221,
      "Ġlands": 7222,
      "Ġunited": 7223,
      "ĠClimate": 7224,
      "plant": 7225,
      "Ġutilized": 7226,
      "AB": 7227,
      "agon": 7228,
      "ĠEU": 7229,
      "Ġcontained": 7230,
      "American": 7231,
      "Ġdamaged": 7232,
      "Ġpanels": 7233,
      "Step": 7234,
      "Ġagency": 7235,
      "NS": 7236,
      "Ġmortality": 7237,
      "Ġintense": 7238,
      "ĠFrank": 7239,
      "Ġfacing": 7240,
      "Ġid": 7241,
      "Ġtranslation": 7242,
      "Ġdisrupt": 7243,
      "ĠEst": 7244,
      "Ġsunlight": 7245,
      "Ġvarieties": 7246,
      "Ġoutbre": 7247,
      "Ġrelief": 7248,
      "Ġfarming": 7249,
      "ediatric": 7250,
      "Ġbanks": 7251,
      "Ġconversation": 7252,
      "icit": 7253,
      "Ġ1980": 7254,
      "Or": 7255,
      "Ġmatters": 7256,
      "Ġterritory": 7257,
      "Ġwww": 7258,
      "Ġbath": 7259,
      "Ġthanks": 7260,
      "Ġinn": 7261,
      "acco": 7262,
      "ĠAgricult": 7263,
      "Ġsatisf": 7264,
      "Ġestimate": 7265,
      "essions": 7266,
      "Ġthousand": 7267,
      "inition": 7268,
      "Ġphoto": 7269,
      "Ġreceiving": 7270,
      "Ġaccounting": 7271,
      "Ġaward": 7272,
      "ĠChristmas": 7273,
      "ontal": 7274,
      "Ġcapabilities": 7275,
      "ĠFollow": 7276,
      "ĠServices": 7277,
      "ih": 7278,
      "Ġsla": 7279,
      "Ġhole": 7280,
      "Ġdifficulties": 7281,
      "Ġdrain": 7282,
      "rowing": 7283,
      "Ġfung": 7284,
      "dr": 7285,
      "Ġcontrovers": 7286,
      "ĠGard": 7287,
      "Ġdietary": 7288,
      "Ġsizes": 7289,
      "Ġinterpretation": 7290,
      "Ġnoun": 7291,
      "Ġproviders": 7292,
      "Ġidentification": 7293,
      "Ġgradually": 7294,
      "ĠChange": 7295,
      "Ġcorn": 7296,
      "ĠPeter": 7297,
      "Ġrepresentation": 7298,
      "ĠTor": 7299,
      "Ġtechnological": 7300,
      "Ġremoval": 7301,
      "ĠTimes": 7302,
      "Ġring": 7303,
      "Ġov": 7304,
      "ĠWrite": 7305,
      "Ġindeed": 7306,
      "Ref": 7307,
      "theless": 7308,
      "Ġgone": 7309,
      "Ġstrict": 7310,
      "Ġintegration": 7311,
      "ĠWhether": 7312,
      "ĠLib": 7313,
      "airy": 7314,
      "Ġsustainability": 7315,
      "Ġlistening": 7316,
      "Ġbridge": 7317,
      "Ġmanual": 7318,
      "ĠResources": 7319,
      "Ġagents": 7320,
      "Ġmales": 7321,
      "ruption": 7322,
      "Ġvertical": 7323,
      "books": 7324,
      "ĠItalian": 7325,
      "ĠScot": 7326,
      "esh": 7327,
      "apor": 7328,
      "Ġgut": 7329,
      "Ġinvestigation": 7330,
      "Ġturb": 7331,
      "ĠAdminist": 7332,
      "Ġembra": 7333,
      "Ġeastern": 7334,
      "Ġfell": 7335,
      "Ġslavery": 7336,
      ".âĢĻ": 7337,
      "Ġinequ": 7338,
      "Ġverb": 7339,
      "Ġabsence": 7340,
      "ĠBoard": 7341,
      "Ġschedule": 7342,
      "ioxid": 7343,
      "ints": 7344,
      "such": 7345,
      "amine": 7346,
      "Wor": 7347,
      "Ġcoverage": 7348,
      "ĠResp": 7349,
      "Ġinstalled": 7350,
      "Ġclient": 7351,
      "Ġfighting": 7352,
      "Ġmetals": 7353,
      "ĠColumb": 7354,
      "ĠFamily": 7355,
      "Ġputting": 7356,
      "Le": 7357,
      "Ġexperiencing": 7358,
      "Ġamazing": 7359,
      "ĠFinally": 7360,
      "Ġvolunte": 7361,
      "Not": 7362,
      "Ġnitrogen": 7363,
      "mm": 7364,
      "ĠSecurity": 7365,
      "reek": 7366,
      "Ġtraditions": 7367,
      "Ġhealing": 7368,
      "text": 7369,
      "Ġdose": 7370,
      "Ġbiom": 7371,
      "Ġproportion": 7372,
      "Ġbabies": 7373,
      "Ġfaced": 7374,
      "bur": 7375,
      "Ġexamined": 7376,
      "coming": 7377,
      "ĠKey": 7378,
      "iary": 7379,
      "Ġtract": 7380,
      "irty": 7381,
      "Ġmitig": 7382,
      "Ġbacterial": 7383,
      "ĠDespite": 7384,
      "Ġstronger": 7385,
      "Ġdiameter": 7386,
      "Ġconfig": 7387,
      "Ġstake": 7388,
      "ĠBooks": 7389,
      "Ġcomputing": 7390,
      "Ġknows": 7391,
      "Ġvel": 7392,
      "Ġpassage": 7393,
      "59": 7394,
      "Ġobserve": 7395,
      "Ġcommitted": 7396,
      "ptions": 7397,
      "ĠBig": 7398,
      "Ġreward": 7399,
      "ĠMars": 7400,
      "ĠGr": 7401,
      "Ġcalculated": 7402,
      "Ġsubsequent": 7403,
      "Ġintest": 7404,
      "ĠAuthor": 7405,
      "reed": 7406,
      "Ġexpertise": 7407,
      "Ġadvent": 7408,
      "asy": 7409,
      "oids": 7410,
      "Ġovercome": 7411,
      "Ġundert": 7412,
      "ĠUr": 7413,
      "Ġplatforms": 7414,
      "Ġske": 7415,
      "Ġclothing": 7416,
      "Ġmessages": 7417,
      "Ġperception": 7418,
      "door": 7419,
      "Ġ1998": 7420,
      "Ġcareful": 7421,
      "chen": 7422,
      "ortion": 7423,
      "roat": 7424,
      "Once": 7425,
      "angle": 7426,
      "Ġproven": 7427,
      "ĠWindows": 7428,
      "Ġles": 7429,
      "Eng": 7430,
      "rix": 7431,
      "lishing": 7432,
      "Ġphotograph": 7433,
      "Ġintensity": 7434,
      "Ġvote": 7435,
      "Ġbranch": 7436,
      "Ġgrammar": 7437,
      "Ġbranches": 7438,
      "Ġquiz": 7439,
      "Ġhop": 7440,
      "eenth": 7441,
      "quality": 7442,
      "ailable": 7443,
      "brid": 7444,
      "Ġampl": 7445,
      "amination": 7446,
      "Ġsession": 7447,
      "outs": 7448,
      "'m": 7449,
      "ĠSimilar": 7450,
      "aph": 7451,
      "Ġgained": 7452,
      "Ġauthent": 7453,
      "Ġlaunched": 7454,
      "ometry": 7455,
      "ographical": 7456,
      "hered": 7457,
      "Ġtraits": 7458,
      "ĠBab": 7459,
      "otype": 7460,
      "Ġspectrum": 7461,
      "Ġmixture": 7462,
      "Ġplayer": 7463,
      "Ġmembrane": 7464,
      "ett": 7465,
      "Ġdrawn": 7466,
      "Ġcalculate": 7467,
      "otton": 7468,
      "Ġmeasuring": 7469,
      "fts": 7470,
      "operation": 7471,
      "Ġ1970": 7472,
      "Ġconvert": 7473,
      "eness": 7474,
      "ĠAsian": 7475,
      "Don": 7476,
      "Ġaffecting": 7477,
      "Ġduration": 7478,
      "ulty": 7479,
      "ostic": 7480,
      "thritis": 7481,
      "Ġintroduce": 7482,
      "cycl": 7483,
      "anta": 7484,
      "Ġexploration": 7485,
      "Ġnutrient": 7486,
      "eli": 7487,
      "Ġartist": 7488,
      "Ġvolcan": 7489,
      "Ġfourth": 7490,
      "Ġpush": 7491,
      "itus": 7492,
      "Ġoxid": 7493,
      "ĠFig": 7494,
      "Ġwhatever": 7495,
      "ĠYet": 7496,
      "ĠCancer": 7497,
      "Ġcommitment": 7498,
      "ivered": 7499,
      "Ġmarried": 7500,
      "CA": 7501,
      "Ġphrase": 7502,
      "Ġhormone": 7503,
      "ĠSpecial": 7504,
      "Ġ65": 7505,
      "Ġpy": 7506,
      "Ġruns": 7507,
      "iture": 7508,
      "Ġdemands": 7509,
      "Ġwait": 7510,
      "Ġadolesc": 7511,
      "Ġcircle": 7512,
      "Ġille": 7513,
      "Ġstrain": 7514,
      "nee": 7515,
      "pectives": 7516,
      "Ø§": 7517,
      "Ġtables": 7518,
      "ĠAM": 7519,
      "Ġknowing": 7520,
      "uh": 7521,
      "Pr": 7522,
      "ĠPakistan": 7523,
      "Which": 7524,
      "Ġalter": 7525,
      "ourse": 7526,
      "class": 7527,
      "Ġinterventions": 7528,
      "etary": 7529,
      "Ġinsight": 7530,
      "Ġlights": 7531,
      "orders": 7532,
      "ĠLead": 7533,
      "ĠDev": 7534,
      "ĠOh": 7535,
      "Ġtrip": 7536,
      "RA": 7537,
      "Ġdefect": 7538,
      "ali": 7539,
      "%,": 7540,
      "teen": 7541,
      "Ġchoosing": 7542,
      "ĠTV": 7543,
      "Ġconj": 7544,
      "Ġfunctioning": 7545,
      "Ġestimates": 7546,
      "ading": 7547,
      "Ġavailability": 7548,
      "mers": 7549,
      "Table": 7550,
      "Ġrom": 7551,
      "Ġended": 7552,
      "ĠCamp": 7553,
      "Ġlegislation": 7554,
      "Ġdecor": 7555,
      "Ġalgorithms": 7556,
      "igue": 7557,
      "Ġdimens": 7558,
      "zym": 7559,
      "ĠpH": 7560,
      "Per": 7561,
      "Ġtreating": 7562,
      "Ġscan": 7563,
      "Ġrealize": 7564,
      "Ġdispos": 7565,
      "71": 7566,
      "called": 7567,
      "asts": 7568,
      "Ġtwenty": 7569,
      "ĠOper": 7570,
      "ĠExamples": 7571,
      "ĠPrinc": 7572,
      "Ġrac": 7573,
      "Ġcentre": 7574,
      "Ġabnormal": 7575,
      "Ġstrongly": 7576,
      "ometric": 7577,
      "Ġcreativity": 7578,
      "Where": 7579,
      "Ð¾Ð": 7580,
      "Ġ1960": 7581,
      "abil": 7582,
      "Ġdates": 7583,
      "Ġdetected": 7584,
      "Ġspin": 7585,
      "Ġprintable": 7586,
      "Ġtropical": 7587,
      "ï¼": 7588,
      "iral": 7589,
      "zes": 7590,
      "ĠVictor": 7591,
      "trans": 7592,
      "list": 7593,
      "Ġclients": 7594,
      "ĠScott": 7595,
      "Ġnob": 7596,
      "Ġsymbols": 7597,
      "Am": 7598,
      "98": 7599,
      "ĠIII": 7600,
      "Ġvariations": 7601,
      "Ġroute": 7602,
      "Ġsilver": 7603,
      "ĠText": 7604,
      "Ġsupplements": 7605,
      "itals": 7606,
      "ĠCommunity": 7607,
      "Ġsharp": 7608,
      "Ġnose": 7609,
      "Ġflag": 7610,
      "Ġapproved": 7611,
      "Ġconfirmed": 7612,
      "ĠIT": 7613,
      "Ġmos": 7614,
      "Ġmathematical": 7615,
      "fortunately": 7616,
      "uke": 7617,
      "UN": 7618,
      "Ġbatteries": 7619,
      "ĠAssess": 7620,
      "ĠAcademy": 7621,
      "Ġchannel": 7622,
      "Ġgrew": 7623,
      "Ġshot": 7624,
      "ani": 7625,
      "ibl": 7626,
      "Ġaddiction": 7627,
      "heric": 7628,
      "ĠEr": 7629,
      "Ġshut": 7630,
      "Ġholding": 7631,
      "Ġstrengthen": 7632,
      "Ġtrouble": 7633,
      "ommod": 7634,
      "rapeut": 7635,
      "ĠEastern": 7636,
      "Ġastr": 7637,
      "ĠBest": 7638,
      "ĠSystems": 7639,
      "Ġengaged": 7640,
      "Ġcham": 7641,
      "Ġsupposed": 7642,
      "BT": 7643,
      "box": 7644,
      "ĠMaterial": 7645,
      "Ġentertain": 7646,
      "ca": 7647,
      "ptom": 7648,
      "Ġblind": 7649,
      "Ġjump": 7650,
      "ĠPractice": 7651,
      "Ġnearby": 7652,
      "oven": 7653,
      "ĠJoseph": 7654,
      "ĠMer": 7655,
      "aining": 7656,
      "aren": 7657,
      "Ġfest": 7658,
      "ĠStreet": 7659,
      "Ġscreening": 7660,
      "alls": 7661,
      "azine": 7662,
      "Ġasking": 7663,
      "cal": 7664,
      "Ġexpectations": 7665,
      "rance": 7666,
      "Ġconstructed": 7667,
      "Ġmicrosc": 7668,
      "Ġdecay": 7669,
      "isdom": 7670,
      "ittle": 7671,
      "Ġgerm": 7672,
      "Ġdepart": 7673,
      "Ġgirl": 7674,
      "ĠGal": 7675,
      "Ġlip": 7676,
      "Ġrivers": 7677,
      "ĠViet": 7678,
      "Ġlaser": 7679,
      "Ġinterface": 7680,
      "Ġpdf": 7681,
      "Ġgast": 7682,
      "Ġcardiovascular": 7683,
      "Ġassigned": 7684,
      "top": 7685,
      "Ġcombat": 7686,
      "ĠLow": 7687,
      "ĠLim": 7688,
      "prof": 7689,
      "Pre": 7690,
      "Ġdispl": 7691,
      "ultane": 7692,
      "Ġpra": 7693,
      "Ġbutton": 7694,
      "Ġmoves": 7695,
      "Ġsubstantial": 7696,
      "Ġboys": 7697,
      "Ġeliminate": 7698,
      "Ġprominent": 7699,
      "ano": 7700,
      "Ġissued": 7701,
      "Ġdestroyed": 7702,
      "Ġsensitivity": 7703,
      "ĠPolic": 7704,
      "Ġobservation": 7705,
      "Ġadverse": 7706,
      "Ġarchae": 7707,
      "Ġgrid": 7708,
      "ĠLevel": 7709,
      "Ġupdated": 7710,
      "Ġfocusing": 7711,
      "iler": 7712,
      "Ġcoloring": 7713,
      "fulness": 7714,
      "Ġbrows": 7715,
      "haust": 7716,
      "Ġcorresponding": 7717,
      "ĠModern": 7718,
      "Ġcooling": 7719,
      "Writ": 7720,
      "Ġagent": 7721,
      "ogs": 7722,
      "va": 7723,
      "ĠTO": 7724,
      "Ġtons": 7725,
      "ĠColl": 7726,
      "Ġhazard": 7727,
      "Every": 7728,
      "rous": 7729,
      "Ġprinted": 7730,
      "Ġuniversal": 7731,
      "orses": 7732,
      "Ġhardware": 7733,
      "Ġprocessed": 7734,
      "Ġtelevision": 7735,
      "Ġregardless": 7736,
      "ĠPot": 7737,
      "ao": 7738,
      "ĠBrown": 7739,
      "Ġdelivered": 7740,
      "58": 7741,
      "apse": 7742,
      "Ġinterpre": 7743,
      "Ġserving": 7744,
      "ounce": 7745,
      "Ġjoined": 7746,
      "Ġannounced": 7747,
      "Ġmodified": 7748,
      "73": 7749,
      "hus": 7750,
      "aked": 7751,
      "Ġinvention": 7752,
      "Ġexploring": 7753,
      "Ġcort": 7754,
      "utrition": 7755,
      "Ġdetermining": 7756,
      "ĠProble": 7757,
      "Ġbeings": 7758,
      "ĠMichael": 7759,
      "Ġvibr": 7760,
      "Ġseconds": 7761,
      "gebra": 7762,
      "Ġchest": 7763,
      "Ġflexible": 7764,
      "Ġbehavioral": 7765,
      "Ġintegr": 7766,
      "Ġweakness": 7767,
      "gence": 7768,
      "Ġboundaries": 7769,
      "Ġfatty": 7770,
      "Ġcolleagues": 7771,
      "asm": 7772,
      "Ġplane": 7773,
      "Ġscar": 7774,
      "lines": 7775,
      "abeth": 7776,
      "ĠDownload": 7777,
      "Ġaimed": 7778,
      "Ġaudio": 7779,
      "Ġdefe": 7780,
      "Ġathlet": 7781,
      "Ġouter": 7782,
      "Ġstreet": 7783,
      "Ġblow": 7784,
      "Ġsuscept": 7785,
      "Ġcontribution": 7786,
      "Ġvaccines": 7787,
      "Ġsensors": 7788,
      "ĠClick": 7789,
      "Ġdiffer": 7790,
      "Ġworkplace": 7791,
      "rypt": 7792,
      "Ġoverw": 7793,
      "Of": 7794,
      "ĠDictionary": 7795,
      "ĠSuper": 7796,
      "72": 7797,
      "Ġarguments": 7798,
      "Ġmovie": 7799,
      "uy": 7800,
      "Ġevil": 7801,
      "Ġhusband": 7802,
      "Ġfalls": 7803,
      "ĠMot": 7804,
      "Ġvan": 7805,
      "while": 7806,
      "Ġreviews": 7807,
      "Ġensures": 7808,
      "Ġclassified": 7809,
      "2016": 7810,
      "Ġinitially": 7811,
      "oples": 7812,
      "Ġ150": 7813,
      "Ġdefense": 7814,
      "Ġfinished": 7815,
      "Ġhence": 7816,
      "ĠOrganization": 7817,
      "Ġrab": 7818,
      "Ġpowder": 7819,
      "Ġfacility": 7820,
      "Ġautomatically": 7821,
      "iber": 7822,
      "ĠModel": 7823,
      "Ġtargets": 7824,
      "atively": 7825,
      "Ġcrusher": 7826,
      "urric": 7827,
      "roductive": 7828,
      "Ġcrow": 7829,
      "Ġrecover": 7830,
      "Ġuniform": 7831,
      "Ġflour": 7832,
      "Ġhygien": 7833,
      "eting": 7834,
      "ĠValley": 7835,
      "hea": 7836,
      "Ġchances": 7837,
      "Ġdefinitely": 7838,
      "Ġarrived": 7839,
      "Ġneutral": 7840,
      "Ġsensor": 7841,
      "ĠRoyal": 7842,
      "uce": 7843,
      "ogether": 7844,
      "iat": 7845,
      "bar": 7846,
      "Ġbigger": 7847,
      "OM": 7848,
      "Ġprotective": 7849,
      "Ġmusical": 7850,
      "Ġepis": 7851,
      "ĠSometimes": 7852,
      "Ġcovering": 7853,
      "Ġreveal": 7854,
      "Ġnegot": 7855,
      "ĠFund": 7856,
      "icy": 7857,
      "Ġtroops": 7858,
      "writing": 7859,
      "Ġrect": 7860,
      "Ġheritage": 7861,
      "Ġemotion": 7862,
      "ĠCommittee": 7863,
      "Ġattempts": 7864,
      "ĠAmong": 7865,
      "Ġcarbohyd": 7866,
      "Ġbreed": 7867,
      "rey": 7868,
      "Ġinher": 7869,
      "ĠCP": 7870,
      "ĠContin": 7871,
      "Ġinvestigate": 7872,
      "Ġlogic": 7873,
      "Ġminute": 7874,
      "ĠBill": 7875,
      "aid": 7876,
      "berry": 7877,
      "Ġemphasis": 7878,
      "ema": 7879,
      "ruit": 7880,
      "quit": 7881,
      "Ġcharacteristic": 7882,
      "Ġusual": 7883,
      "ĠPlay": 7884,
      "Ġye": 7885,
      "Ġatoms": 7886,
      "ieval": 7887,
      "Ġdestruction": 7888,
      "Ġevolved": 7889,
      "antly": 7890,
      "ude": 7891,
      "ĠArticle": 7892,
      "ĠRom": 7893,
      "irms": 7894,
      "Ġsmell": 7895,
      "reated": 7896,
      "ette": 7897,
      "Ġvisitors": 7898,
      "Ġearthqu": 7899,
      "Ġhistoric": 7900,
      "rays": 7901,
      "Ġprotecting": 7902,
      "Cons": 7903,
      "just": 7904,
      "Ġengagement": 7905,
      "Ġflash": 7906,
      "Ġplanting": 7907,
      "Ġion": 7908,
      "Ġbreeding": 7909,
      "har": 7910,
      "Ġrecycling": 7911,
      "Ġpassing": 7912,
      "Ġforth": 7913,
      "CP": 7914,
      "Ġfo": 7915,
      "Ġcarrying": 7916,
      "84": 7917,
      "ĠSat": 7918,
      "Ġantioxid": 7919,
      "Ġresid": 7920,
      "ĠYoung": 7921,
      "Ġpolar": 7922,
      "Ġmaintained": 7923,
      "Ġexciting": 7924,
      "ĠBack": 7925,
      "Aut": 7926,
      "74": 7927,
      "Ġpit": 7928,
      "ograp": 7929,
      "Ġbringing": 7930,
      "Ġnursing": 7931,
      "ĠPet": 7932,
      "Ġescape": 7933,
      "Ġadm": 7934,
      "Ġwithd": 7935,
      "ãĢ": 7936,
      "53": 7937,
      "ĠCurrent": 7938,
      "ependent": 7939,
      "ĠMoon": 7940,
      "ĠNaz": 7941,
      "ĠThree": 7942,
      "Ġships": 7943,
      "ĠKids": 7944,
      "Ġ2023": 7945,
      "ĠCat": 7946,
      "ĠImpro": 7947,
      "quir": 7948,
      "ĠPython": 7949,
      "Ġcompetitive": 7950,
      "Ġvictims": 7951,
      "Ġdesert": 7952,
      "Ġlimitations": 7953,
      "Ġcompens": 7954,
      "ĠNever": 7955,
      "ĠCrit": 7956,
      "Ġconcentrations": 7957,
      "ĠSafety": 7958,
      "kins": 7959,
      "icular": 7960,
      "Ġforg": 7961,
      "ĠMS": 7962,
      "ĠMartin": 7963,
      "Ġanywhere": 7964,
      "alities": 7965,
      "Ġspecialized": 7966,
      "Ġelection": 7967,
      "Ġhonor": 7968,
      "Ġstead": 7969,
      "Ġaged": 7970,
      "Ġlymph": 7971,
      "ĠEp": 7972,
      "ĠMen": 7973,
      "Ġ33": 7974,
      "yal": 7975,
      "Ġjaw": 7976,
      "ĠLi": 7977,
      "TP": 7978,
      "Ġgrades": 7979,
      "Ġunw": 7980,
      "ĠNetwork": 7981,
      "Ġforming": 7982,
      "Ġ1997": 7983,
      "Ġclassical": 7984,
      "Ġapplying": 7985,
      "illa": 7986,
      "Ġmotivation": 7987,
      "ĠLar": 7988,
      "Ġsuperior": 7989,
      "itarian": 7990,
      "Ġwheel": 7991,
      "ĠUnderstanding": 7992,
      "Ġton": 7993,
      "Use": 7994,
      "Ġdigestive": 7995,
      "Ġaccommod": 7996,
      "rox": 7997,
      "def": 7998,
      "Ġradical": 7999,
      "asma": 8000,
      "Ġintent": 8001,
      "Ġengineers": 8002,
      "Ġscores": 8003,
      "Ġequally": 8004,
      "ĠAtlantic": 8005,
      "ĠLight": 8006,
      "Ġdemocracy": 8007,
      "Ġlegisl": 8008,
      "Ġholes": 8009,
      "ĠPhysical": 8010,
      "83": 8011,
      "Ġpayment": 8012,
      "ĠJo": 8013,
      "Ġperm": 8014,
      "Ġdriven": 8015,
      "Ġcoastal": 8016,
      "Ġessentially": 8017,
      "friendly": 8018,
      "ĠGeorg": 8019,
      "Ġalgorithm": 8020,
      "uits": 8021,
      "Ġconversion": 8022,
      "Ġcolonial": 8023,
      "Ġsatellite": 8024,
      "Ġtrauma": 8025,
      "ĠImm": 8026,
      "agnetic": 8027,
      "DS": 8028,
      "Ġsup": 8029,
      "ĠMel": 8030,
      "Col": 8031,
      "Ġhandling": 8032,
      "Ġmoderate": 8033,
      "adder": 8034,
      "disc": 8035,
      "Ġhidden": 8036,
      "HS": 8037,
      "ĠCirc": 8038,
      "Ġisolated": 8039,
      "Ġeducators": 8040,
      "Ġimaging": 8041,
      "ĠPur": 8042,
      "Ġpropag": 8043,
      "Ġmaybe": 8044,
      "ĠDigital": 8045,
      "Ġgro": 8046,
      "ĠRichard": 8047,
      "Ġempt": 8048,
      "Ġease": 8049,
      "Ġdance": 8050,
      "ket": 8051,
      "Ġinfluences": 8052,
      "ĠParty": 8053,
      "ĠSwed": 8054,
      "Even": 8055,
      "Ġcurrency": 8056,
      "82": 8057,
      "Ġstores": 8058,
      "ipher": 8059,
      "Ġmerely": 8060,
      "Ġscope": 8061,
      "ĠNote": 8062,
      "Ġdim": 8063,
      "elfare": 8064,
      "Ġoldest": 8065,
      "iana": 8066,
      "Ġclassification": 8067,
      "Ġprincipal": 8068,
      "Ġsought": 8069,
      "rary": 8070,
      "Ġgases": 8071,
      "Ġprobability": 8072,
      "ials": 8073,
      "Ġprivacy": 8074,
      "ĠChicago": 8075,
      "Ġprofile": 8076,
      "Ġfats": 8077,
      "andon": 8078,
      "ĠThough": 8079,
      "IF": 8080,
      "ĠPenn": 8081,
      "apes": 8082,
      "ĠForest": 8083,
      "reprene": 8084,
      "Ġlungs": 8085,
      "gov": 8086,
      "Ġsodium": 8087,
      "izabeth": 8088,
      "Ġsacr": 8089,
      "sor": 8090,
      "Ġstrategic": 8091,
      "Ġgrows": 8092,
      "________________": 8093,
      "Ġflows": 8094,
      "Ġecosystems": 8095,
      "She": 8096,
      "Ġsteam": 8097,
      "Ġasthma": 8098,
      "Ġnutritional": 8099,
      "Ġstre": 8100,
      "Ġnone": 8101,
      "52": 8102,
      "ĠDou": 8103,
      "Ġcab": 8104,
      "Ġentered": 8105,
      "archy": 8106,
      "eries": 8107,
      "Ġnest": 8108,
      "Ġlighting": 8109,
      "Ġwasn": 8110,
      "Ġcontainer": 8111,
      "Ġconsiderable": 8112,
      "havior": 8113,
      "Ġextend": 8114,
      "Ġreput": 8115,
      "Ġrational": 8116,
      "Ġwound": 8117,
      "ealand": 8118,
      "Ġreferences": 8119,
      "Ġshed": 8120,
      "vin": 8121,
      "asant": 8122,
      "Ġreporting": 8123,
      "Ġaccompan": 8124,
      "raine": 8125,
      "54": 8126,
      "ocity": 8127,
      "rat": 8128,
      "Ġmir": 8129,
      "ĠAR": 8130,
      "Ġrhyth": 8131,
      "Ġtone": 8132,
      "Ġdress": 8133,
      "CR": 8134,
      "Ġexceed": 8135,
      "Ġclassic": 8136,
      "Ġ400": 8137,
      "elesc": 8138,
      "ĠFour": 8139,
      "ĠIss": 8140,
      "Ġrefuge": 8141,
      "Ġemerging": 8142,
      "Ġpreferred": 8143,
      "Ġrobot": 8144,
      "Ġproceed": 8145,
      "Ġsomewhat": 8146,
      "Ġgrinding": 8147,
      "assium": 8148,
      "Ġjudge": 8149,
      "People": 8150,
      "Ġchromos": 8151,
      "Ġdisabilities": 8152,
      "icted": 8153,
      "ĠFort": 8154,
      "Ġeditor": 8155,
      "neys": 8156,
      "Ġdeclared": 8157,
      "Ġcounty": 8158,
      "64": 8159,
      "Ġbarriers": 8160,
      "Ġdeficiency": 8161,
      "Ġtrigger": 8162,
      "Ġhypothesis": 8163,
      "ĠDifferent": 8164,
      "Also": 8165,
      "Ġopposed": 8166,
      "Ġexception": 8167,
      "Ġpin": 8168,
      "world": 8169,
      "Ġsimultane": 8170,
      "Ġequality": 8171,
      "Ġtheoretical": 8172,
      "ĠInvest": 8173,
      "osh": 8174,
      "Ġdollars": 8175,
      "Ġefficiently": 8176,
      "Ġadds": 8177,
      "Ġcontributions": 8178,
      "ĠDen": 8179,
      "Ġpassion": 8180,
      "Ġadvis": 8181,
      "Part": 8182,
      "ĠIrish": 8183,
      "Ġaddressing": 8184,
      "Ġattach": 8185,
      "Ġregarded": 8186,
      "etime": 8187,
      "Ġrestric": 8188,
      "Ġcontributed": 8189,
      "ĠWikipedia": 8190,
      "Ġdisaster": 8191,
      "Ġargue": 8192,
      "á¹": 8193,
      "Ġassume": 8194,
      "Ġmur": 8195,
      "Ġhappening": 8196,
      "Sim": 8197,
      "ivities": 8198,
      "Ġviral": 8199,
      "Ġwindows": 8200,
      "Car": 8201,
      "Ġminimize": 8202,
      "ĠUl": 8203,
      "Ġcorner": 8204,
      "Ear": 8205,
      "Ġinspired": 8206,
      "Ġdrag": 8207,
      "section": 8208,
      "Ġprevalence": 8209,
      "],": 8210,
      "ĠHosp": 8211,
      "iger": 8212,
      "Ġmanager": 8213,
      "arents": 8214,
      "urable": 8215,
      "example": 8216,
      "!!": 8217,
      "93": 8218,
      "Ġguard": 8219,
      "Ġkilomet": 8220,
      "ĠSS": 8221,
      "erving": 8222,
      "Ġexhaust": 8223,
      "ailed": 8224,
      "Ġsulf": 8225,
      "Ġmanufacturers": 8226,
      "97": 8227,
      "Ġfacilitate": 8228,
      "Ġgrains": 8229,
      "ĠSund": 8230,
      "oli": 8231,
      "ĠScholar": 8232,
      "Ġfriendly": 8233,
      "Ġcounsel": 8234,
      "uther": 8235,
      "Ġoccurring": 8236,
      "Ġcorrel": 8237,
      "ĠTre": 8238,
      "cyclop": 8239,
      "Ġweapons": 8240,
      "Ġven": 8241,
      "Ġperforming": 8242,
      "erally": 8243,
      "ĠEvent": 8244,
      "AG": 8245,
      "Ġunusual": 8246,
      "Ġecological": 8247,
      "Ġaddressed": 8248,
      "ĠSup": 8249,
      "Ġlaunch": 8250,
      "Ġrarely": 8251,
      "auses": 8252,
      "Because": 8253,
      "rot": 8254,
      "Ġpupils": 8255,
      "Ġcomprom": 8256,
      "ĠTry": 8257,
      "Ġfed": 8258,
      "igan": 8259,
      "ĠImport": 8260,
      "Ġautism": 8261,
      "ked": 8262,
      "ĠOxford": 8263,
      "Ġom": 8264,
      "Ġbiodiversity": 8265,
      "Ġversions": 8266,
      "57": 8267,
      "Ġsatisfact": 8268,
      "oys": 8269,
      "Ġcontents": 8270,
      "81": 8271,
      "Ġbonds": 8272,
      "ĠFacebook": 8273,
      "Learn": 8274,
      "Ġlie": 8275,
      "specific": 8276,
      "Ġtick": 8277,
      "Ġplanned": 8278,
      "Ġgly": 8279,
      "Ġencouraged": 8280,
      "Ġtaxes": 8281,
      "Ġwine": 8282,
      "Ġflexibility": 8283,
      "Ġgrain": 8284,
      "Ġindigenous": 8285,
      "ĠAmazon": 8286,
      "Ġsocieties": 8287,
      "Ġlbs": 8288,
      "Ġfitness": 8289,
      "Ġviewed": 8290,
      "duction": 8291,
      "Ġradi": 8292,
      "ĠIslam": 8293,
      "ĠWorksheet": 8294,
      "ĠZealand": 8295,
      "Ġsigned": 8296,
      "pled": 8297,
      "Ġpreschool": 8298,
      "unicip": 8299,
      "ref": 8300,
      "ynt": 8301,
      "Ġ1996": 8302,
      "lamic": 8303,
      "Ġsale": 8304,
      "Ġenterpr": 8305,
      "Ġfairly": 8306,
      "ĠÂ©": 8307,
      "ĠCross": 8308,
      "92": 8309,
      "Ġdominant": 8310,
      "EF": 8311,
      "otypes": 8312,
      "ĠCost": 8313,
      "ĠCr": 8314,
      "Ġanalyzed": 8315,
      "ĠSupport": 8316,
      "erb": 8317,
      "Ġremind": 8318,
      "ocur": 8319,
      "eping": 8320,
      "Ġsessions": 8321,
      "Ġmigration": 8322,
      "greg": 8323,
      "Ġwarning": 8324,
      "Ġneither": 8325,
      "Ġtob": 8326,
      "Ġmarg": 8327,
      "Ġcann": 8328,
      "ĠStrateg": 8329,
      "tles": 8330,
      "ĠUk": 8331,
      "otherapy": 8332,
      "Ġconsumed": 8333,
      "izers": 8334,
      "iva": 8335,
      "Ġcement": 8336,
      "Ġmine": 8337,
      "ĠPen": 8338,
      "Ġthereby": 8339,
      "51": 8340,
      "rav": 8341,
      "ĠRock": 8342,
      "Ġmuseum": 8343,
      "issance": 8344,
      "ĠCarolina": 8345,
      "Ġoverwhel": 8346,
      "Ġrose": 8347,
      "Ġattitudes": 8348,
      "ifier": 8349,
      "Ġreaching": 8350,
      "Ġhoney": 8351,
      "Ġdirections": 8352,
      "EO": 8353,
      "Ġfatigue": 8354,
      "Ġterror": 8355,
      "ĠPhot": 8356,
      "Ġchap": 8357,
      "Ġcaptured": 8358,
      "iments": 8359,
      "Ġrelie": 8360,
      "Ġcreatures": 8361,
      "Ġagreed": 8362,
      "Ġnice": 8363,
      "ĠAvoid": 8364,
      "Ġattitude": 8365,
      "ĠLast": 8366,
      "ĠBit": 8367,
      "Ġcommission": 8368,
      "peror": 8369,
      "Ġdriver": 8370,
      "ught": 8371,
      "allow": 8372,
      "Yes": 8373,
      "obile": 8374,
      "Ġseparated": 8375,
      "ĠFire": 8376,
      "Ġfascinating": 8377,
      "zyme": 8378,
      "Ġnewly": 8379,
      "ĠâĨ": 8380,
      "itual": 8381,
      "ports": 8382,
      "Ġacquired": 8383,
      "**": 8384,
      "vard": 8385,
      "Ġversus": 8386,
      "ĠPage": 8387,
      "ideo": 8388,
      "Ġtab": 8389,
      "Ġqualities": 8390,
      "Ġprohib": 8391,
      "Ġurine": 8392,
      "Ġfinds": 8393,
      "rolled": 8394,
      "Ġcigare": 8395,
      "ĠAC": 8396,
      "Ġspoken": 8397,
      "ega": 8398,
      "opyright": 8399,
      "ĠâĢĿ": 8400,
      "Ġtor": 8401,
      "ĠTreatment": 8402,
      "Ġshock": 8403,
      "iah": 8404,
      "Using": 8405,
      "Ġcraft": 8406,
      "Tra": 8407,
      "zymes": 8408,
      "imm": 8409,
      "Ġranging": 8410,
      "Ġsubstit": 8411,
      "ĠPolit": 8412,
      "Ġutilize": 8413,
      "ĠWithout": 8414,
      "Ġorigins": 8415,
      "Ġsenior": 8416,
      "mod": 8417,
      "dep": 8418,
      "Ġcomplexity": 8419,
      "ĠLesson": 8420,
      "ogram": 8421,
      "Ġcord": 8422,
      "Ġfinance": 8423,
      "Ġpuzz": 8424,
      "Today": 8425,
      "Ġmanifest": 8426,
      "ĠUt": 8427,
      "Ġheavily": 8428,
      "rapeutic": 8429,
      "May": 8430,
      "ĠCentre": 8431,
      "Ġethics": 8432,
      "efficient": 8433,
      "anes": 8434,
      "Ġtransactions": 8435,
      "Ġsheets": 8436,
      "Ġearliest": 8437,
      "Ġachievement": 8438,
      "ĠKorea": 8439,
      "Ġcoc": 8440,
      "Ġgalax": 8441,
      "Ġconqu": 8442,
      "Ġdegrad": 8443,
      "Ġlosses": 8444,
      "Ġrobust": 8445,
      "Ġpeer": 8446,
      "lete": 8447,
      "night": 8448,
      "ĠWords": 8449,
      "Ġprogramme": 8450,
      "Ġgrant": 8451,
      "ĠProper": 8452,
      "ptic": 8453,
      "Ġ95": 8454,
      "opher": 8455,
      "erly": 8456,
      "acent": 8457,
      "unning": 8458,
      "ĠOrig": 8459,
      "Ġphysician": 8460,
      "Ġremarkable": 8461,
      "Ġlists": 8462,
      "ĠKar": 8463,
      "heimer": 8464,
      "istant": 8465,
      "Ġperspectives": 8466,
      "Ġtobacco": 8467,
      "Ġemerged": 8468,
      "Ġunex": 8469,
      "OD": 8470,
      "Ġhol": 8471,
      "Ġbag": 8472,
      "Ġspatial": 8473,
      "ĠLin": 8474,
      "Ġ1995": 8475,
      "Ġactively": 8476,
      "anger": 8477,
      "Ġarrest": 8478,
      "Ġduty": 8479,
      "Ġdefend": 8480,
      "Ġprofound": 8481,
      "Ġcirculation": 8482,
      "Ġfinger": 8483,
      "ĠSolar": 8484,
      "Ġoptical": 8485,
      "Ġremoving": 8486,
      "cribe": 8487,
      "Ġaccurately": 8488,
      "ĠDistrict": 8489,
      "Ġopinions": 8490,
      "including": 8491,
      "orrect": 8492,
      "ĠHoly": 8493,
      "ĠHeart": 8494,
      "Ġ48": 8495,
      "Ġtumor": 8496,
      "urolog": 8497,
      "Reg": 8498,
      "Ġtension": 8499,
      "ĠApplic": 8500,
      "ĠCast": 8501,
      "LC": 8502,
      "Ġmetabolism": 8503,
      "ĠMah": 8504,
      "ĠDom": 8505,
      "Ġsched": 8506,
      "Ġlake": 8507,
      "Ġwal": 8508,
      "Ġshoot": 8509,
      "Ġelectrons": 8510,
      "Ġglobe": 8511,
      "ĠISBN": 8512,
      "Ġfraction": 8513,
      "Ġthread": 8514,
      "ĠArts": 8515,
      "yer": 8516,
      "Ġdisability": 8517,
      "uum": 8518,
      "Ġstuff": 8519,
      "encing": 8520,
      "ulpt": 8521,
      "Ġfuels": 8522,
      "Ġfeels": 8523,
      "Ġimagine": 8524,
      "Ġcontrolling": 8525,
      "Ġimplementing": 8526,
      "',": 8527,
      "ĠCard": 8528,
      "ĠCH": 8529,
      "Ġantibiotics": 8530,
      "Ġlens": 8531,
      "Ġinfant": 8532,
      "oln": 8533,
      "Ġsurg": 8534,
      "Ġassert": 8535,
      "ba": 8536,
      "Ġdynamics": 8537,
      "hal": 8538,
      "Ġalumin": 8539,
      "Ġshaped": 8540,
      "Ed": 8541,
      "ĠRNA": 8542,
      "amil": 8543,
      "Ġbuying": 8544,
      "Ġtransformation": 8545,
      "Ġfishing": 8546,
      "Ġabandon": 8547,
      "Ġanalyses": 8548,
      "ĠTom": 8549,
      "Ġmeaningful": 8550,
      "ĠBased": 8551,
      "Before": 8552,
      "ĠDue": 8553,
      "efits": 8554,
      "Ġdimensions": 8555,
      "endment": 8556,
      "ĠAgency": 8557,
      "Ġforecast": 8558,
      "agen": 8559,
      "Ġhormones": 8560,
      "Ġrevenue": 8561,
      "unct": 8562,
      "Ġkeeps": 8563,
      "Ġslave": 8564,
      "Ġroads": 8565,
      "cre": 8566,
      "ĠNov": 8567,
      "Ġblockchain": 8568,
      "Ġequations": 8569,
      "Ġneighborhood": 8570,
      "Ġislands": 8571,
      "Ġpreserve": 8572,
      "ĠAdministration": 8573,
      "Ġvaries": 8574,
      "Ġenthus": 8575,
      "Ġsurprising": 8576,
      "ĠIran": 8577,
      "Ġtempor": 8578,
      "usal": 8579,
      "Ġmultipl": 8580,
      "ĠRoad": 8581,
      "Ġparad": 8582,
      "Ġtargeted": 8583,
      "atile": 8584,
      "Ġdrought": 8585,
      "ician": 8586,
      "Ġ%": 8587,
      "Ġdirected": 8588,
      "Ġachieving": 8589,
      "Ġ34": 8590,
      "Ġpopularity": 8591,
      "ĠIncre": 8592,
      "Ġperceived": 8593,
      "Ġdiscipline": 8594,
      "Ġtransmitted": 8595,
      "vi": 8596,
      "ogy": 8597,
      "Ġ37": 8598,
      "Ġdefinitions": 8599,
      "Ġofficers": 8600,
      "Ġfaces": 8601,
      "Ġsoul": 8602,
      "----": 8603,
      "ĠTH": 8604,
      "Ġgrad": 8605,
      "Ġroughly": 8606,
      "Ġdil": 8607,
      "ĠProduct": 8608,
      "Ġherb": 8609,
      "Ġrequirement": 8610,
      "oz": 8611,
      "Please": 8612,
      "Ġstatistical": 8613,
      "Ġtack": 8614,
      "Ġasp": 8615,
      "BD": 8616,
      "ĠVen": 8617,
      "Ġindirect": 8618,
      "ĠMinister": 8619,
      "neum": 8620,
      "Ġlaid": 8621,
      "Ġsciences": 8622,
      "Ġreverse": 8623,
      "Art": 8624,
      "Ġcolonies": 8625,
      "Ġslaves": 8626,
      "Ġcurve": 8627,
      "Ġseparation": 8628,
      "ĠDC": 8629,
      "Ġflav": 8630,
      "Ġhygiene": 8631,
      "About": 8632,
      "ĠFil": 8633,
      "Ġemployee": 8634,
      "ami": 8635,
      "ĠLy": 8636,
      "Ġcub": 8637,
      "Ġwheat": 8638,
      "ori": 8639,
      "Ġunion": 8640,
      "Ġdies": 8641,
      "Ġcompost": 8642,
      "Ġcas": 8643,
      "Ġlowest": 8644,
      "uct": 8645,
      "Ġtens": 8646,
      "wan": 8647,
      "Ġprey": 8648,
      "Ġjoy": 8649,
      "irth": 8650,
      "Ġconstra": 8651,
      "ĠBul": 8652,
      "rics": 8653,
      "Ġexhibit": 8654,
      "Ġphysically": 8655,
      "Ġaddresses": 8656,
      "67": 8657,
      "Ġreprodu": 8658,
      "ĠSand": 8659,
      "psy": 8660,
      "Ġclock": 8661,
      "Ġapps": 8662,
      "Ġillegal": 8663,
      "Ġhorses": 8664,
      "ĠID": 8665,
      "Ġbias": 8666,
      "Ġtong": 8667,
      "ĠEconomic": 8668,
      "ĠComputer": 8669,
      "anned": 8670,
      "una": 8671,
      "Ġcontributing": 8672,
      "enger": 8673,
      "esium": 8674,
      "Ġ1950": 8675,
      "UL": 8676,
      "Ġenhanced": 8677,
      "ĠStar": 8678,
      "alm": 8679,
      "Ġcotton": 8680,
      "Ġtemple": 8681,
      "ATION": 8682,
      "Ġregulate": 8683,
      "emb": 8684,
      "mann": 8685,
      "Ġfinish": 8686,
      "Ġbomb": 8687,
      "orr": 8688,
      "ildren": 8689,
      "idal": 8690,
      "Def": 8691,
      "Ġgent": 8692,
      "Ġtherm": 8693,
      "Ġcure": 8694,
      "Ġmature": 8695,
      "Ġordinary": 8696,
      "step": 8697,
      "Ġtutorial": 8698,
      "Ġstations": 8699,
      "Ġobst": 8700,
      "Ġspray": 8701,
      "ĠIV": 8702,
      "ĠScotland": 8703,
      "Ġworst": 8704,
      "ĠTim": 8705,
      "Ġweigh": 8706,
      "Ġinhabit": 8707,
      "cule": 8708,
      "Ġscientist": 8709,
      "Ġassembly": 8710,
      "ĠCode": 8711,
      "Ġsubt": 8712,
      "umer": 8713,
      "ĠPhilipp": 8714,
      "ĠExp": 8715,
      "Ġaggreg": 8716,
      "ibli": 8717,
      "Ġtransmit": 8718,
      "Ġrank": 8719,
      "oured": 8720,
      "Ġfalling": 8721,
      "Ġsitting": 8722,
      "ĠMedia": 8723,
      "Ġvegetation": 8724,
      "ĠPolicy": 8725,
      "MA": 8726,
      "Ġengines": 8727,
      "sters": 8728,
      "ĠBiology": 8729,
      "Ġlingu": 8730,
      "Ġlogical": 8731,
      "Ġhabitats": 8732,
      "beth": 8733,
      "Rel": 8734,
      "rink": 8735,
      "Ġsafely": 8736,
      ")||": 8737,
      "grade": 8738,
      "aska": 8739,
      "Ġtip": 8740,
      "TH": 8741,
      "Ġfur": 8742,
      "Ġdevelopments": 8743,
      "Ġspots": 8744,
      "Ġanticip": 8745,
      "Ġgravity": 8746,
      "Ġwisdom": 8747,
      "Ġspecified": 8748,
      "Ġstere": 8749,
      "Ġminimal": 8750,
      "ĠWall": 8751,
      "compass": 8752,
      "Ġclaimed": 8753,
      "Ġsynthesis": 8754,
      "ĠGrand": 8755,
      "Ġsaving": 8756,
      "Ġoutdoor": 8757,
      "omal": 8758,
      "Ġorders": 8759,
      "rium": 8760,
      "orted": 8761,
      "Ġdiscussions": 8762,
      "Ġwonderful": 8763,
      "Ġvaried": 8764,
      "Ġsoph": 8765,
      "IDS": 8766,
      "ĠPoint": 8767,
      "Ġheads": 8768,
      "ĠNumber": 8769,
      "Ġharder": 8770,
      "Ġfet": 8771,
      "oston": 8772,
      "Ġchicken": 8773,
      "Ġphrases": 8774,
      "Ġreturns": 8775,
      "91": 8776,
      "century": 8777,
      "ĠBlue": 8778,
      "Ġwatching": 8779,
      "Ġcomplement": 8780,
      "NC": 8781,
      "imensional": 8782,
      "Ġhappiness": 8783,
      "ĠName": 8784,
      "Ġcellular": 8785,
      "Ġgiant": 8786,
      "Ġcharged": 8787,
      "ĠRemember": 8788,
      "Ġsystematic": 8789,
      "through": 8790,
      "Ġexpanded": 8791,
      "Ġincorporate": 8792,
      "ĠSar": 8793,
      "ĠAL": 8794,
      "Ġscheme": 8795,
      "rowth": 8796,
      "Sm": 8797,
      "Ġpreparing": 8798,
      "2015": 8799,
      "atus": 8800,
      "Ġpossibilities": 8801,
      "Ġbreaking": 8802,
      "Ġcaught": 8803,
      "Ġseat": 8804,
      "ethe": 8805,
      "uity": 8806,
      "Ġwider": 8807,
      "Ġpeoples": 8808,
      "Ġstones": 8809,
      "ĠConsider": 8810,
      "Ġnumer": 8811,
      "Ġprecip": 8812,
      "Ġpractition": 8813,
      "Ġdiscom": 8814,
      "Ġcrown": 8815,
      "ĠHill": 8816,
      "Ġdrivers": 8817,
      "onics": 8818,
      "Ġhumanity": 8819,
      "Ġtu": 8820,
      "Ġholiday": 8821,
      "Ġauto": 8822,
      "lymp": 8823,
      "2013": 8824,
      "adow": 8825,
      "Ġseverity": 8826,
      "Ġalert": 8827,
      "Ġmodule": 8828,
      "ĠMicrosoft": 8829,
      "Ġimprovements": 8830,
      "Ġsegment": 8831,
      "ribution": 8832,
      "Ġsurge": 8833,
      "Ġquarter": 8834,
      "Ġreveals": 8835,
      "Ġsubsc": 8836,
      "ĠProtection": 8837,
      "ĠDO": 8838,
      "ĠUV": 8839,
      "Ġcyl": 8840,
      "Ġappeal": 8841,
      "Ġsplit": 8842,
      "Hist": 8843,
      "Ġconflicts": 8844,
      "ĠBal": 8845,
      "Ġconce": 8846,
      "estone": 8847,
      "Ġincident": 8848,
      "Ġjoints": 8849,
      ")|": 8850,
      "Ġgum": 8851,
      "ĠKen": 8852,
      "Ġprox": 8853,
      "ceptions": 8854,
      "Ġinvolvement": 8855,
      "Ġtowns": 8856,
      "Ġclothes": 8857,
      "63": 8858,
      "Ġpestic": 8859,
      "Ġdeeply": 8860,
      "Ġuniversities": 8861,
      "Ġmanagers": 8862,
      "EG": 8863,
      "mentia": 8864,
      "chnology": 8865,
      "Ġorbit": 8866,
      "astics": 8867,
      "endar": 8868,
      "Ġpreced": 8869,
      "ĠJohnson": 8870,
      "iop": 8871,
      "fast": 8872,
      "ĠSustain": 8873,
      "Ġnom": 8874,
      "Ġenemy": 8875,
      "Ġproved": 8876,
      "94": 8877,
      "Ġelementary": 8878,
      "Ġseemed": 8879,
      "Mar": 8880,
      "forest": 8881,
      "Ĥ¬": 8882,
      "Ġsongs": 8883,
      "Ġevident": 8884,
      "sub": 8885,
      "ensed": 8886,
      "Ġcelebrated": 8887,
      "incoln": 8888,
      "Ġextension": 8889,
      "Ġdictionary": 8890,
      "rize": 8891,
      "ĠIde": 8892,
      "Ġneural": 8893,
      "Ġintegrity": 8894,
      "Ġdifferently": 8895,
      "erman": 8896,
      "uten": 8897,
      "ĠPrevention": 8898,
      "Ġcheap": 8899,
      "ateral": 8900,
      "Ġarise": 8901,
      "Ġreflection": 8902,
      "ĠStandard": 8903,
      "Ġadapted": 8904,
      "uan": 8905,
      "Ġinitiatives": 8906,
      "ĠSecret": 8907,
      "aka": 8908,
      "2012": 8909,
      "Ġhealthier": 8910,
      "ĠLook": 8911,
      "ener": 8912,
      "Ġquiet": 8913,
      "Ġbees": 8914,
      "Com": 8915,
      "Ġtourism": 8916,
      "AI": 8917,
      "yself": 8918,
      "Ġscenario": 8919,
      "ĠBlood": 8920,
      "auc": 8921,
      "Ġnic": 8922,
      "ĠSection": 8923,
      "ĠLee": 8924,
      "Ġminds": 8925,
      "Ġdevelopers": 8926,
      "Ġsavings": 8927,
      "Ġoccas": 8928,
      "ivation": 8929,
      "Ġconference": 8930,
      "Ġtemporary": 8931,
      "68": 8932,
      "ĠTheory": 8933,
      "2020": 8934,
      "Ġabsorb": 8935,
      "Ġreasonable": 8936,
      "Ġeconomics": 8937,
      "Ġritual": 8938,
      "Ġadditionally": 8939,
      "Ġpairs": 8940,
      "ĠDar": 8941,
      "fol": 8942,
      "Ġcollective": 8943,
      "Ġinterior": 8944,
      "Sub": 8945,
      "Ġceremon": 8946,
      "Ġaccomplish": 8947,
      "Ġbreaks": 8948,
      "Man": 8949,
      "Ġfemin": 8950,
      "Ġranges": 8951,
      "ucky": 8952,
      "ĠRight": 8953,
      "Ġdevelops": 8954,
      "Ġsuit": 8955,
      "Ġvelocity": 8956,
      "Ġexecutive": 8957,
      "ima": 8958,
      "Ġ1994": 8959,
      "Ġresearcher": 8960,
      "Ġenorm": 8961,
      "Ġscr": 8962,
      "ĠPoly": 8963,
      "Ġcough": 8964,
      "Ġfant": 8965,
      "Ġlosing": 8966,
      "ĠVar": 8967,
      "cin": 8968,
      "Ġdense": 8969,
      "âĪĴ": 8970,
      "ĠPhysics": 8971,
      "ĠMusic": 8972,
      "Ġirrig": 8973,
      "Ġinstallation": 8974,
      "Each": 8975,
      "zheimer": 8976,
      "ovid": 8977,
      "ĠBang": 8978,
      "Ġparticle": 8979,
      "sen": 8980,
      "Ġmask": 8981,
      "you": 8982,
      ":||": 8983,
      "Ġpets": 8984,
      "2014": 8985,
      "ĠDirector": 8986,
      "Ġcul": 8987,
      "Â®": 8988,
      "Ġtomat": 8989,
      "ĠHor": 8990,
      "stic": 8991,
      "Ġpel": 8992,
      "62": 8993,
      "Ġpriority": 8994,
      "Ġwearing": 8995,
      "Ġdiscomfort": 8996,
      "Ġtap": 8997,
      "etts": 8998,
      "ĠSupreme": 8999,
      "ĠDrug": 9000,
      "Ġabsorption": 9001,
      "real": 9002,
      "ĠQueen": 9003,
      "athered": 9004,
      "Ġcrew": 9005,
      "ĠImpact": 9006,
      "ĠHead": 9007,
      "Ġfing": 9008,
      "ĠHT": 9009,
      "ĠTeaching": 9010,
      "function": 9011,
      "Ð»": 9012,
      "Ġfiction": 9013,
      "Ġwaiting": 9014,
      "omer": 9015,
      "Ġaccord": 9016,
      "Ġdairy": 9017,
      "Ġspelling": 9018,
      "Ġmetabolic": 9019,
      "aws": 9020,
      "Ġlibr": 9021,
      "Ġ38": 9022,
      "Ġinstances": 9023,
      "Ġtact": 9024,
      "ĠWay": 9025,
      "sem": 9026,
      "worth": 9027,
      "rip": 9028,
      "eor": 9029,
      "Ġshorter": 9030,
      "Ġembed": 9031,
      "Ġaging": 9032,
      "bean": 9033,
      "Ġhunting": 9034,
      "onday": 9035,
      "Ġentering": 9036,
      "ĠSmall": 9037,
      "Ġmosquit": 9038,
      "Ġcelebrate": 9039,
      "Ġbasically": 9040,
      "Free": 9041,
      "type": 9042,
      "Ġhouseholds": 9043,
      "ranean": 9044,
      "Ġexplicit": 9045,
      "angered": 9046,
      "ĠDutch": 9047,
      "Ġclub": 9048,
      "2010": 9049,
      "Ġmistakes": 9050,
      "ĠShakespeare": 9051,
      "Ġkilling": 9052,
      "Ġresistant": 9053,
      "economic": 9054,
      "security": 9055,
      "Rem": 9056,
      "Ġdipl": 9057,
      "ocolate": 9058,
      "ĠNext": 9059,
      ".).": 9060,
      "imals": 9061,
      "Ġsurgical": 9062,
      "Ġamino": 9063,
      "Ġguarantee": 9064,
      "ĠSelf": 9065,
      "aired": 9066,
      "ĠRam": 9067,
      "Ġsuffered": 9068,
      "Ġkindergarten": 9069,
      "ools": 9070,
      "isco": 9071,
      "ĠLine": 9072,
      "Ġbelieves": 9073,
      "ker": 9074,
      "ĠExcel": 9075,
      "Ġexpenses": 9076,
      "onents": 9077,
      "ĠPain": 9078,
      "Ġreplacement": 9079,
      "Ġvegetable": 9080,
      "brew": 9081,
      "ĠHard": 9082,
      "Ġdrinks": 9083,
      "ĠRh": 9084,
      "ila": 9085,
      "ĠJac": 9086,
      "urse": 9087,
      "Ġcoat": 9088,
      "jud": 9089,
      "ĠProm": 9090,
      "Ġenabling": 9091,
      "Ġbeans": 9092,
      "Ġlabour": 9093,
      "achus": 9094,
      "itches": 9095,
      "Ġsculpt": 9096,
      "ĠLog": 9097,
      "Students": 9098,
      "ĠMD": 9099,
      "AA": 9100,
      "RNA": 9101,
      "Ġmountains": 9102,
      "Ġpipe": 9103,
      "Ġchannels": 9104,
      "Ġcompass": 9105,
      "Ġtrading": 9106,
      "Ġflavor": 9107,
      "Ġinvestments": 9108,
      "eller": 9109,
      "Ne": 9110,
      "ĠIndians": 9111,
      "Ġcoronavirus": 9112,
      "Ġcow": 9113,
      "Ġpus": 9114,
      "Ġwellness": 9115,
      "Ġhybrid": 9116,
      "ysical": 9117,
      "Ġintention": 9118,
      "kind": 9119,
      "ĠCambridge": 9120,
      "ĠIndones": 9121,
      "Ess": 9122,
      "ogens": 9123,
      "Ġcompos": 9124,
      "lectric": 9125,
      "Ġspecialist": 9126,
      "Ġgenome": 9127,
      "Ġaggressive": 9128,
      "Ġdiarr": 9129,
      "Ġsad": 9130,
      "Ġreasoning": 9131,
      "ĠDoc": 9132,
      "ĠShould": 9133,
      "Ġpersuasive": 9134,
      "Ġmorph": 9135,
      "Ġconsisting": 9136,
      "ĠInit": 9137,
      "ais": 9138,
      "Ġclay": 9139,
      "ĠObject": 9140,
      "Ġgranted": 9141,
      "ĠPu": 9142,
      "ĠPass": 9143,
      "Ġacting": 9144,
      "ĠSP": 9145,
      "Ġembry": 9146,
      "Ġcommunications": 9147,
      "ĠHospital": 9148,
      "Ġelected": 9149,
      "Ġalive": 9150,
      "ĠCoast": 9151,
      "Ġresponsibilities": 9152,
      "QL": 9153,
      "ĠChristianity": 9154,
      "Ġconcluded": 9155,
      "Last": 9156,
      "ĠHindu": 9157,
      "Ġameric": 9158,
      "rin": 9159,
      "ĠSir": 9160,
      "Ġsectors": 9161,
      "Ġinitiative": 9162,
      "ĠHence": 9163,
      "Ġorange": 9164,
      "affe": 9165,
      "olves": 9166,
      "Ġcooperation": 9167,
      "ĠAncient": 9168,
      "Ġillnesses": 9169,
      "Ġadolescents": 9170,
      "itle": 9171,
      "Ġ55": 9172,
      "ĠJava": 9173,
      "Ġalternatives": 9174,
      "Sec": 9175,
      "ĠObs": 9176,
      "Ġpill": 9177,
      "mentation": 9178,
      "ĠEs": 9179,
      "Ġ1000": 9180,
      "2011": 9181,
      "View": 9182,
      "ĠDiet": 9183,
      "Ġaccompanied": 9184,
      "Ġmothers": 9185,
      "Ġ120": 9186,
      "egin": 9187,
      "ĠHyd": 9188,
      "Ġbuff": 9189,
      "69": 9190,
      "ati": 9191,
      "lock": 9192,
      "Ġimproves": 9193,
      "ĠLED": 9194,
      "Ġcalm": 9195,
      "Google": 9196,
      "Ġsocio": 9197,
      "61": 9198,
      "ĠElizabeth": 9199,
      "2019": 9200,
      "Ġhall": 9201,
      "SP": 9202,
      "Ġthroat": 9203,
      "ĠIslamic": 9204,
      "Ġsettlement": 9205,
      "Ġ978": 9206,
      "Ġdramatic": 9207,
      "aded": 9208,
      "Ġow": 9209,
      "ĠFull": 9210,
      "Ġbarrier": 9211,
      "ailing": 9212,
      "Ġidentical": 9213,
      "Ġjur": 9214,
      "borne": 9215,
      "Ġthyroid": 9216,
      "Ġthrive": 9217,
      "aping": 9218,
      "hire": 9219,
      "ercury": 9220,
      "ĠPrim": 9221,
      "made": 9222,
      "Ġisolation": 9223,
      "Ġpromise": 9224,
      "ĠAnswer": 9225,
      "uis": 9226,
      "ga": 9227,
      "di": 9228,
      "ashes": 9229,
      "iano": 9230,
      "aneous": 9231,
      "ðŁ": 9232,
      "terior": 9233,
      "ĠBuilding": 9234,
      "Ġordered": 9235,
      "Ġmouse": 9236,
      "inery": 9237,
      "Ġroyal": 9238,
      "Ġvarying": 9239,
      "Ġpainful": 9240,
      "ĠForce": 9241,
      "Ġresilience": 9242,
      "acts": 9243,
      "Ġownership": 9244,
      "Ġshares": 9245,
      "ĠFlow": 9246,
      "ĠSelect": 9247,
      "cut": 9248,
      "Ġpromotes": 9249,
[...]
