{
  "version": "1.0",
  "truncation": null,
  "padding": null,
  "added_tokens": [
    {
      "id": 0,
      "content": "<|endoftext|>",
      "single_word": false,
      "lstrip": false,
      "rstrip": false,
      "normalized": false,
      "special": true
    }
  ],
  "normalizer": null,
  "pre_tokenizer": {
    "type": "ByteLevel",
    "add_prefix_space": false,
    "trim_offsets": true,
    "use_regex": true
  },
  "post_processor": {
    "type": "ByteLevel",
    "add_prefix_space": true,
    "trim_offsets": false,
    "use_regex": true
  },
  "decoder": null,
  "model": {
    "type": "BPE",
    "dropout": null,
    "unk_token": null,
    "continuing_subword_prefix": null,
    "end_of_word_suffix": null,
    "fuse_unk": false,
    "byte_fallback": false,
    "ignore_merges": false,
    "vocab": {
      "<|endoftext|>": 0,
      "!": 1,
      "\"": 2,
      "#": 3,
      "$": 4,
      "%": 5,
      "&": 6,
      "'": 7,
      "(": 8,
      ")": 9,
      "*": 10,
      "+": 11,
      ",": 12,
      "-": 13,
      ".": 14,
      "/": 15,
      "0": 16,
      "1": 17,
      "2": 18,
      "3": 19,
      "4": 20,
      "5": 21,
      "6": 22,
      "7": 23,
      "8": 24,
      "9": 25,
      ":": 26,
      ";": 27,
      "<": 28,
      "=": 29,
      ">": 30,
      "?": 31,
      "@": 32,
      "A": 33,
      "B": 34,
      "C": 35,
      "D": 36,
      "E": 37,
      "F": 38,
      "G": 39,
      "H": 40,
      "I": 41,
      "J": 42,
      "K": 43,
      "L": 44,
      "M": 45,
      "N": 46,
      "O": 47,
      "P": 48,
      "Q": 49,
      "R": 50,
      "S": 51,
      "T": 52,
      "U": 53,
      "V": 54,
      "W": 55,
      "X": 56,
      "Y": 57,
      "Z": 58,
      "[": 59,
      "\\": 60,
      "]": 61,
      "^": 62,
      "_": 63,
      "`": 64,
      "a": 65,
      "b": 66,
      "c": 67,
      "d": 68,
      "e": 69,
      "f": 70,
      "g": 71,
      "h": 72,
      "i": 73,
      "j": 74,
      "k": 75,
      "l": 76,
      "m": 77,
      "n": 78,
      "o": 79,
      "p": 80,
      "q": 81,
      "r": 82,
      "s": 83,
      "t": 84,
      "u": 85,
      "v": 86,
      "w": 87,
      "x": 88,
      "y": 89,
      "z": 90,
      "{": 91,
      "|": 92,
      "}": 93,
      "~": 94,
      "¡": 95,
      "¢": 96,
      "£": 97,
      "¤": 98,
      "¥": 99,
      "¦": 100,
      "§": 101,
      "¨": 102,
      "©": 103,
      "ª": 104,
      "«": 105,
      "¬": 106,
      "®": 107,
      "¯": 108,
      "°": 109,
      "±": 110,
      "²": 111,
      "³": 112,
      "´": 113,
      "µ": 114,
      "¶": 115,
      "·": 116,
      "¸": 117,
      "¹": 118,
      "º": 119,
      "»": 120,
      "¼": 121,
      "½": 122,
      "¾": 123,
      "¿": 124,
      "À": 125,
      "Á": 126,
      "Â": 127,
      "Ã": 128,
      "Ä": 129,
      "Å": 130,
      "Æ": 131,
      "Ç": 132,
      "È": 133,
      "É": 134,
      "Ê": 135,
      "Ë": 136,
      "Ì": 137,
      "Í": 138,
      "Î": 139,
      "Ï": 140,
      "Ð": 141,
      "Ñ": 142,
      "Ò": 143,
      "Ó": 144,
      "Ô": 145,
      "Õ": 146,
      "Ö": 147,
      "×": 148,
      "Ø": 149,
      "Ù": 150,
      "Ú": 151,
      "Û": 152,
      "Ü": 153,
      "Ý": 154,
      "Þ": 155,
      "ß": 156,
      "à": 157,
      "á": 158,
      "â": 159,
      "ã": 160,
      "ä": 161,
      "å": 162,
      "æ": 163,
      "ç": 164,
      "è": 165,
      "é": 166,
      "ê": 167,
      "ë": 168,
      "ì": 169,
      "í": 170,
      "î": 171,
      "ï": 172,
      "ð": 173,
      "ñ": 174,
      "ò": 175,
      "ó": 176,
      "ô": 177,
      "õ": 178,
      "ö": 179,
      "÷": 180,
      "ø": 181,
      "ù": 182,
      "ú": 183,
      "û": 184,
      "ü": 185,
      "ý": 186,
      "þ": 187,
      "ÿ": 188,
      "Ā": 189,
      "ā": 190,
      "Ă": 191,
      "ă": 192,
      "Ą": 193,
      "ą": 194,
      "Ć": 195,
      "ć": 196,
      "Ĉ": 197,
      "ĉ": 198,
      "Ċ": 199,
      "ċ": 200,
      "Č": 201,
      "č": 202,
      "Ď": 203,
      "ď": 204,
      "Đ": 205,
      "đ": 206,
      "Ē": 207,
      "ē": 208,
      "Ĕ": 209,
      "ĕ": 210,
      "Ė": 211,
      "ė": 212,
      "Ę": 213,
      "ę": 214,
      "Ě": 215,
      "ě": 216,
      "Ĝ": 217,
      "ĝ": 218,
      "Ğ": 219,
      "ğ": 220,
      "Ġ": 221,
      "ġ": 222,
      "Ģ": 223,
      "ģ": 224,
      "Ĥ": 225,
      "ĥ": 226,
      "Ħ": 227,
      "ħ": 228,
      "Ĩ": 229,
      "ĩ": 230,
      "Ī": 231,
      "ī": 232,
      "Ĭ": 233,
      "ĭ": 234,
      "Į": 235,
      "į": 236,
      "İ": 237,
      "ı": 238,
      "Ĳ": 239,
      "ĳ": 240,
      "Ĵ": 241,
      "ĵ": 242,
      "Ķ": 243,
      "ķ": 244,
      "ĸ": 245,
      "Ĺ": 246,
      "ĺ": 247,
      "Ļ": 248,
      "ļ": 249,
      "Ľ": 250,
      "ľ": 251,
      "Ŀ": 252,
      "ŀ": 253,
      "Ł": 254,
      "ł": 255,
      "Ń": 256,
      "§Ø": 257,
      "Ø§Ø": 258,
      "Ġt": 259,
      "Ø±": 260,
      "Ġa": 261,
      "Ø©": 262,
      "ĠØ": 263,
      "in": 264,
      "he": 265,
      "ÙĦ": 266,
      "ÙĦÙ": 267,
      "Ø¯": 268,
      "§ÙĦÙ": 269,
      "re": 270,
      "Ùģ": 271,
      "ħÙ": 272,
      "on": 273,
      "Ø¹": 274,
      "Ġthe": 275,
      "ĠØ§ÙĦÙ": 276,
      "er": 277,
      "Ø¨": 278,
      "at": 279,
      "ÙħÙ": 280,
      "Ùĥ": 281,
      "Ġs": 282,
      "Ġo": 283,
      "Ùĩ": 284,
      "ÙĤ": 285,
      "ħØ": 286,
      "en": 287,
      "Ġc": 288,
      "es": 289,
      "ĪØ": 290,
      "is": 291,
      "ĬØ": 292,
      "nd": 293,
      "Ġw": 294,
      "it": 295,
      "or": 296,
      "Ġp": 297,
      "al": 298,
      "ªØ": 299,
      "ÙĬØ": 300,
      "ĠØ£": 301,
      "ÙĪØ": 302,
      "an": 303,
      "ing": 304,
      "Ġf": 305,
      "Ġb": 306,
      "Ġof": 307,
      "ed": 308,
      "ĠÙģ": 309,
      "ĠÙħÙ": 310,
      "Ġin": 311,
      "ĬØ©": 312,
      "ÙħØ": 313,
      "ou": 314,
      "ar": 315,
      "Ġm": 316,
      "ĨØ": 317,
      "ic": 318,
      "Ġand": 319,
      "Ø§Øª": 320,
      "ĬÙ": 321,
      "ion": 322,
      "Ġto": 323,
      "Ġd": 324,
      "ĪÙ": 325,
      "ĠØ¹": 326,
      "ĠÙģÙ": 327,
      "ªÙ": 328,
      "Ø³": 329,
      "ĠÙģÙĬ": 330,
      "ĠØ¨": 331,
      "le": 332,
      "ÙĬØ©": 333,
      "ØĮ": 334,
      "ro": 335,
      "ĠÙħÙĨ": 336,
      "ĠÙĪØ": 337,
      "as": 338,
      "ÙĬÙ": 339,
      "ĠÙĦ": 340,
      "ent": 341,
      "ØŃ": 342,
      "Ø£": 343,
      "Ġh": 344,
      "ÙĦÙī": 345,
      "ÙĪÙ": 346,
      "ĠØ£Ù": 347,
      "ct": 348,
      "Ġth": 349,
      "Ġe": 350,
      "Ø·": 351,
      "ĠÙħØ": 352,
      "ÙĨØ": 353,
      "Ġre": 354,
      "Ø§Ø±": 355,
      "il": 356,
      "om": 357,
      "ĠØ¥": 358,
      "ve": 359,
      "ØªÙ": 360,
      "ÙĩØ": 361,
      "us": 362,
      "Ġl": 363,
      "ĠÙĥ": 364,
      "Ø¬": 365,
      "ÙĦØ£": 366,
      "Ø¯Ù": 367,
      "âĢ": 368,
      "ØªØ": 369,
      "Ġn": 370,
      "Ø±Ù": 371,
      "§ÙĦØ£": 372,
      "Ġis": 373,
      "et": 374,
      "ĠØªØ": 375,
      "ĠØ§ÙĦÙħØ": 376,
      "ĬØ±": 377,
      "Øµ": 378,
      "ĠØ§ÙĦØ£": 379,
      "ĠT": 380,
      "ly": 381,
      "ol": 382,
      "ĠØª": 383,
      "ation": 384,
      "ħØ¹": 385,
      "Ġg": 386,
      "st": 387,
      "Ø§Ø³": 388,
      "ĠÙĬØ": 389,
      "ÙĩÙ": 390,
      "id": 391,
      "im": 392,
      "Ġbe": 393,
      "Ø®": 394,
      "Ø´": 395,
      "ce": 396,
      "Ġ(": 397,
      "ra": 398,
      "ĠØ¹ÙĦÙī": 399,
      "ÙĬÙĨ": 400,
      "ch": 401,
      "ĠA": 402,
      "ow": 403,
      "ÙĦØ¹": 404,
      "Ø±Ø": 405,
      "ut": 406,
      "ĠØĮ": 407,
      "ot": 408,
      "ÙĬØ±": 409,
      "ur": 410,
      "ĠS": 411,
      "Ġfor": 412,
      "ÙĦØ¨": 413,
      "ig": 414,
      "ĠØ£ÙĨ": 415,
      "Ġ1": 416,
      "Ġy": 417,
      "§ÙĦØ¹": 418,
      "Ġst": 419,
      "ĠC": 420,
      "ÙĦØŃ": 421,
      "ĠÙĤ": 422,
      "Ø«": 423,
      "ÙĪÙĨ": 424,
      "Ùĭ": 425,
      "Ġon": 426,
      "Ø§Ø¡": 427,
      "ĠØŃ": 428,
      "ĠI": 429,
      "ĠØ§ÙĦÙħÙ": 430,
      "Ø°": 431,
      "ver": 432,
      "el": 433,
      "ul": 434,
      "Ġthat": 435,
      "Ø§Ø¯": 436,
      "ĠØ§ÙĦØ¹": 437,
      "ĬØ¯": 438,
      "ir": 439,
      "ay": 440,
      "Ø§Ø¨": 441,
      "ĪÙĦ": 442,
      "ĠØ³": 443,
      "§ÙĦØŃ": 444,
      "am": 445,
      "Ġyou": 446,
      "ÙĩØ§": 447,
      "§ÙĦØ¨": 448,
      "se": 449,
      "Ġpro": 450,
      "ith": 451,
      "Ġas": 452,
      "ÙĦØ³": 453,
      "ÙĦÙĥ": 454,
      "Ġcon": 455,
      "Ø¶": 456,
      "ĠØ¬": 457,
      "ÙħØ¹": 458,
      "Ġare": 459,
      "Ġan": 460,
      "Ġ2": 461,
      "ĨÙ": 462,
      "ĪØ±": 463,
      "ĠØ§ÙĦØŃ": 464,
      "ad": 465,
      "Ø§Ø¹": 466,
      "if": 467,
      "ÙħØ§": 468,
      "Ø§Ø¦": 469,
      "Ġwith": 470,
      "ĠØ¥ÙĦÙī": 471,
      "her": 472,
      "Ø±ÙĬ": 473,
      "Ø¥": 474,
      "Ġor": 475,
      "ĠP": 476,
      "ĠM": 477,
      "od": 478,
      "ess": 479,
      "ĠÙĪØ§": 480,
      "Ġal": 481,
      "ter": 482,
      "ÙĦØªÙ": 483,
      "ĠÙĦÙ": 484,
      "ment": 485,
      "Ġit": 486,
      "ĠØ§ÙĦØ¨": 487,
      "ĠØ§ÙĦÙħ": 488,
      "un": 489,
      "ĠThe": 490,
      "ge": 491,
      "Ġwh": 492,
      "ÙĦØ©": 493,
      "ĠÙħØ¹": 494,
      "§ÙĦØ³": 495,
      "th": 496,
      "ĠÙĩÙ": 497,
      "ate": 498,
      "ÙĪÙĦ": 499,
      "ers": 500,
      "ĠØ§ÙĦØ³": 501,
      "Øº": 502,
      "ab": 503,
      "Ġde": 504,
      "op": 505,
      "Ø²": 506,
      "ĬÙħÙ": 507,
      "ÙĩØ°": 508,
      "Ġex": 509,
      "ist": 510,
      "ÙĦØ¬": 511,
      "ect": 512,
      "ĠØ¹Ù": 513,
      "ies": 514,
      "§ÙĦØªÙ": 515,
      "ĠB": 516,
      "ĥÙ": 517,
      "ÙĦØªØ": 518,
      "ÙĨÙ": 519,
      "ĠØ§ÙĦØªÙ": 520,
      "Ġcom": 521,
      "ÙĬØ§": 522,
      "Ġhe": 523,
      "ill": 524,
      "ive": 525,
      "res": 526,
      "um": 527,
      "ity": 528,
      "ħØ©": 529,
      "ĠÙĩØ°": 530,
      "Ø§ÙĦÙ": 531,
      "ĬØ¹": 532,
      "Ġv": 533,
      "ĠØ®": 534,
      "ĬÙĦ": 535,
      "ĠØ¯": 536,
      "qu": 537,
      "est": 538,
      "ĠØ£ÙĪ": 539,
      "§Ùģ": 540,
      "ĠÙĥØ": 541,
      "ĠW": 542,
      "ĠH": 543,
      "Ø§ØŃ": 544,
      "ĠØ§ÙĦÙĤ": 545,
      "ant": 546,
      "os": 547,
      "ore": 548,
      "âĢĻ": 549,
      "ac": 550,
      "ere": 551,
      "ĠE": 552,
      "§ÙĦØ¬": 553,
      "Ġcan": 554,
      "em": 555,
      "iv": 556,
      "Ø¯Ø": 557,
      "ĠD": 558,
      "ke": 559,
      "00": 560,
      "ĥÙĨ": 561,
      "ħÙĦ": 562,
      "Ġha": 563,
      "ĬÙĥ": 564,
      "§ÙĦØªØ": 565,
      "ÙĦØ¥": 566,
      "Ġsu": 567,
      "ÙĪØ±": 568,
      "ÙĦØ·": 569,
      "ªÙħ": 570,
      "rom": 571,
      "ain": 572,
      "ÙĬÙħÙ": 573,
      "ĪÙĤ": 574,
      "pp": 575,
      "ud": 576,
      "§ÙĤ": 577,
      "Ġ-": 578,
      "oc": 579,
      "Ġby": 580,
      "Ġus": 581,
      "ĠR": 582,
      "ĠØ¹ÙĨ": 583,
      "ÙĨØ§": 584,
      "Ø§Ø¬": 585,
      "ĠØ§ÙĦØ¬": 586,
      "ial": 587,
      "Ġch": 588,
      "ld": 589,
      "igh": 590,
      "ĠF": 591,
      "ĠØ´": 592,
      "ªØ±": 593,
      "Ø¯Ø©": 594,
      "ĪØ¹": 595,
      "Ø¨Ù": 596,
      "ort": 597,
      "ÙĦØµ": 598,
      "ĬÙĤ": 599,
      "ĠØ§ÙĦØªØ": 600,
      "ħØ±": 601,
      "Ġr": 602,
      "ĠØ§ÙĦØªÙĬ": 603,
      "ure": 604,
      "ĠâĢ": 605,
      "ĠÙĬÙħÙ": 606,
      "nt": 607,
      "ĠØ§ÙĦÙĥ": 608,
      "Ġat": 609,
      "ÙĦØ®": 610,
      "and": 611,
      "ÙĦØ´": 612,
      "Ġfrom": 613,
      "§ÙĦØ¥": 614,
      "ĠÙĥØ§": 615,
      "ÙħÙĦ": 616,
      "ical": 617,
      "Ġne": 618,
      "ĬÙģ": 619,
      "ĠÙĬÙħÙĥÙĨ": 620,
      "Ġse": 621,
      "og": 622,
      "Ġle": 623,
      "§ÙĦØ·": 624,
      "Ø¯Ø§": 625,
      "ĠG": 626,
      "ĠL": 627,
      "ÙĬØ¯": 628,
      "ĬÙĨ": 629,
      "ĠN": 630,
      "ĠØ§ÙĦØ·": 631,
      "ªØ¹": 632,
      "art": 633,
      "ĠÙĦØ": 634,
      "Ġen": 635,
      "§ÙĦØµ": 636,
      "ĠØ§ÙĦØ¥": 637,
      "ĪÙģ": 638,
      "ĠØ§ÙĦÙģ": 639,
      "Ġwas": 640,
      "ÙĦØ°": 641,
      "ri": 642,
      "ĠÙĨØ": 643,
      "ĠØ§ÙĦØµ": 644,
      "§ÙĦØ´": 645,
      "§ÙĦØ®": 646,
      "ØªØ®": 647,
      "ĠÙĪØ§ÙĦÙ": 648,
      "Ġsh": 649,
      "pe": 650,
      "ĠØ§ÙĦØ®": 651,
      "ĠØ§ÙĦÙĨ": 652,
      "Ġhave": 653,
      "Ġnot": 654,
      "Ø§Ùģ": 655,
      "ĠØ§ÙĦØ´": 656,
      "pt": 657,
      "Ġwor": 658,
      "ions": 659,
      "§ÙĦØ°": 660,
      "ĠØ°": 661,
      "per": 662,
      "ÙĦØ¯": 663,
      "ªØ¨": 664,
      "ĠØ§ÙĦØ°": 665,
      "..": 666,
      "ĪØ¨": 667,
      "Ġthis": 668,
      "ÙĩÙħ": 669,
      "ĠØ§Ø³": 670,
      "ĠÙĩÙĪ": 671,
      "Ġim": 672,
      "ÙĬÙģ": 673,
      "ĠØ·": 674,
      "Ġyour": 675,
      "ĠØº": 676,
      "ĬØ§Øª": 677,
      "act": 678,
      "Ø±Ø©": 679,
      "ÙħØ©": 680,
      "ight": 681,
      "our": 682,
      "ine": 683,
      "ag": 684,
      "Ø¯Ùħ": 685,
      "Ġab": 686,
      "ĠÙħØ§": 687,
      "pl": 688,
      "all": 689,
      "ªÙĤ": 690,
      "Ġwe": 691,
      "ust": 692,
      "rou": 693,
      "ÙĦØº": 694,
      "ost": 695,
      "ĠØ±": 696,
      "ich": 697,
      "ĪÙĦÙ": 698,
      "Ġpl": 699,
      "ÙĬÙĤ": 700,
      "du": 701,
      "ome": 702,
      "ØªØ±": 703,
      "Ġu": 704,
      "ÙĬÙĥ": 705,
      "ated": 706,
      "ell": 707,
      "ff": 708,
      "ÙĪØ§": 709,
      "ĠØªØŃ": 710,
      "ĠO": 711,
      "out": 712,
      "ĠÙĦØ§": 713,
      "iz": 714,
      "ĠØµ": 715,
      "Ø¯ÙĬØ¯": 716,
      "age": 717,
      "The": 718,
      "Ø§Øµ": 719,
      "ĠÙĩ": 720,
      "ÙĥÙĦ": 721,
      "Ġ\"": 722,
      "gh": 723,
      "Ġ20": 724,
      "ÙĦØ±": 725,
      "ard": 726,
      "ther": 727,
      "ĠÙĥØ§Ù": 728,
      "are": 729,
      "Ġint": 730,
      "ĠÙĩØ°Ø": 731,
      "ĠÙĩØ°Ø§": 732,
      "ÙĨØª": 733,
      "ide": 734,
      "Ġtheir": 735,
      "Ġk": 736,
      "ult": 737,
      "ould": 738,
      "ÙĬØ¹": 739,
      "ak": 740,
      "ans": 741,
      "ÙħØ±": 742,
      "Ø§ÙĤ": 743,
      ").": 744,
      "Ø§Ø·": 745,
      "Ġad": 746,
      "Ġcomp": 747,
      "ĠÙĥØ§ÙĨ": 748,
      "ÙĬØ³": 749,
      "Ø±Ø¨": 750,
      "ĠØ¨Ø¹": 751,
      "ĠØ§ÙĦÙħØ¹": 752,
      "Ø±Ø§": 753,
      "ĨÙĬØ©": 754,
      "§ÙĦØ¯": 755,
      "ĠØ¨Ø": 756,
      "ast": 757,
      "Ø±Ø¶": 758,
      "Ġ3": 759,
      "ÙĦÙģ": 760,
      "Ġcont": 761,
      "ous": 762,
      "Ø§Ø¶": 763,
      "ĠÙĩØ°Ùĩ": 764,
      "Ġinc": 765,
      "ĠU": 766,
      "ru": 767,
      "ear": 768,
      "ĠIn": 769,
      "ood": 770,
      "ations": 771,
      "ĠØ§ÙĦÙĨØ": 772,
      "cc": 773,
      "ĠÙĪÙ": 774,
      "ib": 775,
      "ĠØªØ¹": 776,
      "ĠØ§ÙĦØ¯": 777,
      "Ġwhich": 778,
      "end": 779,
      "Ġres": 780,
      "Ø§Ø¯Ø©": 781,
      "Ġ19": 782,
      "Ġwill": 783,
      "vel": 784,
      "Ġwhe": 785,
      "ip": 786,
      "ĠJ": 787,
      "Ġdis": 788,
      "³Ø": 789,
      "§ÙĦØ±": 790,
      "ia": 791,
      "ĪØ¯": 792,
      "ie": 793,
      "ks": 794,
      "orm": 795,
      "ĪÙĨ": 796,
      "ÙĦÙĬ": 797,
      "ĠØ°ÙĦÙĥ": 798,
      "ÙĤØ©": 799,
      "ĠØªÙ": 800,
      "Ġall": 801,
      "ÙĥÙ": 802,
      "so": 803,
      "Ø¸": 804,
      "ary": 805,
      "able": 806,
      "ĠØ§ÙĦØ±": 807,
      "Ġthey": 808,
      "ØªØ¨": 809,
      "Ø«Ø±": 810,
      "ence": 811,
      "Ġdo": 812,
      "Ġmore": 813,
      "ong": 814,
      "Ø¯ÙĬ": 815,
      "Ġhas": 816,
      "ĠTh": 817,
      "ÙĬØ¶": 818,
      "ĠÙĩÙĬ": 819,
      "ÙĦÙħ": 820,
      "ance": 821,
      "ap": 822,
      "Ġimp": 823,
      "«ÙĦ": 824,
      "ĠØªÙĤ": 825,
      "ual": 826,
      "Ø±Ùĥ": 827,
      "ĪÙħ": 828,
      "ĠØªÙħ": 829,
      "ater": 830,
      "ÙĪØ³": 831,
      "Ø§Ø®": 832,
      "ĨØ§": 833,
      "ind": 834,
      "Ġte": 835,
      "Ġman": 836,
      "Ø¹Ø©": 837,
      "Ġcl": 838,
      "ire": 839,
      "ry": 840,
      "rit": 841,
      "ents": 842,
      "ÙĨÙĬ": 843,
      "ĠØ£Ùĥ": 844,
      "ign": 845,
      "Ġun": 846,
      "Ø¨ÙĦ": 847,
      "ÙĪÙĤ": 848,
      "ach": 849,
      "ĠÙĤØ¯": 850,
      "ep": 851,
      "Ø¯Ø§Ù": 852,
      "ªÙĥ": 853,
      "ĨÙģ": 854,
      "Ġalso": 855,
      "ction": 856,
      "ÙĦÙĬØ©": 857,
      "ĠÙĬØªÙħ": 858,
      "Ø¨Ø©": 859,
      "oo": 860,
      "Ġme": 861,
      "ĪÙĥ": 862,
      "ild": 863,
      "ÙĦÙĤ": 864,
      "Ġother": 865,
      "ÙĨÙĬØ©": 866,
      "reat": 867,
      "ress": 868,
      "ĠÙĪØ§ÙĦ": 869,
      "ase": 870,
      "ªÙģ": 871,
      "ake": 872,
      "âĢĿ": 873,
      "ĩØ": 874,
      "ass": 875,
      "Ø§Ø±Ø©": 876,
      "ĬØ¨": 877,
      "ØŁ": 878,
      "ªØŃ": 879,
      "ØªØ¹": 880,
      "Ġper": 881,
      "Ġj": 882,
      "ition": 883,
      "ĩØ§": 884,
      "av": 885,
      "Ø°Ø": 886,
      "ÙĦØ§Øª": 887,
      "Ø§Ø²": 888,
      "ÙĬØ§Ù": 889,
      "ĠÙĬÙĥ": 890,
      "ĩÙ": 891,
      "ÙĬÙĦ": 892,
      "ice": 893,
      "Ø°Ø§": 894,
      "ÙĪÙģ": 895,
      "§ÙĦØº": 896,
      "ĠØ¹Ø": 897,
      "ĠØ¹Ø§": 898,
      "ces": 899,
      "Ø±Ùģ": 900,
      "Ġpre": 901,
      "Ġbut": 902,
      "ÙĬØ§Øª": 903,
      "ĠØ®ÙĦ": 904,
      "Ġapp": 905,
      "Ġar": 906,
      "Ġone": 907,
      "ory": 908,
      "Ġsp": 909,
      "ĠÙĬØ¹": 910,
      "Ø¨Ø±": 911,
      "Ġstud": 912,
      "ĠØ§ÙĦÙĪØ": 913,
      "aus": 914,
      "Ġsy": 915,
      "ĠÙħØ¬": 916,
      "ÙĦØ«": 917,
      "ens": 918,
      "one": 919,
      "ĠØ®ÙĦØ": 920,
      "ĠØ®ÙĦØ§": 921,
      "ime": 922,
      "ang": 923,
      "Ġinf": 924,
      "Ġ201": 925,
      "ÙĦÙĥÙ": 926,
      "Ġso": 927,
      "ber": 928,
      "Ġout": 929,
      "ord": 930,
      "ĠÙħÙĤ": 931,
      "Ġ4": 932,
      "§ÙĦØ«": 933,
      "ÙĬØ±Ø©": 934,
      "ĠØ¨Ø´": 935,
      "ish": 936,
      "ace": 937,
      "ĠSt": 938,
      "olog": 939,
      "ĠØ£Ø³": 940,
      "ĠK": 941,
      "Ġpart": 942,
      "ors": 943,
      "Ġqu": 944,
      "Ġabout": 945,
      "ĠÙĬØ¬": 946,
      "very": 947,
      "Ùı": 948,
      "ĠØªØ³": 949,
      "iff": 950,
      "ue": 951,
      "Ġwere": 952,
      "ÙģØ": 953,
      "'s": 954,
      "Ø¯Ø§Ùħ": 955,
      "ĠØ®ÙĦØ§ÙĦ": 956,
      "ub": 957,
      "ÙĦÙĥÙĨ": 958,
      "ĠÙħÙĨØ": 959,
      "ount": 960,
      "ĠÙĬØ³": 961,
      "ree": 962,
      "ack": 963,
      "ĠâĢľ": 964,
      "Ġ5": 965,
      "§Ùĩ": 966,
      "ØªÙĤ": 967,
      "ĠØ§ÙĦØº": 968,
      "Ġev": 969,
      "ci": 970,
      "Ġcomm": 971,
      "âĢ¬": 972,
      "ĠÙĩÙĨØ§": 973,
      "ĠØ§ÙĦØ°Ù": 974,
      "Ġpe": 975,
      "ĠØ§ÙĦØ°ÙĬ": 976,
      "Ø§Ø«": 977,
      "ric": 978,
      "ĠIt": 979,
      "âĢ¬âĢ¬": 980,
      "ÙĪÙĦÙ": 981,
      "ose": 982,
      "ĠØ§ÙĦÙħØŃ": 983,
      "ĠÙĤØ¨ÙĦ": 984,
      "ike": 985,
      "low": 986,
      "Ø¯Ø±": 987,
      "now": 988,
      "ØªØ®Ø¯Ø§Ùħ": 989,
      "ame": 990,
      "Ùī": 991,
      "ph": 992,
      "ĠØ§ÙĦØ£Ø³": 993,
      "Ġthem": 994,
      "ile": 995,
      "ĠÙĬÙ": 996,
      "Ø±Ùī": 997,
      "ĠV": 998,
      "ĠÙĦÙĦÙ": 999,
      "Ġits": 1000,
      "Ġind": 1001,
      "ĨØ§Øª": 1002,
      "ÙħÙĬØ©": 1003,
      "ĠØ§ÙĦØ«": 1004,
      "ays": 1005,
      "ĠØ¨Ø´ÙĥÙĦ": 1006,
      "§ÙĦØ©": 1007,
      "ĠØ¥Ø°Ø§": 1008,
      "Ġspe": 1009,
      "Ġdiff": 1010,
      "Ø§ÙĦØ©": 1011,
      "ound": 1012,
      "ĠØ¹ÙĨØ¯": 1013,
      "§ÙĨØ": 1014,
      "ĪÙĦÙĥÙĨ": 1015,
      "ys": 1016,
      "ÙĪÙĦÙĥÙĨ": 1017,
      "Ġmay": 1018,
      "ØªÙģ": 1019,
      "ĠÙħØ³": 1020,
      "ĠØ§ÙĦÙħØ³": 1021,
      "ÙĪØ¨": 1022,
      "ĠÙĪÙĦÙĥÙĨ": 1023,
      "ĠThis": 1024,
      "ĠÙħØ±": 1025,
      "ail": 1026,
      "ific": 1027,
      "ĠÙĥÙĦ": 1028,
      "Ġfe": 1029,
      "ÙĬÙħ": 1030,
      "ĠØ¹Ø§Ù": 1031,
      "nder": 1032,
      "ÙħÙĨ": 1033,
      "ĠØ¹Ø§Ùħ": 1034,
      "Ġwho": 1035,
      "Ø¢": 1036,
      "ÙĦØªØ¹": 1037,
      "Ø±ÙĬØ©": 1038,
      "ÙĪÙħ": 1039,
      "Ø£Ù": 1040,
      "Ø±ÙĤ": 1041,
      "ĠØªÙĥ": 1042,
      "ÙĬØ«": 1043,
      "ates": 1044,
      "ĠÙĬÙĥÙĪÙĨ": 1045,
      "ite": 1046,
      "ĠÙħØ«ÙĦ": 1047,
      "Ø¦": 1048,
      "alth": 1049,
      "Ġbec": 1050,
      "Ġup": 1051,
      "ĨØ¨": 1052,
      "Ġhow": 1053,
      "ĠØ£ÙĬØ¶": 1054,
      "king": 1055,
      "ĠØºÙĬØ±": 1056,
      "ÙħÙĬØ¹": 1057,
      "ople": 1058,
      "Ġro": 1059,
      "ĠÙĦÙħ": 1060,
      "ĬÙħ": 1061,
      "ĠCh": 1062,
      "Ġtra": 1063,
      "ØªÙħ": 1064,
      "ĠØªØ´": 1065,
      "ĠØ¨ÙĬÙĨ": 1066,
      "ĠØ£ÙĥØ«Ø±": 1067,
      "Ġcons": 1068,
      "lud": 1069,
      "Ġuse": 1070,
      "®Ø": 1071,
      "te": 1072,
      "Ø§Ø©": 1073,
      "ÙĨÙģ": 1074,
      "Ġrec": 1075,
      "Ø³Ù": 1076,
      "ren": 1077,
      "ings": 1078,
      "Ġsome": 1079,
      "ms": 1080,
      "Ġcol": 1081,
      "Ġtr": 1082,
      "Ġwhen": 1083,
      "Ġthan": 1084,
      "ªÙĩ": 1085,
      "ĠÙĪÙĤ": 1086,
      "ĠÙħØŃ": 1087,
      "Ġhel": 1088,
      "ĠØ§ÙĦÙħÙĨØ": 1089,
      "ÙĬØ·": 1090,
      "ÙĦØ§Ø³": 1091,
      "ÙĪØ¯": 1092,
      "lect": 1093,
      "Ø§Ø±Ø§Øª": 1094,
      "Ø¹ÙĦ": 1095,
      "ffect": 1096,
      "Ġinto": 1097,
      "Ġbet": 1098,
      "ments": 1099,
      "Ġtime": 1100,
      "mer": 1101,
      "ons": 1102,
      "int": 1103,
      "we": 1104,
      "Ġover": 1105,
      "ĠÙĩÙĨØ§Ùĥ": 1106,
      "ÙĬØ²": 1107,
      "erv": 1108,
      "cess": 1109,
      "20": 1110,
      "®Øª": 1111,
      "ian": 1112,
      "Ġact": 1113,
      "ities": 1114,
      "ĠØ¶": 1115,
      "§Ùĥ": 1116,
      "ning": 1117,
      "ĠY": 1118,
      "Ø±Ø§Ø¡": 1119,
      "Ġthere": 1120,
      "Ġthese": 1121,
      "Ġhis": 1122,
      "vers": 1123,
      "ally": 1124,
      "les": 1125,
      "ÙĦØ¢": 1126,
      "Ġgo": 1127,
      "rough": 1128,
      "stem": 1129,
      "tern": 1130,
      "ll": 1131,
      "§ÙĦØªØ¹": 1132,
      "ond": 1133,
      "ĨÙĤ": 1134,
      "Ġhelp": 1135,
      "ĠØ§ÙĦØ£Ù": 1136,
      "ĠÙĬØ¬Ø¨": 1137,
      "Ġacc": 1138,
      "ØªÙĥ": 1139,
      "ÙĩØ±": 1140,
      "Ø¯Ø¯": 1141,
      "Ġdes": 1142,
      "Ġbeen": 1143,
      "velop": 1144,
      "Ġag": 1145,
      "Ġpeople": 1146,
      "§ÙĦØ¢": 1147,
      "ÙĦØ±Ø": 1148,
      "ject": 1149,
      "Ġrel": 1150,
      "Ġunder": 1151,
      "ause": 1152,
      "ĠØ¨Ø¹Ø¶": 1153,
      "ÙģØ¶": 1154,
      "Ġyear": 1155,
      "§ÙĦØ±Ø": 1156,
      "ĠØ¨Ø§ÙĦÙ": 1157,
      "Ġmost": 1158,
      "ªØ¬": 1159,
      "Ġneed": 1160,
      "Ġknow": 1161,
      "ple": 1162,
      "ĠØ§ÙĦÙħØ´": 1163,
      "ĠØ§ÙĦØ¢": 1164,
      "Ġlike": 1165,
      "ĠØ§ÙĦØªØ¹": 1166,
      "ÙĬØ¬": 1167,
      "Ø«ÙĬØ±": 1168,
      "ĠØ§ÙĦØ±Ø": 1169,
      "ative": 1170,
      "ics": 1171,
      "ough": 1172,
      "ÙħØ§Ù": 1173,
      "lic": 1174,
      "Ġra": 1175,
      "Ġbl": 1176,
      "Ġ200": 1177,
      "__": 1178,
      "row": 1179,
      "Ġsuch": 1180,
      "Ġour": 1181,
      "Ġinclud": 1182,
      "ØªÙĪÙ": 1183,
      "ating": 1184,
      "ove": 1185,
      "ĠØ²": 1186,
      "ob": 1187,
      "ÙĪØ¬": 1188,
      "ne": 1189,
      "Ġused": 1190,
      "ular": 1191,
      "ĪØ§ØŃ": 1192,
      "Ġph": 1193,
      "Ø·Ø©": 1194,
      "ĠØ£ÙĬ": 1195,
      "ÙĨØ¨": 1196,
      "Ø±Ø¬": 1197,
      "Ġpr": 1198,
      "Ġ6": 1199,
      "irst": 1200,
      "ĪØ¬": 1201,
      "ªØ§Ø¨": 1202,
      "ĪØ¹Ø©": 1203,
      "®ØªÙĦÙģ": 1204,
      "Ø¨Ø¨": 1205,
      "ÙĤÙĬÙĤ": 1206,
      "Ġprov": 1207,
      "Ġgen": 1208,
      "Ġdiffere": 1209,
      "Ġprodu": 1210,
      "Ø±ÙĪ": 1211,
      "Ø®Øµ": 1212,
      "ÙĦÙĬÙĦ": 1213,
      "ÙĪÙĬØ©": 1214,
      "ious": 1215,
      "ĠØ§ÙĦÙħÙĤ": 1216,
      "ĠØ«": 1217,
      "Ø¨ÙĬ": 1218,
      "ĠÙĬÙĤ": 1219,
      "ħØ§Ø±": 1220,
      "Ø¹Ø": 1221,
      "Ġnew": 1222,
      "Ø®Ø±Ùī": 1223,
      "eth": 1224,
      "red": 1225,
      "ov": 1226,
      "uc": 1227,
      "ook": 1228,
      "Ġtw": 1229,
      "ÙĬØª": 1230,
      "ĠØ¹ÙĨØ¯ÙħØ§": 1231,
      "ĠÙģÙĤ": 1232,
      "Ġdevelop": 1233,
      "Ġif": 1234,
      "hat": 1235,
      "Ġem": 1236,
      "Ġany": 1237,
      "ĨØ¯": 1238,
      "Ġwork": 1239,
      "ced": 1240,
      "Ġdi": 1241,
      "ĠØ¨Ù": 1242,
      "Ø§Ø¦Ù": 1243,
      "Ø¥Ù": 1244,
      "ĨØ©": 1245,
      "§ÙĦÙĬ": 1246,
      "ĠÙĬØŃ": 1247,
      "Ġass": 1248,
      "ÙĥØ": 1249,
      "ĠØ¨Ø¹Ø¯": 1250,
      "ÙĬØ¨": 1251,
      "ÙĪØ§ØŃ": 1252,
      "Ø§Ø¦ÙĬØ©": 1253,
      "ational": 1254,
      "Ġsa": 1255,
      "ath": 1256,
      "Ġpo": 1257,
      "Ø§ÙģØ©": 1258,
      "ØŃØ©": 1259,
      "ility": 1260,
      "Ġam": 1261,
      "ØªØŃ": 1262,
      "Ġsc": 1263,
      "ÙĪØ¹": 1264,
      "Ġspec": 1265,
      "ÙĬØŃ": 1266,
      "ÙĦÙĬØ": 1267,
      "Ġsystem": 1268,
      "ĠØ¬ÙħÙĬØ¹": 1269,
      "Ø£ÙĨ": 1270,
      "Ø±Ø§Ø³": 1271,
      "Ġac": 1272,
      "ĠØ¢": 1273,
      "Ø¯ÙĪ": 1274,
      "ĠÙĪØ£": 1275,
      "Ġchild": 1276,
      "ÙĬØ¦": 1277,
      "Ġwhat": 1278,
      "Ø¥ÙĨ": 1279,
      "ise": 1280,
      "Ùĳ": 1281,
      "Ġreg": 1282,
      "Ø±ÙĬÙĤ": 1283,
      "rib": 1284,
      "ÙĦÙĪÙħ": 1285,
      "ĠÙĪØ§ØŃ": 1286,
      "ÙĦØ§ÙĤ": 1287,
      "Ġthrough": 1288,
      "ract": 1289,
      "uring": 1290,
      "ool": 1291,
      "ħØ§": 1292,
      "ĠØ³Ù": 1293,
      "Ġhealth": 1294,
      "ĠÙħØ´": 1295,
      "als": 1296,
      "...": 1297,
      "ful": 1298,
      "Ø¨Ø": 1299,
      "Ġrep": 1300,
      "hen": 1301,
      "erm": 1302,
      "Ġadd": 1303,
      "ÙĦØ²": 1304,
      "ªØ¯": 1305,
      "Ġmany": 1306,
      "ÙĪÙĬ": 1307,
      "Ġoff": 1308,
      "),": 1309,
      "ÙģØ§": 1310,
      "ÙħÙĬ": 1311,
      "Ġexp": 1312,
      "arch": 1313,
      "ark": 1314,
      "ures": 1315,
      "oss": 1316,
      "ÙĦØ§Ø¬": 1317,
      "ĠÙĥÙĬÙģ": 1318,
      "ÙħØ¬": 1319,
      "ĠÙģØ¥ÙĨ": 1320,
      "Ġ18": 1321,
      "ĠÙĥØ§ÙĨØª": 1322,
      "Ġno": 1323,
      "ĠØ§ÙĦØ¹Ø§ÙĦÙ": 1324,
      "ĠØ§ÙĦÙħØ¬": 1325,
      "Ġ10": 1326,
      "ÙĬÙĬÙĨ": 1327,
      "ased": 1328,
      "oth": 1329,
      "hed": 1330,
      "Ġfirst": 1331,
      "ÙĪÙĥ": 1332,
      "ert": 1333,
      "ĠÙĪØªØ": 1334,
      "ten": 1335,
      "Ġob": 1336,
      "ower": 1337,
      "ĠÙĥØ¨": 1338,
      "ØªØ®Ø¯Ùħ": 1339,
      "ÙĨÙĤ": 1340,
      "ÙħØ³": 1341,
      "cy": 1342,
      "Ġwell": 1343,
      "ram": 1344,
      "round": 1345,
      "ÙĦØ¶": 1346,
      "ef": 1347,
      "ĠØ£Ø¹": 1348,
      "ween": 1349,
      "Ġess": 1350,
      "Ø§Ø´": 1351,
      "ange": 1352,
      "Ġonly": 1353,
      "ĠÙĪØ¬": 1354,
      "xt": 1355,
      "Ġdec": 1356,
      "ble": 1357,
      "Ġwould": 1358,
      "Ġhad": 1359,
      "Ø®Ø±": 1360,
      "Ġinv": 1361,
      "ss": 1362,
      "§ÙĦØ§Øª": 1363,
      "Ġtwo": 1364,
      "¸Ø": 1365,
      "ng": 1366,
      "fter": 1367,
      "ible": 1368,
      "Ġ7": 1369,
      "old": 1370,
      "Ø°ÙĦÙĥ": 1371,
      "chn": 1372,
      "ife": 1373,
      "ÙĦØ§Ø¨": 1374,
      "Ġshould": 1375,
      "ĠØªÙĥÙĪÙĨ": 1376,
      "ĠUn": 1377,
      "19": 1378,
      "Ġsub": 1379,
      "Ġimport": 1380,
      "ology": 1381,
      "Ġbetween": 1382,
      "ĨØ§Ø¡": 1383,
      "Ø§Ø¹Ø©": 1384,
      "Ġsupp": 1385,
      "Ø¹Ø§": 1386,
      "§ÙĦØ§Ø³": 1387,
      "ĪÙĤØ¹": 1388,
      "its": 1389,
      "ÙĥØ§": 1390,
      "iss": 1391,
      "ps": 1392,
      "Ġty": 1393,
      "ØµÙĦ": 1394,
      "§ÙĦØ¶": 1395,
      "ĠØ§ÙĦØ³Ù": 1396,
      "ĠØ§ÙĦØŃÙ": 1397,
      "Ø§Ø°": 1398,
      "ĠØªØ¬": 1399,
      "form": 1400,
      "ĠØ§Ø³ØªØ®Ø¯Ø§Ùħ": 1401,
      "Ø³Ø©": 1402,
      "Ġtrans": 1403,
      "ĠØ§ÙĦØ§Ø³": 1404,
      "Ġpers": 1405,
      "ution": 1406,
      "ata": 1407,
      "ĠØ¨Ø³": 1408,
      "ec": 1409,
      "Ø§ÙĦØ§Øª": 1410,
      "Ġatt": 1411,
      "Ġhigh": 1412,
      "ĠØ§ÙĦØ¹Ø¯ÙĬØ¯": 1413,
      "ew": 1414,
      "Ġwrit": 1415,
      "In": 1416,
      "Ġlear": 1417,
      "ĠØ§ÙĦÙħÙĪØ": 1418,
      "gan": 1419,
      "own": 1420,
      "²Ø": 1421,
      "Ġco": 1422,
      "Ø§Ø¹Ø¯": 1423,
      "Ġexam": 1424,
      "Ø¹Ù": 1425,
      "¦ÙĬØ³": 1426,
      "ĠÙĨÙģ": 1427,
      "¸Ø§": 1428,
      "Ø¯Ø«": 1429,
      "ĠØ§ÙĦØ°ÙĬÙĨ": 1430,
      "Ġwater": 1431,
      "Ġ8": 1432,
      "Ġform": 1433,
      "ÙħÙĪØ": 1434,
      "ting": 1435,
      "ÙĨØ³": 1436,
      "Ġpres": 1437,
      "Ġsur": 1438,
      "Ġdifferent": 1439,
      "Ġmod": 1440,
      "Ø§Ùĥ": 1441,
      "ĠØ§ÙĦØ¹ÙħÙĦ": 1442,
      "§ÙĦØ²": 1443,
      "hes": 1444,
      "ts": 1445,
      "Ġmake": 1446,
      "Ġvar": 1447,
      "ĠØ§ÙĦÙħÙĪ": 1448,
      "aw": 1449,
      "Ġfl": 1450,
      "Ø¨ØŃ": 1451,
      "iet": 1452,
      "ĠØªØµ": 1453,
      "ÙĥØ±": 1454,
      "Ġinter": 1455,
      "ĠØ§ÙĦÙĩ": 1456,
      "²Ø§": 1457,
      "Ø¨ÙĬØ¹": 1458,
      "ĠâĢĵ": 1459,
      "Ġeffect": 1460,
      "ĩÙħ": 1461,
      "ĠÙĤØ": 1462,
      "Ø±Øª": 1463,
      "Ġrese": 1464,
      "ĪØ©": 1465,
      "ĠÙĦØ¯ÙĬ": 1466,
      "ºÙĬØ±": 1467,
      "ĠØ§ÙĦØ²": 1468,
      "ural": 1469,
      "Ġsm": 1470,
      "ÙĬØ®": 1471,
      "Ġrem": 1472,
      "Ġget": 1473,
      "ÙĪØ§Ù": 1474,
      "ØªÙī": 1475,
      "ĠØ§ÙĦÙĪÙĤ": 1476,
      "ØªÙĬ": 1477,
      "ĠØ®Ø·": 1478,
      "Ġexper": 1479,
      "Ġ9": 1480,
      "ied": 1481,
      "ĠÙĨÙ": 1482,
      "ĠØ§ÙĦÙħØ²": 1483,
      "iew": 1484,
      "ever": 1485,
      "ĠØ§ÙĦÙħØªØŃ": 1486,
      "ants": 1487,
      "ĠØ§ÙĦÙħÙĨ": 1488,
      "Ġnum": 1489,
      "ØªÙĩ": 1490,
      "ĠØ¨Ø§Ø³": 1491,
      "Ø³Ùħ": 1492,
      "ines": 1493,
      "ÙħÙĪØ¹Ø©": 1494,
      "ºÙ": 1495,
      "ature": 1496,
      "ĬØ§Ø³": 1497,
      "ĠØŃÙĪÙĦ": 1498,
      "ism": 1499,
      "Ø¨ÙĬØ©": 1500,
      "ness": 1501,
      "¸Ø§Ù": 1502,
      "¸Ø§Ùħ": 1503,
      "¸Ø±": 1504,
      "ident": 1505,
      "ĠØ§ÙĦØ¶": 1506,
      "10": 1507,
      "Ġsign": 1508,
      "ÙĤÙĦ": 1509,
      "ily": 1510,
      "ĠØªØ£": 1511,
      "ick": 1512,
      "Ġprocess": 1513,
      "chool": 1514,
      "Ġsoc": 1515,
      "ade": 1516,
      "Ø´Ø±": 1517,
      "Ġmed": 1518,
      "Ġed": 1519,
      "ĠHe": 1520,
      "Ø±ÙĬØ¯": 1521,
      "ĪØ§Øª": 1522,
      "Ġinst": 1523,
      "ĠØ§ÙĦØªØŃ": 1524,
      "ªÙĪØ": 1525,
      "cial": 1526,
      "§ÙĨÙĬØ©": 1527,
      "fore": 1528,
      "ĠÙĪØ§ÙĦØªÙ": 1529,
      "ont": 1530,
      "ĠØŃÙĬØ«": 1531,
      "âĢ¬âĢ¬âĢ¬âĢ¬": 1532,
      "erg": 1533,
      "Ġwhere": 1534,
      "ÙĦØ¯Ù": 1535,
      "ĨÙĪÙĨ": 1536,
      "ĠÙģÙĤØ·": 1537,
      "ħÙĦÙ": 1538,
      "Ġdet": 1539,
      "ÙģØ±": 1540,
      "000": 1541,
      "ict": 1542,
      "ÙģØ§ÙĦ": 1543,
      "ÙĪØ±Ø©": 1544,
      "ins": 1545,
      "aking": 1546,
      "ÙĦÙĪÙħØ§Øª": 1547,
      "ĠÙĤØ§": 1548,
      "ØªØ´": 1549,
      "ĠØ§ÙĦØ£Ø·": 1550,
      "ĠØ§ÙĦØŃÙĬ": 1551,
      "Ġsim": 1552,
      "Ġbu": 1553,
      "ĠÙĪÙĥ": 1554,
      "cept": 1555,
      "ħØ±ÙĬ": 1556,
      "ÙĬÙĪ": 1557,
      "ited": 1558,
      "ĠÙĪÙħØ¹": 1559,
      "ets": 1560,
      "Ø§ØµØ©": 1561,
      "Ġworld": 1562,
      "ĠØ§ÙĦØ¥ÙĨØ": 1563,
      "Ø¨Ø§Øª": 1564,
      "ages": 1565,
      "oy": 1566,
      "elf": 1567,
      "ĠÙĪÙģ": 1568,
      "Ġinform": 1569,
      "ÙĨÙĪÙĨ": 1570,
      "Ġresp": 1571,
      "ĬØ³": 1572,
      "Ġyears": 1573,
      "ered": 1574,
      "ĠØ¥Ù": 1575,
      "Ġcar": 1576,
      "®ØªÙĦÙģØ©": 1577,
      "Ġpol": 1578,
      "ĠØ£Ø¬": 1579,
      "ĠÙĪØ¨": 1580,
      "ft": 1581,
      "wn": 1582,
      "ĠÙĪØ±": 1583,
      "ĠÙħÙĥ": 1584,
      "Ġincre": 1585,
      "Ø±ÙĥØ©": 1586,
      "ĠØ§ÙĦØ¨ØŃ": 1587,
      "ruct": 1588,
      "Ġke": 1589,
      "com": 1590,
      "Ġtechn": 1591,
      "Ø§Ùĩ": 1592,
      "Ġimportant": 1593,
      "ÙħØ§ÙĦ": 1594,
      "ĠÙĨÙĤ": 1595,
      "Ġ0": 1596,
      "meric": 1597,
      "vent": 1598,
      "ĠØŃØªÙī": 1599,
      "Ø§Ø±Ùĥ": 1600,
      "Ġref": 1601,
      "ĠÙĪÙĤØ": 1602,
      "§ÙĦØ¯Ù": 1603,
      "uch": 1604,
      "Ġear": 1605,
      "Ġgra": 1606,
      "iron": 1607,
      "ÙĬØ§ÙĨØ§Øª": 1608,
      "ĠØ§Ø®": 1609,
      "ÙĦØªÙĤ": 1610,
      "ÙĬØ´": 1611,
      "Ġcould": 1612,
      "Ø§ØªØ": 1613,
      ".,": 1614,
      "ues": 1615,
      "ink": 1616,
      "ØĽ": 1617,
      "Ġher": 1618,
      "ĠÙĨÙģØ³": 1619,
      "ĠØ£Ø®Ø±Ùī": 1620,
      "ĠÙĪØ§ÙĦØŃ": 1621,
      "ives": 1622,
      "µÙģ": 1623,
      "Ġway": 1624,
      "ĠØ§ÙĦØ¯Ù": 1625,
      "ĨØ³": 1626,
      "ĠØªØ·": 1627,
      "Ġgener": 1628,
      "Ġart": 1629,
      "ĠPro": 1630,
      "Ġdisc": 1631,
      "ÙĤØ": 1632,
      "³Ø§": 1633,
      "Ġhum": 1634,
      "ollow": 1635,
      "Ġlong": 1636,
      "ĠØ§ÙĦÙĥØ": 1637,
      "Ø§Ø±ÙĬØ®": 1638,
      "ically": 1639,
      "Ø§ÙĤØ©": 1640,
      "Ø¬Ù": 1641,
      "ually": 1642,
      "ĠÙĥÙħØ§": 1643,
      "Ġread": 1644,
      "Ġ/": 1645,
      "ĠRe": 1646,
      "ases": 1647,
      "Ġfact": 1648,
      "ØµÙĪÙĦ": 1649,
      "Ġbecause": 1650,
      "Ø§ÙĦØ¨": 1651,
      "Ø§Ø¦ÙĬ": 1652,
      "ĠØ§ÙĦÙĪÙĤØ": 1653,
      "Ġresult": 1654,
      "ize": 1655,
      "ices": 1656,
      "ds": 1657,
      "ists": 1658,
      "ÙħØª": 1659,
      "Ġrequ": 1660,
      "ØªØ¯": 1661,
      "§ÙĨÙĬ": 1662,
      "Ġdata": 1663,
      "ÙģØ¶ÙĦ": 1664,
      "Ġcount": 1665,
      "Ġpat": 1666,
      "ential": 1667,
      "ĠØ§ÙĦÙĩÙ": 1668,
      "ĠØ¨ØŃ": 1669,
      "Ġafter": 1670,
      "ĪÙĦØ": 1671,
      "Ġext": 1672,
      "ÙĬØ¡": 1673,
      "ĠÙĤÙ": 1674,
      "Ġsk": 1675,
      "Ø§Ø±Ù": 1676,
      "ÙĦÙħÙ": 1677,
      "Ġlar": 1678,
      "Ø§ÙĨØ": 1679,
      "Ġlife": 1680,
      "ĠÙĦØ£ÙĨ": 1681,
      "Ġcent": 1682,
      "Ġsec": 1683,
      "ody": 1684,
      "ĠAn": 1685,
      "Ġjust": 1686,
      "Ġ[": 1687,
      "Ġfound": 1688,
      "ized": 1689,
      "ĠHow": 1690,
      "§ÙĦØªÙĤ": 1691,
      "ÙĪØªÙ": 1692,
      "tt": 1693,
      "Ġeach": 1694,
      "ĠÙĪØ§ÙĦØ¹": 1695,
      "ÙħÙĬÙĨ": 1696,
      "stand": 1697,
      "Ø§ÙĨÙĬØ©": 1698,
      "get": 1699,
      "ĠÙĦÙĦ": 1700,
      "ÙĨØ´": 1701,
      "ĠÙħØµ": 1702,
      "Ġvery": 1703,
      "land": 1704,
      "ivid": 1705,
      "Ø²Ø": 1706,
      "ĪÙĦØ§": 1707,
      "Ġdef": 1708,
      "ĠØ§ÙĦÙĪÙĤØª": 1709,
      "ĠØ£ÙĨÙĩ": 1710,
      "Ġevery": 1711,
      "other": 1712,
      "Ġeven": 1713,
      "arm": 1714,
      "ĠØ£ÙĨØ": 1715,
      "ĠØ§ÙĦØªÙĤ": 1716,
      "ÙĦÙĪØ": 1717,
      "Ġcommun": 1718,
      "Ġcre": 1719,
      "Ġperson": 1720,
      "Ġprog": 1721,
      "Ø·Ù": 1722,
      "ÙģÙ": 1723,
      "Ġstudents": 1724,
      "ÙĪÙĬØ±": 1725,
      "Ġdep": 1726,
      "ĠØ£ØŃ": 1727,
      "ck": 1728,
      "Ø§ÙĦÙĬØ©": 1729,
      "ality": 1730,
      "led": 1731,
      "ħØ¯": 1732,
      "§ÙħØ©": 1733,
      "urn": 1734,
      "Ġusing": 1735,
      "ĠCom": 1736,
      "Ġmain": 1737,
      "ĠØ¨Ø¯": 1738,
      "ork": 1739,
      "Ø§ØŃØ©": 1740,
      "Ġpartic": 1741,
      "Ġthen": 1742,
      "Ø±ÙĪÙģ": 1743,
      "Ġstudy": 1744,
      "Ġsee": 1745,
      "Ġdoes": 1746,
      "ĠØ§ÙĦÙĥÙ": 1747,
      "ĠWe": 1748,
      "ÙħØ§ÙĨ": 1749,
      "ĠØ§ÙĦÙħØ«": 1750,
      "Ġlead": 1751,
      "ÙħÙĥ": 1752,
      "ection": 1753,
      "Ġdist": 1754,
      "Th": 1755,
      "ĠØ¥Ø¹": 1756,
      "io": 1757,
      "Ġstr": 1758,
      "Ġconc": 1759,
      "Ġsol": 1760,
      "Ġfollow": 1761,
      "ĨØ¹": 1762,
      "ĠAl": 1763,
      "ĠÙĥÙ": 1764,
      "ivers": 1765,
      "Ġaut": 1766,
      "hip": 1767,
      "Ġmin": 1768,
      "ĠØ§ÙĦÙħÙĬØ": 1769,
      "Ġlevel": 1770,
      "ient": 1771,
      "Ø§Ø¨Ø§Øª": 1772,
      "¶Ø¹": 1773,
      "ħØ¨": 1774,
      "ÙĪØª": 1775,
      "ĠØ§ÙĦØ¨Ø±": 1776,
      "ÙĬÙĬØ±": 1777,
      "Ġduring": 1778,
      "Ġloc": 1779,
      "Ġinformation": 1780,
      "viron": 1781,
      "Ø¯ÙĬØ¯Ø©": 1782,
      "ÙħÙĪ": 1783,
      "Ġgrow": 1784,
      "ÙĬØ¯Ø©": 1785,
      "¸ÙĩØ±": 1786,
      "Ġval": 1787,
      "ĠÙħÙħØ§": 1788,
      "ĠØ¨Ø±": 1789,
      "ĠÙħÙĪØ": 1790,
      "Ø§Ø¹Ø¯Ø©": 1791,
      "ĠØ§ÙĨØ": 1792,
      "Ġbeing": 1793,
      "Ø§Ø¦ÙĦ": 1794,
      "hem": 1795,
      "Ø§Ø¨Ø©": 1796,
      "Ġmon": 1797,
      "ĠÙĪØ§ÙĦØªÙĬ": 1798,
      "Ġchildren": 1799,
      "Ġins": 1800,
      "ĠØ§ÙĦÙĬÙ": 1801,
      "Ġent": 1802,
      "Ġexpl": 1803,
      "iqu": 1804,
      "Ø¯ÙħØ©": 1805,
      "Ġresearch": 1806,
      "ĠAmeric": 1807,
      "con": 1808,
      "Ġfood": 1809,
      "Ġgood": 1810,
      "Ġpub": 1811,
      "Ġproble": 1812,
      "ªØ§Ø¬": 1813,
      "ĠÙĪÙĤØª": 1814,
      "ĠØ§ÙĦØ£Ø´": 1815,
      "ĪØ§Ø³": 1816,
      "ØªØµ": 1817,
      "ĠØªØ¯": 1818,
      "ÙħØ§Ø±": 1819,
      "Ġcur": 1820,
      "ÙĬÙĨØ©": 1821,
      "Ø±Ø§Ù": 1822,
      "§ÙĦÙĬØ©": 1823,
      "ÙħØŃ": 1824,
      "Ø±ÙĬÙĤØ©": 1825,
      "Ġfind": 1826,
      "Ø±ÙģØ©": 1827,
      "ĠAs": 1828,
      "Ġav": 1829,
      "ĠÙĬØ´": 1830,
      "ĬØ§Ø¯Ø©": 1831,
      "ĠØ£ÙĬØ¶Ø": 1832,
      "ĠØ£ÙĬØ¶Ø§": 1833,
      "ÙĦÙĬÙħ": 1834,
      "ĠÙĪØ§ÙĦØ£": 1835,
      "ħØ§Øª": 1836,
      "ĠØ§ÙĦØ¹Ø": 1837,
      "Ġcomple": 1838,
      "any": 1839,
      "ÙĬÙħØ©": 1840,
      "Ġmy": 1841,
      "gg": 1842,
      "Ġcall": 1843,
      "Ġfun": 1844,
      "ĠÙħØ¬ÙħÙĪØ¹Ø©": 1845,
      "ĠØ§ÙĦØªØ¬": 1846,
      "Ġthose": 1847,
      "ĠFor": 1848,
      "ĨÙĬÙĨ": 1849,
      "Ø§ÙĨÙĬ": 1850,
      "Ġfam": 1851,
      "ward": 1852,
      "Ø¯Ùī": 1853,
      "ĠThey": 1854,
      "ÙĦØªØ±": 1855,
      "ĠØ§ÙĦÙħØ±": 1856,
      "||": 1857,
      "ved": 1858,
      "Ġhist": 1859,
      "ĠØªÙĨØ": 1860,
      "Ġchar": 1861,
      "ĠØ¨Ùĥ": 1862,
      "ĠÙĬØ¨": 1863,
      "ron": 1864,
      "ĪÙĩÙ": 1865,
      "Ġright": 1866,
      "ĠØ±Ø": 1867,
      "Ø§Ø¹ÙĬØ©": 1868,
      "ĠØªØŃØ": 1869,
      "Ġcor": 1870,
      "Ġset": 1871,
      "ĠÙĦÙĦØ£": 1872,
      "Ġown": 1873,
      "ĪÙĦÙĪØ¬": 1874,
      "Ġshe": 1875,
      "§ÙħÙĦ": 1876,
      "Ø¹Ø±": 1877,
      "ale": 1878,
      "§ÙĦØªØ±": 1879,
      "dition": 1880,
      "Ġ15": 1881,
      "de": 1882,
      "Ġappro": 1883,
      "Ġ&": 1884,
      "ÙĥØ³": 1885,
      "Ġboth": 1886,
      "ħÙĦØ©": 1887,
      "ern": 1888,
      "imes": 1889,
      "nce": 1890,
      "Ġgl": 1891,
      "ÙĦØªÙģ": 1892,
      "ĠÙĪØ³": 1893,
      "Ø§Ø¯Ù": 1894,
      "Ġ12": 1895,
      "Ġtest": 1896,
      "ÙĤØ§": 1897,
      "iety": 1898,
      "ĠØ§ÙĦØ£ØŃ": 1899,
      "ÙĬØ¦Ø©": 1900,
      "Ø±Ø¯": 1901,
      "§ÙĦØªÙģ": 1902,
      "ather": 1903,
      "ional": 1904,
      "ĠØ§ÙĦÙħÙĥ": 1905,
      "Ġpop": 1906,
      "Ġmuch": 1907,
      "ĠIf": 1908,
      "Ġshow": 1909,
      "ergy": 1910,
      "Ġprovid": 1911,
      "ĠÙĦÙĦØŃ": 1912,
      "Ø·Ø±": 1913,
      "Ġschool": 1914,
      "Ġactiv": 1915,
      "der": 1916,
      "Ġorgan": 1917,
      "ĠØ£Øµ": 1918,
      "ax": 1919,
      "Ġtreat": 1920,
      "vironment": 1921,
      "und": 1922,
      "ĠØ¬Ø": 1923,
      "ĠØ§ÙĦØªØ±": 1924,
      "iel": 1925,
      "ĬØ§Ø¡": 1926,
      "tle": 1927,
      "ÙĦØ§ØŃ": 1928,
      "ix": 1929,
      "ħÙĦÙĬØ©": 1930,
      "akes": 1931,
      "ĠÙĦØ¥": 1932,
      "ĠÙĥØªØ§Ø¨": 1933,
      "ĠØ¬Ø§": 1934,
      "ĠÙĥØ¨ÙĬØ±": 1935,
      "ØªÙħØ¹": 1936,
      "Ø±Ø§Ø³Ø©": 1937,
      "ĠØ§ÙĦÙħØ¹ÙĦÙĪÙħØ§Øª": 1938,
      "Ġet": 1939,
      "rol": 1940,
      "Ġclass": 1941,
      "ital": 1942,
      "ĠØ§ÙĦÙħØ®": 1943,
      "ĠInd": 1944,
      "ĠØ´Ø®Øµ": 1945,
      "ĠØ§ÙĦØ±Ø¦ÙĬØ³": 1946,
      "Ġserv": 1947,
      "acter": 1948,
      "ĠÙħÙĩ": 1949,
      "ĠAr": 1950,
      "Ø§Ø¹Ù": 1951,
      "inal": 1952,
      "Ġsci": 1953,
      "ÙħÙĩØ§": 1954,
      "Ġoften": 1955,
      "Ġmade": 1956,
      "Ġwhile": 1957,
      "Ġend": 1958,
      "Ġdesign": 1959,
      "Ġredu": 1960,
      "Ġlit": 1961,
      "ĨÙĬ": 1962,
      "ÙĤÙ": 1963,
      "ĠØ§ÙĦØ£Ø·ÙģØ§ÙĦ": 1964,
      "ted": 1965,
      "ĠÙĪØ§ÙĦØ¥": 1966,
      "ĠØ§ÙĦÙħØ³Ø": 1967,
      "Ġgrou": 1968,
      "ĠÙĬÙħÙĥÙĨÙĥ": 1969,
      "ØªÙħØ±": 1970,
      "Ġsame": 1971,
      "vern": 1972,
      "ÙĪØ²": 1973,
      "Ġprot": 1974,
      "Ø¨Ø¹": 1975,
      "Ġback": 1976,
      "Ġanal": 1977,
      "Ø±ÙĪØ¨": 1978,
      "ÙĦÙĩ": 1979,
      "Ġpower": 1980,
      "Ġessay": 1981,
      "Ġless": 1982,
      "ĠØ§ÙĦÙħØªØŃØ¯Ø©": 1983,
      "ined": 1984,
      "ĠØ¥Ø¯": 1985,
      "What": 1986,
      "Ġstate": 1987,
      "ividual": 1988,
      "ĠÙĦÙĥ": 1989,
      "ªÙĦ": 1990,
      "Ø¶Ø§ÙģØ©": 1991,
      "ĠYou": 1992,
      "ĠØ§ÙĦØªÙģ": 1993,
      "Ġcell": 1994,
      "Ġelect": 1995,
      "uss": 1996,
      "ĪØ§Ø¹": 1997,
      "Ġcommon": 1998,
      "ĠØ§ÙĦØ£ÙĪ": 1999,
      "ĠÙĦØªØŃ": 2000,
      "Ġunderstand": 2001,
      "Ø±ÙĨ": 2002,
      "read": 2003,
      "Ġbody": 2004,
      "ÙĬØ§ÙĨ": 2005,
      "Ġnumber": 2006,
      "ute": 2007,
      "ock": 2008,
      "Ġ199": 2009,
      "ÙĪÙĩÙ": 2010,
      "ÙĬØ§Ùħ": 2011,
      "Ġtake": 2012,
      "ĠÙĦÙĩ": 2013,
      "ĠØ¬Ù": 2014,
      "ĠÙħØªØ": 2015,
      "lish": 2016,
      "ÙħØ¨": 2017,
      "Ġris": 2018,
      "____": 2019,
      "ulation": 2020,
      "ĠâĢ¢": 2021,
      "Ġconsid": 2022,
      "ŃÙ": 2023,
      "ĠÙĪØ§ÙĦÙħÙ": 2024,
      "ĠØ§ÙĦØµØŃ": 2025,
      "ĠØ§ÙĦÙĨØ§Ø³": 2026,
      "line": 2027,
      "ral": 2028,
      "ĠØ§ÙĦØ¹Ø§ÙĦÙħ": 2029,
      "ĠÙĪÙĩÙ": 2030,
      "eg": 2031,
      "ÙħØ§Ùħ": 2032,
      "ÙĦØªÙĥ": 2033,
      "ien": 2034,
      "ÙĬÙĪÙ": 2035,
      "hy": 2036,
      "Ġdise": 2037,
      "ĠØ£ÙģØ¶ÙĦ": 2038,
      "Ġtyp": 2039,
      "ethod": 2040,
      "ĠÙĪØ§ÙĦÙħØ": 2041,
      "aterial": 2042,
      "Ġsmall": 2043,
      "Ġsupport": 2044,
      "Ø±Ø§ÙĤ": 2045,
      "ÙĬØ§Ø¯Ø©": 2046,
      "eng": 2047,
      "ĠÙĦÙĦÙħØ": 2048,
      "Ø±Ø³": 2049,
      "Ġposs": 2050,
      "Ø§Ø¹ÙĬ": 2051,
      "ÙĥÙħ": 2052,
      "ĠÙĪØ§ÙĦØ¨": 2053,
      "Ø§Ø³ÙĬØ©": 2054,
      "ØªÙĪÙī": 2055,
      "ving": 2056,
      "ran": 2057,
      "the": 2058,
      "Ġpract": 2059,
      "ĠÙĪØ§ØŃØ¯": 2060,
      "ex": 2061,
      "ier": 2062,
      "Ġcare": 2063,
      "Ġbefore": 2064,
      "Ø²Ø¡": 2065,
      "raph": 2066,
      "ĠÙĦÙħØ": 2067,
      "ĠÙĪØ§ØŃØ¯Ø©": 2068,
      "Ġequ": 2069,
      "Ġhand": 2070,
      "imate": 2071,
      "ĠÙĬØ±": 2072,
      "ØªØ¨Ø§Ø±": 2073,
      "omen": 2074,
      "Ġ=": 2075,
      "els": 2076,
      "ºÙħ": 2077,
      "ĠØ§ÙĦÙħØµ": 2078,
      "§ÙĦØªÙĥ": 2079,
      "ty": 2080,
      "ÙħØ¯": 2081,
      "ĠØ·Ø±ÙĬÙĤ": 2082,
      "ĠØ¹Ø¯Ø¯": 2083,
      "Ø¹Ùħ": 2084,
      "§ÙĤØ¹": 2085,
      "Ġstart": 2086,
      "Ø§Ø¸": 2087,
      "ĠØ§ÙĦÙħÙĪØ§Ø¯": 2088,
      "Ø§Ø±ÙĬØ©": 2089,
      "Ġsaid": 2090,
      "Ġindividual": 2091,
      "Ġgu": 2092,
      "ĠØªÙģ": 2093,
      "ars": 2094,
      "ization": 2095,
      "ĠÙĦØ°ÙĦÙĥ": 2096,
      "up": 2097,
      "Ø§Øº": 2098,
      "ww": 2099,
      "Ġhuman": 2100,
      "ĠÙĥÙĨØª": 2101,
      "Ġadv": 2102,
      "ÙĥÙĬ": 2103,
      "ĠÙĥÙĬÙģÙĬØ©": 2104,
      "ĠØ§ÙĦØ£Ùĥ": 2105,
      "iness": 2106,
      "12": 2107,
      "Ġeduc": 2108,
      "ters": 2109,
      "ince": 2110,
      "ĪØ§Ø±": 2111,
      "itions": 2112,
      "Ġday": 2113,
      "Ġexample": 2114,
      "ĨÙĩØ§": 2115,
      "ĠÙĪÙĦ": 2116,
      "Ø±Ø¬Ø©": 2117,
      "Ġocc": 2118,
      "Ġmem": 2119,
      "ves": 2120,
      "Ġpa": 2121,
      "ĠØªØ®": 2122,
      "ĪÙħØ": 2123,
      "ĠØ§ÙĦØ£ÙħØ±ÙĬ": 2124,
      "ĠØ§ÙĦÙħØ¯": 2125,
      "angu": 2126,
      "Ġvis": 2127,
      "ĠØ¹ÙĦÙĬ": 2128,
      "ÙĦØ¯Ùħ": 2129,
      "§ÙĦØ¯Ùħ": 2130,
      "itive": 2131,
      "ĠÙĩÙĦ": 2132,
      "ØµØ©": 2133,
      "ÙĬØªØ": 2134,
      "irect": 2135,
      "ĠØ£Ø´": 2136,
      "ĠØ§ÙĦØ¹Ù": 2137,
      "ĠØ§ÙĦØ±ØºÙħ": 2138,
      "ĬÙĩ": 2139,
      "Ġconf": 2140,
      "ĠÙĪØ§ÙĦØ³": 2141,
      "Ġquest": 2142,
      "ÙĬØ§Ø¡": 2143,
      "ĠÙĪØŃ": 2144,
      "Ø¨Ø§": 2145,
      "ĠØ¨ÙħØ§": 2146,
      "Ø±Ø§Ùģ": 2147,
      "Ġplan": 2148,
      "ium": 2149,
      "Ġmet": 2150,
      "ÙĨØ¹": 2151,
      "Ġincluding": 2152,
      "Ġdown": 2153,
      "ĠØ§ÙĦØªÙĥ": 2154,
      "aj": 2155,
      "ĠÙħØ¤": 2156,
      "ĠØ§ÙĦØ¯Ùħ": 2157,
      "18": 2158,
      "iving": 2159,
      "ĠØ³ÙĪÙģ": 2160,
      "Ġbel": 2161,
      ".âĢĿ": 2162,
      "Ùİ": 2163,
      "rent": 2164,
      "Ġcle": 2165,
      "Ø¯Ø¯Ø©": 2166,
      "âĢĵ": 2167,
      "Ġagain": 2168,
      "ĪÙħÙ": 2169,
      "ids": 2170,
      "This": 2171,
      "ĠÙħØ¨": 2172,
      "ished": 2173,
      "Ġpoint": 2174,
      "Ġallow": 2175,
      "Ġrequire": 2176,
      "Ġ.": 2177,
      "Ġsocial": 2178,
      "Ġmust": 2179,
      "ains": 2180,
      "·ÙĤØ©": 2181,
      "Ġaround": 2182,
      "ering": 2183,
      "day": 2184,
      "Ġgreat": 2185,
      "Ġproduct": 2186,
      "ĠØ§ÙĦÙħÙĩ": 2187,
      "Ø±ÙĬØ¨": 2188,
      "§ÙĬØ©": 2189,
      "Ġimpro": 2190,
      "ffic": 2191,
      "rodu": 2192,
      "\".": 2193,
      "ĠØµØŃ": 2194,
      "ĠØ´ÙĬØ¡": 2195,
      "Ġbeh": 2196,
      "Ġeng": 2197,
      "ources": 2198,
      "Ø¨ÙĬÙĤ": 2199,
      "ross": 2200,
      "Ġmaterial": 2201,
      "ÙĪØ§Ø³": 2202,
      "Ø§ÙħÙĦ": 2203,
      "ave": 2204,
      "Ġlearn": 2205,
      "Ġide": 2206,
      "ĠThese": 2207,
      "Ġ17": 2208,
      "co": 2209,
      "Ġmethod": 2210,
      "Ġconst": 2211,
      "Ġthree": 2212,
      "ØªØ¨Ø±": 2213,
      "ĠÙĨØ³": 2214,
      "Ġser": 2215,
      "gen": 2216,
      "ĠNew": 2217,
      "ĠØ§ÙĦÙĨÙ": 2218,
      "ĠEx": 2219,
      "ash": 2220,
      "ull": 2221,
      "Ġeas": 2222,
      "Ġenvironment": 2223,
      "Ġplay": 2224,
      "ĪØ¯Ø©": 2225,
      "ÙģÙĦ": 2226,
      "ĪØ§Ø¬": 2227,
      "Ġest": 2228,
      "Ġprof": 2229,
      "ĠÙĨÙĪØ¹": 2230,
      "ental": 2231,
      "ĠEng": 2232,
      "§ÙĬØ§": 2233,
      "Ø¯Ø§Ø¯": 2234,
      "ining": 2235,
      "ÙĨØ§Ø¡": 2236,
      "ĠÙĦÙĬØ³": 2237,
      "hers": 2238,
      "ption": 2239,
      "Ø±ÙĬØ±": 2240,
      "ah": 2241,
      "ven": 2242,
      "Ġpot": 2243,
      "ÙĥØ©": 2244,
      "Ġdevelopment": 2245,
      "pect": 2246,
      "oms": 2247,
      "ÙĬÙģØ©": 2248,
      "cing": 2249,
      "ĠØ£Ø¯": 2250,
      "ĠThere": 2251,
      "ĠØ³Ø": 2252,
      "Ø§ÙĬØ§": 2253,
      "²Ø©": 2254,
      "ury": 2255,
      "ÙĦØªØ¯": 2256,
      "ÙĪØ¶": 2257,
      "Ġpur": 2258,
      "§ÙĦØªØ¯": 2259,
      "Ġop": 2260,
      "11": 2261,
      "ability": 2262,
      "Ø³ÙĬÙĨ": 2263,
      "Ġtoo": 2264,
      "Ġnow": 2265,
      "ĪØ§Ø¡": 2266,
      "ĠØ§ÙĦÙĤØ¯": 2267,
      "Ġtop": 2268,
      "ring": 2269,
      "ience": 2270,
      "ĠØ§ÙĦØ¢Ù": 2271,
      "conom": 2272,
      "ĠØ§ÙĦØ¢ÙĨ": 2273,
      "Ġenergy": 2274,
      "Ġsym": 2275,
      "Ġtem": 2276,
      "Ġ16": 2277,
      "ĠØ§ÙĦÙĪÙĦØ§": 2278,
      "ĠÙĪØ§Ø³": 2279,
      "ĠØ§ÙĦØ·Ø¨ÙĬØ¹": 2280,
      "iod": 2281,
      "Ġcour": 2282,
      "ĠÙĪØ¥": 2283,
      "Ġident": 2284,
      "ĠØ§ÙĦÙħÙĬØ§Ùĩ": 2285,
      "view": 2286,
      "ÙĩØ¯": 2287,
      "ries": 2288,
      "ĠÙħØ®ØªÙĦÙģØ©": 2289,
      "Ġknown": 2290,
      "bs": 2291,
      "iversity": 2292,
      "ÙĬÙĨØ§": 2293,
      "ination": 2294,
      "Ġpresent": 2295,
      "ĠÙĪØ¹": 2296,
      "oci": 2297,
      "ÙĦÙĦ": 2298,
      "Ġcult": 2299,
      "ior": 2300,
      "Ġmus": 2301,
      "Ġphys": 2302,
      "ĠØ§ÙĦØ£Ø®": 2303,
      "ÙĬÙĪÙĨ": 2304,
      "ÙħØ¹Ø©": 2305,
      "ĠØ§ÙĦØºØ°": 2306,
      "Ġben": 2307,
      "ĠØ«Ù": 2308,
      "ĠÙħØ³Ø": 2309,
      "ĠØ§ÙĦØªØ¯": 2310,
      "Ġmat": 2311,
      "ĠAd": 2312,
      "iven": 2313,
      "cl": 2314,
      "Ġwithin": 2315,
      "ÙĦØ±ÙĬ": 2316,
      "ared": 2317,
      "ĠØ§ÙĦØ·Ø§ÙĤØ©": 2318,
      "§ÙĦØ±ÙĬ": 2319,
      "....": 2320,
      "ify": 2321,
      "Ġpos": 2322,
      "ĠÙĬØ¤": 2323,
      "ration": 2324,
      "ÙĪÙħØ": 2325,
      "Ġcontin": 2326,
      "ĠQ": 2327,
      "ÙĪÙĦØ©": 2328,
      "ħØ±Ø¶": 2329,
      "Ø§ÙĬØ©": 2330,
      "ĠØŃØ¯": 2331,
      "ills": 2332,
      "Ġbest": 2333,
      "Ġhy": 2334,
      "//": 2335,
      "ÙĪØŃ": 2336,
      "Ġiss": 2337,
      "ouse": 2338,
      "ĠÙĨØ´": 2339,
      "ĠØ§ÙĦÙĨØ³": 2340,
      "Ġcaus": 2341,
      "ples": 2342,
      "ĠØ¢Ø®Ø±": 2343,
      "ox": 2344,
      "Ġreport": 2345,
      "ĠAnd": 2346,
      "ĠØ¹Ø§Ø¯Ø©": 2347,
      "§ÙĨÙĪÙĨ": 2348,
      "ÙħØ§Øª": 2349,
      "Ø¬Ø±Ø§Ø¡": 2350,
      "ĠØ§ÙĦÙħØ¶": 2351,
      "ĠØ§ÙĦØ±ÙĬ": 2352,
      "ĠØ§ÙĦÙĤÙ": 2353,
      "agn": 2354,
      "ħÙģ": 2355,
      "au": 2356,
      "ĬÙĦÙ": 2357,
      "ĠÙĪÙħØ": 2358,
      "ÙĪÙħØ©": 2359,
      "ĠØ¬Ø¯Ø§": 2360,
      "Ġlarge": 2361,
      "Ġdr": 2362,
      "ĠÙħÙĦ": 2363,
      "tain": 2364,
      "ÙĨØªØ§Ø¬": 2365,
      "ĠØ§ÙĦØ·ÙĦØ§Ø¨": 2366,
      "ĠØªØ¨": 2367,
      "ĠØ¨Ø³Ø¨Ø¨": 2368,
      "://": 2369,
      "ºÙĬÙĬØ±": 2370,
      "ĠÙĦØ£": 2371,
      "ĠØ§ÙĦØ¨ÙĬØ§ÙĨØ§Øª": 2372,
      "ÙĥØ²": 2373,
      "uro": 2374,
      "ÙĨØ¬": 2375,
      "ĠÙħØ¯": 2376,
      "Ġchang": 2377,
      "ĠØ§ÙĦØŃØ±": 2378,
      "erest": 2379,
      "Ø§ÙĨÙĪÙĨ": 2380,
      "Ġpar": 2381,
      "Ġdem": 2382,
      "ĠWhat": 2383,
      "ĠØ§ÙĦØªØ´": 2384,
      "reen": 2385,
      "Ġbuild": 2386,
      "Ġwant": 2387,
      "air": 2388,
      "ner": 2389,
      "ÙĥÙĬØ©": 2390,
      "ØªÙĤØ¯": 2391,
      "Ġgovern": 2392,
      "Ġlearning": 2393,
      "ĠØ§ÙĦÙħØ¨": 2394,
      "Ġworks": 2395,
      "ertain": 2396,
      "ĨØº": 2397,
      "ĠÙħÙĤØ": 2398,
      "ĠØ§ÙĦÙħØ±Ø¶": 2399,
      "ĠDe": 2400,
      "Ġinclude": 2401,
      "ªÙĩØ§": 2402,
      "ĠØ§ÙĦØ£Ø±Ø¶": 2403,
      "ological": 2404,
      "50": 2405,
      "ĠÙĪØ§ÙĦÙģ": 2406,
      "ĬØ§": 2407,
      "ĠØ§ÙĦØµÙģ": 2408,
      "ĠÙĦÙĦØ¹": 2409,
      "ÙģØ§Ø¸": 2410,
      "Ø·Ø": 2411,
      "ªÙĪØ³": 2412,
      "Ġcap": 2413,
      "ĠSp": 2414,
      "ĠØ§ÙĦØ¬Ù": 2415,
      "ense": 2416,
      "Ġstand": 2417,
      "ĠÙģØ±": 2418,
      "lu": 2419,
      "ĠÙĬØªØ": 2420,
      "ĠØªÙĪÙģ": 2421,
      "Ġsignific": 2422,
      "ĠØ§ÙĦÙħØ·": 2423,
      "Ġdid": 2424,
      "ĠØ§ÙĦØŃÙĬØ§Ø©": 2425,
      "Ġplace": 2426,
      "ÙĦÙĦØº": 2427,
      "Ø¸Ù": 2428,
      "rain": 2429,
      "ÙħÙĦÙ": 2430,
      "Ġproper": 2431,
      "ØªØ¬": 2432,
      "ÙĥØ§Ù": 2433,
      "ger": 2434,
      "ÙĩØ§Ø²": 2435,
      "Ġsom": 2436,
      "Ġchange": 2437,
      "Ġve": 2438,
      "Ø±Ø§Øª": 2439,
      "Ġmeas": 2440,
      "Ġaw": 2441,
      "ateg": 2442,
      "Ġdesc": 2443,
      "¸ÙħØ©": 2444,
      "§ÙĦÙĦØº": 2445,
      "ĠØ¨ÙĩØ§": 2446,
      "ĠØ§ÙĦÙĥØ¨": 2447,
      "Ø¶Ø§Ø¡": 2448,
      "Ġprovide": 2449,
      "ĠRes": 2450,
      "ĠØ°Ø§Øª": 2451,
      "ÙģØ¹": 2452,
      "ÙĪØ·": 2453,
      "Ġmight": 2454,
      "ĠØ§ÙĦÙĪÙĦØ§ÙĬØ§Øª": 2455,
      "Ġbus": 2456,
      "ording": 2457,
      "ĠØªØªØ": 2458,
      "Ġmark": 2459,
      "Ø¨Ø§Ø¨": 2460,
      "·ÙĦØ¨": 2461,
      "Ġcalled": 2462,
      "oun": 2463,
      "Ġhim": 2464,
      "ÙĪØµ": 2465,
      "Ġland": 2466,
      "iver": 2467,
      "Ġwithout": 2468,
      "orn": 2469,
      "Ġthough": 2470,
      "cer": 2471,
      "Ġhome": 2472,
      "anguage": 2473,
      "ĠØ§ÙĦØ®Ø§ØµØ©": 2474,
      "ĠØ§ÙĦÙħÙĪÙĤØ¹": 2475,
      "Ġbas": 2476,
      "Ġlight": 2477,
      "ĠØ§ÙĦØ£Ø®Ø±Ùī": 2478,
      "bers": 2479,
      "ÙĨØ´Ø§Ø¡": 2480,
      "ÙħÙĩ": 2481,
      "ÙģÙĬ": 2482,
      "Ø¸Ùħ": 2483,
      "ĠIs": 2484,
      "ĠÙħÙĤØ§": 2485,
      "irc": 2486,
      "§ÙĦØ§Ø¬": 2487,
      "ource": 2488,
      "Ø±Ø¹Ø©": 2489,
      "ØªØ±Ø©": 2490,
      "16": 2491,
      "Ġproject": 2492,
      "ĠØ§ÙĦÙĥØªØ§Ø¨": 2493,
      "ĠØ§ÙĦØ´Ø®Øµ": 2494,
      "ĠCon": 2495,
      "ĠSh": 2496,
      "ĠØ§ÙĦÙĨØ¨Ø§Øª": 2497,
      "Ø§Ø¯Ø§Øª": 2498,
      "less": 2499,
      "Ġpublic": 2500,
      "ĠØ£ÙĥØ¨Ø±": 2501,
      "Ġant": 2502,
      "Ġ14": 2503,
      "Ġimm": 2504,
      "Ø¨ÙĬÙĦ": 2505,
      "ason": 2506,
      "ÙĪÙī": 2507,
      "ĠØ¨Ø§Ø³ØªØ®Ø¯Ø§Ùħ": 2508,
      "Ø¯Ø£": 2509,
      "ĠØ£Ø®": 2510,
      "ĠÙĪØ§ÙĦÙĤ": 2511,
      "ÙĨØ§Ù": 2512,
      "cent": 2513,
      "icle": 2514,
      "ĠØ§ÙĦØ§Ø¬": 2515,
      "ĠØªØŃØ¯ÙĬØ¯": 2516,
      "Ġfin": 2517,
      "outh": 2518,
      "ÙĪÙĬÙĦ": 2519,
      "ÙĪØ§ÙĦÙĬ": 2520,
      "ĠâĢĺ": 2521,
      "ØªÙĪÙĬ": 2522,
      "Ġaddition": 2523,
      "Ġperform": 2524,
      "atic": 2525,
      "ĠØ«Ùħ": 2526,
      "ĠHowever": 2527,
      "rop": 2528,
      "ĠØ§ÙĦØ§Ø¬ØªÙħ": 2529,
      "Ġele": 2530,
      "ĠØ§ÙĦÙĥØ«ÙĬØ±": 2531,
      "ĠÙħØªÙ": 2532,
      "15": 2533,
      "ĠØ¯Ù": 2534,
      "Ġblood": 2535,
      "ÙĨÙĪØ§Øª": 2536,
      "ĠTo": 2537,
      "ĠØ§ÙĦÙħØªØ": 2538,
      "âĢ¬âĢ¬âĢ¬âĢ¬âĢ¬âĢ¬âĢ¬âĢ¬": 2539,
      "ÙĤÙĬÙĤØ©": 2540,
      "How": 2541,
      "ĠÙĪØ§ÙĦØ¬": 2542,
      "ĠÙħØ«": 2543,
      "ĠSe": 2544,
      "ÙĬØªÙ": 2545,
      "osed": 2546,
      "ield": 2547,
      "ĠÙħØ®": 2548,
      "ÙĬØµ": 2549,
      "ik": 2550,
      "me": 2551,
      "Ġ30": 2552,
      "Ġcontrol": 2553,
      "ĠPl": 2554,
      "Ġbre": 2555,
      "ccess": 2556,
      "ĠØ£ÙĤÙĦ": 2557,
      "Ø§ÙĦØ¬": 2558,
      "Ø¯ÙĬØ±": 2559,
      "ĠØ§ÙĦÙĬÙĪÙħ": 2560,
      "ÙħÙģ": 2561,
      "Ġstill": 2562,
      "Ġhistory": 2563,
      "17": 2564,
      "ified": 2565,
      "Ø§Ø¶Ù": 2566,
      "ÙĪØ¡": 2567,
      "ĠØ£ÙĪÙĦ": 2568,
      "man": 2569,
      "Ġsit": 2570,
      "ØªÙĪØ": 2571,
      "ĠCl": 2572,
      "ĠØ§ÙĦÙħÙģ": 2573,
      "ision": 2574,
      "ÙĬØ°": 2575,
      "Ġfew": 2576,
      "ected": 2577,
      "az": 2578,
      "Ġeconom": 2579,
      "Ġmean": 2580,
      "ÙĦØ§ÙĨØ": 2581,
      "Ø±ØªØ¨": 2582,
      "Ø§ÙĦÙĬ": 2583,
      "Ø§Ø±Ø¬": 2584,
      "Ø§Ø¶ÙĬ": 2585,
      "ysis": 2586,
      "ØŃÙĦØ©": 2587,
      "Ġdisease": 2588,
      "Ø§Ø±Ø¯": 2589,
      "Ġbenef": 2590,
      "ĠØ§ÙĦÙħØ«Ø": 2591,
      "ĠØ§ÙĦÙħØ«Ø§": 2592,
      "ĠØ¯ÙĪÙĨ": 2593,
      "Ġcal": 2594,
      "ĠØ§ÙĦØ£Ø¯": 2595,
      "Ġ13": 2596,
      "ÙĦÙĪÙĨ": 2597,
      "ats": 2598,
      "ograph": 2599,
      "ĠÙĨØ¸Ø§Ùħ": 2600,
      "ØºÙĬØ±Ø©": 2601,
      "ĠØ£Ø«": 2602,
      "ĠWh": 2603,
      "ĠÙħÙģ": 2604,
      "Ġrisk": 2605,
      "Ø§ØªØµ": 2606,
      "hor": 2607,
      "atural": 2608,
      "ajor": 2609,
      "ØªØ³": 2610,
      "ĠØ£ØŃØ¯": 2611,
      "arent": 2612,
      "âĢĶ": 2613,
      "ĠBut": 2614,
      "Ġprom": 2615,
      "ĠÙĦÙĦØªØ": 2616,
      "ĪØ§Øµ": 2617,
      "ĠPh": 2618,
      "Ġdirect": 2619,
      "Ġsaf": 2620,
      "ĠØ§Ø±": 2621,
      "Ġsl": 2622,
      "Ġfree": 2623,
      "Ġche": 2624,
      "ories": 2625,
      "Ġbetter": 2626,
      "ªØ§Ø±ÙĬØ®": 2627,
      "ĠÙĪØªØŃ": 2628,
      "Ġtype": 2629,
      "§ÙĦØ§ÙĨØ": 2630,
      "apt": 2631,
      "ĠÙĥØ¨ÙĬØ±Ø©": 2632,
      "It": 2633,
      "ÙĩØ¬": 2634,
      "par": 2635,
      "ØªÙĦ": 2636,
      "Ġlow": 2637,
      "ug": 2638,
      "Ġhtt": 2639,
      "ĠØ¨Ø·": 2640,
      "ØºØ·": 2641,
      "ĠØ£ÙĨÙ": 2642,
      "Ġoper": 2643,
      "Ø§ÙĦØªØ": 2644,
      "Ġcr": 2645,
      "ĠØ§ÙĦÙĨÙĤ": 2646,
      "ĪÙĦØ©": 2647,
      "ÙħÙĬÙħ": 2648,
      "Ġdev": 2649,
      "ªØ§Ø¦": 2650,
      "ÙħÙĪÙ": 2651,
      "ØªØ±ÙĪÙĨ": 2652,
      "Ø±ÙĥØ§Øª": 2653,
      "ĠØ§ÙĦÙħØ«Ø§ÙĦ": 2654,
      "Ġaffect": 2655,
      "13": 2656,
      "Ø¯Øª": 2657,
      "Ġinvol": 2658,
      "Ġarea": 2659,
      "ients": 2660,
      "Ġwriting": 2661,
      "ĠØŃÙĪØ§ÙĦÙĬ": 2662,
      "Ø§Ø°Ø": 2663,
      "Ø§Ø°Ø§": 2664,
      "ÙĦÙĩØ§": 2665,
      "Ġorder": 2666,
      "Ġsever": 2667,
      "Ġstruct": 2668,
      "ĠØ§Ø³ØªØ®": 2669,
      "ĠØ§ÙĦÙĦØº": 2670,
      "Ġplant": 2671,
      "ĠØ£Ø³Ø§Ø³": 2672,
      "Ġimpact": 2673,
      "ÙĩØª": 2674,
      "Ø¯ÙĨÙĬØ©": 2675,
      "Ġret": 2676,
      "ÙħÙĪØ°": 2677,
      "Ø±Ø§Ø±": 2678,
      "Ġpain": 2679,
      "ĠØ«ÙĦ": 2680,
      "ĠÙĪØ§ÙĦØªØ": 2681,
      "ĠZ": 2682,
      "Ġinterest": 2683,
      "Ġcause": 2684,
      "Ø§Ø¹Ø§Øª": 2685,
      "oid": 2686,
      "ĠØ¨Ø£": 2687,
      "14": 2688,
      "Ø¹Ø¨": 2689,
      "Ġdon": 2690,
      "ĠØ¯Ø±Ø¬Ø©": 2691,
      "Ø¬ÙĦ": 2692,
      ",âĢĿ": 2693,
      "Ø§Ø®ÙĦ": 2694,
      "sy": 2695,
      "Ġopp": 2696,
      "ĠÙħØ²": 2697,
      "Ġmeans": 2698,
      "ĠÙĬÙģ": 2699,
      "ĠÙĬØµ": 2700,
      "ĠØ§ÙĦØ£Ø¹": 2701,
      "Ġmill": 2702,
      "ÙĦØªÙĩ": 2703,
      "ªØ§Ø¦Ø¬": 2704,
      "ention": 2705,
      "ĠØŃØ§ÙĦØ©": 2706,
      "Ġkeep": 2707,
      "ĠØŃÙĬÙĨ": 2708,
      "Ø§Ø¦ÙĤ": 2709,
      "Ġpass": 2710,
      "sc": 2711,
      "ĠØªØ£Ø«ÙĬØ±": 2712,
      "Ġbook": 2713,
      "ØªØ·": 2714,
      "ogn": 2715,
      "ication": 2716,
      "Ġsignificant": 2717,
      "to": 2718,
      "ĠØ§ÙĦÙħØ²ÙĬØ¯": 2719,
      "Ġbecome": 2720,
      "Ġbelie": 2721,
      "ĠÂ": 2722,
      "Ġreal": 2723,
      "ĠØ£ÙĤ": 2724,
      "ĠTe": 2725,
      "ently": 2726,
      "ead": 2727,
      "Ġanim": 2728,
      "ĠWor": 2729,
      "ÙĨØ©": 2730,
      "ĠØ£ÙĨÙĩØ§": 2731,
      "ards": 2732,
      "ÙĪØ§ÙĨØ§Øª": 2733,
      "ªØ±ÙĨØª": 2734,
      "ĠÙĬÙĨØ": 2735,
      "ªØ¹ÙĦÙĤ": 2736,
      "ocus": 2737,
      "ways": 2738,
      "ÙĬÙĬÙħ": 2739,
      "Ġcreat": 2740,
      "ÙĩØ±Ø¨": 2741,
      "Ġwomen": 2742,
      "ĠØ¹ÙħÙĦ": 2743,
      "Ġter": 2744,
      "ived": 2745,
      "Ġlaw": 2746,
      "Ġanother": 2747,
      "ote": 2748,
      "ÙĦÙĬØ²": 2749,
      "Ġes": 2750,
      "gin": 2751,
      "§ÙĥÙĦ": 2752,
      "ĠØ§ÙĦØ£Øµ": 2753,
      "µÙĪÙĦ": 2754,
      "ĠÙĪØºÙĬØ±": 2755,
      "eral": 2756,
      "ator": 2757,
      "Ø§ÙĥÙĦ": 2758,
      "Ġleg": 2759,
      "sw": 2760,
      "ĠØŃÙ": 2761,
      "ĠØ¹Ø¨Ø±": 2762,
      "ĪÙĦÙĪØ¬ÙĬØ§": 2763,
      "ĠÙĬØ¯": 2764,
      "Ġavail": 2765,
      "Ø¹Ø§ÙĬØ©": 2766,
      "Ġbased": 2767,
      "Ġprogram": 2768,
      "Ġmar": 2769,
      "Ġcost": 2770,
      "ÙĥØ§ÙĨ": 2771,
      "ĠØ§ÙĦØ¨ØŃØ«": 2772,
      "Ġsecond": 2773,
      "Ġair": 2774,
      "ÙħÙī": 2775,
      "Ġmult": 2776,
      "ĠØ§ØŃ": 2777,
      "here": 2778,
      "Ġvarious": 2779,
      "Ø±Ø¹": 2780,
      "ÙĨÙĬÙĨ": 2781,
      "pr": 2782,
      "ÙģÙĤ": 2783,
      "Ġhig": 2784,
      "ĠØ§ÙĦØ§ÙĨØ": 2785,
      "Ø±ÙĬÙģ": 2786,
      "Ġbo": 2787,
      "Ġfeel": 2788,
      "ÙĩØ©": 2789,
      "port": 2790,
      "ĠÙħØ±Ø©": 2791,
      "Ø§Ø¦ÙħØ©": 2792,
      "ton": 2793,
      "ÙĨØ§ÙĨ": 2794,
      "ĠÙĪØ§ÙĦØ®": 2795,
      "Ġparticular": 2796,
      "agement": 2797,
      "¶ÙĪØ¹": 2798,
      "Ġmove": 2799,
      "ĠAmerican": 2800,
      "Ġdel": 2801,
      "Ġpaper": 2802,
      "ĠÙĪØ¶Ø¹": 2803,
      "Ġrest": 2804,
      "Ġmajor": 2805,
      "ÙħÙĪØ°Ø¬": 2806,
      "ĠØ³Ø¨ÙĬÙĦ": 2807,
      "ÙĨÙĩØ§": 2808,
      "Ġwar": 2809,
      "ĠØ¥Ø¹Ø§Ø¯Ø©": 2810,
      "Ġtre": 2811,
      "Ġperiod": 2812,
      "200": 2813,
      "ĠØ¹ÙĦ": 2814,
      "ĠØ¹ÙħÙĦÙĬØ©": 2815,
      "ÙĪÙħÙ": 2816,
      "Ġlook": 2817,
      "Ġnon": 2818,
      "ÙĥØªÙ": 2819,
      "Ġcurrent": 2820,
      "ØªØ§Ø±ÙĬØ®": 2821,
      "âĢľ": 2822,
      "Ø¬Ùħ": 2823,
      "ĠØ¨Ø§": 2824,
      "ĠØ«ÙĦØ§Ø«": 2825,
      "Ġgroup": 2826,
      "work": 2827,
      "Ġaccess": 2828,
      "Ġconn": 2829,
      "oad": 2830,
      "ĠØ¹ÙĦØ": 2831,
      "ĠØ§ÙĦÙħØ¤": 2832,
      "Ġoccur": 2833,
      "Ġfamily": 2834,
      "Ġfollowing": 2835,
      "ĠÙĨØ¸": 2836,
      "Ø±Ø§Ø¡Ø©": 2837,
      "ÙĦÙĥØªØ±ÙĪÙĨ": 2838,
      "ĠØ¥ÙĨ": 2839,
      "ĠØ§ÙĦØŃØ¯": 2840,
      "ÙĦÙħØ©": 2841,
      "ina": 2842,
      "ĠØ§ÙĦØ£ÙĥØ«Ø±": 2843,
      "Ġbi": 2844,
      "Ġseveral": 2845,
      "ĠØ¹ÙĦÙħ": 2846,
      "Ġold": 2847,
      "ames": 2848,
      "ĠØ¹Ø¯Ùħ": 2849,
      "ĠØºØ§ÙĦØ¨": 2850,
      "rap": 2851,
      "NA": 2852,
      "Ø¯Ø§ÙĨ": 2853,
      "ÙĦÙĬÙ": 2854,
      "Ġtreatment": 2855,
      "ides": 2856,
      "Ġearly": 2857,
      "Ø§Ø·ÙĤ": 2858,
      "ression": 2859,
      "Ø³Ø": 2860,
      "be": 2861,
      "ÙĪØ¬Ø¯": 2862,
      "Ø±ÙĪØ¹": 2863,
      "ole": 2864,
      "ĠØªØ±": 2865,
      "Ø§Ø¯ÙĬØ©": 2866,
      "ĠÙĤØµ": 2867,
      "Ġlim": 2868,
      "ÙħÙĬØ": 2869,
      "Ġprevent": 2870,
      "Ġpossible": 2871,
      "Ø¹ÙĦØ": 2872,
      "ĠØŃØ³": 2873,
      "Ùĭ.": 2874,
      "ank": 2875,
      "Ġbusiness": 2876,
      "oh": 2877,
      "ĠÙĦÙĤ": 2878,
      "ĠWhen": 2879,
      "Ø±Ø¨Ø©": 2880,
      "ÙĦØªÙĪØ": 2881,
      "ÙĬØªÙħ": 2882,
      "Ġ'": 2883,
      "Ġable": 2884,
      "ots": 2885,
      "ploy": 2886,
      "Ġhere": 2887,
      "ÙĨØ§ÙħØ¬": 2888,
      "ĠÙĪÙĦÙ": 2889,
      "ling": 2890,
      "ilar": 2891,
      "Ġ11": 2892,
      "ÙĦÙĪÙĥ": 2893,
      "Ġindust": 2894,
      "Ġlanguage": 2895,
      "ĠØ§ÙĦØ¹Ø§ÙĦÙħÙ": 2896,
      "Ġ202": 2897,
      "Ø§Ø¯ÙĬ": 2898,
      "Ġinvest": 2899,
      "ÙĪØ«": 2900,
      "Ġfunction": 2901,
      "Ġcond": 2902,
      "ĠÙĨØŃÙ": 2903,
      "Ġdue": 2904,
      "orth": 2905,
      "Ġmaking": 2906,
      "lished": 2907,
      "ĠØ¨ÙĨØ§Ø¡": 2908,
      "30": 2909,
      "Ø¯Ùģ": 2910,
      "ĠUniversity": 2911,
      "Ġfre": 2912,
      "Ø§Ø¦Ø¯": 2913,
      "®ÙģØ¶": 2914,
      "ends": 2915,
      "ÙĦØ§Ø®": 2916,
      "ĠÙĦÙĦÙħÙ": 2917,
      "por": 2918,
      "ledge": 2919,
      "ĠEn": 2920,
      "Ġpotential": 2921,
      "ĠÙħØ¹Ø¸Ùħ": 2922,
      "Ġagainst": 2923,
      "Ġhapp": 2924,
      "ĠØ§ÙĦØªØ®": 2925,
      "ĠÙħØ§Ø±": 2926,
      "Ġspecific": 2927,
      "Ġlast": 2928,
      "Ġ100": 2929,
      "Ø¦Ø©": 2930,
      "³Øª": 2931,
      "ĠØ§ÙĦØ¹Ø§": 2932,
      "ances": 2933,
      "ĠØ§ÙĦÙĩÙĨØ¯": 2934,
      "ĪØ§Ø¶": 2935,
      "ĠØ¨Ø§ÙĦØ¥": 2936,
      "Ġbehav": 2937,
      "ĠØ£Ø¨": 2938,
      "Ġfocus": 2939,
      "ooks": 2940,
      "Ġel": 2941,
      "Ġname": 2942,
      "ÙĪØ§ÙĨ": 2943,
      "Ġintern": 2944,
      "Ġfore": 2945,
      "Ġcharacter": 2946,
      "Ø¯Ø±Ø³Ø©": 2947,
      "Ġobject": 2948,
      "ØªØ§": 2949,
      "§ÙĦØªÙĩ": 2950,
      "Ġens": 2951,
      "ĠØ§Ø¹": 2952,
      "ÙĦÙħØ§": 2953,
      "§ÙĦØ§Ø®": 2954,
      "ĠØ¨Ùĩ": 2955,
      "icro": 2956,
      "ÙĨØ¯": 2957,
      "ĠØ§ÙĦÙħÙĨØ²": 2958,
      "ĠCol": 2959,
      "ĠÙĦÙĦØ¨": 2960,
      "ĠÙĦØ¯": 2961,
      "ĠÙĦÙĩØ§": 2962,
      "§ÙĦØªÙĪØ": 2963,
      "Ġwords": 2964,
      "Ġlist": 2965,
      "ĠØ§ÙĦÙĪØ§ÙĤØ¹": 2966,
      "ĠØ£ÙĨÙĪØ§Ø¹": 2967,
      "ĠØªØ§Ø±ÙĬØ®": 2968,
      "Ġcertain": 2969,
      "ĠØ§ÙĦØ§Ø®": 2970,
      "Ġspecies": 2971,
      "§ÙĦØ§ØŃ": 2972,
      "ĠØ§ÙĦÙĨØ¸Ø§Ùħ": 2973,
      "Ġeffective": 2974,
      "ians": 2975,
      "amp": 2976,
      "Ġorig": 2977,
      "Ø·Ø§": 2978,
      "Ġamong": 2979,
      "ÙħÙĪØ¹": 2980,
      "Ġgovernment": 2981,
      "Ø§Ø±ÙĬ": 2982,
      "Ġcreate": 2983,
      "rist": 2984,
      "ÙĬÙĨØ§Øª": 2985,
      "Ġassoci": 2986,
      "Ġfac": 2987,
      "Ø§Ø¯Ø±": 2988,
      "Ġproblems": 2989,
      "Ġeducation": 2990,
      "ĠØ§ÙĦØªÙĪØ": 2991,
      "idence": 2992,
      "ĠØ§ÙĦØŃØµÙĪÙĦ": 2993,
      "ĠØ§ÙĦØ¯Ø±Ø§Ø³": 2994,
      "ĠCan": 2995,
      "ħØ¨Ø±": 2996,
      "ĠÙĦØ¯ÙĬÙĩØ§": 2997,
      "Ġage": 2998,
      "ĠØ§ÙĦØ¹Øµ": 2999,
      "Ø±ÙĪØ³": 3000,
      "ĠØ§ÙĦØªØµ": 3001,
      "urther": 3002,
      "ĠUnited": 3003,
      "Ø±Ø±": 3004,
      "Ø®ÙĦ": 3005,
      "ĠØ§ÙĦØ§ØŃ": 3006,
      "ĠÙĦÙĦØº": 3007,
      "olution": 3008,
      "ÙĦØ§Ùĥ": 3009,
      "'t": 3010,
      "Ġopen": 3011,
      "Ġpress": 3012,
      "omm": 3013,
      "Ġcase": 3014,
      "Ġthings": 3015,
      "Ġavailable": 3016,
      "ission": 3017,
      "ĠØ§Ùĥ": 3018,
      "ÙĭØĮ": 3019,
      "ĨÙģÙĬØ°": 3020,
      "Ø§ØŃØ¸": 3021,
      "Ġflow": 3022,
      "Ø¹Ø§Ù": 3023,
      "ĠÙħØ¶": 3024,
      "ÙĬØ±Ø": 3025,
      "ĠØ§ÙĦØ¨Ø´": 3026,
      "Ø¯ÙĬÙħ": 3027,
      "ĠÙĬÙĪÙħ": 3028,
      "Ġapplic": 3029,
      "Ġcomput": 3030,
      "Ġtext": 3031,
      "ĠØªØŃØª": 3032,
      "ĠØĽ": 3033,
      "ĠØ§ÙĦÙħØ®ØªÙĦÙģØ©": 3034,
      "Ġmil": 3035,
      "Ġothers": 3036,
      "pecial": 3037,
      "ÙĦÙĬÙĥ": 3038,
      "Ġvol": 3039,
      "Ġtypes": 3040,
      "Ġsystems": 3041,
      "ÙĥÙĨ": 3042,
      "Ġcrit": 3043,
      "Ø¯ÙĦ": 3044,
      "org": 3045,
      "ique": 3046,
      "oint": 3047,
      "Ġdeterm": 3048,
      "ised": 3049,
      "ended": 3050,
      "ĠÙħÙĤØ§ÙĦ": 3051,
      "of": 3052,
      "ID": 3053,
      "ĠÙĬØ¹ÙĨÙĬ": 3054,
      "Ġlet": 3055,
      "ĠØ§ÙĦØªØ£": 3056,
      "ĠÙĦÙħÙ": 3057,
      "ĠÙĥØªØ§Ø¨Ø©": 3058,
      "Ġview": 3059,
      "ĠÙĪØ®": 3060,
      "Ġareas": 3061,
      "Ġshort": 3062,
      "ÙħØ«": 3063,
      "ĠØ£Ùĩ": 3064,
      "Ġproblem": 3065,
      "ĠØ¬ÙĬØ¯": 3066,
      "Ġ198": 3067,
      "ĠØ±Ø¦ÙĬØ³": 3068,
      "ĠØ§ÙĦØ£ÙĪÙĦ": 3069,
      "ÙĤÙĤ": 3070,
      "Ø±ØŃ": 3071,
      "rid": 3072,
      "ĠØ§ÙĦØ£ÙħØ±": 3073,
      "ÙħØ«ÙĦ": 3074,
      "Ġvir": 3075,
      "Ġtechnology": 3076,
      "ĠØ§ÙĦØ®Ø§Øµ": 3077,
      "etic": 3078,
      "erc": 3079,
      "Ġnatural": 3080,
      "ĠÙĤØ·": 3081,
      "Ġcountry": 3082,
      "²Ù": 3083,
      "ĠØ§ÙĦØ±Ø¦ÙĬØ³ÙĬØ©": 3084,
      "Ġtool": 3085,
      "ĠÙĪØ§ÙĦØ´": 3086,
      "Ġlevels": 3087,
      "Ġsuccess": 3088,
      "ÙħÙĦØ©": 3089,
      "arc": 3090,
      "ĠØ¥Ø¯Ø§Ø±Ø©": 3091,
      "cle": 3092,
      "ÙĩÙĪØ±": 3093,
      "resent": 3094,
      "Ġpost": 3095,
      "Ø®Ø§Øµ": 3096,
      "ek": 3097,
      "ÙĩØ²Ø©": 3098,
      "uture": 3099,
      "Ġamount": 3100,
      "Ġexperience": 3101,
      "ĠØ§ÙĦÙĪØ·": 3102,
      "Ġcells": 3103,
      "Ø§ÙģÙĬØ©": 3104,
      "ĠØ§ÙĦØ¹ÙĤ": 3105,
      "Ġsince": 3106,
      "ĠÙĪÙĩÙĪ": 3107,
      "ret": 3108,
      "):": 3109,
      "osp": 3110,
      "²Ø§ÙĦ": 3111,
      "ĠØ´ÙĥÙĦ": 3112,
      "Ġimprove": 3113,
      "icult": 3114,
      "ones": 3115,
      "Ø¯Ø§Øª": 3116,
      "ER": 3117,
      "Ø¹Ø§Ùħ": 3118,
      "ĠØ§ÙĦØªØ·": 3119,
      "ĠCO": 3120,
      "ĠØ§ÙĦÙģÙ": 3121,
      "inc": 3122,
      "Ġprofess": 3123,
      "ÙĩÙĦ": 3124,
      "atory": 3125,
      "Ø²Ù": 3126,
      "ĠComm": 3127,
      "ĠØ£Ø·": 3128,
      "ĠØ§ÙĦØ·Ø¨": 3129,
      "Ġcy": 3130,
      "Ġtimes": 3131,
      "ÙħÙĥÙĨ": 3132,
      "ÙĦÙĪ": 3133,
      "ÙĬØ±Ø§": 3134,
      "Ġcirc": 3135,
      "Ġkey": 3136,
      "Ġ25": 3137,
      "ÙħÙĪÙĨ": 3138,
      "ÙĨÙĪØ¨": 3139,
      "ĨØ¸": 3140,
      "§ÙĩØª": 3141,
      "ences": 3142,
      "Ġrole": 3143,
      "Ġtemper": 3144,
      "ÙĩØ°Ø": 3145,
      "ÙĩØ°Ø§": 3146,
      "Ġi": 3147,
      "ĠØ¬Ø¯ÙĬØ¯Ø©": 3148,
      "ĠÙħÙĥØ": 3149,
      "abor": 3150,
      "une": 3151,
      "cul": 3152,
      "ĠØ¹Ø±Ø¶": 3153,
      "ĠØ§ÙĦÙħØ¬ØªÙħØ¹": 3154,
      "ØªØ«": 3155,
      "Ġanalysis": 3156,
      "ÙħØ¶": 3157,
      "Ø²ÙĬØ²": 3158,
      "Ġresults": 3159,
      "Ġfour": 3160,
      "Ġopt": 3161,
      "ÙĦØªØ§Ø±ÙĬØ®": 3162,
      "ĠUS": 3163,
      "put": 3164,
      "ĠØªØ³ØªØ®Ø¯Ùħ": 3165,
      "ĠØ¯Ø§Ø®ÙĦ": 3166,
      "Ġfil": 3167,
      "ĠÙħÙĥØ§": 3168,
      "ĠØ§ÙĦÙĨÙģ": 3169,
      "ĠØ§ÙĦØµÙ": 3170,
      "Ġsay": 3171,
      "face": 3172,
      "Ġconsum": 3173,
      "Ġthink": 3174,
      "Ġneeds": 3175,
      "·Ø§ÙĤ": 3176,
      "ĠÙĪØ§ÙĦÙĥ": 3177,
      "urope": 3178,
      "Ø«ÙĪØ±": 3179,
      "Ġcome": 3180,
      "Ġmonth": 3181,
      "ĠØ§ÙĦØ«Ø": 3182,
      "Ġscient": 3183,
      "ŃØ©": 3184,
      "ĠØ§ÙĦØ±Ø³": 3185,
      "§ÙĦØªØ§Ø±ÙĬØ®": 3186,
      "though": 3187,
      "ĠØ¬Ø²Ø¡": 3188,
      "Ġhard": 3189,
      "ĠOn": 3190,
      "ÙĨÙī": 3191,
      "Ġdiscuss": 3192,
      "ØªØ±Ø§Øª": 3193,
      "ĠÙĪÙħÙ": 3194,
      "ĬØ§Ø±": 3195,
      "ÙĦØ§Ùģ": 3196,
      "ĠØ£Ø¬ÙĦ": 3197,
      "ode": 3198,
      "Ġincrease": 3199,
      "ape": 3200,
      "Ø·ØŃ": 3201,
      "ĠØ§ÙĦÙĥÙĩØ±Ø¨": 3202,
      "Ġdra": 3203,
      "Ø³ÙĬ": 3204,
      "ĠØ§ÙĦØ¬Ø": 3205,
      "ĨØ³Ø¨Ø©": 3206,
      "ĠâĢĶ": 3207,
      "ĠÙĪØ§ÙĦØµ": 3208,
      "Ø§Ø¬Ø©": 3209,
      "ĠÙĦÙĦØ·": 3210,
      "ĠØ§ÙĦØªØ§Ø±ÙĬØ®": 3211,
      "Ġrun": 3212,
      "If": 3213,
      "Ġmen": 3214,
      "Ø¯ÙĨ": 3215,
      "ĠÙĪØ¬ÙĪØ¯": 3216,
      "Ġ50": 3217,
      "Ø¹ÙĦØ§": 3218,
      "Ġcomb": 3219,
      "ĠÙĬØ³ØªØ®Ø¯Ùħ": 3220,
      "ĠØ§ÙĦØ´ÙħØ³": 3221,
      "ope": 3222,
      "ĠØ¸": 3223,
      "ĠØ§ÙĦØ¢Ø®Ø±": 3224,
      "Ġhead": 3225,
      "oring": 3226,
      "Ø±Ø§ÙĨ": 3227,
      "ÙĬØº": 3228,
      "ĠØ§ÙĦØ¥ÙĨØªØ±ÙĨØª": 3229,
      "ĠØ§ÙĤ": 3230,
      "ym": 3231,
      "St": 3232,
      "ĠSci": 3233,
      "af": 3234,
      "ĠØ§ÙĦØ®Ø·": 3235,
      "ĠØ²ÙĬØ§Ø¯Ø©": 3236,
      "utions": 3237,
      "ĠØ§ÙĦØ¬Ø§": 3238,
      "ĠØ¬Ø§ÙħØ¹Ø©": 3239,
      "ortun": 3240,
      "Ġsw": 3241,
      "ĠØªØ¤": 3242,
      "We": 3243,
      "ÙĦÙħØ§Øª": 3244,
      "ĬØ§Ø±Ø§Øª": 3245,
      "Ġrece": 3246,
      "ĠStates": 3247,
      "ÙĥØ±Ø©": 3248,
      "ending": 3249,
      "ÙħØ§ÙĬØ©": 3250,
      "Ġconditions": 3251,
      "ÙĦØ§Ø¹": 3252,
      "ÙĥÙĦØ©": 3253,
      "ument": 3254,
      "ĠÙħØ¬Ø": 3255,
      "ĪØ±ÙĬ": 3256,
      "Ġstep": 3257,
      "Ø¯ÙĪØ¯": 3258,
      "ird": 3259,
      "ĠØ¯Ø±Ø§Ø³Ø©": 3260,
      "Ø¬Ø©": 3261,
      "ÙĨØ§Øª": 3262,
      "ÙħØ¨Ø±": 3263,
      "ggest": 3264,
      "Ø¯ÙĬÙĥ": 3265,
      "Ġterm": 3266,
      "Ġnet": 3267,
      "ptoms": 3268,
      "let": 3269,
      "Ġcourse": 3270,
      "ĠÙħÙĬØ": 3271,
      "ĠÙħØ¬Ø§": 3272,
      "ĪØ§Ø¯": 3273,
      "ĠØ¨Ø§Ø³Ù": 3274,
      "obal": 3275,
      "ÙĥØ¯": 3276,
      "³Ø§Ù": 3277,
      "ĠØ§ÙĦØ¨ÙĦ": 3278,
      "ĠØ§ÙĦØ£ÙĪÙĦÙī": 3279,
      "Ø±ÙĪØ±": 3280,
      "ĠØ§ÙĦØ¥ÙĨØ¬": 3281,
      "ilities": 3282,
      "Ġrelations": 3283,
      "ØªØ§Ø¬": 3284,
      "ĠOr": 3285,
      "ee": 3286,
      "ĠAt": 3287,
      "Ø¨ÙĬØ±": 3288,
      "over": 3289,
      "§ÙĨØª": 3290,
      "Ġskills": 3291,
      "ĠÙĦÙĦÙĤ": 3292,
      "pos": 3293,
      "ĠÙĦØ¯ÙĬÙĩÙħ": 3294,
      "ĠEnglish": 3295,
      "ĠØ¨Ø§Ø³Ùħ": 3296,
      "Ġteac": 3297,
      "ªØ±Ø§": 3298,
      "ĠØ·Ø±ÙĬÙĤØ©": 3299,
      "ÙĬÙĨÙĬØ©": 3300,
      "Ġspecial": 3301,
      "Ø¤": 3302,
      "asing": 3303,
      "ÙģØ©": 3304,
      "Ġbro": 3305,
      "ĠBl": 3306,
      "ĠØ£Ø«ÙĨØ§Ø¡": 3307,
      "Ø§Ø³Ø¨": 3308,
      "Ġyoung": 3309,
      "ÙĥÙĬØ±": 3310,
      "Ġnear": 3311,
      "Ġusually": 3312,
      "Ġobs": 3313,
      "ĠØ¨Ø§ÙĦØ¥Ø¶Ø§ÙģØ©": 3314,
      "Ø±Øº": 3315,
      "Ġmot": 3316,
      "Ġwhy": 3317,
      "ØªÙģØ§Ø¹": 3318,
      "ething": 3319,
      "Ġeffects": 3320,
      "ÙĩØ¨": 3321,
      "Ġrele": 3322,
      "Ġinflu": 3323,
      "ÙĦÙĬÙĨ": 3324,
      "not": 3325,
      "Ġchall": 3326,
      "ured": 3327,
      "ħÙĦÙĥ": 3328,
      "Ġdescrib": 3329,
      "ĠØ§ÙĦØªØ³": 3330,
      "Ġput": 3331,
      "Ġsing": 3332,
      "ĠØ§ÙĦØ¹ÙĦØ§Ø¬": 3333,
      "aster": 3334,
      "Ġdig": 3335,
      "ĠØ§ÙĦØªØ¹ÙĦÙĬÙħ": 3336,
      "Ø£Ø©": 3337,
      "ables": 3338,
      "ØªÙĪÙĬØ§Øª": 3339,
      "§ÙĦØ§ÙĤ": 3340,
      "ĠÙĤØ§ÙĦ": 3341,
      "ÙĬÙĩ": 3342,
      "ĠÙĦØ¬": 3343,
      "ÙĦÙĬÙħÙ": 3344,
      "duct": 3345,
      "ĠØ§ÙĦØ±ÙĬØ§Ø¶": 3346,
      "Ġrad": 3347,
      "Ø£Ø³": 3348,
      "ĠØ¹Ø´Ø±": 3349,
      "ĠAf": 3350,
      "Ġcolle": 3351,
      "Ġer": 3352,
      "ĠØ§ÙĦØ§ÙĤ": 3353,
      "ĠÙģÙĩÙħ": 3354,
      "Ø·Ø§Ø¡": 3355,
      "ÙĥÙĪ": 3356,
      "Ġheart": 3357,
      "ĠØ£ÙĨØŃ": 3358,
      "ÙĨÙĪÙĦÙĪØ¬ÙĬØ§": 3359,
      "ØªÙĬØ§Ø±": 3360,
      "ĠÙĪÙĥØ°ÙĦÙĥ": 3361,
      "ĠBe": 3362,
      "ĠÙĦÙĦØºØ§ÙĬØ©": 3363,
      "Ġplants": 3364,
      "Ø§Ø³Ù": 3365,
      "ĠØ£Ùģ": 3366,
      "ĠÙĬØ¤Ø¯ÙĬ": 3367,
      "ems": 3368,
      "Ġenc": 3369,
      "Ġkind": 3370,
      "Ġgiven": 3371,
      "Ġz": 3372,
      "Ġsuggest": 3373,
      "ĠØ§ÙĦÙĦØºØ©": 3374,
      "Ġunt": 3375,
      "ware": 3376,
      "ĠÙĪØ§ÙĦØ±": 3377,
      "ĠÙĦØŃ": 3378,
      "ĠØªØ·ÙĪÙĬØ±": 3379,
      "ĠØ£ÙĨØŃØ§Ø¡": 3380,
      "ĠMed": 3381,
      "ĬØ§Ø©": 3382,
      "Ġknowledge": 3383,
      "ĠØ§ÙĦØŃØ±Ø¨": 3384,
      "sych": 3385,
      "Ġnecess": 3386,
      "Ġhigher": 3387,
      "Ø¨Øª": 3388,
      "ĠØ±Ø³": 3389,
      "Ø¯ÙĬÙĤ": 3390,
      "Ġessential": 3391,
      "ĠÙĦÙĨ": 3392,
      "ĠX": 3393,
      "ĪÙĤÙģ": 3394,
      "ØªØ®Ø¯": 3395,
      "Ġfuture": 3396,
      "Ġ$": 3397,
      "ĠØ¨Ø§ÙĦÙĨØ³Ø¨Ø©": 3398,
      "ĠØ£ÙħØ±": 3399,
      "Ġdifficult": 3400,
      "ĠÙĪÙĤØ¯": 3401,
      "Ġill": 3402,
      "ĠØ£ØµØ¨ØŃ": 3403,
      "Ġrespons": 3404,
      "Ġchanges": 3405,
      "ĠØ§ÙĦØ£ÙħØ±ÙĬÙĥÙĬØ©": 3406,
      "ĠAll": 3407,
      "Ġpolit": 3408,
      "ĠØµÙ": 3409,
      "Ġprim": 3410,
      "ªÙĬØ¬": 3411,
      "ably": 3412,
      "Ġsimilar": 3413,
      "ĠSo": 3414,
      "Ġquality": 3415,
      "Ġalways": 3416,
      "nal": 3417,
      "Ġ24": 3418,
      "ĠÙģÙĬÙĩØ§": 3419,
      "Ġline": 3420,
      "alk": 3421,
      "Ġphysical": 3422,
      "Ġcontain": 3423,
      "ÙħØ±Ø¶": 3424,
      "ĠØ¨Ø£ÙĨ": 3425,
      "Ġconsider": 3426,
      "Ġauthor": 3427,
      "ĠØ§ÙĦÙħÙĪØ³": 3428,
      "ÙħÙĬØ±": 3429,
      "ruction": 3430,
      "Ġintrodu": 3431,
      "Ġgive": 3432,
      "ĠÙħÙĥØ§Ù": 3433,
      "Ø¨Ø·": 3434,
      "ÙģØª": 3435,
      "Ġlocal": 3436,
      "ĠÙħÙĥØ§ÙĨ": 3437,
      "chie": 3438,
      "¶ÙħÙĨ": 3439,
      "ators": 3440,
      "lement": 3441,
      "Ø§Ø±ÙĥØ©": 3442,
      "ĨÙĬØ§": 3443,
      "oney": 3444,
      "ours": 3445,
      "Ġsens": 3446,
      "ĠÙĦÙĬØ": 3447,
      "As": 3448,
      "ĠSc": 3449,
      "ĠÙĨÙĩØ§": 3450,
      "Ø§Ø±ÙĨØ©": 3451,
      "ĠØ§ÙĦÙħÙĤØ": 3452,
      "ĠØ§ÙĦØ¹Ø§Ù": 3453,
      "aching": 3454,
      "ĠØ§ÙĦØ¹Ø§Ùħ": 3455,
      "Ġsubject": 3456,
      "ªØ´": 3457,
      "ately": 3458,
      "pecially": 3459,
      "ĠØ¥Ø·": 3460,
      "Ø§Ø±Ø³": 3461,
      "ÙħØ·": 3462,
      "ann": 3463,
      "ĠØ¨Ø¯ÙĦ": 3464,
      "ĠØ§ÙĦØ¥ÙĦÙĥØªØ±ÙĪÙĨ": 3465,
      "ĠØ¨Ø¯ÙĦØ": 3466,
      "ĠØ¨Ø¯ÙĦØ§": 3467,
      "ged": 3468,
      "Ġstrong": 3469,
      "ler": 3470,
      "ØªÙĩØ§": 3471,
      "Ġways": 3472,
      "atch": 3473,
      "Ġdays": 3474,
      "app": 3475,
      "ĠÙĬØ³Ø§Ø¹Ø¯": 3476,
      "idd": 3477,
      "ĠÙħØ±Ø¶": 3478,
      "ĠWith": 3479,
      "ĠØ§ÙĦÙĤØ±ÙĨ": 3480,
      "ªÙĬØ¬Ø©": 3481,
      "ĠEurope": 3482,
      "Ġcomplete": 3483,
      "ification": 3484,
      "Ġaccount": 3485,
      "Ġlittle": 3486,
      "ÙħØ²": 3487,
      "atures": 3488,
      "ĠÙĪØªÙĤ": 3489,
      "Ġsum": 3490,
      "Ġbegin": 3491,
      "Ġcommunity": 3492,
      "ĠØ§ÙĦØ£Ø¬": 3493,
      "Ø§Ø¦Ùħ": 3494,
      "ĠØ§ÙĦØ¹Ø§ÙħØ©": 3495,
      "sel": 3496,
      "Ġsomething": 3497,
      "ĠBy": 3498,
      "ĠÙĪØ¨Ø§ÙĦØªØ": 3499,
      "Ġprev": 3500,
      "Ġactivities": 3501,
      "ĠÙĪØªØ¹": 3502,
      "ĠÙĨÙĩØ§ÙĬØ©": 3503,
      "ae": 3504,
      "ĠÙĦÙĪØ": 3505,
      "ĠØ¥ÙĨØ´Ø§Ø¡": 3506,
      "Ġclear": 3507,
      "Ġansw": 3508,
      "§ÙĩØªÙħØ§Ùħ": 3509,
      "Ø·Ø§Ù": 3510,
      "inking": 3511,
      "ires": 3512,
      "ĠÙĪÙģÙĤØ§": 3513,
      "ĠØ§ÙĦÙħÙĤØ§": 3514,
      "iple": 3515,
      "ĠIm": 3516,
      "Ġgrowth": 3517,
      "Ġgr": 3518,
      "Ġchem": 3519,
      "ÙĪØ©": 3520,
      "ªØ¬Ø§Øª": 3521,
      "ember": 3522,
      "ĠØ§ÙĦÙħØ§Ø¡": 3523,
      "ÙĬØ·Ø©": 3524,
      "ĠØ§ÙĦÙĤÙĬØ§Ùħ": 3525,
      "Ġarticle": 3526,
      "Ġturn": 3527,
      "Ġpast": 3528,
      "ĠÙĬØ¸ÙĩØ±": 3529,
      "orts": 3530,
      "ĠØ¥Ø¬Ø±Ø§Ø¡": 3531,
      "mit": 3532,
      "Ġmodel": 3533,
      "ĪØ§ØµÙĦ": 3534,
      "stit": 3535,
      "ĠØ§ÙĦÙĪØ±": 3536,
      "Ġdam": 3537,
      "ĠÙĪØ¨Ø§ÙĦØªØ§ÙĦÙĬ": 3538,
      "ĠÙĬØ®": 3539,
      "Ġself": 3540,
      "Ġvalue": 3541,
      "Ġparent": 3542,
      "Ġcontrib": 3543,
      "Ġappear": 3544,
      ".\"": 3545,
      "ÙĬÙĥÙĪÙĨ": 3546,
      "aves": 3547,
      "Ġalong": 3548,
      "ĠÙĦÙģ": 3549,
      "Ġword": 3550,
      "Ġspace": 3551,
      "min": 3552,
      "Ġrange": 3553,
      "An": 3554,
      "Ġ,": 3555,
      "Ġnut": 3556,
      "Ġquestions": 3557,
      "bon": 3558,
      "Ġtoget": 3559,
      "Ġtogether": 3560,
      "Ø§Ø±Ø¨": 3561,
      "ĠGo": 3562,
      "fact": 3563,
      "ĨØ§ÙĪÙĦ": 3564,
      "istic": 3565,
      "Ø±Ùħ": 3566,
      "ÙĪØªØ±": 3567,
      "ither": 3568,
      "Ø§Ø¶Ø·Ø±": 3569,
      "Ġey": 3570,
      "Ø¯ÙĬÙĦ": 3571,
      "Ø§Ø¨Ø": 3572,
      "ĠÙĪÙĬÙħÙ": 3573,
      "aken": 3574,
      "ÙĦÙĪÙ": 3575,
      "ĠØ§ÙĦÙĨØµ": 3576,
      "ĠÙħØ³ØªÙĪÙī": 3577,
      "ales": 3578,
      "ÙĦØ§ÙĬØ§": 3579,
      "There": 3580,
      "Ġconcept": 3581,
      "Ġcountries": 3582,
      "Ġacross": 3583,
      "Ġsymptoms": 3584,
      "Ġunderstanding": 3585,
      "ĠØªØ¸ÙĩØ±": 3586,
      "Ø´Ùģ": 3587,
      "ĠCent": 3588,
      "à¤": 3589,
      "ÙĦÙĬØ¯": 3590,
      "ĠØ§ÙĦØ¯Ø±Ø§Ø³Ø©": 3591,
      "Ø«Ø§Ø±": 3592,
      "Ø§Ø¨ÙĤ": 3593,
      "ĠØ§ÙĦØ£Ø³Ø§Ø³ÙĬØ©": 3594,
      "rug": 3595,
      "ÙĪØªÙĬÙĨ": 3596,
      "ored": 3597,
      "ĠÙĪØ§ÙĦØ·": 3598,
      "Ġworking": 3599,
      "Ġlikely": 3600,
      "ĠGod": 3601,
      "Ġ197": 3602,
      "use": 3603,
      "§ÙĤØ´": 3604,
      "ĠÙħÙĨØ°": 3605,
      "Ġpercent": 3606,
      "ĠÙĬØ²": 3607,
      "ung": 3608,
      "ivity": 3609,
      "Ġproduction": 3610,
      "Ġtry": 3611,
      "ĠÙĬØ¨Ø¯ÙĪ": 3612,
      "by": 3613,
      "ane": 3614,
      "Ġ|": 3615,
      "oot": 3616,
      "ush": 3617,
      "ĠÙħØ®ØªÙĦÙģ": 3618,
      "Ġpatients": 3619,
      "amm": 3620,
      "ray": 3621,
      "aps": 3622,
      "Ġtoday": 3623,
      "Ġstudies": 3624,
      "ĠØªØ´ÙħÙĦ": 3625,
      "Ø¬Ø": 3626,
      "Ġmarket": 3627,
      "ency": 3628,
      "Ġissues": 3629,
      "Ø¯ÙħØ§Øª": 3630,
      "ÙĪØ§Ø±": 3631,
      "ÙĥØ±ÙĬ": 3632,
      "Ġresources": 3633,
      "Ġlot": 3634,
      "Ġindividuals": 3635,
      "ØŃØµ": 3636,
      "aces": 3637,
      "ĠØ§ÙĦÙĨÙĪØ¹": 3638,
      "ĠØ§ÙĦØŃÙĬÙĪØ§ÙĨØ§Øª": 3639,
      "ĠÙħÙĨØ·ÙĤØ©": 3640,
      "Ø°ÙĬØ©": 3641,
      "ired": 3642,
      "AS": 3643,
      "Ø§ØªØµØ": 3644,
      "ØµØµ": 3645,
      "Ø§ØªØµØ§": 3646,
      "Ø§ØªØµØ§ÙĦ": 3647,
      "iting": 3648,
      "ried": 3649,
      "Ġmind": 3650,
      "ÙĦÙĬØ²ÙĬØ©": 3651,
      "ĠØ§ÙĦØªÙĩ": 3652,
      "ÙģØ§Ø¡": 3653,
      "Ġdeath": 3654,
      "Ġpopulation": 3655,
      "AT": 3656,
      "25": 3657,
      "ison": 3658,
      "Ġgeneral": 3659,
      "60": 3660,
      "Ġproducts": 3661,
      "Ġfull": 3662,
      "ĠØ§ÙĦØŃÙģØ§Ø¸": 3663,
      "Ġexist": 3664,
      "for": 3665,
      "Ġstory": 3666,
      "Ġteam": 3667,
      "Ġ+": 3668,
      "AR": 3669,
      "Ø§Ø¦Ø¹Ø©": 3670,
      "Ġemploy": 3671,
      "Ġliter": 3672,
      "ĠØ§ÙĦÙĨØ¨Ø§ØªØ§Øª": 3673,
      "ĠØªØŃØªØ§Ø¬": 3674,
      "omes": 3675,
      "Ġgre": 3676,
      "Ġ*": 3677,
      "Ġstrateg": 3678,
      "erence": 3679,
      "Ġachie": 3680,
      "Ġlower": 3681,
      "Ġfactors": 3682,
      "Ø¬Ø§": 3683,
      "ES": 3684,
      "Ø¯Ø§Ø±": 3685,
      "ĠÙĪØ¸": 3686,
      "ibility": 3687,
      "self": 3688,
      "ĠØ¹Ø§ÙĦÙ": 3689,
      "ÙĨÙĬØ§": 3690,
      "ĠStud": 3691,
      "Ø¨ÙĥØ©": 3692,
      "ĠPr": 3693,
      "ÙĤÙĪÙĤ": 3694,
      "Ġnorm": 3695,
      "ĠØ¨ÙĬØ§ÙĨØ§Øª": 3696,
      "urity": 3697,
      "ĠAfric": 3698,
      "Ġfar": 3699,
      "ĠØªÙĦÙĥ": 3700,
      "Ġespecially": 3701,
      "ĠØ§ÙĦÙħØ¹Ø¯ÙĨÙĬØ©": 3702,
      "Ġsure": 3703,
      "ĠØ§ÙĦØ¬Ø³Ùħ": 3704,
      "uation": 3705,
      "ĨÙħÙĪ": 3706,
      "Ġvari": 3707,
      "Ġmakes": 3708,
      "aring": 3709,
      "ĠØ§ÙĦØµØŃÙĬØ©": 3710,
      "Ġactivity": 3711,
      "ÙĪÙĨØ§Øª": 3712,
      "ĠØ§ÙĦØµØŃØ©": 3713,
      "ĠØ£Ø¹ÙĦÙī": 3714,
      "Ø³Ø±": 3715,
      "Ġbrain": 3716,
      "ĠØ³ÙĬ": 3717,
      "ĠØ¥ÙĨØªØ§Ø¬": 3718,
      "rate": 3719,
      "Ġindic": 3720,
      "osis": 3721,
      "ĠÙĪØªÙ": 3722,
      "ĠÙĦÙĦØ¬": 3723,
      "ĠØ§ÙĦÙħØ±Ùĥ": 3724,
      "ĠØ§ÙĦÙĤØ·": 3725,
      "ĠØ§ÙĦØ¹Ø«ÙĪØ±": 3726,
      "ĠÙĦØ¯ÙĬÙĥ": 3727,
      "Ġscience": 3728,
      "ØºÙĬÙĦ": 3729,
      "Ø¯ÙĪØ§Øª": 3730,
      "Ġrecord": 3731,
      "ÙĬÙĨÙ": 3732,
      "ĠÙħØ¬Ø§ÙĦ": 3733,
      "ÙħÙĬÙĦ": 3734,
      "ĠÙģÙĬÙĩ": 3735,
      "Ġestab": 3736,
      "emic": 3737,
      "ĠEar": 3738,
      "ĨØ²": 3739,
      "ĠÙģØªØ±Ø©": 3740,
      "ĠØµÙģ": 3741,
      "40": 3742,
      "ÙĪØ§ÙħÙĦ": 3743,
      "ØªØº": 3744,
      "Ġmaterials": 3745,
      "ising": 3746,
      "ÙĬØªØ§": 3747,
      "ĠÙĦÙĢ": 3748,
      "Ø§ÙģØ§Øª": 3749,
      "Ø§ØªØ¬": 3750,
      "Ġreduce": 3751,
      "Ġuntil": 3752,
      "Ø§Ø²Ù": 3753,
      "ĠÙĦÙħØ§Ø°Ø§": 3754,
      "ÙĥÙĪÙħØ©": 3755,
      "Ġmanagement": 3756,
      "ĠØªØ·Ø¨ÙĬÙĤ": 3757,
      "Ġpractice": 3758,
      "ÙĪÙĬÙĦØ©": 3759,
      "Ø²Ø§ÙĦØ©": 3760,
      "Ø¯Ø§Ùģ": 3761,
      "ĠÙĪÙĬÙħÙĥÙĨ": 3762,
      "ÙĪÙĬÙĨ": 3763,
      "Ġprotect": 3764,
      "Ġrelationship": 3765,
      "ĠØ¥ÙĦÙĬ": 3766,
      "ØªÙħØ¯": 3767,
      "ĠØªØºÙĬÙĬØ±": 3768,
      "ÙĩÙĬ": 3769,
      "Ġquestion": 3770,
      "ÙĨÙĬØ§Øª": 3771,
      "ĠØ§ÙĦØ¥Ø¬": 3772,
      "ĠÙħÙĪÙĤØ¹": 3773,
      "ĠØ§ÙĦÙģØ±": 3774,
      "Ġrepresent": 3775,
      "Ġneg": 3776,
      "ĠChrist": 3777,
      "Ġhaving": 3778,
      "§ÙħÙĦØ©": 3779,
      "Ġver": 3780,
      "Ø³Ø§Øª": 3781,
      "ĠØ¹ÙĦÙĬÙĩØ§": 3782,
      "ĠØ§ÙĦØ¬Ø¯ÙĬØ¯Ø©": 3783,
      "Ø·Ø§ÙĨ": 3784,
      "ĠØ§Ø³ØªØ®Ø¯Ø§": 3785,
      "ĠØ¨Ø¯Ø£": 3786,
      "ĠØ§ÙĦÙĪØµÙĪÙĦ": 3787,
      "ipp": 3788,
      "ÙĦÙĨ": 3789,
      "ĬÙĦØ©": 3790,
      "ÙĦØ§Ø«": 3791,
      "ĠØ§ÙĦØµÙĨ": 3792,
      "Ø§Ø¨ÙĦ": 3793,
      "Ø¨ÙĤ": 3794,
      "Ġonline": 3795,
      "ħØ§Ø±Ø³Ø©": 3796,
      "Ġmov": 3797,
      "ĠÙĦÙĦØ³": 3798,
      "ĠNational": 3799,
      "ªØ©": 3800,
      "Ġcentury": 3801,
      "fficient": 3802,
      "Ø§ÙĦØ¬Ø©": 3803,
      "ĠÙĦÙĥÙĦ": 3804,
      "ÙĦØ¸": 3805,
      "ips": 3806,
      "aut": 3807,
      "Ġsam": 3808,
      "izing": 3809,
      "Ġcases": 3810,
      "ĠØªØ±Ùĥ": 3811,
      "ĠØ¨Ø¥": 3812,
      "ĠØ¶Ø¯": 3813,
      "Ġabove": 3814,
      "ĠTr": 3815,
      "Ġside": 3816,
      "ohn": 3817,
      "ĠLe": 3818,
      "usion": 3819,
      "--": 3820,
      "ÙĬÙĪÙħ": 3821,
      "eds": 3822,
      "thing": 3823,
      "Ġlater": 3824,
      "ĠØ³ÙĬÙĥÙĪÙĨ": 3825,
      "Ġpred": 3826,
      "ĠSome": 3827,
      "Ġcorre": 3828,
      "§ÙĪÙĦ": 3829,
      "ÙħÙĪØ¹Ø§Øª": 3830,
      "Ġcancer": 3831,
      "earch": 3832,
      "Ġloss": 3833,
      "aging": 3834,
      "Ġcho": 3835,
      "ĠØªØ¹ÙħÙĦ": 3836,
      "yl": 3837,
      "ĠÙĬØŃØ¯Ø«": 3838,
      "ÙĦÙĪØ¨": 3839,
      "ĠHealth": 3840,
      "yn": 3841,
      "ream": 3842,
      "Ġstress": 3843,
      "Ġnext": 3844,
      "Ø§Ø³Ø¨Ø©": 3845,
      "Ø¨ÙĪ": 3846,
      "ÙĥØ§Ø±": 3847,
      "fer": 3848,
      "Ø±Ø§Ø¶": 3849,
      "ÙĦØ³ÙĦØ©": 3850,
      "Ġaddress": 3851,
      "ĠØ§ÙĦØ£Ø´ÙĬØ§Ø¡": 3852,
      "Ø±Ø§Ùħ": 3853,
      "ĠØ£ÙħØ±ÙĬ": 3854,
      "ĠØ§ÙĦØ§ÙĤØªØµ": 3855,
      "omet": 3856,
      "ĠØ¹ÙĤ": 3857,
      "Ġfield": 3858,
      "ĠØ§ÙĦÙĬ": 3859,
      "Ġtoward": 3860,
      "§ÙĦØ¸": 3861,
      "Ġtru": 3862,
      "âĢ¦": 3863,
      "iol": 3864,
      "Ġâ": 3865,
      "ĠØ§ÙĦØºØ°Ø§Ø¦ÙĬØ©": 3866,
      "ites": 3867,
      "ĠÙĦØ¯ÙĬÙĩ": 3868,
      "ooking": 3869,
      "verage": 3870,
      "rated": 3871,
      "Ø§Ø¦Ø¹": 3872,
      "Ġbr": 3873,
      "Ø¯ÙĬØ©": 3874,
      "22": 3875,
      "Ġleast": 3876,
      "Ġsent": 3877,
      "Ġfurther": 3878,
      "edi": 3879,
      "ges": 3880,
      "ĠØªØŃÙĦÙĬÙĦ": 3881,
      "Ġdetail": 3882,
      "ÙĦØ¨ÙĬØ©": 3883,
      "Ġassociated": 3884,
      "ĠØ¹ÙĦØ§Ø¬": 3885,
      "ĠØ§ÙĦÙĤØ§ÙĨÙĪÙĨ": 3886,
      "ÙĦØ¹Ø¨": 3887,
      "Ġhowever": 3888,
      "Ġmedical": 3889,
      "ĠØ§ÙĦØ³ÙĬØ§Ø³": 3890,
      "iction": 3891,
      "ery": 3892,
      "Ġwhether": 3893,
      "Ø§Ø¦ÙĦØ©": 3894,
      "°ÙĥØ±": 3895,
      "ĠØ§ÙĦØ«Ø§ÙĨÙĬØ©": 3896,
      "Ø·ÙĨ": 3897,
      "ĠÙĪØ±ÙĤ": 3898,
      "Ġsoil": 3899,
      "ĠÙĬÙĥÙ": 3900,
      "ĠØªØ³Ø§Ø¹Ø¯": 3901,
      "Ġstat": 3902,
      "ĠAm": 3903,
      "Ġsize": 3904,
      "acy": 3905,
      "Ø¨ÙħØ§": 3906,
      "Ġrate": 3907,
      "Ùª": 3908,
      "ĠØ§ÙĦÙħØ¯Ø±Ø³Ø©": 3909,
      "ĠØ§ÙĦØ®ÙĦØ§ÙĬØ§": 3910,
      "ĠØ§ÙĦØ¸": 3911,
      "ĠOne": 3912,
      "ĠÙĦØªÙ": 3913,
      "Ġpolic": 3914,
      "Ġsource": 3915,
      "Ġpersonal": 3916,
      "Ġgoing": 3917,
      "Ġweight": 3918,
      "ĨÙģØ³": 3919,
      "ĠÙĥÙħ": 3920,
      "ÙħÙĨØ©": 3921,
      "Ø§Ø¦Øµ": 3922,
      "ªÙĥÙĪÙĨ": 3923,
      "Ġrelated": 3924,
      "Ġlive": 3925,
      "Ø¸Ùĩ": 3926,
      "Ġ40": 3927,
      "Ġreason": 3928,
      "ĠÙĬÙĥÙĨ": 3929,
      "ĠØŃØ±": 3930,
      "Ġdiet": 3931,
      "Ġrecogn": 3932,
      "ĠØ§ÙĦØ¯ÙĪÙĦÙ": 3933,
      "Ġsays": 3934,
      "Ġ...": 3935,
      "utes": 3936,
      "ĠØ§ÙĦØ«ÙĤ": 3937,
      "ĠÙĤØ§ÙĨÙĪÙĨ": 3938,
      "Ġmillion": 3939,
      "yle": 3940,
      "most": 3941,
      "ĠÙĪÙĩÙĬ": 3942,
      "ĠÙħØ±ÙĥØ²": 3943,
      "Ġfund": 3944,
      "Ġhealthy": 3945,
      "Ġcontent": 3946,
      "ĠÙĦØ¯ÙĬÙĨØ§": 3947,
      "Ġut": 3948,
      "oman": 3949,
      "Ġpressure": 3950,
      "ĠØ¨Ø±ÙĨØ§ÙħØ¬": 3951,
      "ĠØµØŃÙĬØŃ": 3952,
      "ĠØ¹ÙĦØ§": 3953,
      "Ġaway": 3954,
      "ĠÙħÙĦÙ": 3955,
      "Ġcomplex": 3956,
      "ĠÙħØªØ¹": 3957,
      "Ġ2020": 3958,
      "ĠMan": 3959,
      "ĠØºØ§ÙĦØ¨Ø": 3960,
      "Ø±Ø§Ø¹Ø©": 3961,
      "ĠØºØ§ÙĦØ¨Ø§": 3962,
      "ĠÙĪØ±ÙĤØ©": 3963,
      "IS": 3964,
      "Ø£ÙĬ": 3965,
      "Ġwide": 3966,
      "Ġprovides": 3967,
      "ĠWorld": 3968,
      "ÙĪØ±ÙĬØ©": 3969,
      "ask": 3970,
      "ĬÙĪÙĨ": 3971,
      "ĠØ¬ÙĬ": 3972,
      "Ġfrequ": 3973,
      "ĠÙĬØ³ÙħØŃ": 3974,
      "ĠØ§ÙĦØ±ÙĤ": 3975,
      "Ġtradition": 3976,
      "ĠBrit": 3977,
      "Ġbig": 3978,
      "ĠÙĪØ§ÙĦØ°": 3979,
      "ĠØµÙĨ": 3980,
      "ok": 3981,
      "ÙģØ±Ø§Ø¯": 3982,
      "Ġservices": 3983,
      "Ġhouse": 3984,
      "ĠØ§ÙĦÙĪØŃ": 3985,
      "Ø±Ø·Ø§ÙĨ": 3986,
      "leep": 3987,
      "ÙĥÙĬÙĦ": 3988,
      "ĠØ¨ÙĬ": 3989,
      "Ġabs": 3990,
      "Ġarg": 3991,
      "www": 3992,
      "ĠØ§ÙĦØŃØ±Ø§Ø±Ø©": 3993,
      "ĠÙħÙĤØ§ÙĦØ§Øª": 3994,
      "Ø¹Ø¶": 3995,
      "Ø¬Ø±": 3996,
      "ĨÙĥ": 3997,
      "oura": 3998,
      "ott": 3999,
      "ªÙĪØ³Ø·": 4000,
      "ĠØ¥Ø´": 4001,
      "ĠØ³ÙĨÙĪØ§Øª": 4002,
      "Ġdeg": 4003,
      "ystem": 4004,
      "rams": 4005,
      "plic": 4006,
      "Ġenough": 4007,
      "Ġsingle": 4008,
      "ĠØ¬ÙħØ¹": 4009,
      "ĠØ¨Ø§ÙĦÙģ": 4010,
      "ØŃÙ": 4011,
      "ĠØ§ÙĦÙħØ±Ø¶Ùī": 4012,
      "Ġexperien": 4013,
      "ÙĦÙħÙĬÙĨ": 4014,
      "Ġwrite": 4015,
      "Ø®ÙĬØµ": 4016,
      "Ġx": 4017,
      "Ġbelow": 4018,
      "Ø¨ÙĪØ¹": 4019,
      "Ġur": 4020,
      "ÙĬÙĪÙĬØ©": 4021,
      "ĠØ§ÙĦÙĨØ¸Ø±": 4022,
      "side": 4023,
      "ĠÙĪØµÙģ": 4024,
      "selves": 4025,
      "nces": 4026,
      "Ġconsidered": 4027,
      "Ch": 4028,
      "ĠØ¬Ø²": 4029,
      "ĠÙĩØ§": 4030,
      "ustom": 4031,
      "ĠGen": 4032,
      "Ġsurface": 4033,
      "ĠØ§ÙĦÙħØ³ØªÙĤ": 4034,
      "ĠÙĦØ¹": 4035,
      "ØµØ§Ø¦Øµ": 4036,
      "ĠâĢ¬": 4037,
      "oose": 4038,
      "Ġassess": 4039,
      "Ġparticip": 4040,
      "Ġmass": 4041,
      "Ġbat": 4042,
      "pro": 4043,
      "ĠÙĬÙĨ": 4044,
      "Ġsimple": 4045,
      "Ġtot": 4046,
      "ety": 4047,
      "oph": 4048,
      "ĠØ¥Ø¶Ø§ÙģØ©": 4049,
      "ĠNe": 4050,
      "icial": 4051,
      "ĠØ§ÙĦØ¹Ø¸": 4052,
      "ĠÙĤØ§Ù": 4053,
      "ley": 4054,
      "ÙĦÙĪÙĦ": 4055,
      "ØªÙĬÙĨ": 4056,
      "Ġleft": 4057,
      "Ġphot": 4058,
      "ĠØªÙħØª": 4059,
      "Ġsoft": 4060,
      "§ÙĦØ§Ø¹": 4061,
      "When": 4062,
      "Ġhttps": 4063,
      "Ø¯Ø¡": 4064,
      "Ġbir": 4065,
      "ĠAb": 4066,
      "ĠØ§ÙĦØ·Ø¹Ø§Ùħ": 4067,
      "Ġreading": 4068,
      "Ġpay": 4069,
      "urs": 4070,
      "ĠÙĪØºÙĬØ±ÙĩØ§": 4071,
      "ĠØ§ÙĦØ·Ø¨ÙĬØ¹ÙĬØ©": 4072,
      "Wh": 4073,
      "ĠÙģØ¹": 4074,
      "ÙĦÙģØ©": 4075,
      "ÙĪØ¯Ø©": 4076,
      "Ġobserv": 4077,
      "chan": 4078,
      "ĪÙĩØ°Ø§": 4079,
      "Ġaccording": 4080,
      "ÙĪÙĩØ°Ø§": 4081,
      "Ġgroups": 4082,
      "Ġrecomm": 4083,
      "ĠÙĤØ§Ùħ": 4084,
      "onst": 4085,
      "Ġinit": 4086,
      "ĠØ§ÙĦÙĨØ´": 4087,
      "Ġlay": 4088,
      "ĠØ§ÙĦØ¹Ø§ÙĦÙħÙĬØ©": 4089,
      "ĠØ¯ÙĪØ±": 4090,
      "light": 4091,
      "Ø§Ø´Ø±Ø©": 4092,
      "Ġinteract": 4093,
      "ĠØ§ÙĦÙĩÙĪØ§Ø¡": 4094,
      "ĪÙĩ": 4095,
      "ĠØ§ÙĦØ§Ø¹": 4096,
      "Ġstructure": 4097,
      "anced": 4098,
      "Ġdom": 4099,
      "ÙĦÙĬØ§": 4100,
      "Ø¨ÙĬÙĪØªØ±": 4101,
      "Ø¨ÙĬØ¨": 4102,
      "ĠØŃØ": 4103,
      "ournal": 4104,
      "ĠCont": 4105,
      "Ġflu": 4106,
      "ustain": 4107,
      "Ġability": 4108,
      "ĠGerm": 4109,
      "ĠØ§Ø®ØªÙĬØ§Ø±": 4110,
      "Ġnever": 4111,
      "Ø±ÙĬØ¹": 4112,
      "Ġmaintain": 4113,
      "Ø§Ø¬Ø§Øª": 4114,
      "Ġprote": 4115,
      "Ø±ØªØ¨Ø·Ø©": 4116,
      "ule": 4117,
      "ilt": 4118,
      "ĠØ§ÙĥØªØ´": 4119,
      "ĨÙħÙĪØ°Ø¬": 4120,
      "Ø§ÙħØ©": 4121,
      "Ġmicro": 4122,
      "aim": 4123,
      "ĠAss": 4124,
      "ĠØ£Ø±Ø¨": 4125,
      "ĠIntern": 4126,
      "Ġapproach": 4127,
      "ĠØ®Ø§Ø±Ø¬": 4128,
      "ĠÙĪÙĩØ°Ø§": 4129,
      "acc": 4130,
      "ĠQu": 4131,
      "Ø·ÙĬ": 4132,
      "roll": 4133,
      "ĠÙħØ¹Ø±ÙģØ©": 4134,
      "ØªØ±Ø§ØªÙĬØ¬": 4135,
      "ĠØ¹Ø§ÙĦÙĬØ©": 4136,
      "Ġdeveloped": 4137,
      "ches": 4138,
      "ĠÙĦÙĦÙħ": 4139,
      "Ġmethods": 4140,
      "Ġensure": 4141,
      "alf": 4142,
      "ÙĪØ¨Ø©": 4143,
      "ÙĬØ§Ø±": 4144,
      "ĠØ§ÙĦØ±Ø¹Ø§ÙĬØ©": 4145,
      "ĠØ³ÙĨ": 4146,
      "hern": 4147,
      "Ġnature": 4148,
      "ĠÙĨÙģØ³Ùĩ": 4149,
      "Ø§Ø¯Ø": 4150,
      "Ġopportun": 4151,
      "ĠØ§ÙĦÙħÙĩÙħ": 4152,
      "ĠWar": 4153,
      "ĠØ®Ø§ØµØ©": 4154,
      "ÙĦÙĦÙĩ": 4155,
      "ĠMar": 4156,
      "Ġresearc": 4157,
      "epend": 4158,
      "ival": 4159,
      "ĠØ§ÙĦØ£Ø´Ø®Ø§Øµ": 4160,
      "Ġcondition": 4161,
      "Ġfri": 4162,
      "Ø±Ø¨ÙĪÙĨ": 4163,
      "ĠÙĨØ·Ø§ÙĤ": 4164,
      "Ġexerc": 4165,
      "ises": 4166,
      "ĠØ¯ÙĪÙĦ": 4167,
      "ĠØ§ÙĦØ´Ø¹": 4168,
      "ĠØ¬ÙĩØ§Ø²": 4169,
      "IN": 4170,
      "Ġdoc": 4171,
      "Ġglobal": 4172,
      "Ġcollect": 4173,
      "amin": 4174,
      "Ġreact": 4175,
      "ÙĦÙĪØ§": 4176,
      "ĠØ¹ÙĦÙĬÙĩ": 4177,
      "ĠØ§ÙĦØªØ¹ÙĦÙħ": 4178,
      "ney": 4179,
      "Ġwind": 4180,
      "elling": 4181,
      "Ġreview": 4182,
      "ĠØ·Ø¨ÙĬØ¹": 4183,
      "ĠØ¥Øµ": 4184,
      "²ÙĨ": 4185,
      "Ø§ØµØ±": 4186,
      "Ġreally": 4187,
      "ĠØ§ÙĦØ¹Ø¶": 4188,
      "Ġpopular": 4189,
      "ĠØ§Ø®ØªØ¨Ø§Ø±": 4190,
      "Ø§ÙĩØªÙħØ§Ùħ": 4191,
      "Ġ#": 4192,
      "ĠÙħÙĩÙħØ©": 4193,
      "Ġsociety": 4194,
      "istics": 4195,
      "Ġstates": 4196,
      "Ġmach": 4197,
      "Ġengine": 4198,
      "¤ÙĬØ©": 4199,
      "Ġground": 4200,
      "ĠØ§ÙĦÙħÙĪØ¬": 4201,
      "ÙĬÙĪØ±": 4202,
      "ounds": 4203,
      "ĠDo": 4204,
      "itud": 4205,
      "ĠØ§ÙĦØ§Ø¬ØªÙħØ§Ø¹ÙĬØ©": 4206,
      "ÙĬØ§Ø³": 4207,
      "ĠÙĬØ³Ø¨Ø¨": 4208,
      "sh": 4209,
      "ĠØªÙĤØ¯ÙĬÙħ": 4210,
      "li": 4211,
      "ħØ§Ø¡": 4212,
      "ĠØ¨ÙĦ": 4213,
      "ĠØ§ÙĦÙħØªÙ": 4214,
      "rad": 4215,
      "ĠØ§ÙĦØ¥Ø³": 4216,
      "Ġdog": 4217,
      "Ġskin": 4218,
      "ĠÙĦÙħØ¹": 4219,
      "ĠØ«ÙĦØ§Ø«Ø©": 4220,
      "For": 4221,
      "Ġavoid": 4222,
      "Ġdone": 4223,
      "ancial": 4224,
      "Ġincreased": 4225,
      "Ġcompany": 4226,
      "Ġbenefits": 4227,
      "Ġclimate": 4228,
      "Ġcut": 4229,
      "Ġnecessary": 4230,
      "Ġworkshe": 4231,
      "Ġcity": 4232,
      "Ġfall": 4233,
      "ĠCar": 4234,
      "ĠÙĬÙĤØ¯Ùħ": 4235,
      "23": 4236,
      "Ġeff": 4237,
      "Ġeconomic": 4238,
      "ĠÙħØ³ØªÙĪÙĬØ§Øª": 4239,
      "ĠÙĦÙħØ¯Ø©": 4240,
      "Ø±Ø§ÙĤØ¨Ø©": 4241,
      "ĠÙĪØ²": 4242,
      "ĠÙĪØ§ÙĦØ¯": 4243,
      "ĠÙĦÙĦØ´": 4244,
      "ĠØ§ÙĦÙĥÙĬÙħÙ": 4245,
      "ĠÙħØ¹Ø": 4246,
      "ĪÙģØ±": 4247,
      "Ġcomes": 4248,
      "ĠÙģÙĪÙĤ": 4249,
      "abet": 4250,
      "Ġhelps": 4251,
      "Ġred": 4252,
      "ÙĨÙĪØ§Ø¹": 4253,
      "ready": 4254,
      "ively": 4255,
      "ÙģÙĬÙģ": 4256,
      "Ġquick": 4257,
      "Ø±Ø§Ùĩ": 4258,
      "Ġmoney": 4259,
      "Ø¹ÙĦØ§Ù": 4260,
      "ands": 4261,
      "Ġrequired": 4262,
      ".)": 4263,
      "sequ": 4264,
      "reg": 4265,
      "Ġsal": 4266,
      "Ø¦ÙĦØ©": 4267,
      "ivil": 4268,
      "ĠÙħÙĤØ§Ø±ÙĨØ©": 4269,
      "Ġmodern": 4270,
      "ĠØ¨ØŃØ«": 4271,
      "________": 4272,
      "ĠØ§ÙĦØ£ØŃÙĬØ§ÙĨ": 4273,
      "ÙĩÙĪØ¯": 4274,
      "ĠÙĥØªØ¨": 4275,
      "ĠÙĪØµ": 4276,
      "ĠÙĬØ£": 4277,
      "§ÙĦÙĦÙĩ": 4278,
      "Ø¨Ø§Ø¡": 4279,
      "Ġtemperature": 4280,
      "ÙĥØ§ÙĦ": 4281,
      "Ġdrug": 4282,
      "ĠØªÙĪÙģØ±": 4283,
      "ĠØ§ÙĦÙĨØ¸": 4284,
      "Ġbehavior": 4285,
      "Ġparts": 4286,
      "based": 4287,
      "Ġvers": 4288,
      "Ġseen": 4289,
      "Ġevent": 4290,
      "ening": 4291,
      "icles": 4292,
      "ĨØª": 4293,
      "Ġoil": 4294,
      "Ġge": 4295,
      "rict": 4296,
      "ĠØ§Ø³Ù": 4297,
      "ÙħÙĤ": 4298,
      "ĠØ§ÙĦØ¥ÙĨØ¬ÙĦÙĬØ²ÙĬØ©": 4299,
      "Ġpositive": 4300,
      "Ġstudent": 4301,
      "lying": 4302,
      "Ġchalleng": 4303,
      "ĠÙĨØŃÙĨ": 4304,
      "ai": 4305,
      "ÙĨÙħÙĪØ°Ø¬": 4306,
      "ĠâĢ¦": 4307,
      "Ø¬ÙĬÙĦ": 4308,
      "Ġclose": 4309,
      "ĠÙĦÙĪ": 4310,
      "ĠØ§Ø³Ùħ": 4311,
      "Ġ21": 4312,
      "enn": 4313,
      "ĠØ§ÙĦØ¯ÙĪØ±": 4314,
      "Ġcreated": 4315,
      "ĠØŃÙĬØ§Øª": 4316,
      "ĠØ§ÙĦÙĦÙĩ": 4317,
      "ibr": 4318,
      "ĬÙĪØ¬Ø¯": 4319,
      "cient": 4320,
      "ÙĬÙĪØ¬Ø¯": 4321,
      "ĠÙĬÙĪØ¬Ø¯": 4322,
      "Ġbuilding": 4323,
      "ĠØ§ÙĦØ¥Ø´": 4324,
      "ĠØµØºÙĬØ±Ø©": 4325,
      "ĠÙĦØªÙĤ": 4326,
      "ĠÙĪÙĨØ": 4327,
      "Ã©": 4328,
      "Ø§Ø¬Ø¹Ø©": 4329,
      "ĠÙĬØŃØªÙĪÙĬ": 4330,
      "Ġpath": 4331,
      "Ġmeasure": 4332,
      "Ġfive": 4333,
      "reng": 4334,
      "bo": 4335,
      "ĠShe": 4336,
      "oles": 4337,
      "augh": 4338,
      "80": 4339,
      "Ġcomputer": 4340,
      "Ġjob": 4341,
      "ĠØ¨Ø§ÙĦÙĤ": 4342,
      "reme": 4343,
      "way": 4344,
      "ĠØ§ÙĦØ£Ùģ": 4345,
      "Ø¨Ø¯": 4346,
      "ĠØ§Ø±ØªÙģØ§Ø¹": 4347,
      "ections": 4348,
      "ĪÙħØ§": 4349,
      "Ġeither": 4350,
      "ĠGe": 4351,
      "ÙĤØ§Ø¡": 4352,
      "ump": 4353,
      "Ø®Ø©": 4354,
      "ĠØ§Ø³ØªÙ": 4355,
      "ĠÙĪÙĨ": 4356,
      "ume": 4357,
      "Ø§Ø¦Ø±": 4358,
      "Ġanimals": 4359,
      "Ġport": 4360,
      "Ġconcern": 4361,
      "Ġsubst": 4362,
      "Ġpsych": 4363,
      "ĠØ§ÙĦØ¬ÙĨØ³": 4364,
      "ĠAct": 4365,
      "ĠØ§ÙĦØ£Ø³ÙĨØ§ÙĨ": 4366,
      "Ġsun": 4367,
      "ĠÙħÙĪØ¬": 4368,
      "Ġcompon": 4369,
      "Ġrelig": 4370,
      "ħÙĦÙĬØ§Øª": 4371,
      "ĠÙĨÙħÙĪØ°Ø¬": 4372,
      "Ġ194": 4373,
      "ĠØ³Ø¨": 4374,
      "Ġremain": 4375,
      "Ø§ØŃØ«": 4376,
      "Ø§ØªØŃ": 4377,
      "ĠØ§ÙĦÙħÙĨØ·ÙĤØ©": 4378,
      "ĠØ§Ø«": 4379,
      "overed": 4380,
      "You": 4381,
      "ĠØªØ³Ø¨Ø¨": 4382,
      "ĠØ§ÙĦØ³ÙĥØ§ÙĨ": 4383,
      "Ø§Ø¨ÙĬØ©": 4384,
      "ublic": 4385,
      "ĠØªØ¹Ø±ÙĬÙģ": 4386,
      "Ġcoll": 4387,
      "ĠØ§ÙĦÙħÙĪØ³ÙĬÙĤ": 4388,
      "oll": 4389,
      "itation": 4390,
      "Ġwhite": 4391,
      "Ġmeet": 4392,
      "ued": 4393,
      "Ġfat": 4394,
      "ĠSoc": 4395,
      "Ġinteg": 4396,
      "Ø§ÙĦÙĬÙģ": 4397,
      "Ġwhole": 4398,
      "ĠØ§ÙĦÙħÙĨØ§Ø·ÙĤ": 4399,
      "pose": 4400,
      "ĠThat": 4401,
      "Ġmeaning": 4402,
      "24": 4403,
      "ĠØªØµÙħÙĬÙħ": 4404,
      "ĠØ§ÙĦØ°Ø§Øª": 4405,
      "ĠØ§ÙĦÙĨØ³Ø§Ø¡": 4406,
      "âĢ¬âĢ¬âĢ¬âĢ¬âĢ¬âĢ¬âĢ¬âĢ¬âĢ¬âĢ¬âĢ¬âĢ¬âĢ¬âĢ¬âĢ¬âĢ¬": 4407,
      "Ø®Ø°": 4408,
      "ĠØ§ÙĦØ¨Ø´Ø±ÙĬØ©": 4409,
      "Ġalready": 4410,
      "Ġste": 4411,
      "Ġhistor": 4412,
      "ĠØ§ÙĦØ¯ÙħØ§Øº": 4413,
      "ĠGu": 4414,
      "Ġindustry": 4415,
      "Ø§Ø·Ø±": 4416,
      "ĠÙĦÙĦØŃØµÙĪÙĦ": 4417,
      "ĠÙĪØ§ÙĦÙħØ¹": 4418,
      "Ġeasy": 4419,
      "ĠØ·ÙĪÙĬÙĦØ©": 4420,
      "Ġpattern": 4421,
      "To": 4422,
      "Ġincludes": 4423,
      "rast": 4424,
      "ÙĤÙħ": 4425,
      "Ġask": 4426,
      "ÙģØ§Ùĩ": 4427,
      "Ġvide": 4428,
      "§ÙĦÙĦ": 4429,
      "ÙĲ": 4430,
      "Ġliving": 4431,
      "ĠInt": 4432,
      "ĠØ£ÙĩÙħÙĬØ©": 4433,
      "Ġmor": 4434,
      "go": 4435,
      "Ø§Ø¨Ù": 4436,
      "ĠÙĪÙĦØ": 4437,
      "ÙħØ§ÙĦÙĬØ©": 4438,
      "ging": 4439,
      "Ø¬Ø±Ø©": 4440,
      "mber": 4441,
      "cies": 4442,
      "Ġcolor": 4443,
      "Ġprob": 4444,
      "ĠØ§ÙĦØŃØ³": 4445,
      "Ġnational": 4446,
      "ØŃØ«": 4447,
      "Ġconduct": 4448,
      "acks": 4449,
      "ĠØ§ÙĦÙħØ§Ø¯Ø©": 4450,
      "Ø®Ø": 4451,
      "ĠØªÙĤØ¯Ùħ": 4452,
      "Ġterms": 4453,
      "ĠSu": 4454,
      "Ġpolitical": 4455,
      "iation": 4456,
      "Ġtraining": 4457,
      "rapy": 4458,
      "Ġhold": 4459,
      "Ġrather": 4460,
      "ĠØ§ÙĦÙĦ": 4461,
      "Ġsite": 4462,
      "Ø³ØªÙ": 4463,
      "Ġadult": 4464,
      "ĠØªØ¶": 4465,
      "Al": 4466,
      "Ġemot": 4467,
      "Ġevidence": 4468,
      "onse": 4469,
      "Ġ23": 4470,
      "ze": 4471,
      "Ġactually": 4472,
      "ÙĪÙĦÙĬØ©": 4473,
      "ĠØ§ÙĦØ·Ø±ÙĬÙĤØ©": 4474,
      "ĠØ¬Ø¯": 4475,
      "Ġidea": 4476,
      "Ġcat": 4477,
      "ĠÙĪÙĦØ§": 4478,
      "ma": 4479,
      ",\"": 4480,
      "Ġweek": 4481,
      "Ġ2015": 4482,
      "ript": 4483,
      "gest": 4484,
      "Ġfail": 4485,
      "ĠÙĦÙĩØ°Ø§": 4486,
      "Ġidentify": 4487,
      "ĠØ§ÙĦØµØºÙĬØ±Ø©": 4488,
      "Ġculture": 4489,
      "erous": 4490,
      "Ġtar": 4491,
      "Ø¨Ø§Ø±": 4492,
      "Ø³Ø§": 4493,
      "olic": 4494,
      "Ġregard": 4495,
      "Ġchemical": 4496,
      "Ġvariety": 4497,
      "Ġdisord": 4498,
      "Ġblack": 4499,
      "ĠEm": 4500,
      "Ø·ÙģØ§ÙĦ": 4501,
      "Ġann": 4502,
      "ĠØ§ÙĦÙħÙĨØ§Ø®": 4503,
      "astic": 4504,
      "ĠØ´Ø¹": 4505,
      "Ġ2016": 4506,
      "ufact": 4507,
      "ĠØªØ¹ÙĦÙħ": 4508,
      "AN": 4509,
      "Ġ2017": 4510,
      "ĨÙħÙĬØ©": 4511,
      "ĠDis": 4512,
      "ĠÙĬÙĤÙĪÙĦ": 4513,
      "ĠÙĦØ¯Ùī": 4514,
      "Ġservice": 4515,
      "Ø¬Ø§Ø±": 4516,
      "Ø§ØµÙĬÙĦ": 4517,
      "Ġonce": 4518,
      "Ġsuper": 4519,
      "ĠCal": 4520,
      "ÙĬÙĨÙĬ": 4521,
      "Ġprint": 4522,
      "sp": 4523,
      "Ø§ÙģÙ": 4524,
      "Ġthroughout": 4525,
      "Ġfeed": 4526,
      "ÙĪÙĨØ§": 4527,
      "ĠØªØºÙĬØ±": 4528,
      "Ġcauses": 4529,
      "ĠØ§ÙĦÙħØª": 4530,
      "ores": 4531,
      "ĠØªØº": 4532,
      "ĠJohn": 4533,
      "Ø§Ø¨ÙĤØ©": 4534,
      "Ø·Ø·": 4535,
      "Ġdefin": 4536,
      "Ġbar": 4537,
      "ming": 4538,
      "ĠIndia": 4539,
      "Ġbecame": 4540,
      "Ġrev": 4541,
      "Ø°ÙĪØ±": 4542,
      "Ø¹Ø§Ø¯Ø©": 4543,
      "ĠAmerica": 4544,
      "Ġbal": 4545,
      "ĠØ®Ø·Ø±": 4546,
      "ows": 4547,
      "verse": 4548,
      "ĠSouth": 4549,
      "ĠÙĬØ¶": 4550,
      "Ġtaken": 4551,
      "Ġcannot": 4552,
      "ĠÙĦØº": 4553,
      "Ø¬Ø§ÙĦ": 4554,
      "Ġmembers": 4555,
      "ÙĪÙĪÙ": 4556,
      "eter": 4557,
      "ĠØ§ÙĦØ¨Ø·": 4558,
      "Ġ22": 4559,
      "Ġclean": 4560,
      "ÙĦØ§ÙĤØ©": 4561,
      "Ġneeded": 4562,
      "Ġdoct": 4563,
      "iddle": 4564,
      "Ġgreen": 4565,
      "Ġ2013": 4566,
      "ĠÙĥÙĦÙħØ©": 4567,
      "oon": 4568,
      "Ġcop": 4569,
      "lex": 4570,
      "Ġmedic": 4571,
      "ene": 4572,
      "arr": 4573,
      "Ġgas": 4574,
      "Ø§Ø¯ÙĦ": 4575,
      "Ġpage": 4576,
      "Ø§Ø¦Ùģ": 4577,
      "Ġ2018": 4578,
      "hib": 4579,
      "Ø¯Ø§Ø±Ø©": 4580,
      "ĠÙħØ³ØªÙĤ": 4581,
      "ĠØ§ÙĦÙĪØ³": 4582,
      "ĠÙĬØ¹ØªÙĤØ¯": 4583,
      "ĠØ§ÙĦØ°Ùĥ": 4584,
      "Ġarch": 4585,
      "ctions": 4586,
      "ÙĥÙĬØ¯": 4587,
      "Ġcustom": 4588,
      "Ø²Ø§Ø¡": 4589,
      "Ġheat": 4590,
      "ĠApp": 4591,
      "ĠÙĬØ¹ÙħÙĦ": 4592,
      "Ġemer": 4593,
      "mon": 4594,
      "Ġ2014": 4595,
      "do": 4596,
      "ront": 4597,
      "ÙĪÙħØ§Øª": 4598,
      "vere": 4599,
      "Ø§Ø¯Ø±Ø©": 4600,
      "ĠØªÙĤÙĬÙĬÙħ": 4601,
      "ĠØ§ÙĦØ¨ÙĬØ¶": 4602,
      "Ø§ÙģÙĬ": 4603,
      "erve": 4604,
      "ĠÙħÙĤØ§ÙĦØ©": 4605,
      "Ø¯Ø§ÙĬØ©": 4606,
      "ography": 4607,
      "Ġtotal": 4608,
      "ÙĩØ§Øª": 4609,
      "ĠØµØ¹": 4610,
      "Ġfish": 4611,
      "Ġwritten": 4612,
      "ĠØªÙĨØ§ÙĪÙĦ": 4613,
      "ĠØ§ÙĦØªÙģÙĥÙĬØ±": 4614,
      "ÙĦØªØ¨": 4615,
      "Ġregular": 4616,
      "like": 4617,
      "Ġ2011": 4618,
      "Ġanaly": 4619,
      "ĠDes": 4620,
      "ĠØªÙĪÙģÙĬØ±": 4621,
      "ÙĥÙĬØ²": 4622,
      "Ġproduce": 4623,
      "load": 4624,
      "istance": 4625,
      "ĠMe": 4626,
      "ÙĨÙĬÙģ": 4627,
      "Ġ:": 4628,
      "ĠØªØŃØ³ÙĬÙĨ": 4629,
      "Ġenvironmental": 4630,
      "ules": 4631,
      "Ġ196": 4632,
      "ĠØ§ÙĦØ¨ÙĬØ¦": 4633,
      "ªØ§": 4634,
      "ĠRep": 4635,
      "Ø±Ø´": 4636,
      "val": 4637,
      "ronic": 4638,
      "ender": 4639,
      "ĠÙħØ·": 4640,
      "ĠÙĦØ§Ø³": 4641,
      "Ø·Ùī": 4642,
      "eb": 4643,
      "Ġrights": 4644,
      "Ġincreasing": 4645,
      "Ġ2019": 4646,
      "aily": 4647,
      "ĠØ¥ÙĦ": 4648,
      "ĠØ¨Ø§ÙĦØªØ": 4649,
      "Ø®Ø§": 4650,
      "ĠMay": 4651,
      "Ġsepar": 4652,
      "duc": 4653,
      "ÙĨØµ": 4654,
      "IC": 4655,
      "Ġmental": 4656,
      "Ġcru": 4657,
      "AC": 4658,
      "Ġce": 4659,
      "ĠÙĬØ²Ø§ÙĦ": 4660,
      "ĠØ¬Ø¯ÙĬØ¯": 4661,
      "ON": 4662,
      "Ġla": 4663,
      "Ġstreng": 4664,
      "ĠØ¬ÙĨØ¨": 4665,
      "ĠÙĦØªØ¹": 4666,
      "rown": 4667,
      "ĠØ§ÙĦÙħÙħÙ": 4668,
      "ĠÙĦÙĦÙĥ": 4669,
      "ÙģÙĬØ©": 4670,
      "Ġshows": 4671,
      "het": 4672,
      "ĠÙħØ¹Ø§": 4673,
      "ext": 4674,
      "illed": 4675,
      "Ġsleep": 4676,
      "Ø§Ø±Ø¹": 4677,
      "Ø¯ÙĬÙĤØ©": 4678,
      "lor": 4679,
      "ĪÙħÙĨ": 4680,
      "igure": 4681,
      "21": 4682,
      "Ġprop": 4683,
      "ĠØ§ÙĦØŃØ¯ÙĬØ«": 4684,
      "ĠØ³ÙĬØªÙħ": 4685,
      "ØªÙĪØ¨": 4686,
      "ÙĩÙĪÙĦØ©": 4687,
      "ĠDr": 4688,
      "ĬØ§Ø¦ÙĬØ©": 4689,
      "Ġlab": 4690,
      "Ġentire": 4691,
      "ĠAust": 4692,
      "gar": 4693,
      "Ġfamil": 4694,
      "Ø§ØªØ®": 4695,
      "hing": 4696,
      "Ġetc": 4697,
      "Ø§Ø¦ØŃ": 4698,
      "Ġmechan": 4699,
      "ĠÙĬØªØ¹ÙĦÙĤ": 4700,
      "Ġaction": 4701,
      "Ġlove": 4702,
      "§ÙĦØªØ¨": 4703,
      "Ġmusic": 4704,
      "Ġfinancial": 4705,
      "ĠØ¯ÙĦÙĬÙĦ": 4706,
      "Ġsources": 4707,
      "Ġcarbon": 4708,
      "Ø±Ø²": 4709,
      "Ø³ÙĨ": 4710,
      "Ġselect": 4711,
      "ensive": 4712,
      "ĠOf": 4713,
      "aced": 4714,
      "ĠØ§ÙĦÙħØ´ØªØ±": 4715,
      "ĠII": 4716,
      "Ġtaking": 4717,
      "ĠØ§ÙĦØ¢Ø®Ø±ÙĬÙĨ": 4718,
      "ĠÙĪØ´": 4719,
      "Ġideas": 4720,
      "Ġperformance": 4721,
      "iment": 4722,
      "Ġ2012": 4723,
      "ØªÙħÙĦ": 4724,
      "ĠWhile": 4725,
      "ÙĨÙĪ": 4726,
      "ĠÙĦØ§ØŃ": 4727,
      "aged": 4728,
      "ights": 4729,
      "ply": 4730,
      "Ġhab": 4731,
      "Ø²ÙĬÙĨ": 4732,
      "Ġsafe": 4733,
      "Ġthemselves": 4734,
      "Ø§Ø¨Ø¹": 4735,
      "Ġ2010": 4736,
      "ĠØ§ÙĦØªØ¨": 4737,
      "ĠØ§ÙĦØ¶ÙĪØ¡": 4738,
      "Ġbreak": 4739,
      "Ø¯ÙĪÙĦ": 4740,
      "ĠØŃÙĬØ§Ø©": 4741,
      "ÙĬØ·Ø±Ø©": 4742,
      "Ġcheck": 4743,
      "ĠØ§ÙĦØ«Ø§ÙĨÙĬ": 4744,
      "Ġthought": 4745,
      "Ġmonths": 4746,
      "ĠØŃØ¬Ùħ": 4747,
      "aff": 4748,
      "ÙĪÙħÙĨ": 4749,
      "Ġsat": 4750,
      "ĠØ¥Ø¶": 4751,
      "ccording": 4752,
      "ħØ¨ÙĬÙĪØªØ±": 4753,
      "Ġupon": 4754,
      "inter": 4755,
      "ĠØ§ÙĦÙħÙĨØ²ÙĦ": 4756,
      "Ġdest": 4757,
      "ĠCo": 4758,
      "Ø³ÙĬØ©": 4759,
      "ĠØ¯ÙĪÙĦØ§Ø±": 4760,
      "Ġbasic": 4761,
      "ĠHist": 4762,
      "Ġelectric": 4763,
      "pid": 4764,
      "Ġdiagn": 4765,
      "¦Ø©": 4766,
      "ĠØ§ÙĦØ¹ÙĦÙħ": 4767,
      "ĠØ®Ø§Øµ": 4768,
      "Ġdesigned": 4769,
      "ªØ¨Ø¹": 4770,
      "ĠØ§ÙĦÙĥÙĦÙħØ§Øª": 4771,
      "ĠØ§ÙĦÙĨØªØ§Ø¦Ø¬": 4772,
      "ĠØ§ÙĦÙģÙĤ": 4773,
      "Ġsense": 4774,
      "iques": 4775,
      "ĠØ´Ø±ÙĥØ©": 4776,
      "ĠNorth": 4777,
      "Ġpriv": 4778,
      "ÙĪØ§Ø¬": 4779,
      "§ÙħØ": 4780,
      "ĠÙĤÙĦÙĬÙĦ": 4781,
      "³Ø§ÙĨ": 4782,
      "ĠØ¨Ø³Ø±Ø¹Ø©": 4783,
      "Ġcritical": 4784,
      "Ġsex": 4785,
      "ĠÙĦÙħØ³": 4786,
      "rand": 4787,
      "place": 4788,
      "Ġdeb": 4789,
      "ĠEarth": 4790,
      "ÙĬØ±ÙĪØ³": 4791,
      "hold": 4792,
      "ÙħØ§ÙĦÙĬ": 4793,
      "ÙĬØ§Ø±Ø§Øª": 4794,
      "ĠØªØŃØªÙĪÙĬ": 4795,
      "ØªØ±Ø§": 4796,
      "wor": 4797,
      "Ø´Ø¨": 4798,
      "ĠÙĪÙħÙĨ": 4799,
      "ĠØ£Øº": 4800,
      "ĠØ§ÙĦØ·Ø±ÙĤ": 4801,
      "Ġ60": 4802,
      "ĠØ·Ùģ": 4803,
      "Ġlives": 4804,
      "âĢ¢": 4805,
      "Ġposition": 4806,
      "Ġhyd": 4807,
      "ĠØ§Ø³ØªØ®Ø¯Ø§ÙħÙĩØ§": 4808,
      "ese": 4809,
      "Ø¯ÙĪØ±": 4810,
      "Ġlink": 4811,
      "ĠØ§ÙĦÙģØµÙĦ": 4812,
      "ties": 4813,
      "ĠPre": 4814,
      "Ġparents": 4815,
      "uel": 4816,
      "ĠØ¯Ø§Ø¦": 4817,
      "Ġunique": 4818,
      "ĠØ§ÙĦØŃØ§ÙĦØ§Øª": 4819,
      "inary": 4820,
      "ĠØ¯Ø¹": 4821,
      "ĠÙĨØ¸Ø±": 4822,
      "ĠÙħØ´Ø§ÙĥÙĦ": 4823,
      "Ġmedia": 4824,
      "Ġpublished": 4825,
      "Ġexplain": 4826,
      "Ø³ÙĬØ±": 4827,
      "Ġreturn": 4828,
      "OR": 4829,
      "ĠÙĪØ§ÙĦØº": 4830,
      "ĠØ³ÙĦØ³ÙĦØ©": 4831,
      "Ġwebs": 4832,
      "ength": 4833,
      "ĠØ·ÙĪÙĦ": 4834,
      "ĠØ§ÙĦÙĤØµ": 4835,
      "ĠØ§Øª": 4836,
      "Ġsustain": 4837,
      "Ġcaused": 4838,
      "ĠØ¥Ø²Ø§ÙĦØ©": 4839,
      "ÙĪØ§Ø¶": 4840,
      "Ġlif": 4841,
      "Ġshown": 4842,
      "ulations": 4843,
      "apan": 4844,
      "ĠØ¨ÙĤ": 4845,
      "ĠÙĨØªØ§Ø¦Ø¬": 4846,
      "urch": 4847,
      "ÙĦØ·Ø©": 4848,
      "ĠØ§ÙĦØ¨ÙĬØ¦Ø©": 4849,
      "Ø±Ø¨ÙĬØ©": 4850,
      "Ġregion": 4851,
      "ÙģØ§Ø¶": 4852,
      "Ġrespect": 4853,
      "ĠResearch": 4854,
      "ĠYour": 4855,
      "Ġcompet": 4856,
      "ĠÙħÙĪØ¶ÙĪØ¹": 4857,
      "Ø¹Øª": 4858,
      "ĠÙĦÙĦÙģ": 4859,
      "itary": 4860,
      "Ġfru": 4861,
      "ĠØ§ÙĦØ±Ø¦ÙĬØ³Ù": 4862,
      "ĠØ§ÙĦØ±Ø¦ÙĬØ³ÙĬ": 4863,
      "ĠÙĦØ£ÙĨÙĩ": 4864,
      "Ġuses": 4865,
      "ÙĦØ¯ÙĪ": 4866,
      "ĠÙĪÙĥØ": 4867,
      "Ġstandard": 4868,
      "vant": 4869,
      "ĠØ§ÙĦÙĥØ±Ø¨ÙĪÙĨ": 4870,
      "Ø±ÙĬÙĨ": 4871,
      "Ø´Ø±Ø§Øª": 4872,
      "Ġhttp": 4873,
      "Ġprevious": 4874,
      "ÙĨØ²": 4875,
      "ĠÙĬØ¹Ø§ÙĨÙĪÙĨ": 4876,
      "ÙĬÙĨØº": 4877,
      "Ġeth": 4878,
      "Ø¦Ùĥ": 4879,
      "ĠØ§ÙĦØŃÙĥÙĪÙħØ©": 4880,
      "ĠØªØ²": 4881,
      "aling": 4882,
      "Ġresponse": 4883,
      "Ġconsist": 4884,
      "ĠØ¬ÙĬØ¯Ø©": 4885,
      "Ġtools": 4886,
      "ĠÙħÙħØ": 4887,
      "ÙĬÙĪÙĦÙĪØ¬": 4888,
      "rior": 4889,
      "ĠØ§ÙĦÙĤÙĦØ¨": 4890,
      "Ġox": 4891,
      "®ÙģØ¶Ø©": 4892,
      "Ġresearchers": 4893,
      "olar": 4894,
      "ÙĦØ§ÙħØ©": 4895,
      "ĠÙĪØ§Ø¶": 4896,
      "ĠØ§ÙĦÙħÙĦÙĥ": 4897,
      "iency": 4898,
      "ĠØ§ÙĦØªØ§ÙĦÙĬØ©": 4899,
      "Ø§Ø¨ÙĦØ©": 4900,
      "Ġcompan": 4901,
      "Ġpie": 4902,
      "Ġfem": 4903,
      "uted": 4904,
      "Ġeval": 4905,
      "ĠØ¯ÙĬ": 4906,
      "90": 4907,
      "Ġsuff": 4908,
      "Ġdistrib": 4909,
      "Ġever": 4910,
      "ĠØ§ÙĦÙĤØ¯ÙĬÙħØ©": 4911,
      "Ġoffer": 4912,
      "Ġ27": 4913,
      "VID": 4914,
      "ØºÙĬØ±": 4915,
      "ober": 4916,
      "ĠPe": 4917,
      "ĠÙĪÙģÙ": 4918,
      "ĠÙħØ¹ÙĦÙĪÙħØ§Øª": 4919,
      "ĠÙĥØ§ÙĨÙĪØ§": 4920,
      "§ÙĪÙĨ": 4921,
      "Ġstop": 4922,
      "Ġhours": 4923,
      "Ø¹Ø§Ø±": 4924,
      "Ġmanufact": 4925,
      "Ġallows": 4926,
      "ØŃØ§Øª": 4927,
      "Ø¶Ù": 4928,
      "ĠÙĨØ¹": 4929,
      "Ø¹Ø§ÙĦ": 4930,
      "Ø¸Ø©": 4931,
      "asc": 4932,
      "Ø§ØŃÙĬØ©": 4933,
      "ĠØªÙĨØ¸": 4934,
      "ĠScience": 4935,
      "Ġimplement": 4936,
      "ĠØ§ÙĦØ´Ø±": 4937,
      "ĠÙĦÙĦØªØ¹": 4938,
      "ĠØ§ÙĦØ«ÙĦØ§Ø«": 4939,
      "Ġharm": 4940,
      "Ġevents": 4941,
      "27": 4942,
      "mar": 4943,
      "ils": 4944,
      "ĠØ¬Ø§ÙĨØ¨": 4945,
      "vey": 4946,
      "ĠØ¥ÙĨØ¬": 4947,
      "Ġ28": 4948,
      "ĠMore": 4949,
      "ĠÙĦÙĥÙĨ": 4950,
      "ĠØ§ÙĦØªÙĩØ§Ø¨": 4951,
      "Ġarr": 4952,
      "Ø±ÙĬÙĥ": 4953,
      "Ġdifference": 4954,
      "ĠØ§ÙĦØªØ±Ø¨Ø©": 4955,
      "Ġcontact": 4956,
      "ened": 4957,
      "Ġaspect": 4958,
      "Ġprovided": 4959,
      "Ġmatter": 4960,
      "Ġanswer": 4961,
      "ura": 4962,
      "ĠÙĪØ§ÙĦØªØŃ": 4963,
      "ĠÙħØ¨Ø§Ø´Ø±Ø©": 4964,
      "ED": 4965,
      "ĠÙħÙĦØ§ØŃØ¸": 4966,
      "ĠÙĦÙĬØ³Øª": 4967,
      "Ġprimary": 4968,
      "Ġemb": 4969,
      "Ġ26": 4970,
      "ĠØ§ÙĦØ¥Øµ": 4971,
      "ĠÙĪØ§ÙĦØ«": 4972,
      "ĠÙĪÙģÙĬ": 4973,
      "ÙĪØ§Ùģ": 4974,
      "Ġspread": 4975,
      "ĠAfter": 4976,
      "§ÙĦØ¯ÙĪ": 4977,
      "Ġsafety": 4978,
      "Ġtell": 4979,
      "ĠÙĨØªÙĬØ¬Ø©": 4980,
      "rel": 4981,
      "amb": 4982,
      "artment": 4983,
      "fully": 4984,
      "ĠØ§ÙĦØ¹ÙħÙĦÙĬØ©": 4985,
      "uck": 4986,
      "Ġap": 4987,
      "ĠÙĦÙĦÙħØ³": 4988,
      "ĠÙĨØµ": 4989,
      "EN": 4990,
      "ĠÙĬØª": 4991,
      "ĠØ§ÙĦØ³Ø¨Ø¨": 4992,
      "ÙĦØ±ÙĪ": 4993,
      "ĠØ±ÙĪ": 4994,
      "Ø¹ÙĬ": 4995,
      "Ġenh": 4996,
      "ĠØ§ÙĦØ£ÙĨÙĪØ§Ø¹": 4997,
      "ĠØ§ÙĦÙĥÙħØ¨ÙĬÙĪØªØ±": 4998,
      "Ġbacter": 4999,
      "ĠØ§ÙĦØ£Ø¹ÙħØ§ÙĦ": 5000,
      "aches": 5001,
      "ĠÙĪÙĬØ¹": 5002,
      "fect": 5003,
      "ĠØ§ÙĦÙħØ¹Ø±ÙĪÙģ": 5004,
      "ÙħÙĪØ§": 5005,
      "ħØ¯Ùī": 5006,
      "Ġtheory": 5007,
      "room": 5008,
      "ÙħÙĨØ§": 5009,
      "ĠØ§ÙĦØ¯ÙĪ": 5010,
      "Ġdeep": 5011,
      "Ġlog": 5012,
      "ĠØ¥ÙĦØ": 5013,
      "Ġ2000": 5014,
      "ĠØ¥ÙĦØ§": 5015,
      "itor": 5016,
      "ĠÃ": 5017,
      "ĠÙĦØªØŃØ¯ÙĬØ¯": 5018,
      "ĠÙĬÙħÙĥÙĨÙĨØ§": 5019,
      "ÙĪØ§Øª": 5020,
      "ÙĥØªÙĪØ±": 5021,
      "ĪÙħÙĬØ©": 5022,
      "Ġdraw": 5023,
      "ÙħÙħ": 5024,
      "§ÙĦØ±ÙĪ": 5025,
      "hood": 5026,
      "rial": 5027,
      "Ġalmost": 5028,
      "Ġface": 5029,
      "Ø±ÙĪØ±ÙĬ": 5030,
      "ĬÙĥØ": 5031,
      "33": 5032,
      "ĠØ§ÙĦÙħØ§": 5033,
      "abetes": 5034,
      "ĠØ§Ø¶Ø·Ø±": 5035,
      "ĠØ§ÙĦØŃÙĤÙĬÙĤ": 5036,
      "ÙĥØ«Ø±": 5037,
      "ĠÙħØŃØ": 5038,
      "ÙĪÙĨØ©": 5039,
      "ners": 5040,
      "Ġdamage": 5041,
      "Ø³ÙĬÙħ": 5042,
      "Ø¨Ùĩ": 5043,
      "cell": 5044,
      "irm": 5045,
      "Ġeat": 5046,
      "yp": 5047,
      "eration": 5048,
      "Ġitself": 5049,
      "Ġattention": 5050,
      "Ġmultiple": 5051,
      "ĠØ§ÙĦØ¬Ø²Ø¡": 5052,
      "Ġrecent": 5053,
      "ĠComp": 5054,
      "ĠÙĤÙĬÙħØ©": 5055,
      "Ġcommunication": 5056,
      "ĠØ¶ØºØ·": 5057,
      "Ġyet": 5058,
      "ĪØ§Ø¦Ø¯": 5059,
      "ĠÙĬØ¹Ø±Ùģ": 5060,
      "ĠØ¨Ø§Ø±": 5061,
      "Ø±Ø§ÙħØ¬": 5062,
      "Ø§Ø¦Ø¯Ø©": 5063,
      "ĠØ§ÙĦØ±ÙĪ": 5064,
      "ĠÙĤÙĬØ§Ø³": 5065,
      "ĠØªØŃÙĤÙĬÙĤ": 5066,
      "ĠÙħØ´Ø±ÙĪØ¹": 5067,
      "ĠNo": 5068,
      "Ġexamples": 5069,
      "ÙĦØ§ÙĤØ§Øª": 5070,
      "Ġbooks": 5071,
      "Ġcorrect": 5072,
      "ÙĦØ§ØªØµØ§ÙĦ": 5073,
      "26": 5074,
      "lease": 5075,
      "ĠØ§ÙĦØ£ÙĤÙĦ": 5076,
      "Ġhalf": 5077,
      "Ġlonger": 5078,
      "hens": 5079,
      "Ġvirus": 5080,
      "ĠØ§ÙĦÙģÙĬØ¯": 5081,
      "Ġinj": 5082,
      "ĠÙĬØ·": 5083,
      "ĠØ§ÙĦÙĪØ·ÙĨÙĬØ©": 5084,
      "Ø±Ø³Ø": 5085,
      "aving": 5086,
      "ĠPer": 5087,
      "iam": 5088,
      "ada": 5089,
      "Ø±ÙĤØ": 5090,
      "Ġrefer": 5091,
      "Ġthing": 5092,
      "ĠØ£ÙĨØ§": 5093,
      "atives": 5094,
      "ĠDep": 5095,
      "Ġpoll": 5096,
      "ĠØ§ÙĦÙĤØ¶": 5097,
      "ĠØ§ÙĦØ§Ø¬ØªÙħØ§Ø¹ÙĬ": 5098,
      "Ġtravel": 5099,
      "Ø§Ø¨Ø·": 5100,
      "Ġshare": 5101,
      "ĠØ§ÙĦØ¬ÙĩØ§Ø²": 5102,
      "ĠØ§ÙĦÙĥØªØ§Ø¨Ø©": 5103,
      "Ġforms": 5104,
      "Ġissue": 5105,
      "Ġkids": 5106,
      "ÙħÙĪÙĬØ©": 5107,
      "§ÙĨØ¯": 5108,
      "ricult": 5109,
      "ĨØ´": 5110,
      "ØµØ": 5111,
      "ĠÙģØ¥ÙĨÙĩ": 5112,
      "Ġexpress": 5113,
      "ĠUs": 5114,
      "ĠTra": 5115,
      "ĠØªØ¹Ø±Ùģ": 5116,
      "estern": 5117,
      "minist": 5118,
      "Ø§ÙĪÙĨ": 5119,
      "Ġnegative": 5120,
      "Ġgain": 5121,
      "Ø¨ÙĪØ¨": 5122,
      "ĠØŃØ±Ø§Ø±Ø©": 5123,
      "Ø±Ø£": 5124,
      "Ġaverage": 5125,
      "§ÙĨÙĤ": 5126,
      "ĠØªØŃØ¯Ø«": 5127,
      "Ġfire": 5128,
      "nov": 5129,
      "§ÙĪÙĦØ©": 5130,
      "Ġrelative": 5131,
      "ĠØ¥Ø¬": 5132,
      "ĠÙĦÙĦØµ": 5133,
      "Ġclaim": 5134,
      "ana": 5135,
      "ster": 5136,
      "Ġmagn": 5137,
      "ĠÙħØ¯ÙĬÙĨØ©": 5138,
      "empt": 5139,
      "ĠĠ": 5140,
      "Ġprec": 5141,
      "ĠØ§ÙĦÙĨÙĩ": 5142,
      "Ġbring": 5143,
      "Ø§Ø³ÙĬ": 5144,
      "Ġfarm": 5145,
      "Ġbur": 5146,
      "lation": 5147,
      "ĠØ§ÙĦÙħÙĪØ¶ÙĪØ¹": 5148,
      "apter": 5149,
      "Ġfoods": 5150,
      "Ġnetwork": 5151,
      "ĠÙĤÙĪØ©": 5152,
      "rim": 5153,
      "new": 5154,
      "ĠÙħÙĦÙĬÙĪÙĨ": 5155,
      "ĨÙĪØ¹": 5156,
      "ÙĦÙĪØ«": 5157,
      "Ġconcent": 5158,
      "ĠPar": 5159,
      "28": 5160,
      "Ġquant": 5161,
      "Ġachieve": 5162,
      "ĠSchool": 5163,
      "ĠÙĬØªØŃ": 5164,
      "ĠÙĦØªØŃÙĤÙĬÙĤ": 5165,
      "Ġvalues": 5166,
      "ĠØ¨Ø§ÙĦÙģØ¹ÙĦ": 5167,
      "bol": 5168,
      "Ġnumbers": 5169,
      "Ø§Ø¬Ø¹": 5170,
      "29": 5171,
      "ÙĪØ´": 5172,
      "Ø§ØªØ¬Ø§Ùĩ": 5173,
      "Ø´Ø±Ø©": 5174,
      "PA": 5175,
      "ĬÙĪ": 5176,
      "ĠØ£Ø¬ÙĩØ²Ø©": 5177,
      "ĠØ§ÙĦØ«Ø§": 5178,
      "Ø§Ø¯Ø¦": 5179,
      "ĠØ¹ÙĦÙĬÙĥ": 5180,
      "ĠLear": 5181,
      "Ġaud": 5182,
      "Ġcame": 5183,
      "ØªØ´Ùģ": 5184,
      "Ġnormal": 5185,
      "isions": 5186,
      "ĠÙĦÙĦØ§Ø³": 5187,
      "Ġelements": 5188,
      "ÙĦÙĬØ¨": 5189,
      "Ġorigin": 5190,
      "Ø±Ø§Ø¶ÙĬ": 5191,
      "aries": 5192,
      "ĠØ§ÙĦÙħÙĤØ§ÙĦØ©": 5193,
      "ĠÙĪØªØ³": 5194,
      "ĠØ§ÙĦØ¯Ø§Ø®": 5195,
      "Ø¹Ø¯": 5196,
      "Ġsoftware": 5197,
      "dom": 5198,
      "Ġlat": 5199,
      "na": 5200,
      "Ġexc": 5201,
      "rench": 5202,
      "ÙģØ§Øª": 5203,
      "erson": 5204,
      "35": 5205,
      "ĠÙĨØ¬": 5206,
      "ucle": 5207,
      "ĠÙĤØ§Ø¦ÙħØ©": 5208,
      "Ġencoura": 5209,
      "ground": 5210,
      "ĠÙĦÙĦØ¥": 5211,
      "Ġfeatures": 5212,
      "know": 5213,
      "§ÙĦØ§ØªØµØ§ÙĦ": 5214,
      "Ġminim": 5215,
      "Ġsecurity": 5216,
      "Ġsix": 5217,
      "Ġsurv": 5218,
      "ĠÙĥØ±": 5219,
      "Ġacid": 5220,
      "ĠØ§ÙĦÙħØ´Ø§ÙĥÙĦ": 5221,
      "ĠÙħÙĩÙħ": 5222,
      "ĠÙĪØª": 5223,
      "ĠState": 5224,
      "umb": 5225,
      "Ġviol": 5226,
      "ÙĤØ§Øª": 5227,
      "Ġtraditional": 5228,
      "Ġpatient": 5229,
      "ĠØ§ÙĦØ§ØªØµØ§ÙĦ": 5230,
      "ino": 5231,
      "pri": 5232,
      "ÙĦÙĬÙģ": 5233,
      "ĠØ§ÙĦÙĤØ¯Ø±Ø©": 5234,
      "Ġgreater": 5235,
      "ĠÙĤØµØ©": 5236,
      "ĠØ§ÙĦÙħØªØ¹": 5237,
      "ĠØ§ÙĦØŃÙĬÙĪÙĬØ©": 5238,
      "imately": 5239,
      "Ġaim": 5240,
      "ĠØ§ÙĦÙħÙĪØ§Ø±Ø¯": 5241,
      "¸Ùģ": 5242,
      "ĠCOVID": 5243,
      "ĠÙĬØªÙ": 5244,
      "ĠØ§ÙĦÙĨÙĪÙĪÙ": 5245,
      "Ġvacc": 5246,
      "ÙĨÙĥ": 5247,
      "ĠØ§ÙĦØ¨Ø¹Ø¶": 5248,
      "Ġaccept": 5249,
      "ĪØ§Ø¹Ø¯": 5250,
      "ĠØªØ´ÙĬØ±": 5251,
      "Ġtechniques": 5252,
      "Ø±Ø³Ø§": 5253,
      "ĠØ§Ø«ÙĨÙĬÙĨ": 5254,
      "Ø¯ÙĪÙī": 5255,
      "ĠÙĩØ": 5256,
      "ĠSch": 5257,
      "ogle": 5258,
      "Ġtax": 5259,
      "Ġdetermine": 5260,
      "ĠØ§ÙĦØ¬Ø§ÙĨØ¨": 5261,
      "ØºÙ": 5262,
      "Ġtrue": 5263,
      "Ġprograms": 5264,
      "ister": 5265,
      "Ġaware": 5266,
      "ĨØ¬": 5267,
      "Ġmovement": 5268,
      "ĠEduc": 5269,
      "IT": 5270,
      "ĠÙħÙĨÙĩØ§": 5271,
      "ĠÙĨØ¨": 5272,
      "Ø§Ø¹ÙĦ": 5273,
      "ched": 5274,
      "Ġgenerally": 5275,
      "Ġguid": 5276,
      "Ġvit": 5277,
      "ÙħØ³Ø©": 5278,
      "®ÙģØ§Ø¶": 5279,
      "ĠÙĨÙĤØ·Ø©": 5280,
      "ØªÙħÙĦØ©": 5281,
      "ĠÙĨÙĤÙĦ": 5282,
      "Ġsimply": 5283,
      "ÙĦÙĬÙħÙĬØ©": 5284,
      "ĠØ±Ø¨ÙħØ§": 5285,
      "Ġheav": 5286,
      "Ġschools": 5287,
      "ĠÙħØ´ÙĥÙĦØ©": 5288,
      "ĠØªÙĤÙĦÙĬÙĦ": 5289,
      "ĨÙĩ": 5290,
      "mb": 5291,
      "Ġec": 5292,
      "Ġdeveloping": 5293,
      "Ġdaily": 5294,
      "Ġpict": 5295,
      "Ġdecre": 5296,
      "ĠSec": 5297,
      "ÙĬØŃØ©": 5298,
      "Ġdemonst": 5299,
      "osing": 5300,
      "ĬÙĥØ§": 5301,
      "Ø±ÙĬØ§Øª": 5302,
      "ĠÙĪØ¯": 5303,
      "Ø§ØŃÙĦ": 5304,
      "ĠØ¨Ø§ÙĦÙĥ": 5305,
      "sis": 5306,
      "my": 5307,
      "ension": 5308,
      "ĬÙĥÙĬØ©": 5309,
      "Ġsomet": 5310,
      "Ġpan": 5311,
      "ÙĪÙħØ§": 5312,
      "ĠØªØª": 5313,
      "ĨÙĪÙĬØ©": 5314,
      "ĠØ§ÙĦØ´Ø®ØµÙĬØ©": 5315,
      "ĠØ§ÙĦÙħØ¹Ø": 5316,
      "Ġlooking": 5317,
      "Ġir": 5318,
      "Ġpoints": 5319,
      "ĠÙĦÙĦØ£Ø·ÙģØ§ÙĦ": 5320,
      "Ġlack": 5321,
      "Ġappropri": 5322,
      "ÙģØªÙĪØ": 5323,
      "Ø§ØªØ®Ø§Ø°": 5324,
      "ħÙĦÙĥØ©": 5325,
      "Ġthreat": 5326,
      "ĠØ§ÙĦÙĤØ±": 5327,
      "Ø±ÙĤØ§": 5328,
      "ÙĦÙħÙĬØ©": 5329,
      "Ġdiseases": 5330,
      "ĠØ¨ÙĬÙĨÙħØ§": 5331,
      "Ġinvestig": 5332,
      "ĠØ¥Ø³": 5333,
      "ºÙĨ": 5334,
      "Ø³ÙĪÙĨ": 5335,
      "ĠØ¬ÙĨÙĪØ¨": 5336,
      "Ġteachers": 5337,
      "Ġimage": 5338,
      "Ġimportance": 5339,
      "ĠØ§ÙĦØªÙĥÙĨÙĪÙĦÙĪØ¬ÙĬØ§": 5340,
      "ĠØ§ÙĦÙħØ¯Ø§Ø±Ø³": 5341,
      "ĠØªØ¹ÙĦÙĬÙħ": 5342,
      "Ġ2009": 5343,
      "Ġessays": 5344,
      "ĠØªØ¤Ø«Ø±": 5345,
      "Ġled": 5346,
      "ĠØ¨ÙĥØ«ÙĬØ±": 5347,
      "ĠÙĤØ¶": 5348,
      "Ġpurpose": 5349,
      "Ġprep": 5350,
      "ĠØ§ÙĦÙħØ±Ø¬": 5351,
      "ĠØ³ÙĪØ§Ø¡": 5352,
      "Ġinvolved": 5353,
      "arily": 5354,
      "Ø§ØŃØ§Øª": 5355,
      "ĠInc": 5356,
      "Ġappl": 5357,
      "Ġparticularly": 5358,
      "Ġ2021": 5359,
      "Ġearth": 5360,
      "ĠJapan": 5361,
      "asons": 5362,
      "ĠØ§ÙĦØŃØ§ÙĦÙĬ": 5363,
      "Ġextreme": 5364,
      "ÙĥÙħØ©": 5365,
      "Ø¶Ø¹": 5366,
      "Ġindepend": 5367,
      "ades": 5368,
      "ĠBritish": 5369,
      "ĠÙĬØªØ¹": 5370,
      "ĠÙĥÙħÙĬØ©": 5371,
      "Ġgrowing": 5372,
      "ban": 5373,
      "joy": 5374,
      "Ġsomeone": 5375,
      "Ġbill": 5376,
      "ĠÙħØµØ¯Ø±": 5377,
      "199": 5378,
      "Ġdoing": 5379,
      "Ø§ÙĦØº": 5380,
      "Ġcover": 5381,
      "70": 5382,
      "ĠÙĤØ±Ø§Ø¡Ø©": 5383,
      "ĬÙĦÙĬ": 5384,
      "ÙĨØ´Ø·Ø©": 5385,
      "ĠÙħÙĨØ²": 5386,
      "§ÙĨØ§Øª": 5387,
      "Ġtowards": 5388,
      "Ġwild": 5389,
      "ÙĩÙĪÙĨ": 5390,
      "ĠØ§ÙĦÙħØ¬ÙħÙĪØ¹Ø©": 5391,
      "ħØ±Ø§ÙĤØ¨Ø©": 5392,
      "Ġsmo": 5393,
      "Ġdigital": 5394,
      "Ġcompared": 5395,
      "Ø¯ÙĨÙĬ": 5396,
      "ĠAc": 5397,
      "ĠØ£ÙħØ±ÙĬÙĥØ§": 5398,
      "Ġbelieve": 5399,
      "ĠChina": 5400,
      "ÙħØ¯Ùī": 5401,
      "ĠÙĪØ¶": 5402,
      "Ø·ÙĦØŃ": 5403,
      "Ġwood": 5404,
      "Ġremov": 5405,
      "Ø±ÙĬØ¨Ø§": 5406,
      "uk": 5407,
      "Ġveget": 5408,
      "ĠØ§ÙĦØ£Ø®ÙĬØ±Ø©": 5409,
      "Ġextra": 5410,
      "Ġvideo": 5411,
      "ĠRead": 5412,
      "Ġapplications": 5413,
      "Ġseries": 5414,
      "ÙĤÙĬ": 5415,
      "ĠÙħØ¯Ùī": 5416,
      "Ġprocesses": 5417,
      "ĠØ§ÙĦØªØ¬Ø§Ø±ÙĬØ©": 5418,
      "Ġtakes": 5419,
      "ĠØªÙĨÙģÙĬØ°": 5420,
      "ĠØ·Ø±ÙĤ": 5421,
      "ĠØŃØ¯ÙĪØ«": 5422,
      "ĠArt": 5423,
      "ĠØŃÙĦ": 5424,
      "ØªÙĥØ´": 5425,
      "ØªØ®Ø¯ÙħØ©": 5426,
      "Ġ2008": 5427,
      "ĠØ³Ø§": 5428,
      "Ġaltern": 5429,
      "ĠØ§ÙĦØ«Ø§ÙĦØ«": 5430,
      "Ġgetting": 5431,
      "ĠØ§ÙĦÙħØ§ÙĦ": 5432,
      "Ġeasily": 5433,
      "78": 5434,
      "Ø§Ø²ÙĨ": 5435,
      "ĠØ§ÙĦØ·ÙģÙĦ": 5436,
      "ĠØ§ÙĦÙĥØ¨ÙĬØ±Ø©": 5437,
      "ĠÙĥÙĨ": 5438,
      "ĠØ§ÙĦØ®Ø§Ø±Ø¬": 5439,
      "ÙĬÙĦØ©": 5440,
      "term": 5441,
      "ØµØ±": 5442,
      "Ø¬Ø¹": 5443,
      "Ġwaste": 5444,
      "Ø§Ø¤": 5445,
      "ÙģØ§Ø¡Ø©": 5446,
      "Ġslow": 5447,
      "Ġaff": 5448,
      "Ġreflect": 5449,
      "lection": 5450,
      "ĠÙĪÙħØ§": 5451,
      "Ġbegan": 5452,
      "Ø§Ø·Ø©": 5453,
      "ÙĦØ§Øµ": 5454,
      "ĠØ§ÙĦØŃØ§ÙĦØ©": 5455,
      "ST": 5456,
      "ÙĦØ§ØªØŃ": 5457,
      "oes": 5458,
      "ĠÙĪØ£Ù": 5459,
      "Ġanimal": 5460,
      "Ġadvant": 5461,
      "ĠÙħÙĬÙĦ": 5462,
      "ĠØ§ÙĦÙħØ§Ø¶ÙĬ": 5463,
      "Ġprofessional": 5464,
      "Ġoverall": 5465,
      "Ġsometimes": 5466,
      "Ġproced": 5467,
      "ªØ¯Ø§": 5468,
      "ĠHis": 5469,
      "ament": 5470,
      "ĠØ§ÙĦØµÙĪØ±Ø©": 5471,
      "Ġbab": 5472,
      "ĠMin": 5473,
      "ĠÙĪÙĦØ§ÙĬØ©": 5474,
      "ĠØªØ¹Ø²ÙĬØ²": 5475,
      "Ġapplication": 5476,
      "ĠØ¨ØŃÙĬØ«": 5477,
      "Ġ--": 5478,
      "Ġcra": 5479,
      "ĠØ´Ø±": 5480,
      "ĠØ§ÙĦØ¯Ø±Ø§Ø³Ø§Øª": 5481,
      "§ÙĦØ§ØªØŃ": 5482,
      "ĠØ¨Ø¨": 5483,
      "ĠÙĥØ§Ø±": 5484,
      "ĠHere": 5485,
      "ÙĬØ±Ø§Ù": 5486,
      "ror": 5487,
      "Ġtook": 5488,
      "ĠØ§ÙĦØªØ·Ø¨ÙĬÙĤ": 5489,
      "ĠØ§ÙĦØ·Ø¨ÙĬØ©": 5490,
      "ĠÙĨÙģØ³ÙĩØ§": 5491,
      "ĠAg": 5492,
      "ĠØ§ÙĦØªÙĪØ§ØµÙĦ": 5493,
      "rs": 5494,
      "ĠØŃØ¯Ø«": 5495,
      "apers": 5496,
      "36": 5497,
      "ÙĬØ³Ù": 5498,
      "ÙĬØ³Ø©": 5499,
      "ĪØ±Ùĥ": 5500,
      "Ġproduced": 5501,
      "Ġleading": 5502,
      "ĠCons": 5503,
      "Ġtopic": 5504,
      "ĠØ§ÙĦØ¬Ø±": 5505,
      "Ġsection": 5506,
      "ĠØ§ÙĦØ¬ÙĦØ¯": 5507,
      "Ġsound": 5508,
      "ÙĪÙĩ": 5509,
      "aly": 5510,
      "ĠÙĪØªØ´": 5511,
      "Ġcompanies": 5512,
      "Ġbuilt": 5513,
      "ħÙĦÙĬ": 5514,
      "Ø¸ÙĩØ±Øª": 5515,
      "ĠØ£ÙĪÙĦØ§": 5516,
      "ony": 5517,
      "ĠØ§ÙĦÙħØ±ØŃÙĦØ©": 5518,
      "ÙĪØ¬ÙĬÙĩ": 5519,
      "ĠØ³Ø·ØŃ": 5520,
      "Ġsqu": 5521,
      "ĠÙĬØŃØªØ§Ø¬": 5522,
      "isms": 5523,
      "Ġobtain": 5524,
      "Ø±ØªÙģ": 5525,
      "lands": 5526,
      "ĠØ§ÙĦØ§ØªØŃ": 5527,
      "ĠØ·ÙĦØ¨": 5528,
      "Ġtypically": 5529,
      "ĠØ§ÙĦØ£Øº": 5530,
      "45": 5531,
      "Ø§Ø¬ØªÙħ": 5532,
      "play": 5533,
      "ĠKing": 5534,
      "Ġfram": 5535,
      "Ùł": 5536,
      "ĠØ§ÙĦØ£ÙħØ±ÙĬÙĥÙĬ": 5537,
      "ĠØ§ÙĦØ¬Ø²": 5538,
      "Ġteaching": 5539,
      "ĠÙĪØ§ÙĦØ°Ù": 5540,
      "Ø§ÙĦÙħØ": 5541,
      "ĠÙħÙĩØ§Ø±Ø§Øª": 5542,
      "Ġincluded": 5543,
      "ĠYork": 5544,
      "ĠØ¹Ø§ÙĦÙħ": 5545,
      "Ġinfluence": 5546,
      "ĠÙĪØ§ÙĦØ°ÙĬ": 5547,
      "Ġforce": 5548,
      "itude": 5549,
      "hel": 5550,
      "ØªÙħØ±Ø§Ø±": 5551,
      "ĠÙĦÙĬ": 5552,
      "Ġreported": 5553,
      "ĠØ§ÙĦØµÙģØŃØ©": 5554,
      "hol": 5555,
      "Ġinfection": 5556,
      "Ġoriginal": 5557,
      "Ġinternational": 5558,
      "ĠEss": 5559,
      "ĪØ¹Ù": 5560,
      "ØªÙĬØ¨": 5561,
      "ĬØ§Ø±Ø©": 5562,
      "Ġmess": 5563,
      "ĨÙĤÙĦ": 5564,
      "ĪØ¹ÙĬ": 5565,
      "ÙĤØ§Ø¦ÙĤ": 5566,
      "ĠØ§ÙĦØ¨ØŃØ±": 5567,
      "ĠÙĨØŃÙĪ": 5568,
      "ÙĦØ¹Ø§Ø¨": 5569,
      "ĠGl": 5570,
      "ĠØ¶Ø¹": 5571,
      "Ġdevices": 5572,
      "Ġful": 5573,
      "ĠØ¨Ø§ÙĦØ¹": 5574,
      "wh": 5575,
      "ancy": 5576,
      "Ġcalcul": 5577,
      "ĠÙħØ¬ØªÙħØ¹": 5578,
      "ari": 5579,
      "ĠAustral": 5580,
      "att": 5581,
      "ĠØ§ÙĦØ¨Ø§ØŃØ«": 5582,
      "Ġsil": 5583,
      "ĠØ§ÙĦÙħØŃÙĬØ·": 5584,
      "ech": 5585,
      "Ġsearch": 5586,
      "Ø§Ø¯ÙĬÙħÙ": 5587,
      "ªÙħÙĬ": 5588,
      "ÙģØ²": 5589,
      "book": 5590,
      "ĠÙĬØ´ÙĬØ±": 5591,
      "Ġthinking": 5592,
      "Ġsupply": 5593,
      "ÙĦÙĦÙĪÙĨ": 5594,
      "ÙĬØ±Ø§ÙĨ": 5595,
      "ĠPart": 5596,
      "Ø±ÙĤØ§Ù": 5597,
      "ologies": 5598,
      "ĠÙĦÙĦØ®": 5599,
      "ĠØ§ÙĦÙħØ³ØªØ®Ø¯ÙħØ©": 5600,
      "ift": 5601,
      "eed": 5602,
      "right": 5603,
      "Ġgard": 5604,
      "amed": 5605,
      "ĠÎ": 5606,
      "ĠØ§ÙĦØºØ§Ø²": 5607,
      "ĠØ§ÙĦÙĥÙĨ": 5608,
      "Ġsolar": 5609,
      "Ġutil": 5610,
      "ĠØ§ÙĦÙħØ°": 5611,
      "ÙĦØŃØ©": 5612,
      "Ġcrucial": 5613,
      "Ġcoun": 5614,
      "ĠØ§ÙĦØ¬Ø¯ÙĬØ¯": 5615,
      "Ġdiv": 5616,
      "Ġprotein": 5617,
      "Ġtree": 5618,
      "ription": 5619,
      "ĠÙħØ¹Ø¯ÙĦ": 5620,
      "Ø±ÙĪÙĥ": 5621,
      "ĠØ§ÙĦÙĨÙĪÙħ": 5622,
      "Ø±ÙĤØ§Ùħ": 5623,
      "Ġcultural": 5624,
      "Ø¯Ø§Ø«": 5625,
      "ĠØ´Ùĩ": 5626,
      "Ġdocument": 5627,
      "ĠÙĤØ¯Ùħ": 5628,
      "ĠMany": 5629,
      "ĠÙĥØ«ÙĬØ±": 5630,
      "ÙĬÙģÙĬØ©": 5631,
      "leb": 5632,
      "Ġsolution": 5633,
      "ha": 5634,
      "ĠØ§ÙĦØªØ±ÙĥÙĬØ²": 5635,
      "Ġprogress": 5636,
      "Ġcontinue": 5637,
      "Ġexercise": 5638,
      "Ø§Ø¯Ø§": 5639,
      "ĨÙĪØ¹Ø©": 5640,
      "fort": 5641,
      "istry": 5642,
      "ÙĨØº": 5643,
      "care": 5644,
      "ĠÙħÙħÙ": 5645,
      "ĠØ§ÙĦØ¥ÙĨØ³Ø§ÙĨ": 5646,
      "ĠÙħØ¹ÙĬÙĨØ©": 5647,
      "Ġleaders": 5648,
      "iot": 5649,
      "uth": 5650,
      "ĠØ§ÙĦØºØ°Ø§Ø¦ÙĬ": 5651,
      "Ġdry": 5652,
      "Ġstay": 5653,
      "ÙĬØªØ±": 5654,
      "Ø®Ø§ÙĦ": 5655,
      "ĠÙħÙĨØªØ": 5656,
      "AL": 5657,
      "ĠØ§ÙĦØ´Ø": 5658,
      "ØªÙĪÙĨ": 5659,
      "oly": 5660,
      "Ġoutside": 5661,
      "rought": 5662,
      "EM": 5663,
      "Ġprior": 5664,
      "itable": 5665,
      "issions": 5666,
      "ĬÙĥÙ": 5667,
      "ĠEd": 5668,
      "ĠØ«ÙĤ": 5669,
      "Ġ29": 5670,
      "izes": 5671,
      "ĠØ§ÙĦØ£Ø¨": 5672,
      "Ġcivil": 5673,
      "ederal": 5674,
      "ĠØ´Ø¨ÙĥØ©": 5675,
      "ĠØ¯Ø±Ø§Ø³": 5676,
      "ĠÙħØ¬ÙħÙĪØ¹Ø§Øª": 5677,
      "ØªØ¦": 5678,
      "Ġserious": 5679,
      "ĠØ£Ø´ÙĥØ§ÙĦ": 5680,
      "Ġcontains": 5681,
      "Ġtur": 5682,
      "39": 5683,
      "ĠØ§ÙĦØ£ÙħØ±Ø§Ø¶": 5684,
      "ĠÙģØ¶": 5685,
      "Ø§Ø³Ø©": 5686,
      "ĠØ¥ÙħÙĥ": 5687,
      "ls": 5688,
      "Ġclin": 5689,
      "Ġdou": 5690,
      "Ġreve": 5691,
      "Ġrout": 5692,
      "ĠÙħØª": 5693,
      "Ex": 5694,
      "Ġrequires": 5695,
      "Ġpoor": 5696,
      "ĠÙħØ«Ø": 5697,
      "Ġseem": 5698,
      "Ġinstit": 5699,
      "Ġgrade": 5700,
      "ipment": 5701,
      "ĬÙĬÙĨ": 5702,
      "ĠØ§ÙĦÙĪØ·ÙĨÙĬ": 5703,
      "ĠØ§ÙĦØ®Ø·Ù": 5704,
      "ĠÙħØ«Ø§": 5705,
      "iter": 5706,
      "ĠØ§ÙĦÙħØ´Ø§Ø±Ùĥ": 5707,
      "ĠØ§ÙĦØµÙĪØ±": 5708,
      "ding": 5709,
      "EC": 5710,
      "Ġworksheets": 5711,
      "ĠØŃÙħØ§ÙĬØ©": 5712,
      "ÙħÙĬÙĤ": 5713,
      "ÙĦÙĤØ©": 5714,
      "38": 5715,
      "ĠØ§ÙĦØ®Ø¶": 5716,
      "Ġuseful": 5717,
      "Ġinside": 5718,
      "Ġgame": 5719,
      "Ġcard": 5720,
      "Ġcontext": 5721,
      "ÙĦØ¨Ù": 5722,
      "Ġquickly": 5723,
      "ĠØ§ÙĦØ·Ø¨ÙĬØ¹Ù": 5724,
      "ĠØ§ÙĦØ·Ø¨ÙĬØ¹ÙĬ": 5725,
      "ĠØ¬ÙĪÙĨ": 5726,
      "ØªÙĬØ§Ø¬Ø§Øª": 5727,
      "Ġcit": 5728,
      "Ġpolicy": 5729,
      "ĠØ¥Ø¹Ø¯Ø§Ø¯": 5730,
      "Ġhighly": 5731,
      "ĠØ§ÙĦØŃØ": 5732,
      "Ġtiss": 5733,
      "ĠØ§ÙĦØŃÙħØ¶": 5734,
      "Ġenjoy": 5735,
      "itch": 5736,
      "Ġcapt": 5737,
      "Ġ80": 5738,
      "izations": 5739,
      "Ġcreating": 5740,
      "ÙĥØ§Øª": 5741,
      "ĠØªØ´ÙĥÙĬÙĦ": 5742,
      "Ġtransport": 5743,
      "ĠØ§ÙĥØªØ´Ø§Ùģ": 5744,
      "ĠIS": 5745,
      "Ġadditional": 5746,
      "ĠÙħØ«Ø§ÙĦ": 5747,
      "Ġhumans": 5748,
      "Ġang": 5749,
      "ulate": 5750,
      "Ø±ÙĬØ¨Ø©": 5751,
      "Ø±ÙĬÙĦ": 5752,
      "ĠØ§ÙĦØ¨Ø´Ø±": 5753,
      "Is": 5754,
      "ĠÙĥØ§Ùģ": 5755,
      "ÙħØ«ÙĦØ©": 5756,
      "ĠØ§ÙĦØ´Ø±ÙĥØ§Øª": 5757,
      "ĪÙĬØ³": 5758,
      "Ġdang": 5759,
      "ÙĦØ§Ø¡": 5760,
      "ĠØ£ÙĨÙĥ": 5761,
      "ĠØ£Ø¸ÙĩØ±Øª": 5762,
      "ilos": 5763,
      "§ÙĦØ§Øµ": 5764,
      "Ġtarget": 5765,
      "ĠØ±ÙĤÙħ": 5766,
      "Ø§Ø±Ø": 5767,
      "ÙĦÙĬØ¯ÙĬØ©": 5768,
      "Ġadapt": 5769,
      "ervation": 5770,
      "ĠØ¬Ø³": 5771,
      "Ġcommit": 5772,
      "ĠMy": 5773,
      "ĠÙĪØ§ÙĦØ": 5774,
      "che": 5775,
      "Ø§ÙĦÙĬØ¨": 5776,
      "ĠØ§ÙĦÙĥÙĩØ±Ø¨Ø§Ø¦ÙĬØ©": 5777,
      "Ġnight": 5778,
      "Ġtherefore": 5779,
      "Ø±ÙĪØ¨Ø": 5780,
      "formation": 5781,
      "Ġcross": 5782,
      "ĠTechn": 5783,
      "ØµØ§": 5784,
      "tery": 5785,
      "Ġ2007": 5786,
      "ĠÙģÙĤØ¯Ø§ÙĨ": 5787,
      "Ġstarted": 5788,
      "ĠÙħØ±ØŃÙĦØ©": 5789,
      "Ø±ÙĪØ¨Ø§": 5790,
      "Ø§Ø¯ÙĨ": 5791,
      "ĠØ£Ø¯Ùī": 5792,
      "ªÙĤØ": 5793,
      "ĠÙĬØµÙĦ": 5794,
      "ĠØ§ÙĦÙĨØ¬": 5795,
      "ĠØ§ÙĦØ£ÙģØ±Ø§Ø¯": 5796,
      "ªÙĤØ§": 5797,
      "ĠInstit": 5798,
      "ĠReg": 5799,
      "ĠØ§ÙĦØ§Øµ": 5800,
      "Ø¨Ø±Ø©": 5801,
      "ĠWill": 5802,
      "Ġdoesn": 5803,
      "vention": 5804,
      "ying": 5805,
      "ĠÙĬØ¬Ø¹ÙĦ": 5806,
      "Ġscientific": 5807,
      "ĠØ§ÙĦØŃØ§ÙĦÙĬØ©": 5808,
      "ĠØªØ±ÙĬØ¯": 5809,
      "ĠØªØ¬Ø±Ø¨Ø©": 5810,
      "ĠØ§ÙĦØ¨ÙĦØ§Ø¯": 5811,
      "Ġguide": 5812,
      "Ø¯ÙĬÙĨ": 5813,
      "ĠÙĪØ§Ø³Ø¹": 5814,
      "ĠØ£Ø±Ø¨Ø¹Ø©": 5815,
      "rogen": 5816,
      "Ġpractices": 5817,
      "Ġweb": 5818,
      "orpor": 5819,
      "°ÙĩØ¨": 5820,
      "ØªÙĥØ´Ø§Ùģ": 5821,
      "ªÙĩÙħ": 5822,
      "Ġlength": 5823,
      "ĨÙħØ·": 5824,
      "Ġproviding": 5825,
      "bre": 5826,
      "ĠØŃÙĤÙĪÙĤ": 5827,
      "ÙħØ§ÙħØ§": 5828,
      "ĠØ§ÙĦÙħØ´Ø§Ø±ÙĥØ©": 5829,
      "Ø§ÙĨØ§Øª": 5830,
      "Ø§Ø±ÙĬØ¹": 5831,
      "Ġmath": 5832,
      "ÙĨÙħÙĪ": 5833,
      "Ġvisit": 5834,
      "Ġattempt": 5835,
      "ĠØ¥ÙĨÙĩ": 5836,
      "Ġstra": 5837,
      "ĪÙĬØªÙħ": 5838,
      "ÙĪÙĬØªÙħ": 5839,
      "Ġmother": 5840,
      "avor": 5841,
      "ÙĩÙĪÙħ": 5842,
      "oud": 5843,
      "Ġfa": 5844,
      "Ġspeak": 5845,
      "ĠØ§ÙĦÙĪØ²ÙĨ": 5846,
      "ider": 5847,
      "inks": 5848,
      "Ġpack": 5849,
      "Ø§ÙĦØŃ": 5850,
      "ĠØ§Ø¨": 5851,
      "ĠPres": 5852,
      "ĠÙĪÙĬØªÙħ": 5853,
      "rig": 5854,
      "Ø±ÙĪØ¬": 5855,
      "Ø·ÙĬØ·": 5856,
      "Ġspeed": 5857,
      "ĠØ§ÙĦÙĨÙħÙĪØ°Ø¬": 5858,
      "Ø±ÙĤÙĬØ©": 5859,
      "Ø§Ø¨Ø§": 5860,
      "Ġadj": 5861,
      "ĠØ§ÙĦØ¨ØŃØ±ÙĬØ©": 5862,
      "AM": 5863,
      "ºÙĬØ±Ø§Øª": 5864,
      "ĠÙĤØ·Ø¹": 5865,
      "ĠØ§ÙĦÙĤØ±Ø§Ø¡Ø©": 5866,
      "ĠØ§ÙĦØ¥ÙĦÙĥØªØ±ÙĪÙĨÙ": 5867,
      "ĠØ§ÙĦØ¥ÙĦÙĥØªØ±ÙĪÙĨÙĬ": 5868,
      "ĠKe": 5869,
      "DF": 5870,
      "Ġchoose": 5871,
      "One": 5872,
      "ĠØ§ÙĦÙħØŃÙĦÙĬØ©": 5873,
      "uge": 5874,
      "ĩÙĨØ¯": 5875,
      "Ø§Ø·Ø¹Ø©": 5876,
      "Ġwall": 5877,
      "PS": 5878,
      "ĠØ§ÙĦØ¯Ø±Ø§Ø³ÙĬØ©": 5879,
      "Ġdecision": 5880,
      "Ġcamp": 5881,
      "ĠÙħÙħØ§Ø±Ø³Ø©": 5882,
      "ĠNot": 5883,
      "ĠFrom": 5884,
      "ĠØ£Ø¯ÙĪØ§Øª": 5885,
      "ĠÙħØªØ¹Ø¯Ø¯Ø©": 5886,
      "ĠØ§ÙĦÙħÙģØ±": 5887,
      "ĠØ§ÙĦÙħÙĨØªØ¬Ø§Øª": 5888,
      "ĠØ§ÙĨØ¸Ø±": 5889,
      "Ġacad": 5890,
      "ET": 5891,
      "Ġlate": 5892,
      "Ġforest": 5893,
      "ellig": 5894,
      "Ġmole": 5895,
      "ĠÙĨÙħÙĪ": 5896,
      "ĠØ¹ÙĦØ§ÙħØ©": 5897,
      "Ø¯Ø±Ø§Øª": 5898,
      "ĠÙĪØ§Ø³Ø¹Ø©": 5899,
      "Ġdirectly": 5900,
      "Ġ195": 5901,
      "irit": 5902,
      "Ġscientists": 5903,
      "].": 5904,
      "ÙĪÙĦØ§Øª": 5905,
      "ĬØ±ÙĬØ§": 5906,
      "Ġfast": 5907,
      "ĠØ§Ø³ØªØ®Ø¯Ùħ": 5908,
      "ned": 5909,
      "Ġwarm": 5910,
      "ĠØ¹Ø¯Ø©": 5911,
      "ellow": 5912,
      "ĠAI": 5913,
      "Ø±ØªØ¨Ø·": 5914,
      "anks": 5915,
      "Ġfit": 5916,
      "vert": 5917,
      "come": 5918,
      "ief": 5919,
      "ĠØ§ÙĦÙĨÙħÙĪ": 5920,
      "osure": 5921,
      "Ġcentral": 5922,
      "ĠÙĦØ§ØŃÙĤ": 5923,
      "§ÙĨÙģ": 5924,
      "Ġwebsite": 5925,
      "back": 5926,
      "Ø¨ÙĬØ¯": 5927,
      "ĪØ³": 5928,
      "ĠØ¨Ø§ÙĦ": 5929,
      "ªÙĦØ©": 5930,
      "ĠSm": 5931,
      "itis": 5932,
      "Ġactive": 5933,
      "Ġthird": 5934,
      "Ġep": 5935,
      "ĪØ§Ø·": 5936,
      "Ġautom": 5937,
      "ogen": 5938,
      "Ġtable": 5939,
      "Ġassign": 5940,
      "ÙĬÙĦÙ": 5941,
      "Ġsevere": 5942,
      "ĠØªÙĤØ±ÙĬØ±": 5943,
      "Ġadded": 5944,
      "Ø§Ø²ÙħØ©": 5945,
      "ØªÙĩÙĦØ§Ùĥ": 5946,
      "ĪØ§Ø²ÙĨ": 5947,
      "ĨÙĬÙĪÙ": 5948,
      "ØºØ±": 5949,
      "ÙĦØ¨Ø©": 5950,
      "Ø§Ø¶ÙĬØ©": 5951,
      "ĠÙĪØªØ·": 5952,
      "inct": 5953,
      "Ġdiabetes": 5954,
      "ĨÙī": 5955,
      "ĠØ¯Ø¹Ùħ": 5956,
      "Ġtit": 5957,
      "ĠØ§ÙĦÙĤØ§Ø¦ÙħØ©": 5958,
      "ĠÙĪØ®Ø§ØµØ©": 5959,
      "Ø§ÙĨØ¯": 5960,
      "Ġbroad": 5961,
      "ªØ®": 5962,
      "ÙĩØ°Ùĩ": 5963,
      "ĠÙĨØµÙģ": 5964,
      "ĠÙħØ±Ø§Ø¬Ø¹Ø©": 5965,
      "ĠÙĤØ§Ø¹Ø¯Ø©": 5966,
      "Ġago": 5967,
      "Ġfoot": 5968,
      "ached": 5969,
      "Ġleaves": 5970,
      "ords": 5971,
      "Ø±Ø¬Ø§Øª": 5972,
      "ÙĬØ§ÙĦ": 5973,
      "ĠØ§ÙĦØªØ§ÙĦÙĬ": 5974,
      "Ġtri": 5975,
      "ØŃØ¨": 5976,
      "ica": 5977,
      "ĠØ§ÙĦÙħØªØ¹ÙĦÙĤ": 5978,
      "ØªØ¨Ø§Ø±Ø§Øª": 5979,
      "ÙĨÙħØ·": 5980,
      "rehens": 5981,
      "Ġchallenges": 5982,
      "ĠØ¨Ø³ÙĩÙĪÙĦØ©": 5983,
      "Ġblock": 5984,
      "ĠÙĦÙĦØªÙ": 5985,
      "Ġinterp": 5986,
      "Ġestim": 5987,
      "equ": 5988,
      "Ġinstead": 5989,
      "75": 5990,
      "Ġcommunities": 5991,
      "Ġofficial": 5992,
      "ĠØ¥ÙĬØ¬": 5993,
      "ĠÙĦÙĩÙħ": 5994,
      "ĠØ£Ø®Ø°": 5995,
      "ĠØ¹ÙĦØ§ÙħØ§Øª": 5996,
      "ÙģØ§ÙĤ": 5997,
      "Ġthus": 5998,
      "ĠØŃØ±ÙĥØ©": 5999,
      "ula": 6000,
      "ĠØ§ÙĦÙħØ³ÙĬØŃ": 6001,
      "ĠØ§Ø³ØªØ±Ø§ØªÙĬØ¬": 6002,
      "ĠØ§ÙĦÙħØ¹Ø±ÙģØ©": 6003,
      "Ġcapac": 6004,
      "Ġappropriate": 6005,
      "ĠØ§ÙĦÙħØ±ØªØ¨Ø·Ø©": 6006,
      "Ø¹ÙħØ©": 6007,
      "Ġexact": 6008,
      "rates": 6009,
      "Ġfib": 6010,
      "ecause": 6011,
      "ĪØ§Ø©": 6012,
      "ĠØ¯Ø§Ø¦Ùħ": 6013,
      "Ġdemand": 6014,
      "Ġeye": 6015,
      "ĠMost": 6016,
      "ĠÙĨÙħØ·": 6017,
      "Ġhar": 6018,
      "ÙĨÙĬÙĪÙ": 6019,
      "ĠSystem": 6020,
      "Ġlo": 6021,
      "ĠØ·Ø¨": 6022,
      "ĠRuss": 6023,
      "Ġsituation": 6024,
      "ĠØ§ÙĦÙħØŃØ¯Ø¯Ø©": 6025,
      "ĠCount": 6026,
      "ĠÙħÙħ": 6027,
      "Ġlarger": 6028,
      "Ġbad": 6029,
      "rical": 6030,
      "gn": 6031,
      "Ġtend": 6032,
      "Ġbit": 6033,
      "ĠØ¯ÙĤÙĬÙĤØ©": 6034,
      "Ġconnect": 6035,
      "ĠØ£Ø³Ø": 6036,
      "den": 6037,
      "ÙĩÙĦØ©": 6038,
      "Ġbehavi": 6039,
      "ĠEuropean": 6040,
      "Ġcosts": 6041,
      "ĠØªÙĤÙĪÙħ": 6042,
      "ĠØ¨ÙħØ¬": 6043,
      "son": 6044,
      "ĠWrit": 6045,
      "ĠØµÙĪØ±Ø©": 6046,
      "ĠÙĬØªØ·ÙĦØ¨": 6047,
      "OS": 6048,
      "Ġquite": 6049,
      "ĠØ®Ø·Ø©": 6050,
      "ĠØ§Ø³ØªØ¨": 6051,
      "ĠØ§ÙĦÙħØ³Ø§Ø¹Ø¯Ø©": 6052,
      "ĠPa": 6053,
      "ĠØŃÙĤØ§": 6054,
      "ĠØªØ²Ø§ÙĦ": 6055,
      "ĠIndian": 6056,
      "ĪØ±ÙĨ": 6057,
      "ĠÙĬØ¤Ø«Ø±": 6058,
      "On": 6059,
      "Ø³Ø·": 6060,
      "itect": 6061,
      "ĠÙĥØ«": 6062,
      "ĠJan": 6063,
      "ħØ§Ø°Ø§": 6064,
      "He": 6065,
      "ĠØ§ÙĦÙģØ±Ø¯": 6066,
      "ĠØ¥Ø·ÙĦØ§ÙĤ": 6067,
      "oor": 6068,
      "ÙĬØªØ§ÙħÙĬÙĨ": 6069,
      "34": 6070,
      "ÙĪÙĦÙĬ": 6071,
      "Ø§Ø¹Ø¨": 6072,
      "Ġattack": 6073,
      "ĠÙĨØ³Ø¨Ø©": 6074,
      "Ġlimited": 6075,
      "ÙĬÙĪØ¹": 6076,
      "ÙĪØ®": 6077,
      "ĠØ¯Ø§Ø¦ÙħØ§": 6078,
      "ÙĤØ¯": 6079,
      "ĠÙĨÙĤØµ": 6080,
      "osition": 6081,
      "ĠØ§ÙĦÙħÙĨØªØ¬": 6082,
      "Ġcred": 6083,
      "ii": 6084,
      "Ġstrategies": 6085,
      "Ġstrength": 6086,
      "Ġsteps": 6087,
      "ÙħÙĬØ²": 6088,
      "ĠÙħØ³Ø¤": 6089,
      "Ġcomponents": 6090,
      "ĨØŃ": 6091,
      "Ġtherapy": 6092,
      "ĠØªØµØ¨ØŃ": 6093,
      "pite": 6094,
      "Ġbase": 6095,
      "Ġmix": 6096,
      "ÙĪØº": 6097,
      "elt": 6098,
      "Ġexplore": 6099,
      "Ø£ÙĪ": 6100,
      "ĠØ§ÙĦØ¹ÙĪØ§ÙħÙĦ": 6101,
      "Ø²Ø²": 6102,
      "ĬÙĪØ±Ùĥ": 6103,
      "ĠØ£Ø³Øª": 6104,
      "ĠØ§ÙĦØ·ÙĬÙĪØ±": 6105,
      "ĠÙĦØ¶": 6106,
      "Ġones": 6107,
      "Ġtrees": 6108,
      "ĠÙĪÙĤØ§": 6109,
      "Ø´ÙĦ": 6110,
      "ĠØ§ØŃØ": 6111,
      "Ġyourself": 6112,
      "ĠØ§ØŃØª": 6113,
      "ĠChild": 6114,
      "ĠØ§ÙĦØªØ£Ø«ÙĬØ±": 6115,
      "Ġproperties": 6116,
      "Ø²ÙħØ©": 6117,
      "ĠØ§ÙĦØ±ÙĬØ§Ø¶ÙĬØ§Øª": 6118,
      "Ġder": 6119,
      "Ġancient": 6120,
      "ĠØ§ÙĦØ¹ÙĨ": 6121,
      "ĠØµØŃØ©": 6122,
      "edia": 6123,
      "ÙħØ§ÙĨÙĬØ©": 6124,
      "Ġfeet": 6125,
      "uous": 6126,
      "ĠÙĪÙĦÙĬØ³": 6127,
      "Ġliterature": 6128,
      "Ġexpect": 6129,
      "iring": 6130,
      "ceed": 6131,
      "wise": 6132,
      "omy": 6133,
      "Ġbehind": 6134,
      "Ø¯ÙĬØ§Øª": 6135,
      "§ÙĦÙĦÙĪÙĨ": 6136,
      "ĠÙĦØª": 6137,
      "ĠØ§Ø³ØªØ¹": 6138,
      "ħØ§Ø°": 6139,
      "Ø¨ÙĨØ§Ø¡": 6140,
      "ĠÙħÙĨØ¹": 6141,
      "ĠØ³ÙĬØ§Ø³": 6142,
      "ĠØ§ÙĦÙħÙĬÙĦ": 6143,
      "ĠØ§ÙĦØ¶ØºØ·": 6144,
      "Ġsn": 6145,
      "Ġhor": 6146,
      "eks": 6147,
      "uman": 6148,
      "Ġdifferences": 6149,
      "Ġbeaut": 6150,
      "ops": 6151,
      "ĪØ±Ø§": 6152,
      "ÙħØ§Ùĥ": 6153,
      "ĠØ§ÙĦØ¢Ø«Ø§Ø±": 6154,
      "ĠAfrica": 6155,
      "ĪÙģÙĬØ±": 6156,
      "isc": 6157,
      "ĠÙĪÙĬÙĤ": 6158,
      "ĠØ§ÙĦÙħÙĤØ¯": 6159,
      "Ġcode": 6160,
      "ĠRec": 6161,
      "Ø§Ø·Ø¹": 6162,
      "ĠØ£ØµØ¨ØŃØ": 6163,
      "........": 6164,
      "ĠHistory": 6165,
      "ĠØ§ÙĦÙħØ¬Ø": 6166,
      "ĠEl": 6167,
      "ĠÙħØ¬Ø±Ø¯": 6168,
      "Ġcapital": 6169,
      "water": 6170,
      "Ġ<": 6171,
      "ĠØ£ØµØ¨ØŃØª": 6172,
      "ĠØ§ÙĦØ¨Ø±ÙĬØ·": 6173,
      "where": 6174,
      "ĠØ§ÙĦØ³ÙĨÙĪØ§Øª": 6175,
      "ĠØ£ÙĨØ¸ÙħØ©": 6176,
      "ĠØªØªØŃ": 6177,
      "Ġmodels": 6178,
      "ĠFrench": 6179,
      "ĨØ§Ø³": 6180,
      "Ġsugar": 6181,
      "axim": 6182,
      "ĠØ§ÙĦÙĦÙĪÙĨ": 6183,
      "ÙĦÙĬÙĤ": 6184,
      "overy": 6185,
      "Ġhot": 6186,
      "ĠJew": 6187,
      "ĠÙĪØ¸ÙĬÙģØ©": 6188,
      "ĠÐ": 6189,
      "Ġstyle": 6190,
      "Ġsymbol": 6191,
      "ĠØ§ÙĦØ·Ø±ÙĬÙĤ": 6192,
      "Ø±Ø§Ø¦": 6193,
      "ĠÙĬØ¹ØªÙħØ¯": 6194,
      "ĬÙĥÙĬ": 6195,
      "ĠÙĦÙĤØ¯": 6196,
      "ĠØ§ÙĦØ±Ø¬Ø§ÙĦ": 6197,
      "Ġequipment": 6198,
      "ÙĪØ±Ø§Øª": 6199,
      "Ġdevice": 6200,
      "ĠÙĨØ´Ø±": 6201,
      "ĠØ§ÙĦÙħØ¬Ø§": 6202,
      "Ġ90": 6203,
      "AD": 6204,
      "oming": 6205,
      "Ø§ÙĩØ¯Ø©": 6206,
      "ÙĪÙĨØº": 6207,
      "Ġoffers": 6208,
      "ĪÙĨØ§": 6209,
      "mission": 6210,
      "Ġbeginning": 6211,
      "Ġveh": 6212,
      "ĠÙĦØ®": 6213,
      "ĠFirst": 6214,
      "yond": 6215,
      "Ġmom": 6216,
      "Ġmachine": 6217,
      "Ġorganization": 6218,
      "IV": 6219,
      "Ġhost": 6220,
      "ĠØ§ÙĦØªØºÙĬÙĬØ±": 6221,
      "iles": 6222,
      "ÙĨÙĬÙĪÙĬÙĪØ±Ùĥ": 6223,
      "Ø±Ø§Ø·": 6224,
      "ĨÙĬÙĬÙĨ": 6225,
      "ĠØ§ÙĦØ§ØµØ·ÙĨ": 6226,
      "ĪØ§Ø¬Ùĩ": 6227,
      "ÙħØ±Ø§Ø¡": 6228,
      "rance": 6229,
      "Ġball": 6230,
      "Ø²Ø§": 6231,
      "ius": 6232,
      "ĠØ§ÙĦØ¯ÙĪÙĦÙĬØ©": 6233,
      "Ġanx": 6234,
      "ĠÙģÙĤØ¯": 6235,
      "ØªØ¬Ø§Ø¨Ø©": 6236,
      "ĠØ§ÙĦØ³Ø·ØŃ": 6237,
      "ĠØ®ØµØ§Ø¦Øµ": 6238,
      "Ġprotection": 6239,
      "Ø§ÙĦÙĩØ§": 6240,
      "37": 6241,
      "Ġimmedi": 6242,
      "Ġnews": 6243,
      "Ġlabor": 6244,
      "ĠÙĬØ¨Ø¯Ø£": 6245,
      "ĠInternational": 6246,
      "ĠØ§ÙĦÙħØ¯ÙĬÙĨØ©": 6247,
      "ħØ§Ø°Ø¬": 6248,
      "Ġ>": 6249,
      "ĠØ§ÙĦØŃØ§": 6250,
      "Ġsus": 6251,
      "ĠØ¬Ø¹ÙĦ": 6252,
      "vest": 6253,
      "ĠMod": 6254,
      "Ġpoly": 6255,
      "Ġearl": 6256,
      "ĠÙĩÙħ": 6257,
      "ĠØ§ÙĦØ³ÙĪØ¯": 6258,
      "Ø±ÙĬØ¹Ø©": 6259,
      "cohol": 6260,
      "Ġstage": 6261,
      "Ġgoal": 6262,
      "ĠØ§ÙĦØ¹ÙĦÙĪÙħ": 6263,
      "ĠÙĬØµØ¨ØŃ": 6264,
      "ĠØ±ÙĬ": 6265,
      "ĠØ·Ø¨ÙĬØ¨": 6266,
      "ĠØ§ÙĦØµÙĬÙĨ": 6267,
      "ĠÙħØªØ±": 6268,
      "ĠÙħØ³Ø§ØŃØ©": 6269,
      "ĩØ§Ù": 6270,
      "ĠØ¬Ø±": 6271,
      "ÙĦÙĬÙĬÙĨ": 6272,
      "ĠÙĬÙĪÙģØ±": 6273,
      "ĠÙĦØªØ": 6274,
      "Ġinstall": 6275,
      "ĠÙĪØ³Ø§Ø¦ÙĦ": 6276,
      "Ġ35": 6277,
      "Ġeffic": 6278,
      "uary": 6279,
      "Ġast": 6280,
      "ĠØ§ÙĦØ¥Ø·": 6281,
      "time": 6282,
      "ĠAnt": 6283,
      "hemat": 6284,
      "ĠØ±Ø¤ÙĬØ©": 6285,
      "ĠÙĪØ«": 6286,
      "ĠØ§ÙĦØ¹Ø§ÙĦÙħÙĬ": 6287,
      "ĠØ§ÙĦØ´Ø¨Ø§Ø¨": 6288,
      "ĠØ§Ø¹ØªÙħ": 6289,
      "ĠØ§ÙĦØ³ÙĥØ±ÙĬ": 6290,
      "ÙĪÙĬØ¯": 6291,
      "ÙĦÙģØ§Øª": 6292,
      "ĠÙħØ¬ÙĦØ³": 6293,
      "Ġinitial": 6294,
      "rag": 6295,
      "ÙĨÙĪÙĬØ©": 6296,
      "ÙĬØ¯Ø": 6297,
      "ĪÙħÙĬ": 6298,
      "Ġestablished": 6299,
      "resh": 6300,
      "Ġvisual": 6301,
      "ille": 6302,
      "Ġnation": 6303,
      "Ġefficient": 6304,
      "uries": 6305,
      "cean": 6306,
      "Ġdoctor": 6307,
      "Ġlegal": 6308,
      "Ġsample": 6309,
      "Ġsea": 6310,
      "uments": 6311,
      "ÙĪÙĦÙĬÙĨ": 6312,
      "ĠÙĦÙĦØŃÙģØ§Ø¸": 6313,
      "²Ø§Ù": 6314,
      "Ġrates": 6315,
      "Ø³ÙĦ": 6316,
      "ĠÙĤÙħ": 6317,
      "Ġusers": 6318,
      "Ġdat": 6319,
      "ĠØ§ÙĦØ¨Ø±ÙĬØ©": 6320,
      "§ÙĤØ´Ø©": 6321,
      "ĠÙħØªÙĪØ³Ø·": 6322,
      "ĠØ¨ØªØŃ": 6323,
      "Ġlargest": 6324,
      "ĠØŃØ³Ø§Ø¨": 6325,
      "But": 6326,
      "ĠØŃØ§": 6327,
      "ĠÙĤØ±": 6328,
      "Ġmemory": 6329,
      "ĠØªÙħØ§ÙħØ§": 6330,
      "Ġoptim": 6331,
      "Ø®Ù": 6332,
      "ĠÙħÙĥØªØ¨": 6333,
      "ĠÙħØº": 6334,
      "ĠØ§ÙĦØ¹ÙħØ±": 6335,
      "Ġnovel": 6336,
      "Ġcry": 6337,
      "ĠOther": 6338,
      "Ġ70": 6339,
      "Ø¶Ø±": 6340,
      "ĠEducation": 6341,
      "Ġcommonly": 6342,
      "Ġminutes": 6343,
      "ĠØ§ÙĦÙĤÙĪØ©": 6344,
      "cks": 6345,
      "ĠØ¹Ø§ÙħØ§": 6346,
      "df": 6347,
      "Ġhyp": 6348,
      "Ġprojects": 6349,
      "ĠÙĪÙĬ": 6350,
      "rong": 6351,
      "Ġbirth": 6352,
      "ĠØ¥ÙĦÙĬÙĩØ§": 6353,
      "ensity": 6354,
      "Ø§Ø´Ø±": 6355,
      "Ġsequ": 6356,
      "ĠTrans": 6357,
      "65": 6358,
      "Ġagree": 6359,
      "ris": 6360,
      "ĠSw": 6361,
      "ĠØ§ØªØ®Ø§Ø°": 6362,
      "Ġcompar": 6363,
      "Ġnucle": 6364,
      "ªÙĤØ§ÙĦ": 6365,
      "Ġroad": 6366,
      "Ø³Øª": 6367,
      "ĩØ§Ùħ": 6368,
      "ĠÙħØŃØ¯Ø¯Ø©": 6369,
      "Ġult": 6370,
      "100": 6371,
      "ÙģØ±Ø©": 6372,
      "Ġprobably": 6373,
      "ÙĬØ¯Ø§": 6374,
      "ØªØ§Ù": 6375,
      "ĠØ§ÙĦÙħØªØ§ØŃØ©": 6376,
      "ĠØ§ÙĦØŃØ¯ÙĬØ¯": 6377,
      "ĠÙģÙĥØ±Ø©": 6378,
      "ulated": 6379,
      "ample": 6380,
      "Ġimages": 6381,
      "Pro": 6382,
      "ields": 6383,
      "ĠØ¨Ø·Ø±ÙĬÙĤØ©": 6384,
      "Ġadop": 6385,
      "ĠØ³ØªØ": 6386,
      "uit": 6387,
      "ĠØ¨ÙĢ": 6388,
      "ĠAre": 6389,
      "ØªÙĨ": 6390,
      "pper": 6391,
      "Ø§ÙģØ¸": 6392,
      "ĠAug": 6393,
      "ĠØ§ÙĦØ®Ø": 6394,
      "Ġuser": 6395,
      "Ġtesting": 6396,
      "ĠØªØªÙ": 6397,
      "iar": 6398,
      "bor": 6399,
      "amic": 6400,
      "imin": 6401,
      "ĠØ§ÙĦØ£Ø¯ÙĪÙĬØ©": 6402,
      "ÙĪÙĦÙĪÙĨ": 6403,
      "Ġconstruction": 6404,
      "ÙĨØ§Ùĩ": 6405,
      "Ġreasons": 6406,
      "Ġlocated": 6407,
      "Ġfriends": 6408,
      "Ġlines": 6409,
      "bl": 6410,
      "ħØ§Ø·": 6411,
      "ĠØ§ÙĦÙħØªØ¹ÙĦÙĤØ©": 6412,
      "ªÙĩÙĦÙĥ": 6413,
      "omp": 6414,
      "Ġ2006": 6415,
      "Ġalthough": 6416,
      "ĠØ£ÙĬØ§Ùħ": 6417,
      "ĪÙħØ³": 6418,
      "Ġcateg": 6419,
      "inese": 6420,
      "AP": 6421,
      "set": 6422,
      "Ø¹Ø±Ø§Ø¶": 6423,
      "ĠØ£ÙĨÙĩÙħ": 6424,
      "Ġteacher": 6425,
      "ĠÙĪØ§ÙĦØ¢": 6426,
      "ÙĬØ³ÙĬ": 6427,
      "ĠÙħØ¹Ø§ÙĦØ¬Ø©": 6428,
      "ĠÙĨÙĬÙĪÙĬÙĪØ±Ùĥ": 6429,
      "head": 6430,
      "Ġfront": 6431,
      "Ġestablish": 6432,
      "Ġbreat": 6433,
      "ĠTw": 6434,
      "ĠGree": 6435,
      "ridge": 6436,
      "lamm": 6437,
      "Ġmilitary": 6438,
      "Ġmeasures": 6439,
      "ħØ§Ø±Ø³Ø§Øª": 6440,
      "Ø±ÙĬÙĤÙĬØ§": 6441,
      "gency": 6442,
      "Ġseason": 6443,
      "ĠØ£Ø±": 6444,
      "ĠBi": 6445,
      "ĠÙħØ¹Ø±ÙĪÙģ": 6446,
      "ÙĦÙĦØŃ": 6447,
      "ĠÙĤØ³Ùħ": 6448,
      "ØµÙĦØ§ØŃ": 6449,
      "ĠØ§ÙĦÙħÙĪØ³ÙĬÙĤÙī": 6450,
      "odies": 6451,
      "Ġshape": 6452,
      "ĠØ§ÙĦÙĥØªØ¨": 6453,
      "ĠØ§ÙĦÙħØŃØªÙħÙĦ": 6454,
      "ĠÙĪØ·": 6455,
      "ĠØ³ØªÙ": 6456,
      "ØªØ§Ø¨": 6457,
      "ÙħØ±Ø§ÙĤØ¨Ø©": 6458,
      "ĠAlthough": 6459,
      "ĠAfrican": 6460,
      "ĠØ§ÙĦØªØŃÙĥÙħ": 6461,
      "ĠØ§ÙĦØ£ÙĤ": 6462,
      "ĠØ£ÙĪÙĦØ¦Ùĥ": 6463,
      "Ġdark": 6464,
      "Ġconflic": 6465,
      "Ġunit": 6466,
      "99": 6467,
      "Ø¯Ø±ÙĬØ³": 6468,
      "Ġpromot": 6469,
      "ĠFran": 6470,
      "ĠØ§ÙĦØ®Ø§": 6471,
      "Ġchoice": 6472,
      "Ġdepend": 6473,
      "ĠJu": 6474,
      "§ÙĨÙĬØ§": 6475,
      "Ø§Ø¯Ø«": 6476,
      "Ġteeth": 6477,
      "ĠMon": 6478,
      "ĠØ§ÙĦÙĥÙĬÙħÙĬØ§Ø¦ÙĬØ©": 6479,
      "Ġtests": 6480,
      "ĠØ§ÙĦØ·Ø¨ÙĬØ¹Ø©": 6481,
      "ĠØ·ÙģÙĦÙĥ": 6482,
      "Ġjo": 6483,
      "ÙħÙĩÙĪØ±": 6484,
      "ĠØ£Ø¬Ø²Ø§Ø¡": 6485,
      "Ġinnov": 6486,
      "Ġadults": 6487,
      "Ġeating": 6488,
      "Ġegg": 6489,
      "§ÙĦÙĦØŃ": 6490,
      "gy": 6491,
      "ĠSim": 6492,
      "ĠØ§ÙĦØ¯ÙħÙĪÙĬØ©": 6493,
      "ĠUse": 6494,
      "Ġcolon": 6495,
      "ĠØ§ÙĦØªØº": 6496,
      "Ġund": 6497,
      "ÙĦÙģÙĬØ©": 6498,
      "ĠØŃØ§ÙĦØ§Øª": 6499,
      "Ġdescribed": 6500,
      "ĠØ§ÙĦÙĨØŃ": 6501,
      "ĠØªØ¯ÙģÙĤ": 6502,
      "£ÙĥÙĬØ¯": 6503,
      "Ġreach": 6504,
      "ÙĩÙĬØ±": 6505,
      "Ġemp": 6506,
      "ciples": 6507,
      "Ġadminist": 6508,
      "bit": 6509,
      "ĠChar": 6510,
      "ĠÙħØ±Ø§ÙĤØ¨Ø©": 6511,
      "ĠØ§ÙĦÙĦØŃ": 6512,
      "ÙħØ¹ÙĬØ©": 6513,
      "ĠÙĪÙħ": 6514,
      "ĠØºØ°": 6515,
      "ĠØªØ¨Ø¯Ø£": 6516,
      "Ø¬Ø§Ø¬": 6517,
      "ibrary": 6518,
      "Ø¹Ùī": 6519,
      "ĠØ§ÙĦØ¹ÙĦÙħØ§Ø¡": 6520,
      "ĠÙģÙħÙĨ": 6521,
      "Ø®ÙĪÙĦ": 6522,
      "Ġcool": 6523,
      "ĠØ§ÙĦØ¯ÙĪØ±Ø©": 6524,
      "ÙĪØ§Ùĥ": 6525,
      "Ġthous": 6526,
      "ĠØ³Ø¨Ø¨": 6527,
      "Ġgives": 6528,
      "ĠÙģÙĬØ±ÙĪØ³": 6529,
      "Ġ2005": 6530,
      "Ø§ÙĨÙĬØ§": 6531,
      "ĠDay": 6532,
      "II": 6533,
      "ĠÙħØªÙĨÙĪØ¹Ø©": 6534,
      "ĠÙĪØ§ÙĦØªØ¹": 6535,
      "anish": 6536,
      "Ġperfect": 6537,
      "Ø§Ø¦Ø±Ø©": 6538,
      "Ad": 6539,
      "ĠØ§ÙĦØ£Ùĩ": 6540,
      "ÙĦØ¨ÙĬ": 6541,
      "Ġbecomes": 6542,
      "Ġcold": 6543,
      "asks": 6544,
      "ĠØ£ÙĪØ±ÙĪØ¨Ø§": 6545,
      "ØºÙĬ": 6546,
      "ĠGra": 6547,
      "Ġhabit": 6548,
      "ĠØ§ÙĦÙħØ§ÙĦÙĬØ©": 6549,
      "ĠØ§ÙĦØ£Ø³Ø¨ÙĪØ¹": 6550,
      "ÙĤÙĬØ©": 6551,
      "Ġstru": 6552,
      "Ġfamilies": 6553,
      "Ø¬ÙĬ": 6554,
      "ØªÙĨØ§": 6555,
      "ÙħØªØ¹": 6556,
      "ÙĬØ¦Ø§Øª": 6557,
      "Ø§ÙĦÙħÙ": 6558,
      "ĠØ§ÙĦØ³ÙĥØ±": 6559,
      "Ġsold": 6560,
      "ĠÙħÙĪØ³": 6561,
      "ÙħÙĬØ§Øª": 6562,
      "Ø°Ø¨": 6563,
      "ception": 6564,
      "ĠØªÙĤÙĨÙĬØ©": 6565,
      "Ġagricult": 6566,
      "âĢĿ.": 6567,
      "ĠÙĦÙĦØ¯": 6568,
      "Ġbacteria": 6569,
      "ĠÙĪÙĤØ§ÙĦ": 6570,
      "ĠØ±Ø£Ø³": 6571,
      "ube": 6572,
      "Ġdeal": 6573,
      "Ġfinal": 6574,
      "ĠÙĥØ§ÙħÙĦ": 6575,
      "ĠHer": 6576,
      "Ø§Ø¦Ø©": 6577,
      "ªØ´Ø§Ø±": 6578,
      "ĨÙĩØ¬": 6579,
      "Ġfunctions": 6580,
      "ĠØ§ÙĦØ¯ÙĥØªÙĪØ±": 6581,
      "ĠØ§ÙĦÙħØ´ÙĥÙĦØ©": 6582,
      "sect": 6583,
      "ĠØ§ÙĦØ³ÙĦÙĪÙĥ": 6584,
      "Ġnutri": 6585,
      "Ġpages": 6586,
      "rie": 6587,
      "ĠØ§ÙĦØ¨Ù": 6588,
      "Ġproperty": 6589,
      "ÙħÙĩÙħ": 6590,
      "Ġcommunic": 6591,
      "Ġpurch": 6592,
      "ĠØ¨Øµ": 6593,
      "ĠØ§ÙĦÙħÙĤØ§ÙĦ": 6594,
      "ĠØ§ÙĦÙĪØ¸": 6595,
      "'re": 6596,
      "ĠÙĦÙĦØ·ÙĦØ§Ø¨": 6597,
      "ĠØ§ÙĨØ®ÙģØ§Ø¶": 6598,
      "ĠÙĦÙĦØªØŃ": 6599,
      "ØªØ¨Ø§Ø³": 6600,
      "oe": 6601,
      "Ġprice": 6602,
      "ĠØ£Ø¹Ø±Ø§Ø¶": 6603,
      "Ġhands": 6604,
      "ĠST": 6605,
      "Ġstatement": 6606,
      "Ġweeks": 6607,
      "ĠGerman": 6608,
      "Ġresponsible": 6609,
      "Ġmiddle": 6610,
      "ĠØ£ÙĥØ³": 6611,
      "ÙħÙĪØ³": 6612,
      "ĠÙĨØŃ": 6613,
      "ĠÙħÙĪØ§Ø¯": 6614,
      "ĠØ§ÙĦØ³Ø§Ø¨ÙĤØ©": 6615,
      "cles": 6616,
      "alking": 6617,
      "ÙĨÙĬØ¹": 6618,
      "ĠDevelop": 6619,
      "ĠØ§ÙĦØ£ØµÙĦÙĬØ©": 6620,
      "Ġtalk": 6621,
      "ĪØ±Øª": 6622,
      "ĬÙĪØ§ÙĨØ§Øª": 6623,
      "Ġconsequ": 6624,
      "ØªØ·ÙĬØ¹": 6625,
      "pril": 6626,
      "Ġplat": 6627,
      "ĠØ§ÙĦØ¨ÙĦØ¯Ø§ÙĨ": 6628,
      "ĠØ§ÙĦØ¨ÙĬØ¦ÙĬØ©": 6629,
      "Ġconstant": 6630,
      "ĠÙģØ±ÙĬÙĤ": 6631,
      "ĠØªØŃÙĪÙĬÙĦ": 6632,
      "ĠÙĬØ¹ØªØ¨Ø±": 6633,
      "Ġwa": 6634,
      "Ġsoon": 6635,
      "Ġsurround": 6636,
      "ĠØ¹ÙħÙĦÙĬØ§Øª": 6637,
      "Ġcollection": 6638,
      "ĠØ§ÙĦÙħØ®Ø§Ø·Ø±": 6639,
      "ĠØªÙĤØ±ÙĬØ¨Ø§": 6640,
      "ĠÙĬÙĤÙĪÙħ": 6641,
      "Ġcarry": 6642,
      "cil": 6643,
      "ĠÙħÙĨØŃ": 6644,
      "ky": 6645,
      "ĠOur": 6646,
      "ĠMus": 6647,
      "Ġaffected": 6648,
      "32": 6649,
      "ĠØ¨ÙĨØ³": 6650,
      "Ġmis": 6651,
      "ĠÙĦØ´": 6652,
      "Ġeconomy": 6653,
      "Ġrapid": 6654,
      "Ġrat": 6655,
      "SA": 6656,
      "ĠÙĦØ£ÙĪÙĦ": 6657,
      "ÙĬÙĪÙĬ": 6658,
      "Ġfile": 6659,
      "ĠWorks": 6660,
      "ĠÙĬØ²ÙĬØ¯": 6661,
      "ĠÙħØ¤Ø³": 6662,
      "Ġgot": 6663,
      "lim": 6664,
      "ÙĩØ§Ø¨": 6665,
      "ĪÙĬØª": 6666,
      "ÙĤØ¯Ø©": 6667,
      "Ø¯ÙĬØ«": 6668,
      "ĠHar": 6669,
      "ĠØªØ³ÙħÙī": 6670,
      "ÙħÙĪØ¯": 6671,
      "Ġrob": 6672,
      "Ġvia": 6673,
      "Ġceleb": 6674,
      "Ø¨ØŃØ§Ø«": 6675,
      "Ġjud": 6676,
      "ĠOct": 6677,
      "ÙĪØ§ÙĦ": 6678,
      "estic": 6679,
      "Ġevalu": 6680,
      "ĠØªÙĪØ¬Ø¯": 6681,
      "Ġdate": 6682,
      "Ġsignificantly": 6683,
      "ĠØ§ÙĦØ¯ÙĪÙĦ": 6684,
      "Ġpatterns": 6685,
      "Ġcontroll": 6686,
      "Ġinsp": 6687,
      "Ġheld": 6688,
      "Ø·Ø¹": 6689,
      "ĠDNA": 6690,
      "ĠØ§ÙĦØªØ¹Ø§ÙħÙĦ": 6691,
      "ÙħØ§ÙĥÙĨ": 6692,
      "Ġrespond": 6693,
      "Ġcou": 6694,
      "Ø§ÙĦÙĥ": 6695,
      "Ø·ÙĬØ©": 6696,
      "Ø±ÙĬØ¯Ø©": 6697,
      "ÙĥØªÙĬØ±ÙĬØ§": 6698,
      "ĠØ§ÙĦØ¨Ø´Ø±ÙĬ": 6699,
      "ĠØªØ¬ÙĨØ¨": 6700,
      "ĠÙĦØ³": 6701,
      "48": 6702,
      "ĠØªØ³ÙħØŃ": 6703,
      "ira": 6704,
      "ĠØ§ÙĦØµÙĪØª": 6705,
      "ests": 6706,
      "ĠÙĦÙĦÙĪØ": 6707,
      "ĠØ§ÙĦØŃÙħÙĦ": 6708,
      "Ø§Ø¨ÙĬ": 6709,
      "These": 6710,
      "ĠØ§ÙĦØ£Ø³Ø§Ø³ÙĬ": 6711,
      "RE": 6712,
      "Ġrules": 6713,
      "ĠØ¥ÙĨÙĩØ§": 6714,
      "Ø±Ø³Ø§ÙĦ": 6715,
      "Ġtrade": 6716,
      "ÙĦÙĬØ§Øª": 6717,
      "ĠÙĪØ°": 6718,
      "ĠØ§ÙĦÙĪ": 6719,
      "Ġdegree": 6720,
      "ĠÙĨÙĬ": 6721,
      "Ġmention": 6722,
      "ĠØ£ÙĨÙģ": 6723,
      "ĠInst": 6724,
      "Ġfight": 6725,
      "ĠØ³Ø§Ø¹Ø©": 6726,
      "Ø³Ø§Ù": 6727,
      "ÙĪÙħØ³": 6728,
      "Ġtown": 6729,
      "Ġdecl": 6730,
      "ÙĴ": 6731,
      "ĠØ§ÙĦØ£ÙĨØ´Ø·Ø©": 6732,
      "ĠÙĤÙĪÙĬØ©": 6733,
      "Ġgold": 6734,
      "ĠØ§ÙĦØ¨Ø§ÙĦØº": 6735,
      "ĠÙĬØ¹ÙĬØ´": 6736,
      "ÙĨÙģØ³": 6737,
      "Ġelement": 6738,
      "So": 6739,
      "Ġeverything": 6740,
      "ĠØ§ÙĦÙħØ±ÙĥØ²": 6741,
      "05": 6742,
      "ĠØ§ÙĦØ£ÙĨØ³": 6743,
      "Ø¨Ø§ØŃ": 6744,
      "hest": 6745,
      "Ġeyes": 6746,
      "Ġoptions": 6747,
      "ĠØ§ÙĦØ¨Ø±ÙĪØªÙĬÙĨ": 6748,
      "Ġrich": 6749,
      "ĠØ¨Ø§ÙĦØ¶": 6750,
      "Ġrecommend": 6751,
      "more": 6752,
      "ĠØ¯ÙĪØ±Ø©": 6753,
      "Ø§ÙģØŃØ©": 6754,
      "ÙĨØ³ÙĬØ©": 6755,
      "Ġmob": 6756,
      "atur": 6757,
      "Ġlocation": 6758,
      "ĠØ¨Ø§ÙĦØ·": 6759,
      "illing": 6760,
      "ĠServ": 6761,
      "95": 6762,
      "Ġpregn": 6763,
      "ĠØ¥Ø·Ø§Ø±": 6764,
      "ĠØ§ÙĦØªÙĨØ¸": 6765,
      "ĠØ§ÙĦØªØ¯Ø±ÙĬØ¨": 6766,
      "ĠØ¥Ø¹Ø·Ø§Ø¡": 6767,
      "Ġbasis": 6768,
      "iforn": 6769,
      "ĠØ§ÙĦØŃØ¯ÙĬØ«Ø©": 6770,
      "ĠCenter": 6771,
      "med": 6772,
      "Ġassist": 6773,
      "Ø§ØªØ¨": 6774,
      "Ġsch": 6775,
      "ĠJournal": 6776,
      "Ġprivate": 6777,
      "undred": 6778,
      "ĠBar": 6779,
      "ĠÂ·": 6780,
      "ĠØ§ÙĦØ¬ÙĨÙĪØ¨": 6781,
      "Ġqual": 6782,
      "Ø§ÙĪÙĦ": 6783,
      "ĠØ§ÙĦÙĥØ±": 6784,
      "ĠØ¨ÙħØ¬Ø±Ø¯": 6785,
      "ĠÙĬØ³ÙħÙī": 6786,
      "Ġoccurs": 6787,
      "Ġsigns": 6788,
      "raft": 6789,
      "Ġcollege": 6790,
      "ĠØ£Ø¯ÙĨØ§Ùĩ": 6791,
      "Ġtopics": 6792,
      "Ġremains": 6793,
      "ÙĪÙĨØ": 6794,
      "ØµÙĬØµ": 6795,
      "By": 6796,
      "ĠInstitute": 6797,
      "Ø¨Ø±Ø§": 6798,
      "Ġgoals": 6799,
      "Ġpen": 6800,
      "ste": 6801,
      "ĠØ§ÙĦÙħØ³ØªÙĤØ¨ÙĦ": 6802,
      "ĠFin": 6803,
      "ĠØ§ÙĦÙħÙħÙĦÙĥØ©": 6804,
      "Ġnutrit": 6805,
      "ĠØµÙĨØ¹": 6806,
      "ĠØ¨Ø§ÙĦØ£": 6807,
      "ÙħÙĦÙĬ": 6808,
      "ided": 6809,
      "Â°": 6810,
      "Ø´Ù": 6811,
      "ĠÙħØ³Ø§Ø¹Ø¯Ø©": 6812,
      "cious": 6813,
      "Ġscreen": 6814,
      "ĠØ¨Ø¯Ø£Ø": 6815,
      "ĠAut": 6816,
      "Ġinvolves": 6817,
      "ĠØ¨Ø¯Ø£Øª": 6818,
      "ĠÙĪÙħØ³": 6819,
      "Ġconcl": 6820,
      "ĠØ§ÙĦØ³ÙĪÙĤ": 6821,
      "Ø§Ø²ÙĦ": 6822,
      "ĠØ§ÙĦÙħØ¤ÙĦÙģ": 6823,
      "ĠØ§ÙĦÙģÙĬØ¯ÙĬÙĪ": 6824,
      "ĠØ¥Ø¯Ø®Ø§ÙĦ": 6825,
      "Ġbalance": 6826,
      "ĠØ§ÙĦØ´ÙĥÙĦ": 6827,
      "ĠØ§ÙĦØ³Ùģ": 6828,
      "ĠWest": 6829,
      "ĠØ§ÙĦÙħÙħØ": 6830,
      "Ġexperiences": 6831,
      "Ġfactor": 6832,
      "Ġsuccessful": 6833,
      "Ġitems": 6834,
      "ªØ¯Ø§ÙħØ©": 6835,
      "ĠØ§ÙĦØ³ÙĬØ·Ø±Ø©": 6836,
      "sec": 6837,
      "ĠØ§ÙĦÙħØŃØªÙħÙĦØ©": 6838,
      "Ġanti": 6839,
      "²Ø§ÙĬØ¯": 6840,
      "Ġbenefit": 6841,
      "Ġmount": 6842,
      "Ġsolutions": 6843,
      "Ġroom": 6844,
      "ĠÙĪØ§Ø¬": 6845,
      "ĠÙĤØµÙĬØ±Ø©": 6846,
      "Ġstri": 6847,
      "Ø³Ø¨": 6848,
      "ĠØ§ÙĦØŃØ¶": 6849,
      "ĠØ§ÙĦØ¥Ø¹": 6850,
      "Ġplaces": 6851,
      "ĠÙħÙĦØ§ØŃØ¸Ø©": 6852,
      "Ġeveryone": 6853,
      "Ġsitu": 6854,
      "arian": 6855,
      "cont": 6856,
      "ĠØ§ÙĦØ³ÙĨØ©": 6857,
      "haps": 6858,
      "Ġreceive": 6859,
      "Ġlaws": 6860,
      "idents": 6861,
      "ĠØ§ÙĦÙħØ´ØªØ±ÙĥØ©": 6862,
      "ĠØµÙģØŃØ©": 6863,
      "ĠÙģØ¹ÙĦ": 6864,
      "Ġobjects": 6865,
      "ĠØ§ÙĦØ¥Ø¹ÙĦØ§Ù": 6866,
      "ĠØ¨ÙĬØ¦Ø©": 6867,
      "ĠØ§ÙĦØ±ÙĤÙħÙĬØ©": 6868,
      "Ø±Ø§Ùĥ": 6869,
      "Ġrequirements": 6870,
      "rome": 6871,
      "ĠØ¨Ø°ÙĦÙĥ": 6872,
      "ĠMarch": 6873,
      "ĠØ§ÙĦÙĨØ´Ø§Ø·": 6874,
      "ingu": 6875,
      "ĠØ§ÙĦØ£Ø³Ø¦ÙĦØ©": 6876,
      "Ġmaxim": 6877,
      "CS": 6878,
      "Ġrock": 6879,
      "Ġhistorical": 6880,
      "¸ÙģÙĬÙĨ": 6881,
      "ĠØ§ÙĦÙģØ¶Ø§Ø¡": 6882,
      "ĪØ§Ø±Ø¯": 6883,
      "Ġcomprehens": 6884,
      "Ġpredict": 6885,
      "ĠØµØŃÙĬØ©": 6886,
      "Ġpowerful": 6887,
      "Ġexpected": 6888,
      "ĠHigh": 6889,
      "ĠØªØ§": 6890,
      "Ġbul": 6891,
      "ĠØ´Ùĥ": 6892,
      "ĠØ§ÙĦÙĪØ¹ÙĬ": 6893,
      "Ġacqu": 6894,
      "ĠØ´ÙĬÙĪØ¹": 6895,
      "Ġiron": 6896,
      "Ġpow": 6897,
      "abilities": 6898,
      "ĠØ§ÙĦØ´ÙħØ³ÙĬØ©": 6899,
      "§ÙĬÙĬØ±": 6900,
      "§ÙģÙĤ": 6901,
      "Ġscale": 6902,
      "Ġacademic": 6903,
      "ĠRed": 6904,
      "ĠÙĪØ¢": 6905,
      "Ġweather": 6906,
      "Ġimag": 6907,
      "ashing": 6908,
      "Ġcharacteristics": 6909,
      "ĠÙĦØ·": 6910,
      "phas": 6911,
      "tical": 6912,
      "outhern": 6913,
      "ĠCommun": 6914,
      "ÙĪØ§ÙĨÙĬÙĨ": 6915,
      "Why": 6916,
      "iable": 6917,
      "Ġsect": 6918,
      "Ġworkers": 6919,
      "Ġeducational": 6920,
      "Ġphilos": 6921,
      "esus": 6922,
      "ØµÙĦØ©": 6923,
      "Ġtask": 6924,
      "Ġcenter": 6925,
      "§ÙĨØ¨": 6926,
      "ĠØ§ÙĦØªÙĤÙĦÙĬØ¯ÙĬØ©": 6927,
      "Ġintroduction": 6928,
      "Ġ45": 6929,
      "Ġaspects": 6930,
      "ÙĥÙĬÙĬÙĨ": 6931,
      "ÙģØ§Ùģ": 6932,
      "Ġprin": 6933,
      "§ÙĦØ§Ùĥ": 6934,
      "Ġopportunities": 6935,
      "Ø¹ÙĬØ©": 6936,
      "ĠØ§ÙĦØ°ÙĥØ§Ø¡": 6937,
      "Ġcontrast": 6938,
      "ĠDi": 6939,
      "Ø§Ø²Ø§Øª": 6940,
      "ifornia": 6941,
      "ĠØ£Ø³Ø§Ø³ÙĬØ©": 6942,
      "Ġborn": 6943,
      "ĠProg": 6944,
      "Ġapplied": 6945,
      "ÙĤÙī": 6946,
      "Ġgradu": 6947,
      "ĠFl": 6948,
      "Ġrare": 6949,
      "ĠÙĦØºØ©": 6950,
      "ĠØªØ¤Ø¯ÙĬ": 6951,
      "wide": 6952,
      "life": 6953,
      "ĠÙĦÙĦØ§ÙĩØªÙħØ§Ùħ": 6954,
      "Ġgames": 6955,
      "ØŃÙħ": 6956,
      "Ġconvers": 6957,
      "Ġopportunity": 6958,
      "Ġprinc": 6959,
      "Ġroot": 6960,
      "Sh": 6961,
      "ĠAD": 6962,
      "Ġvirt": 6963,
      "ĠÙĬÙĨØ§": 6964,
      "hesis": 6965,
      "Ġking": 6966,
      "ĠÙħØªØŃ": 6967,
      "While": 6968,
      "§ÙħØ±": 6969,
      "ÙĦØªØ±Ø§": 6970,
      "odes": 6971,
      "Ø§Ø±Ø¶": 6972,
      "ÙĩØ§Ø¯": 6973,
      "ĠØ§ÙĦÙĥÙĩØ±Ø¨Ø§Ø¡": 6974,
      "ĠÙħÙĨØ®ÙģØ¶Ø©": 6975,
      "EL": 6976,
      "ero": 6977,
      "Ġdead": 6978,
      "ĠØ¯ÙģØ¹": 6979,
      "ĠÙĦÙĦØ¹ÙħÙĦ": 6980,
      "ĠÙĬÙĤØ¹": 6981,
      "CO": 6982,
      "ees": 6983,
      "Ø±ÙĪØ¨ÙĬ": 6984,
      "enge": 6985,
      "ĠØ¨Ø¯Ø¡": 6986,
      "ĪÙħØŃ": 6987,
      "Ġdetails": 6988,
      "ĠØ¨Ø§ÙĦÙĤØ±Ø¨": 6989,
      "ÙĪÙħØŃ": 6990,
      "ĠØ§ÙĦÙħØº": 6991,
      "ĠØªÙĤÙĨÙĬØ§Øª": 6992,
      "ĠÙĩÙĬÙĥ": 6993,
      "ĠØ§ÙĦØ¨Ø±ÙħØ¬": 6994,
      "ĠÙĪÙħØŃ": 6995,
      "Ùį": 6996,
      "Ø§ÙĦÙĬØ§": 6997,
      "ĠÙĤÙĦÙĬÙĦØ": 6998,
      "ĠÙĤÙĦÙĬÙĦØ§": 6999,
      "ĠØªØ¹Ø±Ø¶": 7000,
      "ĠÙħØ§ÙĬÙĪ": 7001,
      "Ġanxiety": 7002,
      "ĠÙħØ§Ø±Ø³": 7003,
      "ĠØ§ÙĦØ¥ÙĦÙĥØªØ±ÙĪÙĨÙĬØ©": 7004,
      "ĠÙĬÙĪÙĨ": 7005,
      "01": 7006,
      "ĠØ§Ùģ": 7007,
      "year": 7008,
      "ĠØ§ÙĦØµØ¹Ø¨": 7009,
      "ptember": 7010,
      "ÙĦÙħÙĬ": 7011,
      "Ġenter": 7012,
      "Ġgraph": 7013,
      "ĠØ§ÙĦØªÙĨÙģØ³": 7014,
      "Ġrain": 7015,
      "Ġlost": 7016,
      "ĠÙĦØ¥ÙĨØ´Ø§Ø¡": 7017,
      "oses": 7018,
      "Ġwhose": 7019,
      "ĠAccording": 7020,
      "Ġillust": 7021,
      "Ġaccur": 7022,
      "Ġfather": 7023,
      "ĠØ§ÙĦØ£Ø·Ø¹ÙħØ©": 7024,
      "44": 7025,
      "ĠØ¢Ø«Ø§Ø±": 7026,
      "Ġactions": 7027,
      "ĠØ§ÙĦÙħÙĨØ²ÙĦÙĬØ©": 7028,
      "Ø¨Ø§ÙĦ": 7029,
      "ĪÙĬØŃ": 7030,
      "ĠØµÙĨØ§Ø¹Ø©": 7031,
      "ÙħØ´": 7032,
      "ĠÙģØ": 7033,
      "Ġcommer": 7034,
      "Ø³Ø§Ø·Ø©": 7035,
      "Ø§Ø¹Ø±": 7036,
      "ĠØ§ÙĦÙģØ¹": 7037,
      "mosp": 7038,
      "Ġfuel": 7039,
      "ĠØ§ÙĦØªØŃÙĤÙĤ": 7040,
      "Ø²Ø©": 7041,
      "ĠÙĨØ´Ø§Ø·": 7042,
      "Ġefforts": 7043,
      "Ġdefined": 7044,
      "Ġord": 7045,
      "Ġlimit": 7046,
      "ÙĪÙĬØŃ": 7047,
      "Ġsites": 7048,
      "ĠØ§ÙĦØ´ÙħØ§ÙĦÙĬØ©": 7049,
      "Ø§Ø³Ùħ": 7050,
      "ternal": 7051,
      "que": 7052,
      "ÙĥÙĬØ¨": 7053,
      "ĠÙħÙĨØ§Ø·ÙĤ": 7054,
      "ĠØ§Ø¬ØªÙħ": 7055,
      "orthern": 7056,
      "ching": 7057,
      "Ġpresence": 7058,
      "ĠÙĪÙĬØŃ": 7059,
      "Ġformat": 7060,
      "ĠØ¯Ø±Ø¬Ø§Øª": 7061,
      "Ġimmune": 7062,
      "ÙĦÙĦÙĪØ": 7063,
      "ØªØºØ±ÙĤ": 7064,
      "ocks": 7065,
      "Ġreduced": 7066,
      "Ġstandards": 7067,
      "Ø±Ø§Ø¹": 7068,
      "pective": 7069,
      "ÙĪØ§ÙĨØ¨": 7070,
      "lin": 7071,
      "aste": 7072,
      "ÙĦÙĩÙħ": 7073,
      "rees": 7074,
      "ĠØ£ÙħØ±Ø§Ø¶": 7075,
      "Ġmal": 7076,
      "Ġequal": 7077,
      "Ġrise": 7078,
      "oration": 7079,
      "Ġpet": 7080,
      "ĠØ§Ø³ØªÙĤ": 7081,
      "Ġshall": 7082,
      "ØµÙ": 7083,
      "Ġreceived": 7084,
      "ĠØ§ÙĦØ±Ø³Ùħ": 7085,
      "ĠØ§ÙĦÙħÙĬÙĥ": 7086,
      "Ġexec": 7087,
      "ÙĦØ§Ø³ØªÙ": 7088,
      "ĠØ§ÙĦØ¹ÙĦÙĬØ§": 7089,
      "Ġreligious": 7090,
      "ØªÙĦØ§ÙģØ§Øª": 7091,
      "ĠBlack": 7092,
      "ĠØ§ÙĦØµØ®": 7093,
      "ĠØ§ÙĦØ¥ØµØ§Ø¨Ø©": 7094,
      "Ġcapacity": 7095,
      "used": 7096,
      "can": 7097,
      "ĠØ£Ø´ÙĩØ±": 7098,
      "ĠLet": 7099,
      "irection": 7100,
      "ÙĨØ·": 7101,
      "§ÙĦÙĦÙĪØ": 7102,
      "ĠØ§ÙĦØºØ§Ø¨Ø§Øª": 7103,
      "ĠØ§ÙĦÙħØ¶Ø§Ø¯Ø©": 7104,
      "ĠÙĬØªØ¶ÙħÙĨ": 7105,
      "Ġbeyond": 7106,
      "ns": 7107,
      "orage": 7108,
      "With": 7109,
      "ĠØ§ÙĦÙĥØ¨ÙĬØ±": 7110,
      "Ġconstit": 7111,
      "Ġelse": 7112,
      "ÙĬØªÙĩØ§": 7113,
      "Ġinstru": 7114,
      "iers": 7115,
      "ĨØ¯ÙĬ": 7116,
      "Ġsett": 7117,
      "ĠØ¥Ø¶Ø§ÙģÙĬØ©": 7118,
      "ÙĬÙĥÙĦ": 7119,
      "Ġfear": 7120,
      "Ġseems": 7121,
      "ĠØ§ÙĦÙħÙĩÙĨÙĬØ©": 7122,
      "Ġstim": 7123,
      "Ġbott": 7124,
      "Ġsmaller": 7125,
      "ĠChinese": 7126,
      "Ġinstruct": 7127,
      "Ġnote": 7128,
      "Ġarchitect": 7129,
      "31": 7130,
      "Ġdisplay": 7131,
      "ĠTH": 7132,
      "ĠØ³Ùħ": 7133,
      "ev": 7134,
      "Ġexposure": 7135,
      "Ġpapers": 7136,
      "Ġalcohol": 7137,
      "aught": 7138,
      "ĠØªÙĦÙĤ": 7139,
      "ĠØ´ÙħØ§ÙĦ": 7140,
      "ÙĨÙĩØ¬": 7141,
      "Ø±Ø«": 7142,
      "ĠØ§ÙĦÙĤÙĬØ§Ø³": 7143,
      "ÙĬØªØ´": 7144,
      "Ġsummer": 7145,
      "Ġbelief": 7146,
      "Ġswe": 7147,
      "ĠØ±Ø¬ÙĦ": 7148,
      "ĠØªØ´ØºÙĬÙĦ": 7149,
      "Ġcompletely": 7150,
      "ĠØ§ÙĦØ³ÙĬØ§Ø±Ø§Øª": 7151,
      "ÙĥØ±ÙĬØ©": 7152,
      "ĠØ§ÙĦÙĦÙĪØ": 7153,
      "ĠÙħÙĤØ¯ÙħØ©": 7154,
      "ara": 7155,
      "ÙģÙĨ": 7156,
      "raction": 7157,
      "ĠMc": 7158,
      "ĠØ§ÙĦÙħØ¹ÙĦÙħÙĬÙĨ": 7159,
      "ĠØ§ÙĦØ§Ùĥ": 7160,
      "Ġdefinition": 7161,
      "ĠØ§ÙĦÙģÙĨ": 7162,
      "ĠPol": 7163,
      "Ġolder": 7164,
      "ĠØ²ÙĪØ¬": 7165,
      "ĠØ§ÙĦÙģØ±ÙĤ": 7166,
      "Ø§Ø«ÙĦØ©": 7167,
      "Ø±Ø§ÙĦÙ": 7168,
      "ĠØ¯ÙħØ¬": 7169,
      "omic": 7170,
      "ygen": 7171,
      "urg": 7172,
      "ocol": 7173,
      "eal": 7174,
      "ÙĬØ±Ø§Øª": 7175,
      "Ġgenetic": 7176,
      "ĠØªØ´ÙĥÙĦ": 7177,
      "ĠGoogle": 7178,
      "Ġcitiz": 7179,
      "ĠÙħØ²ÙĬØ¬": 7180,
      "ĠØ§ÙĦÙĤØµØ©": 7181,
      "ĠØ£Ø³Ø§Ø³Ù": 7182,
      "ĠØ£Ø³Ø§Ø³ÙĬ": 7183,
      "ĠÙĨÙĩØ¬": 7184,
      "ico": 7185,
      "Ġillness": 7186,
      "omb": 7187,
      "Ġresistance": 7188,
      "RO": 7189,
      "la": 7190,
      "Ġresource": 7191,
      "ĠØ¥ÙĦÙĬÙĩ": 7192,
      "ÙħØ§Ø¡": 7193,
      "ĠØ£ÙĨØª": 7194,
      "ĠÙħÙĤØ§Ø¨ÙĦ": 7195,
      "ÙĬÙĤØ©": 7196,
      "Ġdyn": 7197,
      "Ġhair": 7198,
      "mitted": 7199,
      "Ø¤Ø": 7200,
      "ĠØ±Ø£": 7201,
      "oice": 7202,
      "Ġplanning": 7203,
      "Ø¤Ø§": 7204,
      "ĠPress": 7205,
      "Ġcam": 7206,
      "Ø§ÙĦÙģ": 7207,
      "ĠÙĦØªØ·": 7208,
      "§ÙĪØ²": 7209,
      "Ġjoint": 7210,
      "Ġvict": 7211,
      "Ġfollowed": 7212,
      "Ø¬Ø±Ø§Ø¡Ø§Øª": 7213,
      "ĠØ§ÙĦÙĩØ¯Ùģ": 7214,
      "Ġing": 7215,
      "Ġanything": 7216,
      "ĠØ§ÙĦØ´Ø±ÙĥØ©": 7217,
      "Ġbaby": 7218,
      "ĠØªØµÙĨÙĬÙģ": 7219,
      "Ġidentified": 7220,
      "Ø§ÙĪØ²": 7221,
      "ĠCanada": 7222,
      "Ø§ØªØµØ§ÙĦØ§Øª": 7223,
      "Ġintellig": 7224,
      "Ġconsumption": 7225,
      "Ø¤Ø§ÙĦ": 7226,
      "ĠJune": 7227,
      "ĠÙĦÙĨØ§": 7228,
      "ĠØ§ÙĤØªØ±": 7229,
      "ĠØ§ÙĦØ§Ø³ØªØ®Ø¯Ø§Ùħ": 7230,
      "ĠÙħÙĨØ¸ÙħØ©": 7231,
      "MS": 7232,
      "ĠØ§ÙĦØ§ØŃØªÙģ": 7233,
      "ĠBo": 7234,
      "Ġteach": 7235,
      "ĠØ¨Ø¹Ø¶ÙĩØ§": 7236,
      "Ġspirit": 7237,
      "ama": 7238,
      "ĠGreat": 7239,
      "ĠÙĪØ§ÙĦÙħØ³": 7240,
      "ĠDepartment": 7241,
      "ÙĪÙĬØª": 7242,
      "At": 7243,
      "Ġstories": 7244,
      "ĠÙģÙĬÙħØ§": 7245,
      "ÙĨØªÙ": 7246,
      "And": 7247,
      "Ġtransfer": 7248,
      "ĠÙħØ¹ÙĬÙĨ": 7249,
      "ĠØ§ÙĦÙħÙģØª": 7250,
      "ĠØ§ÙĦÙģÙĬØ²": 7251,
      "rief": 7252,
      "Ġ2004": 7253,
      "ĠØ§ÙĦØ£Ø±Ø§Ø¶ÙĬ": 7254,
      "Ġhundred": 7255,
      "Ġbrought": 7256,
      "Ø§Ø¨ÙĬÙĨ": 7257,
      "ĠØ§ÙĦØ¯ÙĪÙĦÙĬ": 7258,
      "resp": 7259,
      "Ġdisorder": 7260,
      "Ø®ÙĬÙĨ": 7261,
      "ype": 7262,
      "Ø§ÙĥØ±Ø©": 7263,
      "Ġlesson": 7264,
      "Ġhope": 7265,
      "Ġstatus": 7266,
      "ĠØ¯ÙĬØ³": 7267,
      "ÙĨØµØ±": 7268,
      "Ġfruit": 7269,
      "ÙĦØ§Ø±": 7270,
      "ØªÙĩÙħ": 7271,
      "ĠWater": 7272,
      "Ġ2022": 7273,
      "Ġload": 7274,
      "ĠÙĥÙĪÙĨ": 7275,
      "Ġbra": 7276,
      "ĠØªØªØ·ÙĦØ¨": 7277,
      "ĠØµØºÙĬØ±": 7278,
      "Ġ2003": 7279,
      "ĠØ§ÙĦÙĨÙĪÙĪÙĬ": 7280,
      "ĠAugust": 7281,
      "ĠØ¨Ø§ÙĦØŃ": 7282,
      "uff": 7283,
      "ĠØ§ÙĦØ§Ø®ØªØ¨Ø§Ø±": 7284,
      "ĠÙģØµÙĦ": 7285,
      "ford": 7286,
      "Ġ31": 7287,
      "Ġincreases": 7288,
      "ĠÙĤØ§Ø¯Ø±": 7289,
      "Ø¨ÙĪÙĦ": 7290,
      "Ġinstance": 7291,
      "ĠØ§ÙĦØ¹ØµØ¨ÙĬØ©": 7292,
      "ĠÙĥØ§ÙħÙĦØ©": 7293,
      "ĠØ®Ø¯ÙħØ©": 7294,
      "Ġfair": 7295,
      "Ġapprox": 7296,
      "Ġvary": 7297,
      "Ġdecisions": 7298,
      "rew": 7299,
      "ĠÙĦÙĦÙħØ¹": 7300,
      "Ġtrial": 7301,
      "ĨØ¨Ø¤": 7302,
      "ses": 7303,
      "ĠÙħÙĦÙĬ": 7304,
      "ĠØ§ÙĦÙĪØ³Ø·Ùī": 7305,
      "ĠEngland": 7306,
      "CC": 7307,
      "ĠWhy": 7308,
      "Ġalg": 7309,
      "ĠÙĪÙĥØ§": 7310,
      "Ġmetal": 7311,
      "Ġtrying": 7312,
      "ĠØ§ÙĦØ±Ø£Ø³": 7313,
      "ÙĬÙĪØ¯": 7314,
      "ÙĥØª": 7315,
      "ĠØ§ÙĦÙĤØ³Ùħ": 7316,
      "Ġobserved": 7317,
      "Ø¨Ø±Ø§Ø¡": 7318,
      "erences": 7319,
      "Ġwent": 7320,
      "ĠØ¥ØµØ¯Ø§Ø±": 7321,
      "ĠØ¹ÙĥØ³": 7322,
      "«ÙĪÙĤ": 7323,
      "ĠØ£ÙģØ±ÙĬÙĤÙĬØ§": 7324,
      "ĠÙħÙĨÙĩ": 7325,
      "ÙĩØ§Ù": 7326,
      "ĠØ§ÙĦØµØŃÙ": 7327,
      "ĠØ§ÙĦØ¨ÙĬØ§": 7328,
      "ĠVal": 7329,
      "ĠØ§ÙĦØ²Ø±Ø§Ø¹Ø©": 7330,
      "Ġhosp": 7331,
      "ªØµ": 7332,
      "ÙħØ§Ø°Ø§": 7333,
      "ĠØªØ·ÙĪØ±": 7334,
      "ĠAssoci": 7335,
      "ĠØ§ÙĦÙħØªÙĤ": 7336,
      "zz": 7337,
      "ºÙĨØ§Ø·": 7338,
      "ÙĪÙĬØ³": 7339,
      "standing": 7340,
      "ĠØ§ÙĦÙģÙĬØ±ÙĪØ³": 7341,
      "ken": 7342,
      "ĠØ§ÙĦÙħØ±Ø£Ø©": 7343,
      "ÙģØ§ÙĩÙĬÙħ": 7344,
      "Ġtechnologies": 7345,
      "Ġcurrently": 7346,
      "Ġcollabor": 7347,
      "ĠPat": 7348,
      "Ġexcess": 7349,
      "Ġfresh": 7350,
      "Ġsouth": 7351,
      "Ġspeech": 7352,
      "ĠClass": 7353,
      "Ġcontract": 7354,
      "Ø¬ÙĦØ§Øª": 7355,
      "inding": 7356,
      "ÙħØ«ÙĬÙĦ": 7357,
      "ĠØ§ÙĦØ´Ø¹Ø±": 7358,
      "Ġliqu": 7359,
      "ĠÙĦØªØ´": 7360,
      "Ġisn": 7361,
      "Ġplatform": 7362,
      "Ġrelationships": 7363,
      "ophy": 7364,
      "Ġstrugg": 7365,
      "Ġgarden": 7366,
      "ĨØ§Ø©": 7367,
      "ĠØ¨Ø§ÙĦÙĥØ§ÙħÙĦ": 7368,
      "ĠØ§ÙĦØ£ÙĦÙħ": 7369,
      "Ġremember": 7370,
      "Ġbeg": 7371,
      "ĠPhys": 7372,
      "ognitive": 7373,
      "Ġmiss": 7374,
      "ĠÙĬÙĤÙĦÙĦ": 7375,
      "ĠUK": 7376,
      "ĠAlso": 7377,
      "Ġdivid": 7378,
      "Ġkid": 7379,
      "Ø¨Ø¹Ø¶": 7380,
      "ĠØ§ÙĦØ³Ø§Ø¨ÙĤ": 7381,
      "ĠØ¹Ø±Ø¶Ø©": 7382,
      "Ġgoes": 7383,
      "ĠApril": 7384,
      "ta": 7385,
      "ĠØ£ÙĩØ¯Ø§Ùģ": 7386,
      "ĠÙĨØ¸Ø±ÙĬØ©": 7387,
      "ªÙħÙĬÙĬØ²": 7388,
      "oma": 7389,
      "46": 7390,
      "Ġreducing": 7391,
      "ĠCalifornia": 7392,
      "Ġson": 7393,
      "Ġfix": 7394,
      "Ġinteresting": 7395,
      "§ÙĦØ§Ø¨": 7396,
      "Ġshap": 7397,
      "Ġwoman": 7398,
      "Ġwon": 7399,
      "Ġnorth": 7400,
      "Ġrot": 7401,
      "ĠØ§ÙĦÙħØ´Ø±ÙĪØ¹": 7402,
      "ham": 7403,
      "Ġconstruct": 7404,
      "ĠØ£ÙĨØ´": 7405,
      "ĠInter": 7406,
      "Ġdrugs": 7407,
      "force": 7408,
      "works": 7409,
      "roduction": 7410,
      "ØªØ¦Ø§Ø¨": 7411,
      "ÙħÙĪÙĬÙĦ": 7412,
      "Ø±ÙĪØ§Øª": 7413,
      "Ġorganizations": 7414,
      "Ġwond": 7415,
      "aled": 7416,
      "ros": 7417,
      "ÙĦÙħÙĪÙĨ": 7418,
      "¤ÙĦØ§Ø¡": 7419,
      "Ġstructures": 7420,
      "ĠØ§ÙĦÙħØ³ØªØ®Ø¯Ùħ": 7421,
      "ancing": 7422,
      "ØªØ§ÙĨ": 7423,
      "cember": 7424,
      "ĠØ³Øª": 7425,
      "ĠØŃÙĤÙĬÙĤØ©": 7426,
      "ÙĪØªÙĬØ©": 7427,
      "ĠØ¨Ø¨Ø³Ø§Ø·Ø©": 7428,
      "Ġtou": 7429,
      "Ġworth": 7430,
      "ĠÙĩØ¯Ùģ": 7431,
      "ĠØ§ÙĦØµØŃÙĬ": 7432,
      "urance": 7433,
      "ĠØ§ÙĦØªØ´ØºÙĬÙĦ": 7434,
      "ĠØ§ÙĦÙħØ³Ø¤": 7435,
      "Ġnumerous": 7436,
      "ĠÙĪØ¬Ø¯": 7437,
      "ÙģØªÙĪØŃØ©": 7438,
      "ĠØ§ÙĦØ§Ø³ØªÙ": 7439,
      "ĠØ§ÙĦÙĥØ§ÙħÙĦØ©": 7440,
      "ĠØ§ÙĦØŃÙħØ±Ø§Ø¡": 7441,
      "Ġdetect": 7442,
      "ÙĪØ±Ø¯": 7443,
      "ĠØ§ÙĦØ£ØŃØ¯Ø§Ø«": 7444,
      "Ġten": 7445,
      "ĠEssay": 7446,
      "ĠJesus": 7447,
      "76": 7448,
      "change": 7449,
      "rote": 7450,
      "Ġjour": 7451,
      "Ġprofession": 7452,
      "ĠØ¨ÙĨ": 7453,
      "ĠÙħÙĨØªØ¬Ø§Øª": 7454,
      "ĠØ§ÙĦÙħØ§Ø¦Ø©": 7455,
      "yth": 7456,
      "Ġclinical": 7457,
      "Ġcycle": 7458,
      "ĠØ§ÙĨÙĤ": 7459,
      "ĠSpe": 7460,
      "ĪÙĬØ´": 7461,
      "85": 7462,
      "rab": 7463,
      "ÙĪØ±ÙĨ": 7464,
      "ĠÙĪØªØ¬": 7465,
      "ĠØ§ÙĦØ¹ÙĨØ§ØµØ±": 7466,
      "ĠØµÙĪØ±": 7467,
      "era": 7468,
      "ĠÙĦÙħØ¹Ø±ÙģØ©": 7469,
      "Ġprocessing": 7470,
      "see": 7471,
      "ºÙĪ": 7472,
      "ØªÙħØ¨Ø±": 7473,
      "ĪÙĬØ¶": 7474,
      "Ġmuscle": 7475,
      "ĠØ§ÙĦØ£Ø²": 7476,
      "ÙĪØ°": 7477,
      "ĨÙĩØ±": 7478,
      "ĠØ§ÙĦÙħØ¹ÙĦÙĪÙħØ§ØªÙĬØ©": 7479,
      "ĠRiver": 7480,
      "Ġformed": 7481,
      "ĠTherefore": 7482,
      "Ġexperim": 7483,
      "ĠØ´Ø±Ø§Ø¡": 7484,
      "off": 7485,
      "TS": 7486,
      "orb": 7487,
      "ĠÙĨÙĪÙģ": 7488,
      "ibly": 7489,
      "Ġefficiency": 7490,
      "ÙĬØ§Ø©": 7491,
      "ĠØ§ÙĦÙħÙĥØªØ¨": 7492,
      "ĠOver": 7493,
      "Ġden": 7494,
      "Ġversion": 7495,
      "Ġforces": 7496,
      "ĠØ¨Ø§ÙĦØ³": 7497,
      "Ġplans": 7498,
      "Ġphen": 7499,
      "ÙĪÙĦÙĩØ§": 7500,
      "ovember": 7501,
      "ĠÙĬÙĪÙĦÙ": 7502,
      "ĠØªÙħØ«ÙĦ": 7503,
      "ĠØ§ÙĦØ¯Ø§Ø®ÙĦÙĬØ©": 7504,
      "bal": 7505,
      "Äģ": 7506,
      "known": 7507,
      "Ø´Ø±ÙĬÙĨ": 7508,
      "ĠØ§ÙĦØ¹ÙĬÙĨ": 7509,
      "Ġletter": 7510,
      "Ġeffectively": 7511,
      "ĠÙħØ§Ø°Ø§": 7512,
      "Ġdistribution": 7513,
      "ĠØ§ÙĦØ³ÙĦ": 7514,
      "Un": 7515,
      "Ġconcepts": 7516,
      "Ġbox": 7517,
      "Ġantib": 7518,
      "ĠØ§ÙĦØ£Ø¬ÙĩØ²Ø©": 7519,
      "Ġemphas": 7520,
      "cel": 7521,
      "ĠÙĪØ¬Ø¯Øª": 7522,
      "Ø°Ùĩ": 7523,
      "Ġmid": 7524,
      "ĠØ£Ø¯Ø§Ø©": 7525,
      "Ġmonit": 7526,
      "ÙĪØ¸": 7527,
      "ulum": 7528,
      "ĠÙĬÙĪÙĨÙĬÙĪ": 7529,
      "ĠØ¹ÙĦØ§ÙĪØ©": 7530,
      "iful": 7531,
      "ought": 7532,
      "Ġbuy": 7533,
      "Ġrule": 7534,
      "ructure": 7535,
      "ĠÙĨØ¨Ø§Øª": 7536,
      "ĠÙĦØ¶ÙħØ§ÙĨ": 7537,
      "ares": 7538,
      "ĠØ¹ÙħØ±": 7539,
      "ÙĦÙĪØ§Ù": 7540,
      "Ġemotional": 7541,
      "ĠAmericans": 7542,
      "Ġgir": 7543,
      "ĠChristian": 7544,
      "ÙĬÙĥÙ": 7545,
      "ĠØ§ÙĦØ§ØªØŃØ§Ø¯": 7546,
      "rupt": 7547,
      "ĠØ§ÙĦØ§ØµØ·ÙĨØ§Ø¹ÙĬ": 7548,
      "Ġrisks": 7549,
      "Ġshowed": 7550,
      "ĠØªØµÙĦ": 7551,
      "Ġdistance": 7552,
      "ĠØ£ÙĨÙģØ³": 7553,
      "ĠØ®ÙĦØ§ÙĬØ§": 7554,
      "vious": 7555,
      "ĠSocial": 7556,
      "ĠÙħØ¦": 7557,
      "ĠØ§ÙĦÙħÙĨØ§Ø³Ø¨": 7558,
      "ĠÙħØµØ§Ø¯Ø±": 7559,
      "ditionally": 7560,
      "ĠØ§Ø³ØªØ®Ø¯": 7561,
      "Ġeasier": 7562,
      "ĠÙĪØ§ÙĦÙĩ": 7563,
      "Ġattract": 7564,
      "ĠÙħÙģÙĬØ¯Ø©": 7565,
      "Ġregions": 7566,
      "ÙĦÙĪØ±": 7567,
      "ĠÙĪÙĥØ§Ù": 7568,
      "Ġfemale": 7569,
      "ĠØ§ÙĦÙĪÙ": 7570,
      "Ġwinter": 7571,
      "ĠØ§ÙĦØ¹Ø¸Ø": 7572,
      "Ġnames": 7573,
      "Ġrepl": 7574,
      "ĠØ§ÙĦØ¹Ø¸Ø§": 7575,
      "Ø¯ÙĨÙī": 7576,
      "ĠØ§ÙĦÙħØªÙĪØ³Ø·": 7577,
      "ØŃØ§Ø¨": 7578,
      "raw": 7579,
      "ĠØ§ÙĦÙĬÙĪÙĨØ§": 7580,
      "ĠØ´Ø®ØµÙĬØ©": 7581,
      "ĠThen": 7582,
      "ØµØµØ©": 7583,
      "ĠÙħØŃØ§ÙĪÙĦØ©": 7584,
      "ĠHel": 7585,
      "plications": 7586,
      "Ø§Ø´Ø©": 7587,
      "ĠØ§ÙĦØ³Ø±Ø·Ø§ÙĨ": 7588,
      "ĠØªØªØ¹": 7589,
      "ĠChe": 7590,
      "Ġincome": 7591,
      "atin": 7592,
      "ÙħÙĦÙĪÙĨ": 7593,
      "ÙĪØ§ÙĤ": 7594,
      "Ġmo": 7595,
      "ĠRel": 7596,
      "Ġreference": 7597,
      "Ġice": 7598,
      "ĠDav": 7599,
      "ĠØ¯Ø¹ÙĪÙĨØ§": 7600,
      "ĠJuly": 7601,
      "ondon": 7602,
      "oday": 7603,
      "ĠÙħÙĨØ§Ø³Ø¨Ø©": 7604,
      "Ø°Ù": 7605,
      "ĠÙĪØªØ®": 7606,
      "Ø³Ø§Ùħ": 7607,
      "ĠØ£Ø³ÙģÙĦ": 7608,
      ");": 7609,
      "·ÙĦØ¨Ø§Øª": 7610,
      "ĠØ¨Ø§ÙĦØªØ£ÙĥÙĬØ¯": 7611,
      "Ġhous": 7612,
      "Ġpiece": 7613,
      "ÙĦØ§ÙĩØªÙħØ§Ùħ": 7614,
      "elines": 7615,
      "ĠØ£Ø¨Ø±ÙĬÙĦ": 7616,
      "ĠProf": 7617,
      "Ġfully": 7618,
      "igen": 7619,
      "Ġnearly": 7620,
      "ĠÙĪÙĬØ³": 7621,
      "ĠØ§ÙĦÙĥØ§Ø¦Ù": 7622,
      "ĠØ§ÙĦØ¯Ùģ": 7623,
      "Ġeffort": 7624,
      "§ÙĦØ§ÙĩØªÙħØ§Ùħ": 7625,
      "ĠÙĬÙĨØ§ÙĬØ±": 7626,
      "ĠØ§ÙĦØ¨ÙĬÙĪÙĦÙĪØ¬": 7627,
      "ĠÙħØ¬ÙĦØ©": 7628,
      "ÙĦÙĪØ§ÙĨ": 7629,
      "orial": 7630,
      "ĠØ§ÙĦØ£ÙĪØ±Ø§ÙĤ": 7631,
      "ĠØŃØ¯ÙĬØ«": 7632,
      "Ġplanet": 7633,
      "ĠÙĬØ³ØªØ®Ø¯": 7634,
      "ifically": 7635,
      "uild": 7636,
      "Ġweak": 7637,
      "ĠØ§ÙĦØ¨Ø¯Ø§ÙĬØ©": 7638,
      "ĠÙĪÙĥØ§ÙĨ": 7639,
      "ĠØ§ÙĦØ¥ÙĨØªØ§Ø¬": 7640,
      "Ġbirds": 7641,
      "Ø³ØªØ®Ø¯Ùħ": 7642,
      "ĠØ¨Ø§ÙĦØ¨": 7643,
      "ĠØ§ÙĦÙĬØ¯": 7644,
      "Ġleave": 7645,
      "iveness": 7646,
      "Ġassessment": 7647,
      "ĠØ§ÙĦØºØ°Ø§Ø¡": 7648,
      "ĠPlan": 7649,
      "edom": 7650,
      "Ġhon": 7651,
      "ĠÙĤØ¯Ø±Ø©": 7652,
      "ØªÙĪØ¨Ø±": 7653,
      "Ġenhance": 7654,
      "ĠØ§ÙĦÙĪÙĤÙĪØ¯": 7655,
      "ĠPark": 7656,
      "opy": 7657,
      "Ġindustrial": 7658,
      "ĠØ§ÙĦØ¯ÙĩÙĪÙĨ": 7659,
      "ÙĦÙĬØ§Ùģ": 7660,
      "Ġclassroom": 7661,
      "ĠUnder": 7662,
      "ĠØ§ÙĦØªÙĨÙħÙĬØ©": 7663,
      "ÙģØ§ÙĬØ§Øª": 7664,
      "imens": 7665,
      "ĠØ§ÙĦØŃÙĤÙĬÙĤÙ": 7666,
      "ĠØ§ÙĦØŃÙĤÙĬÙĤÙĬ": 7667,
      "ÙĥÙĪØ¨": 7668,
      "Ġfeature": 7669,
      "ĠNow": 7670,
      "ĠØ§ÙĦØ¹ÙĤÙĦÙĬØ©": 7671,
      "ĠØ¥ÙĬÙĩ": 7672,
      "ĠØ§ÙĦØ§ÙĩØªÙħØ§Ùħ": 7673,
      "part": 7674,
      "ħØ±ÙĪØ±": 7675,
      "ĠØªÙĥÙĨ": 7676,
      "Ġadjust": 7677,
      "88": 7678,
      "Ø±ØºØ¨": 7679,
      "ĠØ§ÙĦÙĢ": 7680,
      "ĠØ£ÙĥØªÙĪØ¨Ø±": 7681,
      "ĠDuring": 7682,
      "ĠØ§ÙĦØ£Ø³Ø§Ø³": 7683,
      "Ø§Ø¯ÙĦØ©": 7684,
      "ĠØ§ÙĦØ£Ø®ÙĦØ§ÙĤ": 7685,
      "Ġmut": 7686,
      "ĠØ§ÙĦÙħÙĥÙĪÙĨØ§Øª": 7687,
      "ÙĪØ§ÙĬØ©": 7688,
      "ĠØ¹Ø§ÙħØ©": 7689,
      "ĠØ§ÙĦØ³Ø¤Ø§ÙĦ": 7690,
      "Ġhealthcare": 7691,
      "Ø¬ÙĬÙĨ": 7692,
      "Ġtox": 7693,
      "Ġalone": 7694,
      "ĠØ§ÙĦÙģØ¶": 7695,
      "ĠØ§ÙĦÙħØ¹Ø§Ø¯ÙĨ": 7696,
      "ĠØ§ÙĦÙĪØ¬": 7697,
      "Ġcontribute": 7698,
      "Ġgender": 7699,
      "ĠØ±Ø§Ø¦Ø¹Ø©": 7700,
      "ĠØ§ÙĦØ§Ø¨": 7701,
      "Ġemail": 7702,
      "ĠWilliam": 7703,
      "ĠØ§ÙĦÙĨÙģØ§ÙĬØ§Øª": 7704,
      "Ġmember": 7705,
      "ĠØ£Ø¹ÙĦ": 7706,
      "Ġlayer": 7707,
      "ĠØ¨Ø±Ø§ÙħØ¬": 7708,
      "hab": 7709,
      "Ġtissue": 7710,
      "ÙĩØ§ÙĬØ©": 7711,
      "ĠNet": 7712,
      "ÙĪØ±Ø¬": 7713,
      "Ġagg": 7714,
      "Ġfriend": 7715,
      "ÙĦÙĬÙĦØ©": 7716,
      "Ġcommercial": 7717,
      "ÙĦØ§ØŃØ¸": 7718,
      "US": 7719,
      "Ġdepression": 7720,
      "Ġatmosp": 7721,
      "ĠØ£Ø¹ÙĦØ§Ùĩ": 7722,
      "unt": 7723,
      "Ġsaw": 7724,
      "ĠØªÙĨØªØ¬": 7725,
      "osa": 7726,
      "Ġcoast": 7727,
      "unction": 7728,
      "ĠØ§ÙĦÙħØªØŃØ±ÙĥØ©": 7729,
      "DA": 7730,
      "ĠØ§ÙĦÙĤÙĦÙĤ": 7731,
      "Ġfert": 7732,
      "ÙģÙĬØ²": 7733,
      "ĠØ§ÙĦØŃØ±ÙĥØ©": 7734,
      "Ø°Ø±": 7735,
      "Ġmoment": 7736,
      "Ġjournal": 7737,
      "ĠÙĦØ¬ÙħÙĬØ¹": 7738,
      "Ġplastic": 7739,
      "ĠCor": 7740,
      "Ġspect": 7741,
      "Ġexpand": 7742,
      "Ø¨ÙĪÙĨ": 7743,
      "Some": 7744,
      "ĠØ£ØµÙĦ": 7745,
      "Ġsetting": 7746,
      "ÙĪÙĬØ´": 7747,
      "ĠØ§ÙĦØ£Ø´Ø¬Ø§Ø±": 7748,
      "ĠEven": 7749,
      "ĠØªÙĩ": 7750,
      "ÙĬØªÙĬ": 7751,
      "ĠØ§ÙĦØ¹ÙĦØ§ÙĤØ§Øª": 7752,
      "ØªØ«ÙħØ§Ø±": 7753,
      "ĠEach": 7754,
      "ĠPeople": 7755,
      "Ġdirection": 7756,
      "Ġincorpor": 7757,
      "Ġsave": 7758,
      "Ġmajority": 7759,
      "Ġexcell": 7760,
      "Ġsustainable": 7761,
      "hyd": 7762,
      "Ġcommand": 7763,
      "acters": 7764,
      "ĠØ§ÙĦÙħÙĬÙĦØ§Ø¯": 7765,
      "ĠÙĨÙĤØ§Ø·": 7766,
      "ĠØ³Ø¨ØªÙħØ¨Ø±": 7767,
      "ĠØªØ±ÙĥÙĬØ²": 7768,
      "ĠØ±ÙĪØ¨": 7769,
      "ĠØ±Ø³Ùħ": 7770,
      "Ġmouth": 7771,
      "ĠØ§ÙĦÙħØ·Ø§Ùģ": 7772,
      "ÙĨÙĩØ±": 7773,
      "Ġexisting": 7774,
      "ĠØ±ÙħØ²": 7775,
      "ØŃÙĨ": 7776,
      "ĠGovern": 7777,
      "ĠØ§ÙĦØ¶Ø±ÙĪØ±ÙĬ": 7778,
      "Ġapply": 7779,
      "ÙĦÙĨØ¯Ø§": 7780,
      "ħØ¯Ø±Ø³Ø©": 7781,
      "ØªØ®Ø¯ÙħÙĬÙĨ": 7782,
      "icip": 7783,
      "Ġdisorders": 7784,
      "ĠØ§ÙĦÙĨØ§Ø¬": 7785,
      "âĢ¬âĢ¬âĢ¬âĢ¬âĢ¬âĢ¬âĢ¬âĢ¬âĢ¬âĢ¬âĢ¬âĢ¬âĢ¬âĢ¬âĢ¬âĢ¬âĢ¬âĢ¬âĢ¬âĢ¬âĢ¬âĢ¬âĢ¬âĢ¬âĢ¬âĢ¬âĢ¬âĢ¬âĢ¬âĢ¬âĢ¬âĢ¬": 7786,
      "tes": 7787,
      "Ġasked": 7788,
      "Ġmanage": 7789,
      "ĠØ§Ø³ØªÙĩÙĦØ§Ùĥ": 7790,
      "ĠFeb": 7791,
      "Ph": 7792,
      "ĠØ²Ù": 7793,
      "Ġalternative": 7794,
      "ĠÙĪØ¸Ø§Ø¦Ùģ": 7795,
      "ĠØ¬ÙĨØ¨Ø": 7796,
      "ĠØ§ÙĦÙĪÙĦ": 7797,
      "ĠØ¬ÙĨØ¨Ø§": 7798,
      "ĠMat": 7799,
      "ĠÙĦÙĦØ±": 7800,
      "ĠØ§ÙĦÙħÙĨØ§Ø¹Ø©": 7801,
      "ĠØ§ÙĦØŃÙĬØ©": 7802,
      "ĠØªØ£ØªÙĬ": 7803,
      "ĠVir": 7804,
      "being": 7805,
      "ĠØ§ÙĦÙħØ±Ø": 7806,
      "ĠØ§ÙĦÙĨÙģØ³": 7807,
      "Ġevolution": 7808,
      "ØµÙī": 7809,
      "Ġdivers": 7810,
      "Ġmig": 7811,
      "Ġdiss": 7812,
      "ĠSur": 7813,
      "Ġbound": 7814,
      "ĠØ±Ø¦ÙĬØ³Ù": 7815,
      "ĠØªØ¹ØªØ¨Ø±": 7816,
      "isation": 7817,
      "ocr": 7818,
      "ĠØ±Ø¦ÙĬØ³ÙĬ": 7819,
      "ĠØ§ÙĦØµÙĦØ©": 7820,
      "Ø¨ÙĬØ§": 7821,
      "ÙĦÙħØ": 7822,
      "ĠØ§ÙĦÙħÙħÙĥÙĨ": 7823,
      "Ġtechnique": 7824,
      "ĠCur": 7825,
      "char": 7826,
      "ĠÙĦÙĩØ°Ùĩ": 7827,
      "ÙĬØ§ÙĨØ§": 7828,
      "ĠRoman": 7829,
      "iest": 7830,
      "ĠÙĨÙĩØ±": 7831,
      "ĠAv": 7832,
      "Ar": 7833,
      "Ġnamed": 7834,
      "enty": 7835,
      "ĠØ§ÙĦÙħÙĩØ§Ø±Ø§Øª": 7836,
      "hors": 7837,
      "ulf": 7838,
      "ĠØ£Ø³Ø¦ÙĦØ©": 7839,
      "ĠØ§ÙĦØŃØ§Ø¬Ø©": 7840,
      "ĠØ·Ù": 7841,
      "Ġtasks": 7842,
      "ĠSeptember": 7843,
      "ĠØ¹Ø¨": 7844,
      "cast": 7845,
      "ĠØ§ÙĦØ¹Ø¸Ø§Ù": 7846,
      "ĠØ§ÙĦØ¹Ø¸Ø§Ùħ": 7847,
      "ÙĦÙĬØ³": 7848,
      "47": 7849,
      "ĠØ±Ø¤": 7850,
      "ĠPC": 7851,
      "ĠØ§ÙĦÙĬÙĪÙħÙĬØ©": 7852,
      "ĠÙģØ±ØµØ©": 7853,
      "ĠØ¥Ø´Ø§Ø±Ø©": 7854,
      "Ġrelevant": 7855,
      "Ø¨Ø§ÙĨÙĬ": 7856,
      "ĠØªØ¨Ø¯ÙĪ": 7857,
      "ĠØ§ÙĦØ¯Ø±ÙĪØ³": 7858,
      "Ġexpert": 7859,
      "Ðµ": 7860,
      "ĠØ¹Ø§ÙĦÙħÙ": 7861,
      "ħØ§Ø³": 7862,
      "Ġupd": 7863,
      "Ø§Ø¯ÙĬÙħÙĬØ©": 7864,
      "ĠÙĪÙħØ±": 7865,
      "mary": 7866,
      "house": 7867,
      "ĠJanuary": 7868,
      "ĠØ§ÙĦØ®Ø§Ø±Ø¬ÙĬØ©": 7869,
      "ĠCour": 7870,
      "³Ø§ÙĩÙħ": 7871,
      "cular": 7872,
      "ĠØ®Ø¯ÙħØ§Øª": 7873,
      "Ġrecently": 7874,
      "ĠÙĪØ§Ø¶ØŃ": 7875,
      "Ġargument": 7876,
      "ĠØ§ÙĦØ¯ÙĬÙĨ": 7877,
      "roph": 7878,
      "Ġpresented": 7879,
      "Ġtransform": 7880,
      "Ø¯Ùĩ": 7881,
      "ĠØ§ÙĦÙĥØ¨Ø±Ùī": 7882,
      "ĠØ¨ÙĪØ§Ø³": 7883,
      "Ġdiscovered": 7884,
      "Ġtrust": 7885,
      "Ġchanged": 7886,
      "ĠNews": 7887,
      "Ġnothing": 7888,
      "ĠØ¹ÙĦÙħØ§Ø¡": 7889,
      "Ġtips": 7890,
      "Ġblue": 7891,
      "ĠØ§ÙĦØ£Ø¹Ø±Ø§Ø¶": 7892,
      "Ġ500": 7893,
      "Ø®Ùħ": 7894,
      "ĠØ³ÙĬØ³": 7895,
      "Ġwidely": 7896,
      "ĠØ·ÙĦØ§Ø¨": 7897,
      "49": 7898,
      "ĠÙĪØ§ÙĦØªØ±": 7899,
      "ĠØ¨Ø¯Ø§ÙĬØ©": 7900,
      "Ġvolume": 7901,
      "ĠRef": 7902,
      "Ð¾": 7903,
      "66": 7904,
      "Ø¯ÙĦØ§Øª": 7905,
      "Ġiniti": 7906,
      "ĠÙĬÙĪÙĦÙĬÙĪ": 7907,
      "Ġoxygen": 7908,
      "inated": 7909,
      "Ø§ÙĤØ§Øª": 7910,
      "Ġvital": 7911,
      "ĠRev": 7912,
      "ÙĨØ¸ÙħØ©": 7913,
      "Ġconnected": 7914,
      "Ġplaced": 7915,
      "related": 7916,
      "ĠÙĦÙĦØ": 7917,
      "ĠØ¸Ø±ÙĪÙģ": 7918,
      "ĠØ§ÙĦÙĨÙĩØ§ÙĬØ©": 7919,
      "ĠÙģØŃØµ": 7920,
      "Cl": 7921,
      "ION": 7922,
      "55": 7923,
      "ĠØ¬ÙĪØ¯Ø©": 7924,
      "ĠØ§ÙħØ": 7925,
      "mat": 7926,
      "ĠØ§ÙĦØ¬Ùħ": 7927,
      "ilit": 7928,
      "Ġsynt": 7929,
      "uable": 7930,
      "Ġallowed": 7931,
      "ĠÙĪÙħÙĤ": 7932,
      "cipl": 7933,
      "Ġprinciples": 7934,
      "ĠØ¨ÙĪØ§Ø³Ø·Ø©": 7935,
      "Ø¯ÙĪØ¬": 7936,
      "Ġopin": 7937,
      "ĠAustralia": 7938,
      "Ġoccup": 7939,
      "ĠØ§ÙĦØ¨ÙĬØ¶Ø§Ø¡": 7940,
      "ÙĪØ¶ØŃ": 7941,
      "ĠDec": 7942,
      "ĠØ§ÙĦØ¹ÙĦÙħÙĬØ©": 7943,
      "ĠÙĨØ¸Ø±Ø©": 7944,
      "rations": 7945,
      "Ġearlier": 7946,
      "Ġdepending": 7947,
      "ħØ±ØªØ¨Ø·Ø©": 7948,
      "ĨØ§Ø¹": 7949,
      "Ġ2001": 7950,
      "agraph": 7951,
      "ĠØªØ³Ø¬ÙĬÙĦ": 7952,
      "Ġpromote": 7953,
      "Ġrelatively": 7954,
      "89": 7955,
      "Ø³Ø·Ø³": 7956,
      "Ġrepe": 7957,
      "Ġfederal": 7958,
      "uration": 7959,
      "ĪØ§Ø¨": 7960,
      "Ø¨Ø¶": 7961,
      "Ġtold": 7962,
      "ux": 7963,
      "ĠÙĪÙĩ": 7964,
      "ĠØ§ÙĦØªÙĨÙģÙĬØ°": 7965,
      "ĠØ§ÙĦÙĥØ§ÙħÙĦ": 7966,
      "ĠØ§ÙĦÙħØ·ÙĦÙĪØ¨": 7967,
      "ĠØ§ÙĦØ¨Ø±ÙĨØ§ÙħØ¬": 7968,
      "ĠØªÙģØ³ÙĬØ±": 7969,
      "ĠLaw": 7970,
      "Ø±ÙĬØ¨ÙĬØ©": 7971,
      "ĠØªØªÙĥÙĪÙĨ": 7972,
      "Ġtrend": 7973,
      "ÙħØ±ØªØ¨Ø·Ø©": 7974,
      "ĠÙĬØ£ØªÙĬ": 7975,
      "§ÙģÙĤØ©": 7976,
      "ĠØ§ÙĦØ¨ÙĥØªÙĬØ±ÙĬØ§": 7977,
      "ĠPresident": 7978,
      "ĠAN": 7979,
      "ĠØ¥ÙĦØ®": 7980,
      "iding": 7981,
      "ĠÙħÙĨÙģ": 7982,
      "ÙĩÙĬÙĦ": 7983,
      "anguages": 7984,
      "ĠØ§ÙĦØ¨ÙĤ": 7985,
      "ÙĬØªÙĩ": 7986,
      "Ġrecommended": 7987,
      "Ġoperations": 7988,
      "³Ø§ÙĪØ§Ø©": 7989,
      "Ġglass": 7990,
      "Ġstorage": 7991,
      "ĠØ³Ø±Ø·Ø§ÙĨ": 7992,
      "ĠØ¹ÙĦØ§ÙĤØ©": 7993,
      "Ġtele": 7994,
      "rest": 7995,
      "Ġ)": 7996,
      "ÙħÙĨÙĬØ©": 7997,
      "ĠÙģÙĪØ§Ø¦Ø¯": 7998,
      "ĠÙħØ±ØªØ¨Ø·Ø©": 7999,
      "encies": 8000,
      "ĠØ±Ø¹Ø§ÙĬØ©": 8001,
      "ĠOctober": 8002,
      "ĠØªØ±ØºØ¨": 8003,
      "ĠCity": 8004,
      "ĠØ³ÙĦÙĪÙĥ": 8005,
      "ĠJust": 8006,
      "BC": 8007,
      "ĠØ£ÙĬÙĨ": 8008,
      "ĠSince": 8009,
      "Ġgiving": 8010,
      "unch": 8011,
      "ªØ±Ø¶": 8012,
      "Ġforward": 8013,
      "ographic": 8014,
      "ĠØ§ÙĦØ¨Ø§ØŃØ«ÙĪÙĨ": 8015,
      "Ġextremely": 8016,
      "Ġemissions": 8017,
      "Ġoption": 8018,
      "ras": 8019,
      "LA": 8020,
      "ĠØ§ÙĦÙħØ´Ø§Ø±ÙĥÙĬÙĨ": 8021,
      "Ġpicture": 8022,
      "ĠÙĪØ£ÙĥØ«Ø±": 8023,
      "ball": 8024,
      "met": 8025,
      "ĠØ£ÙĪØ±": 8026,
      "Ġremove": 8027,
      "semb": 8028,
      "Ġ300": 8029,
      "Ġtrig": 8030,
      "ĠØ¨Ø§ÙĦØ´": 8031,
      "Ġhimself": 8032,
      "Ġfrequently": 8033,
      "ĠBecause": 8034,
      "ession": 8035,
      "ĠØ§ÙĦÙĤÙĬØ§Ø¯Ø©": 8036,
      "ĠConf": 8037,
      "ĠSub": 8038,
      "ĠØ¥Ø«": 8039,
      "ĠØ§ÙĦÙĪÙĬØ¨": 8040,
      "erate": 8041,
      "Ġmulti": 8042,
      "Ġfamous": 8043,
      "ĠØ§ÙĦÙħÙĪØ§ÙĤØ¹": 8044,
      "ĠTheir": 8045,
      "Ġcoming": 8046,
      "ĠØ§ÙĦÙħÙĨØ§Ø³Ø¨Ø©": 8047,
      "Ġ2002": 8048,
      "su": 8049,
      "rops": 8050,
      "Res": 8051,
      "ĠØ¥ÙħÙĥØ§ÙĨÙĬØ©": 8052,
      "Ø§Ø¯Ùħ": 8053,
      "ĠÙĩØ¤ÙĦØ§Ø¡": 8054,
      "ĠØ§ÙĦØ¬Ø³": 8055,
      "ĪØ§Ø¦ÙĬØ©": 8056,
      "ĠEast": 8057,
      "Ð°": 8058,
      "Ġmap": 8059,
      "ĠÙħØ§Ùĥ": 8060,
      "ĠÙģØªØŃ": 8061,
      "Ġprefer": 8062,
      "77": 8063,
      "ĠØ§ÙĦÙħØ±Ø¬ØŃ": 8064,
      "ĠÙĥÙĪØ±": 8065,
      "Ġbillion": 8066,
      "mal": 8067,
      "ĬÙĥÙĪÙĨ": 8068,
      "rum": 8069,
      "Ġgeneration": 8070,
      "Ġnative": 8071,
      "ĠØ§ÙĦØ£ÙģÙĥØ§Ø±": 8072,
      "crib": 8073,
      "ĠÙĥÙĪÙĦÙ": 8074,
      "Ġorganic": 8075,
      "Ġdescribe": 8076,
      "pen": 8077,
      "poses": 8078,
      "Ø¸ÙĩØ±": 8079,
      "Ġelectricity": 8080,
      "ĠØ¨ÙĨØ³Ø¨Ø©": 8081,
      "Ġfindings": 8082,
      "Ġdistinct": 8083,
      "Ġadvanced": 8084,
      "rane": 8085,
      "iny": 8086,
      "ĠØ¹ÙĨÙĪØ§ÙĨ": 8087,
      "ĠRet": 8088,
      "ĠØ£ÙĨÙĨØ§": 8089,
      "Ġregarding": 8090,
      "ĠSy": 8091,
      "ĠØ§Ø¶Ø·Ø±Ø§Ø¨Ø§Øª": 8092,
      "ĠØ§ÙĦÙħØ³ØªÙĪÙī": 8093,
      "Ġpul": 8094,
      "ĠØ§ÙĦØªØ¹Ø±Ùģ": 8095,
      "ĠØ¯Ø": 8096,
      "Ġcharacters": 8097,
      "ĠØ«Ø§Ø¨Ø": 8098,
      "Ø§Ø¡Ø§Øª": 8099,
      "ĤØ±Ø§Ø·": 8100,
      "ĠØ§ÙĦÙĥÙĨÙĬØ³Ø©": 8101,
      "Ø¨ÙĥØ§Øª": 8102,
      "Ġpric": 8103,
      "ĠÙĬÙĦ": 8104,
      "osystem": 8105,
      "ĠØ§ÙĦØ¥ÙĬØ¬": 8106,
      "Ġexpression": 8107,
      "²Ø§Ùħ": 8108,
      "Ġbud": 8109,
      "ĠØ¨ÙĦØ¯": 8110,
      "Ġforeign": 8111,
      "ÙĪØ±ÙĨÙĬØ§": 8112,
      "Ġfilm": 8113,
      "Ġprepar": 8114,
      "Ø§ÙĦÙħ": 8115,
      "Ġhighest": 8116,
      "onds": 8117,
      "ĠÙĪØ§ÙĦØ²": 8118,
      "ĠØ§ÙĦØ¬ÙĪØ¯Ø©": 8119,
      "Ġpp": 8120,
      "ĠØ¹ÙĪØ§ÙħÙĦ": 8121,
      "ĠØ¨ØªÙĤ": 8122,
      "rete": 8123,
      "Ġurban": 8124,
      "Ø§Ø·Ø¦": 8125,
      "rael": 8126,
      "ĠØªØ£ÙĥØ¯": 8127,
      "Ġbackground": 8128,
      "ĠØ§ÙĦØ£Ø±Ø¨": 8129,
      "ĠGermany": 8130,
      "Ġstrategy": 8131,
      "ĠØ§ÙĦØ´Ø¨ÙĥØ©": 8132,
      "Ġhighlight": 8133,
      "ĠØªØ¬Ø¹ÙĦ": 8134,
      "ĠØ·Ø¨ÙĬØ¹Ù": 8135,
      "ĠØ·Ø¨ÙĬØ¹ÙĬ": 8136,
      "Ġarticles": 8137,
      "\"ØĮ": 8138,
      "ĠØªØŃÙħÙĦ": 8139,
      "Ø§ÙĩØ¯": 8140,
      "ĠÙĬØ¬Ø¹": 8141,
      "ÙħØ¨Ø±Ø§Ø·": 8142,
      "Ġcombination": 8143,
      "ĠArch": 8144,
      "ĠØªÙĨØ¸ÙĬÙħ": 8145,
      "eria": 8146,
      "Ġconnection": 8147,
      "ĬØ±ÙĬØ¯": 8148,
      "Ġpeace": 8149,
      "Ġoutput": 8150,
      "Ġstaff": 8151,
      "Ø³Ø§Ø³": 8152,
      "ĠData": 8153,
      "ØŃÙĪÙĦ": 8154,
      "ĠØªØ¯Ø±ÙĬØ¨": 8155,
      "ĠØ£Ø¹Ø¶Ø§Ø¡": 8156,
      "ĪÙĦÙĬØ¯": 8157,
      "Ġdied": 8158,
      "ĠØ¨Ø¯ÙĪÙĨ": 8159,
      "comes": 8160,
      "ĠTest": 8161,
      "ĠÙĦØ§ØŃØ¸": 8162,
      "Ø¬Ùī": 8163,
      "Ġmoving": 8164,
      "ĠØ§ÙĦØ³ÙĦØ·Ø©": 8165,
      "ĠMicro": 8166,
      "ĠLearning": 8167,
      "ØªØ±Ùģ": 8168,
      "Ġreports": 8169,
      "ĨØ§Ø¦ÙĬØ©": 8170,
      "Ġneigh": 8171,
      "Ø±ÙĬØ·Ø©": 8172,
      "Ġbran": 8173,
      "ĠØ§ÙĦÙĤÙĬÙħØ©": 8174,
      "ĠØ§ÙĦØ¨ÙĤØ§Ø¡": 8175,
      "ĠEnvironment": 8176,
      "ĠProt": 8177,
      "Ġeight": 8178,
      "Ġfavor": 8179,
      "ruary": 8180,
      "gypt": 8181,
      "Ġthesis": 8182,
      "ĠAP": 8183,
      "Ġwatch": 8184,
      "ĠÙĪÙĥÙĬÙģ": 8185,
      "Ø§ÙĦÙĬÙģÙĪØ±ÙĨÙĬØ§": 8186,
      "Ġreaction": 8187,
      "Ġperformed": 8188,
      "ĠØ¯ÙĬØ³ÙħØ¨Ø±": 8189,
      "ĠÙħÙĬØ§Ùĩ": 8190,
      "Ġhom": 8191,
      "ĠØ§ÙĦØ¯ÙĪÙĦØ©": 8192,
      "ĠÙĥÙĦÙħØ§": 8193,
      "ØºØ±Ø§Ùģ": 8194,
      "ħØ¯ÙĬØ±": 8195,
      "Ġdogs": 8196,
      "Ġrefers": 8197,
      "Ø±ÙĪØ¹Ø©": 8198,
      "ÙĬØ§ÙĤ": 8199,
      "ÙħØ¯Ø±Ø³Ø©": 8200,
      "ĠØ§ÙĦØ³Ø±ÙĬØ±": 8201,
      "ĠWind": 8202,
      "ĠØ§ÙĦØ§ÙĤØªØµØ§Ø¯": 8203,
      "Ġinflamm": 8204,
      "amental": 8205,
      "reet": 8206,
      "Ã¡": 8207,
      "Ġnotes": 8208,
      "ĠØ§ÙĦØ¨Øµ": 8209,
      "Ġstar": 8210,
      "Ġexperiment": 8211,
      "ĠØ£Ø¯Ø§Ø¡": 8212,
      "Ġmathemat": 8213,
      "Ø±ÙĬØŃ": 8214,
      "ĠAng": 8215,
      "ĠInf": 8216,
      "ªØ³": 8217,
      "men": 8218,
      "ht": 8219,
      "ĠHouse": 8220,
      "ager": 8221,
      "ĠØ§ÙĦÙħØ¤Ø³": 8222,
      "ĠØ§ÙĨØª": 8223,
      "bi": 8224,
      "ĠÙĪØ§ÙĦØªÙĥ": 8225,
      "ĠØ±Ø¦ÙĬØ³ÙĬØ©": 8226,
      "ĠÙħÙģÙĩÙĪÙħ": 8227,
      "ĠØ¨ÙĩØ°Ùĩ": 8228,
      "âĢĿ,": 8229,
      "ĠÙĦØ£ÙĬ": 8230,
      "Ġcore": 8231,
      "des": 8232,
      "ĠØ§ÙĦÙħØ²Ø§Ø±Ø¹": 8233,
      "ĠÙĬØ±Ø¬Ùī": 8234,
      "Ġcities": 8235,
      "ĠÙĦÙĪÙĨ": 8236,
      "ĠØ§ÙĦÙħÙĥØ³": 8237,
      "Ġchance": 8238,
      "Ġmotiv": 8239,
      "ĠØ§ÙĦØªØµÙħÙĬÙħ": 8240,
      "Ø¯ÙĤ": 8241,
      "ĠØ¨ØŃÙĦÙĪÙĦ": 8242,
      "ĠMex": 8243,
      "Ġinternal": 8244,
      "Ġinsect": 8245,
      "Ġdiscover": 8246,
      "ĠPower": 8247,
      "Ġmilk": 8248,
      "spe": 8249,
      "ĠØŃÙĤÙĬÙĤ": 8250,
      "ĠÙĪØªÙĥ": 8251,
      "ĠØªÙĥÙĦÙģØ©": 8252,
      "eding": 8253,
      "Ġrunning": 8254,
      "ald": 8255,
      "ÙħÙĪØ±": 8256,
      "oul": 8257,
      "ÙĬÙĨØ": 8258,
      ".;": 8259,
      "ĠØ·ÙĪÙĬÙĦ": 8260,
      "ĠØ³ÙĨØ©": 8261,
      "ĠØºØ": 8262,
      "They": 8263,
      "ÙĪØŃØ©": 8264,
      "Ġmale": 8265,
      "Ġmedicine": 8266,
      "alt": 8267,
      "Ġsexual": 8268,
      "lege": 8269,
      "Ġconducted": 8270,
      "ĠWeb": 8271,
      "Ġtour": 8272,
      "ĠØ§ÙĦØŃØ¯ÙĪØ¯": 8273,
      "ÙĪÙĦØ": 8274,
      "ĠØ§ÙĦØ¸Ø±ÙĪÙģ": 8275,
      "Ġinfections": 8276,
      "ĠIP": 8277,
      "ĠØ§ÙĦÙĨØ·Ø§ÙĤ": 8278,
      "ĠØ§ÙĦØ£ÙĦÙħØ§": 8279,
      "olid": 8280,
      "ĠÙĨÙĪÙģÙħØ¨Ø±": 8281,
      "Ġelectrical": 8282,
      "ĠPDF": 8283,
      "ĠWorkshe": 8284,
      "Ġstore": 8285,
      "ĠØ§ÙĨØªØ´Ø§Ø±": 8286,
      "ĠÙĦÙĦÙħØ´": 8287,
      "ĠÙģØ¥ÙĨÙĩØ§": 8288,
      "Ġinfluen": 8289,
      "orge": 8290,
      "ĠÙĪØ¬Ùĩ": 8291,
      "gery": 8292,
      "Ġsolid": 8293,
      "Ġwrong": 8294,
      "ĠØ§ÙĦÙĥÙĦØ§Ø¨": 8295,
      "ĠÙĤØ·Ø¹Ø©": 8296,
      "Ġbed": 8297,
      "Ġchallenge": 8298,
      "ĠÙĪØ§ÙĦÙĪØ": 8299,
      "porary": 8300,
      "Ġproperly": 8301,
      "ĠDef": 8302,
      "Ġboard": 8303,
      "Ġstarting": 8304,
      "ĠØ§ÙĦÙĩÙĬØ¯": 8305,
      "ĠØ§ÙĦØ¹Ø§ÙĦÙĬØ©": 8306,
      "ĠØ¨Ø§ÙĦÙħÙ": 8307,
      "ĠDecember": 8308,
      "roup": 8309,
      "ĠØŃØµÙĦ": 8310,
      "ĠØ¥ÙĦÙĬÙĥ": 8311,
      "ashington": 8312,
      "ĠØ£ØºØ³Ø·Ø³": 8313,
      "Ġserve": 8314,
      "Ġbecoming": 8315,
      "ĠÙĦØªØŃØ³ÙĬÙĨ": 8316,
      "ĠFree": 8317,
      "Ġchronic": 8318,
      "Ġassum": 8319,
      "merican": 8320,
      "Ġmiles": 8321,
      "riculum": 8322,
      "Ø¨ÙĦÙĬØ©": 8323,
      "ĠÙħØ¯Ø±Ø³Ø©": 8324,
      "ĠÙħØ¹ÙĨÙī": 8325,
      "Ġinput": 8326,
      "Ġtim": 8327,
      "agram": 8328,
      "Ġded": 8329,
      "Ġwin": 8330,
      "ĠØ§ÙĦÙħÙĤØ§ÙĦØ§Øª": 8331,
      "ÙħØ§ÙĦÙ": 8332,
      "ĠÙĨØ´Ø±Øª": 8333,
      "Ġcarried": 8334,
      "ĠØ§ÙĦÙħØ¹Ø±ÙĪÙģØ©": 8335,
      "All": 8336,
      "ĠÙĪØ§ÙĦÙĨØ": 8337,
      "ĨØ³ÙĬÙĤ": 8338,
      "Ø±ÙĤØ©": 8339,
      "onic": 8340,
      "ĠCong": 8341,
      "Ġphase": 8342,
      "ĠÙħØŃØªÙĪÙī": 8343,
      "ĠØ§ÙĦØªØ¹Ø¨ÙĬØ±": 8344,
      "ĠØ´ÙĬÙĪØ¹Ø": 8345,
      "ĠØ´ÙĬÙĪØ¹Ø§": 8346,
      "Ġhuge": 8347,
      "Ġreality": 8348,
      "ificial": 8349,
      "ĠÙģØ¹Ø§ÙĦØ©": 8350,
      "ĠØ£Ø³Ø¨ÙĪØ¹": 8351,
      "ÙĦÙĨØ§": 8352,
      "ĠOrgan": 8353,
      "ĠØ§ÙĦØ®Ø·ÙĪØ©": 8354,
      "ÙĬØ±ÙĬØ¯": 8355,
      "ressive": 8356,
      "Ġseparate": 8357,
      "ĠØ§ÙĦÙħÙĤØ¯Ø³": 8358,
      "ĠDevelopment": 8359,
      "ĠØ¨ÙĬØ±": 8360,
      "ĠØ£Ø±Ø¶": 8361,
      "Ġvision": 8362,
      "ĠØªØ³Ø": 8363,
      "ĠÙģÙĩ": 8364,
      "Ġsuggests": 8365,
      "ĠØ³Ø§Ø¹Ø§Øª": 8366,
      "Ø¨Ø§Ù": 8367,
      "Ġexhib": 8368,
      "Ġtemperatures": 8369,
      "ĠØ°ÙĪÙĬ": 8370,
      "ØªØ±Ø¶": 8371,
      "Ġformer": 8372,
      "Ø¯ÙĪÙĤ": 8373,
      "ĠÙģÙĬØ¯": 8374,
      "ÙĦÙĪØ³": 8375,
      "Ġvoc": 8376,
      "ĠØ£ÙĪØ±Ø§ÙĤ": 8377,
      "ĠÙħÙĨØµ": 8378,
      "Ġresulting": 8379,
      "ĠStudents": 8380,
      "Ġsurvey": 8381,
      "ĠØ¸ÙĦ": 8382,
      "ĠÙĬØ´Ø¹Ø±": 8383,
      "ĠÙĪØªØµ": 8384,
      "antic": 8385,
      "ĠØ§ÙĦØ¹Ø¯ÙĪÙī": 8386,
      "ĠØ§ÙĦØ«Ø§ÙĨÙĪÙĬØ©": 8387,
      "ĠÙĤØ§Ø¨ÙĦØ©": 8388,
      "Ġfigure": 8389,
      "RI": 8390,
      "lick": 8391,
      "ĠÙĬØ³ÙĪØ¹": 8392,
      "ĠØ¥ÙħØ§": 8393,
      "ĠØ¥ØŃ": 8394,
      "ĠØ§ÙĦÙĤØ¶Ø§ÙĬØ§": 8395,
      "ĠØ§ÙĦÙĪØ§Ø¶": 8396,
      "ĠØªÙĤØ±ÙĬØ¨": 8397,
      "Ġbelieved": 8398,
      "Ø¹Ø§Ø«": 8399,
      "ĠØ§ÙĦØŃØ±Ø§Ø±ÙĬØ©": 8400,
      "08": 8401,
      "ĠÙħÙħÙĥÙĨ": 8402,
      "Ø¸ÙĩØ§Ø±": 8403,
      "och": 8404,
      "Ø¨Ø¹Ø§Ø¯": 8405,
      "Ġfig": 8406,
      "ĠØ§ÙĦØ£ÙĨØ³Ø¬Ø©": 8407,
      "Ġ36": 8408,
      "ªØ§Ø¡": 8409,
      "Can": 8410,
      "rep": 8411,
      "Ġunc": 8412,
      "Ø¨Ø±Ø§ÙĬØ±": 8413,
      "ĠLondon": 8414,
      "ĠMet": 8415,
      "OT": 8416,
      "¦ÙĬØ©": 8417,
      "Ġthr": 8418,
      "Ġrevolution": 8419,
      "Ġbone": 8420,
      "ĠØªØ¹Ø¯ÙĬÙĦ": 8421,
      "ĠÙĥØªÙĦØ©": 8422,
      "anging": 8423,
      "ĠSpanish": 8424,
      "ĠØ¨ÙĨÙģØ³": 8425,
      "ifying": 8426,
      "Ġinvolve": 8427,
      "Ġtooth": 8428,
      "Ġchanging": 8429,
      "Ġhappen": 8430,
      "ĠØ§ÙĦØ£ÙħØ±ÙĬÙĥÙĬÙĬÙĨ": 8431,
      "CT": 8432,
      "ĠØ¬ÙĪ": 8433,
      "ÙĬÙĦÙĬ": 8434,
      "ĠDon": 8435,
      "ĠØªÙĤØ¹": 8436,
      "ĠMark": 8437,
      "Ø§ÙħÙĦØ©": 8438,
      "ĠØ§ÙĦØªØ¯ÙģÙĤ": 8439,
      "ĠNovember": 8440,
      "ĠÙĥÙĪØ¨": 8441,
      "ida": 8442,
      "ĠØ§ÙĦØ·ÙĦØ¨": 8443,
      "ĠÙĦÙħÙĨØ¹": 8444,
      "ĠØ§ÙĦØ´Ø±ÙĤ": 8445,
      "Ġisol": 8446,
      "Ġcomfort": 8447,
      "ĪØ§": 8448,
      "ij": 8449,
      "ĠØ±Ø¨Ø·": 8450,
      "Ġfields": 8451,
      "Ġinternet": 8452,
      "Ġdownload": 8453,
      "ĠØªØ°ÙĥØ±": 8454,
      "hetic": 8455,
      "ħØ¯Ø©": 8456,
      "ĠØ®ÙħØ³Ø©": 8457,
      "ĠÙģØ¹Ø§ÙĦ": 8458,
      "ĠØ§ÙĦØ£Ø¯Ø¨": 8459,
      "ĠØ®Ø·ÙĪØ©": 8460,
      "Ġsteel": 8461,
      "ĠØ£Ø¹ÙħØ§ÙĦ": 8462,
      "Ġther": 8463,
      "ÙĦØ³ÙĦ": 8464,
      "Ġsand": 8465,
      "Ġready": 8466,
      "ĠØ£Ø³Ø¨Ø§Ø¨": 8467,
      "ĠØ§Ø³ØªØ±": 8468,
      "ĠØ§ÙĦØ£Ø³Ø¨Ø§Ø¨": 8469,
      "Ġtreated": 8470,
      "Ø§Ø¨Ø³": 8471,
      "¬ØªÙħØ¹": 8472,
      "col": 8473,
      "ªØ±Ø§Ùģ": 8474,
      "Ġmotor": 8475,
      "However": 8476,
      "roy": 8477,
      "ĠÙħØªØ£": 8478,
      "ĠÙĬØ±ÙĬØ¯": 8479,
      "ĠØ§ÙĦØ±ÙĬØ§Ø¶ÙĬØ©": 8480,
      "iance": 8481,
      "ĠMac": 8482,
      "·ÙĪØ±": 8483,
      "rans": 8484,
      "ĠÙħØ³ØŃ": 8485,
      "ĠÙĪØªØ±": 8486,
      "ĠÙĪØŃØªÙī": 8487,
      "Ġideal": 8488,
      "urt": 8489,
      "ÙģÙĬÙģØ©": 8490,
      "Ġexperts": 8491,
      "Ġreferred": 8492,
      "Ġtrack": 8493,
      "Ġbusinesses": 8494,
      "Ġhappens": 8495,
      "ĠØ§ÙĦØ®Ø´Ø¨": 8496,
      "rick": 8497,
      "Ø¯Ø§ÙĦ": 8498,
      "key": 8499,
      "Ø¨ØºÙĬ": 8500,
      "Ġengineering": 8501,
      "ĪÙĬØ": 8502,
      "ĠÙĪØ°ÙĦÙĥ": 8503,
      "04": 8504,
      "Ġlandsc": 8505,
      "ĠÙĥØ§ÙĦÙĬÙģÙĪØ±ÙĨÙĬØ§": 8506,
      "ØªÙĨØ¯": 8507,
      "orith": 8508,
      "ØªØ±Ø§Ùģ": 8509,
      "%)": 8510,
      "ĠØ´ÙĩØ±": 8511,
      "ĠÙĬØªÙĥÙĪÙĨ": 8512,
      "Ġheavy": 8513,
      "ĠFood": 8514,
      "Ġdatab": 8515,
      "ĠØªÙĪØ³": 8516,
      "ĠÙħØ´Ø§Ø±ÙĥØ©": 8517,
      "ĠØ¨ØªÙ": 8518,
      "ĠBra": 8519,
      "nes": 8520,
      "Ġclasses": 8521,
      "omas": 8522,
      "ĠIts": 8523,
      "ĠAS": 8524,
      "Ġdiscussion": 8525,
      "ĠÙĤØ§Ø¯Ø±Ø©": 8526,
      "roid": 8527,
      "ĠØ§ÙĦÙħØ±ÙĬØ¶": 8528,
      "ĠØ§ÙĦØ¹ÙħÙĦÙĬØ§Øª": 8529,
      "Ġcand": 8530,
      "ĠÙĬØ¨ÙĦØº": 8531,
      "ÙĪØ§ÙĨÙĬØ©": 8532,
      "Ġhorm": 8533,
      "ĠØ²Ø±Ø§Ø¹Ø©": 8534,
      "ĠÙĦØ²": 8535,
      "ĠØ§ÙĦØ¯ÙĤÙĬÙĤØ©": 8536,
      "ĠSer": 8537,
      "efore": 8538,
      "ĠØ´Ø±ÙĤ": 8539,
      "ieties": 8540,
      "wards": 8541,
      "03": 8542,
      "Ġmag": 8543,
      "Ġparticipants": 8544,
      "Ġintroduced": 8545,
      "Ġappears": 8546,
      "Ġnarr": 8547,
      "Ġpolicies": 8548,
      "Ø§Ø±ÙĬØ±": 8549,
      "ĠGreen": 8550,
      "ĠØªØ®ØªÙĦÙģ": 8551,
      "\",": 8552,
      "ĠUN": 8553,
      "ĠØ³Ø£": 8554,
      "ĬÙħÙĩØ§": 8555,
      "ĠØªÙĪØµ": 8556,
      "ĠØ¨ÙĩÙħ": 8557,
      "ĠØ§ÙĦÙħØŃØªÙĪÙī": 8558,
      "86": 8559,
      "Ġindependent": 8560,
      "Ġwrote": 8561,
      "ĠThus": 8562,
      "ÙĪÙĬØ": 8563,
      "Ġcausing": 8564,
      "ĠÙħÙħØª": 8565,
      "Ġconcerns": 8566,
      "ĠØ¥Ø±Ø³Ø§ÙĦ": 8567,
      "ĠØªØ´Ø®ÙĬØµ": 8568,
      "Ġgene": 8569,
      "irus": 8570,
      "emy": 8571,
      "Ġfacts": 8572,
      "ĠVol": 8573,
      "aign": 8574,
      "Ġactual": 8575,
      "Ġflex": 8576,
      "Ø§ØªÙģ": 8577,
      "ĠFrance": 8578,
      "cking": 8579,
      "ĠØ¬Ø§Ø¡": 8580,
      "²Ø§Øª": 8581,
      "Ġrelease": 8582,
      "ĪÙĦØ¯": 8583,
      "ĠØ§ÙĦØªØŃÙĦÙĬÙĦ": 8584,
      "Ġconflict": 8585,
      "ÙĪÙĬØ¶": 8586,
      "ĠÙĪØ§Ø¶ØŃØ©": 8587,
      "Ġscen": 8588,
      "ĠØ§ÙĦØªÙĪØªØ±": 8589,
      "ĬÙĨØ§": 8590,
      "ĠSan": 8591,
      "Ġtransl": 8592,
      "otes": 8593,
      "Ġfeeling": 8594,
      "mp": 8595,
      "ÙĳÙİ": 8596,
      "Ġexactly": 8597,
      "ĠØ¨Ø³ÙĬØ·Ø©": 8598,
      "ĠØ§ÙĦØ£ÙĥØ³": 8599,
      "ĠIN": 8600,
      "ĠRem": 8601,
      "Ġseeds": 8602,
      "ĠØ¹Ø§Ø¦ÙĦØ©": 8603,
      "rant": 8604,
      "ĠØ£ÙĦÙħØ§": 8605,
      "ĠØ§ÙĦÙħÙĪØ¬ÙĪØ¯Ø©": 8606,
      "2017": 8607,
      "ĠØªØ®Ø²ÙĬÙĨ": 8608,
      "ÙĩÙĪ": 8609,
      "²ÙĬØ¯": 8610,
      "ĠÙĥÙĦØ": 8611,
      "Ġspring": 8612,
      "ĠØ§ÙĦÙħØªÙĥ": 8613,
      "ĠØ§ÙĦÙĤØ¯ÙĬÙħ": 8614,
      "ĠØ§ÙĦØ£Ø¯ÙĪØ§Øª": 8615,
      "ios": 8616,
      "ĠØ¨ÙĨÙĬØ©": 8617,
      "ĠElect": 8618,
      "aters": 8619,
      "Ġcitizens": 8620,
      "iant": 8621,
      "ĠCD": 8622,
      "ĠÙħØ±Ø¨Ø¹": 8623,
      "ĬÙĪØ³": 8624,
      "ĠÙĬØ¶Ø¹": 8625,
      "ĠPublic": 8626,
      "ĠØ§ÙĦÙĬÙĩÙĪØ¯": 8627,
      "Ġ32": 8628,
      "ĠØ§ÙĦØ£Ø±ÙĤØ§Ùħ": 8629,
      "board": 8630,
      "ĠØ§ÙĦØ§ÙĤØªØµØ§Ø¯ÙĬØ©": 8631,
      "ĠØ§ÙĦØ¹Ø¶ÙĦØ§Øª": 8632,
      "ĠÙĪÙĬØ": 8633,
      "Ġexcellent": 8634,
      "ĠÙĥÙĦØ§": 8635,
      "ĠØ¹Ø¶": 8636,
      "Ġallowing": 8637,
      "ĠØ§ÙĦØ¢Ø¨Ø§Ø¡": 8638,
      "ĠØ§ÙĦØ³ÙĪØ¯Ø§Ø¡": 8639,
      "Ġadvantage": 8640,
      "Ġsentence": 8641,
      "ĬØ§Ø¦ÙĬ": 8642,
      "ÙħØ±ÙĪØ±": 8643,
      "ĠØ§ÙĦØ£Ø¨ÙĬØ¶": 8644,
      "eters": 8645,
      "ĠØ§ÙĦØ¹ÙĦØ§ÙĤØ©": 8646,
      "ªÙĦÙģ": 8647,
      "Ġviolence": 8648,
      "Ġimproved": 8649,
      "Ġconsult": 8650,
      "Ø§Ø¨ÙĬØ¨": 8651,
      "ĠÙħÙĦØ": 8652,
      "ĠÙħØ±ÙĪØ±": 8653,
      "Ġdrive": 8654,
      "zing": 8655,
      "ĠÙł": 8656,
      "ĠØ³ØªÙĥ": 8657,
      "ĠInternet": 8658,
      "cript": 8659,
      "ĠÙħÙĪØ§ÙĤØ¹": 8660,
      "Ø¯ÙĪØ¯Ø©": 8661,
      "ĠØ§ÙĦÙħØ¬Ø§ÙĦ": 8662,
      "net": 8663,
      "Ġbodies": 8664,
      "Ġmainly": 8665,
      "ĠÙħØµØ·ÙĦØŃ": 8666,
      "Ġadvance": 8667,
      "Ġchapter": 8668,
      "ĠÙĥÙĦÙĬØ©": 8669,
      "asion": 8670,
      "·ÙĤ": 8671,
      "ĠÙģØ¨Ø±Ø§ÙĬØ±": 8672,
      "ĠØ§ÙĦØ·ÙĪÙĬÙĦ": 8673,
      "Ġauthors": 8674,
      "Ġsem": 8675,
      "ĠØ£ÙĩÙħ": 8676,
      "ĠØ§ÙĦØ¥Ø´Ø¹": 8677,
      "ĠØ§ÙĦØ¥Ù": 8678,
      "order": 8679,
      "Ġstream": 8680,
      "ÙģÙĬØ±": 8681,
      "ĠOb": 8682,
      "ĠØ§Ø³ØªÙĥØ´Ø§Ùģ": 8683,
      "ĠØ§ÙĦØ£ÙħÙĨ": 8684,
      "ĠÙĪØŃØ¯Ø©": 8685,
      "ÙħØ¯ÙĬØ±": 8686,
      "07": 8687,
      "Ġvitamin": 8688,
      "ĠØ§ÙĦÙħÙĤØ§Ù": 8689,
      "Ø±ÙĪØ©": 8690,
      "Ġunits": 8691,
      "olved": 8692,
      "ĠChurch": 8693,
      "Ġnav": 8694,
      "Ġapproximately": 8695,
      "Ġexcept": 8696,
      "Ġvul": 8697,
      "ĠØ¨ÙĬØ§ÙĨ": 8698,
      "ĠÙĪØ¬ÙĩØ©": 8699,
      "ĠØŃÙĤ": 8700,
      "§ÙĨØ¨Ø¹Ø§Ø«": 8701,
      "ĠÙĪØªÙģ": 8702,
      "Ġcompl": 8703,
      "Ġconclusion": 8704,
      "Ġoffice": 8705,
      "à¥": 8706,
      "Ġthick": 8707,
      "ĠØ§ÙĦØ£Ùħ": 8708,
      "ĠØ¨ÙħÙ": 8709,
      "ĠØºØ§": 8710,
      "ĠØ¯ÙĬÙģ": 8711,
      "Ġleads": 8712,
      "Ġsamples": 8713,
      "Ø±Ø§ÙĩÙĤ": 8714,
      "ags": 8715,
      "umin": 8716,
      "Ġlanguages": 8717,
      "ĠØ¥ÙĨØ¬ÙĦØªØ±Ø§": 8718,
      "ĠÙĩØ§Ø±": 8719,
      "Ġhousehold": 8720,
      "Ġpractical": 8721,
      "ĠÙģØ¹Ø§ÙĦÙĬØ©": 8722,
      "Ġlearned": 8723,
      "ĠØ§ÙĦÙģØªØ±Ø©": 8724,
      "06": 8725,
      "ĠØ²Ø": 8726,
      "umn": 8727,
      "§ÙĦØ§Ø±": 8728,
      "Ø¨ÙĬØª": 8729,
      "ĠØ³ÙĥØ§ÙĨ": 8730,
      "Ġriver": 8731,
      "ĠÙĦØµ": 8732,
      "Ġmanufacture": 8733,
      "Ġmi": 8734,
      "Ġexperienced": 8735,
      "Ġsituations": 8736,
      "ĠÙħØªØ¬": 8737,
      "Ġinterpret": 8738,
      "ÙĨØ³Ø§": 8739,
      "ĠØ§ÙĦÙģÙĪØ±": 8740,
      "Ġlib": 8741,
      "ya": 8742,
      "lies": 8743,
      "rows": 8744,
      "§ÙĪÙĬØ©": 8745,
      "ĠØ·ÙģÙĦ": 8746,
      "Ġplease": 8747,
      "Ø´Ø§Ø¡": 8748,
      "ĠØ¶ÙĪØ¡": 8749,
      "imal": 8750,
      "ishing": 8751,
      "ĠÙħÙĨØ¸": 8752,
      "ĠØ§ÙĦÙĪÙĦØ§Ø¯Ø©": 8753,
      "ĠØ³ÙĤ": 8754,
      "rating": 8755,
      "ĠÙħØ¯ÙĬØ±": 8756,
      "ĠÙħÙĤØ§ÙĪÙħØ©": 8757,
      "Ġpollution": 8758,
      "ĠCounty": 8759,
      "ĠØ¯Ø§": 8760,
      "ĠØ§ÙĦÙħØŃÙħÙ": 8761,
      "BS": 8762,
      "ĠØªÙĤÙĪÙĦ": 8763,
      "ĠØ§ÙĦØ³ÙĪ": 8764,
      "ĠProgram": 8765,
      "ĠÙĪØ§ÙĦØ¹ÙħÙĦ": 8766,
      "ĠÙĪØ£ÙĨ": 8767,
      "ĠØªØ±ØªÙĬØ¨": 8768,
      "Ġreligion": 8769,
      "²Ø§ÙĬØ§": 8770,
      "Ġtruth": 8771,
      "ĠOut": 8772,
      "ĠØ§ÙĦØ³ÙĨ": 8773,
      "ĠAir": 8774,
      "ĠØ§ÙĦØµÙĨØ§Ø¹ÙĬØ©": 8775,
      "ĠHuman": 8776,
      "ÙĥÙħÙĦÙ": 8777,
      "ĠCoun": 8778,
      "ĠChildren": 8779,
      "ÙĬÙĪØ¨": 8780,
      "ĠGeneral": 8781,
      "Ø§ØµÙĦ": 8782,
      "Ø±Ø§ÙĦÙĬØ§": 8783,
      "ĠÙĦÙħØ´": 8784,
      "Ġpun": 8785,
      "ĠBook": 8786,
      "ĠØ§ÙĦÙĥÙĦÙĬØ©": 8787,
      "Ġslight": 8788,
      "Ġbreast": 8789,
      "09": 8790,
      "aper": 8791,
      "Ġple": 8792,
      "ĠUnion": 8793,
      "ĠGreek": 8794,
      "ĠØŃØ§ÙĪÙĦ": 8795,
      "ĠØ¬ÙĪØ±Ø¬": 8796,
      "ĠMedic": 8797,
      "Ġfrequency": 8798,
      "ĠPM": 8799,
      "ĠØ§ÙĦÙħÙĨØ¸": 8800,
      "ĠØ§ÙĦÙħØ³ØªÙħØ±": 8801,
      "Ġfailure": 8802,
      "ĠØ§ÙĦØ³Ø§Ø¹Ø©": 8803,
      "ĠØ§ÙĦÙģØ±Ø¯ÙĬØ©": 8804,
      "ĠÙĨØ³Ø®Ø©": 8805,
      "**": 8806,
      "Ġ75": 8807,
      "ŃØ§Øª": 8808,
      "ĠØ£ÙģÙĥØ§Ø±": 8809,
      "ĠØªØ¬Ø§Ùĩ": 8810,
      "inf": 8811,
      "ÙĥÙĥ": 8812,
      "ĠIsrael": 8813,
      "ĠWestern": 8814,
      "ĠØ´Ø±ØŃ": 8815,
      "Ġfol": 8816,
      "ING": 8817,
      "name": 8818,
      "ĠØªØ¹ÙĨÙĬ": 8819,
      "estion": 8820,
      "Ġnutrients": 8821,
      "ĠØºØ±Ø¨": 8822,
      "Ø±Ø§ÙģÙĤ": 8823,
      "ĠWashington": 8824,
      "02": 8825,
      "ĠÙĬØ¹Ø¯": 8826,
      "¶ØŃ": 8827,
      "ĠØ§Ø³ØªÙħØ±": 8828,
      "Ø§Ø¨Ø§Ù": 8829,
      "ØªØ«ÙĨØ§Ø¡": 8830,
      "alysis": 8831,
      "Con": 8832,
      "ĠØ£Ùħ": 8833,
      "ĠÙĥÙģØ§Ø¡Ø©": 8834,
      "ĠØ§ÙĦØªØ·Ø¨ÙĬÙĤØ§Øª": 8835,
      "Ġinvestment": 8836,
      "ÙĪØªØ§": 8837,
      "ĠÙĪØªÙħ": 8838,
      "Ġliquid": 8839,
      "Ġpartners": 8840,
      "Ø§ÙħØ": 8841,
      "ĠØ¨Ø®": 8842,
      "Do": 8843,
      "ĠÙĪØ§ÙĦØ§Ø³": 8844,
      "Ġcognitive": 8845,
      "Ġdidn": 8846,
      "ĠØ£ÙĥØ³ÙĬØ¯": 8847,
      "Ġbelong": 8848,
      "Ġimmediately": 8849,
      "Ġthousands": 8850,
      "Ġformation": 8851,
      "ĠØ¨Ø´Ø£ÙĨ": 8852,
      "ĨÙĬÙĪ": 8853,
      "ĠØ§ÙĦØ£ÙģØ¶ÙĦ": 8854,
      "inn": 8855,
      "ously": 8856,
      "Ġcopy": 8857,
      "ĠØ§ÙĦÙĩÙĨØ¯Ø³Ø©": 8858,
      "ĠØ§ÙĦÙĨØ²": 8859,
      "ML": 8860,
      "ĠÙĦÙģØªØ±Ø©": 8861,
      "Ġdetermined": 8862,
      "ĠØ£ÙħØ«ÙĦØ©": 8863,
      "Ġprocedure": 8864,
      "ĠØ§ÙĦØªØ¬Ø§Ø±Ø©": 8865,
      "Ġunivers": 8866,
      "za": 8867,
      "ping": 8868,
      "ªÙĩØ¯Ùģ": 8869,
      "Ġoperation": 8870,
      "ĠSk": 8871,
      "Ø±Ø¨ÙĬ": 8872,
      "iling": 8873,
      "Ġreplace": 8874,
      "ava": 8875,
      "Ġdoi": 8876,
      "alle": 8877,
      "udd": 8878,
      "ĠØŃØ¯Ø¯": 8879,
      "Ġcareer": 8880,
      "ÙĪÙĬÙĤ": 8881,
      "Ø±ÙĪØ¨Ø§Øª": 8882,
      "ĠHy": 8883,
      "Ġconsists": 8884,
      "asive": 8885,
      "ĠPhil": 8886,
      "ĠÙģØ¦Ø©": 8887,
      "ias": 8888,
      "ĠSociety": 8889,
      "ework": 8890,
      "Ġaid": 8891,
      "gra": 8892,
      "ĠÙħØ³ØªØ¹": 8893,
      "Ġtrib": 8894,
      "Ġcontinued": 8895,
      "ĠÙħÙĨØªØµÙģ": 8896,
      "ĠÙĨÙģØ³Ùĥ": 8897,
      "Ġbeautiful": 8898,
      "Ġhyper": 8899,
      "ĬÙĨÙ": 8900,
      "Ġmel": 8901,
      "ÙĤØ³": 8902,
      "ÙĩØ¯Ùģ": 8903,
      "ĠØ§ÙĦØŃØ§ÙĦ": 8904,
      "ĠØ¹Ø§ÙħÙĦ": 8905,
      "Ġlung": 8906,
      "ĠÙĦØªØ¬": 8907,
      "ĠØ§ÙĦØ¯Ø±Ø¬Ø©": 8908,
      "ĠØªØ«": 8909,
      "ĠØ§ÙĦÙħØ¯ÙĨ": 8910,
      "tenance": 8911,
      "rich": 8912,
      "ndrome": 8913,
      "Ġgave": 8914,
      "Read": 8915,
      "ĠØ§ÙĦØŃØ´Ø±Ø§Øª": 8916,
      "§ÙĨØ¹": 8917,
      "Ġawareness": 8918,
      "Ġseven": 8919,
      "umber": 8920,
      "ĠCollege": 8921,
      "Ġchurch": 8922,
      "ĠØ§ÙĦÙħØ³Ø§ÙĪØ§Ø©": 8923,
      "Ġsuitable": 8924,
      "ĠMor": 8925,
      "ĠEgypt": 8926,
      "ÙĬÙĥØ": 8927,
      "ĠØ°Ù": 8928,
      "ĠØ§ÙĦÙģØµÙĪÙĦ": 8929,
      "Ø±Ø±Ø©": 8930,
      "ĠBas": 8931,
      "Ġencourage": 8932,
      "Ġfine": 8933,
      "ĠÙĦÙĦÙħØ±": 8934,
      "ĠØ¶ÙħØ§ÙĨ": 8935,
      "ĠÙģÙĬØ¯ÙĬÙĪ": 8936,
      "ĠPal": 8937,
      "ĠJapanese": 8938,
      "ĠØªÙĪØ²": 8939,
      "ĠÙĪØ§ÙĦÙħ": 8940,
      "ĠGet": 8941,
      "ĠÙĬÙĩ": 8942,
      "ĠÙĦØ¯Ø±": 8943,
      "ĠØ§ÙĦØªÙĨ": 8944,
      "Ø±ÙĪØ¯": 8945,
      "Ġtitle": 8946,
      "ĠØ§Ø³ØªØ´": 8947,
      "Ġidentity": 8948,
      "Ġcourt": 8949,
      "79": 8950,
      "ĠÙĤÙĪØ§Ø¹Ø¯": 8951,
      "§ÙĬÙĬÙĨ": 8952,
      "CE": 8953,
      "ĠÙĦÙĪØŃØ©": 8954,
      "Ġdie": 8955,
      "ÙĩÙĨ": 8956,
      "Ġhelping": 8957,
      "ĠØªØªØ¨Ø¹": 8958,
      "ĠÙĪØ³ÙĬÙĦØ©": 8959,
      "Ġoutcomes": 8960,
      "doi": 8961,
      "ĠØ´Ø¹Ø¨ÙĬØ©": 8962,
      "Ġvill": 8963,
      "ĠØ§ØŃØªÙĬØ§Ø¬Ø§Øª": 8964,
      "Ġfinding": 8965,
      "ĠØ§ÙĦØ§Ø³ØªÙĤ": 8966,
      "ams": 8967,
      "ĠØ§ÙĦØ°Ø§ØªÙĬØ©": 8968,
      "Ġplays": 8969,
      "Ġvaluable": 8970,
      "According": 8971,
      "Ø¹ÙĦÙī": 8972,
      "ĠÙħØ¹Ø§ÙĬÙĬØ±": 8973,
      "LE": 8974,
      "Ġperhaps": 8975,
      "Ġcomprehensive": 8976,
      "ĠÙĥØ¬": 8977,
      "Ġparagraph": 8978,
      "Ġanyone": 8979,
      "ĠMal": 8980,
      "ĠØ§ÙĦØ¥Ø¶": 8981,
      "Ġburn": 8982,
      "ictionary": 8983,
      "ĠØ§ÙĦØ®Ø¯ÙħØ§Øª": 8984,
      "ĠØ§ÙĦØ°Ø§ØªÙ": 8985,
      "ĠØ§ÙĦØ°Ø§ØªÙĬ": 8986,
      "ĠØ§ÙĦØ£ØŃÙħØ±": 8987,
      "ĠØ®ÙĬØ§Ø±": 8988,
      "ĠÙĪØº": 8989,
      "Ġgets": 8990,
      "ĨØªØ§Ø¬": 8991,
      "ĠØ§ÙĦÙħÙĥØ": 8992,
      "Ġsyn": 8993,
      "Ġmist": 8994,
      "Ġ186": 8995,
      "ĠØ§ÙĦØªÙĤØ¯Ùħ": 8996,
      "gl": 8997,
      "ĠØ§ÙĦÙħÙĩÙ": 8998,
      "Ø°ÙĨ": 8999,
[...]
